{"byte_pairs": {"__sow": 5, "__eow": 6, "##e": 7, "##n": 8, "##a": 9, "##i": 10, "##r": 11, "##t": 12, "##o": 13, "##en": 14, "##s": 15, "##l": 16, "##d": 17, "d": 18, "##g": 19, "##er": 20, "v": 21, "##an": 22, "##k": 23, "de": 24, "##u": 25, "##m": 26, "e": 27, "##et": 28, "##te": 29, "##de": 30, "##ie": 31, "h": 32, "##j": 33, "##el": 34, "##c": 35, "##ij": 36, "o": 37, "##p": 38, "i": 39, "##h": 40, "##or": 41, "##ge": 42, "m": 43, "he": 44, "##at": 45, "##aa": 46, "w": 47, "##in": 48, "##ng": 49, "##v": 50, "b": 51, "##nd": 52, "va": 53, "##ee": 54, "van": 55, ".": 56, "##le": 57, "t": 58, "a": 59, "##re": 60, "g": 61, "##oo": 62, "##st": 63, "##ar": 64, "##b": 65, ",": 66, "z": 67, "##ch": 68, "##it": 69, "##li": 70, "het": 71, "##ing": 72, "##ti": 73, "##oor": 74, "##ro": 75, "##oe": 76, "##es": 77, "##z": 78, "in": 79, "en": 80, "##f": 81, "ge": 82, "##ke": 83, "be": 84, "##rd": 85, "s": 86, "da": 87, "##w": 88, "n": 89, "vo": 90, "##ri": 91, "##nt": 92, "##me": 93, "##gen": 94, "##nde": 95, "##ve": 96, "##is": 97, "##ten": 98, "##den": 99, "##aar": 100, "te": 101, "ve": 102, "ee": 103, "voo": 104, "voor": 105, "##eg": 106, "##ra": 107, "##ei": 108, "##ns": 109, "een": 110, "##al": 111, "##ed": 112, "p": 113, "ver": 114, "##on": 115, "##id": 116, "di": 117, "dat": 118, "##om": 119, "##ne": 120, "##em": 121, "##ur": 122, "me": 123, "##se": 124, "##jk": 125, "##ijk": 126, "##men": 127, "we": 128, "##he": 129, "##der": 130, "##rs": 131, "k": 132, "##ig": 133, "##lij": 134, "##ere": 135, "r": 136, "op": 137, "##tie": 138, "##pe": 139, "##ht": 140, "##cht": 141, "##ste": 142, "##la": 143, "##ll": 144, "##ev": 145, "on": 146, "##eli": 147, "l": 148, "c": 149, "##jn": 150, "##ijn": 151, "##ta": 152, "##lijk": 153, "##ek": 154, "##and": 155, "##ers": 156, "##sc": 157, "##ni": 158, "##ord": 159, "is": 160, "##ze": 161, "zi": 162, "##rde": 163, "##nge": 164, "##ter": 165, "##mi": 166, "u": 167, "##ren": 168, "aa": 169, "##sch": 170, "##ss": 171, "aan": 172, "##eer": 173, "##tr": 174, "##eb": 175, "##di": 176, "##ent": 177, "##lle": 178, "al": 179, "##ver": 180, "##op": 181, "##ken": 182, "##we": 183, "##be": 184, "st": 185, "co": 186, "##nder": 187, "##len": 188, "mo": 189, "##ez": 190, "##ol": 191, "##ele": 192, "##ag": 193, "##eid": 194, "die": 195, "##elij": 196, "##elijk": 197, "##ens": 198, "##si": 199, "eu": 200, "##rk": 201, "##un": 202, "wa": 203, "wi": 204, "ma": 205, "zij": 206, "ik": 207, "##ec": 208, "om": 209, "ni": 210, "##ui": 211, "to": 212, "mi": 213, "##rt": 214, "##ot": 215, "##il": 216, "##ngen": 217, "##ou": 218, "##ati": 219, "wo": 220, "##ls": 221, "##end": 222, "##ic": 223, "##ege": 224, "##rop": 225, "##eme": 226, "nie": 227, "##ef": 228, "zo": 229, "##uro": 230, "##ede": 231, "re": 232, "##zi": 233, "##mm": 234, "wor": 235, "##nen": 236, "eur": 237, "word": 238, "euro": 239, "##erd": 240, "##na": 241, "met": 242, "##ak": 243, "zijn": 244, "##orde": 245, "##rg": 246, "##est": 247, "##og": 248, "##tel": 249, "##urop": 250, "##iet": 251, "##vo": 252, "##eu": 253, "europ": 254, "er": 255, "##am": 256, "##ld": 257, "##erk": 258, "##eren": 259, "##ha": 260, "##ds": 261, "##ang": 262, "##ct": 263, "##oet": 264, "ov": 265, "##ts": 266, "ove": 267, "##rden": 268, "over": 269, "##ete": 270, "##inge": 271, "##eze": 272, "##ope": 273, "##ven": 274, "##del": 275, "na": 276, "##nn": 277, "moe": 278, "##een": 279, "##ingen": 280, "niet": 281, "##aat": 282, "##rij": 283, "##iss": 284, "##eri": 285, "##rin": 286, "##da": 287, "do": 288, "##eve": 289, "##gi": 290, "##rz": 291, "##emen": 292, "##rm": 293, "##mis": 294, "##ft": 295, "##ad": 296, "##rl": 297, "##nte": 298, "##ok": 299, "ui": 300, "uit": 301, "##ite": 302, "pr": 303, "moet": 304, "##orden": 305, "##as": 306, "##lan": 307, "##ment": 308, "##tt": 309, "##mmi": 310, "##ich": 311, "##ma": 312, "oo": 313, "##rope": 314, "##ige": 315, "##urope": 316, "bi": 317, "##eel": 318, "##gel": 319, "europe": 320, "com": 321, "##atie": 322, "##llen": 323, "##ssi": 324, "##uw": 325, "##eke": 326, "##hei": 327, "##omm": 328, "##sl": 329, "hee": 330, "##ien": 331, "##kt": 332, "##heid": 333, "##lin": 334, "##gr": 335, "dit": 336, "##ande": 337, "##nne": 338, "##kk": 339, "ze": 340, "heb": 341, "##sie": 342, "f": 343, "##jke": 344, "##ijke": 345, "##lo": 346, "##ac": 347, "##pa": 348, "##ond": 349, "##nk": 350, "wij": 351, "##va": 352, "##ate": 353, "##ling": 354, "##eld": 355, "##ende": 356, "##hte": 357, "##chte": 358, "la": 359, "##dig": 360, "##sta": 361, "##us": 362, "##ru": 363, "##tte": 364, "##ik": 365, "worde": 366, "worden": 367, "##che": 368, "##ring": 369, "maa": 370, "comm": 371, "##sen": 372, "##0": 373, "##tre": 374, "##eft": 375, "pa": 376, "##ommi": 377, "##ep": 378, "##no": 379, "##-": 380, "##ap": 381, "##eten": 382, "##miss": 383, "dez": 384, "deze": 385, "##aan": 386, "##isc": 387, "ook": 388, "##od": 389, "##ese": 390, "no": 391, "##ame": 392, "##stel": 393, "ond": 394, "##mmis": 395, "##ommis": 396, "##mmiss": 397, "##ommiss": 398, "waa": 399, "##oc": 400, "waar": 401, "bes": 402, "##ga": 403, "##pr": 404, "##ul": 405, "##rst": 406, "commi": 407, "commis": 408, "commiss": 409, "##tu": 410, "##ech": 411, "##nnen": 412, "als": 413, "onde": 414, "##rb": 415, "##sche": 416, "onder": 417, "mij": 418, "##ssie": 419, "bel": 420, "##ci": 421, "ho": 422, "##kel": 423, "##to": 424, "##jd": 425, "gr": 426, "##wi": 427, "##ijd": 428, "##erin": 429, "##bb": 430, "##pes": 431, "##isch": 432, "ste": 433, "##bbe": 434, "##lem": 435, "##ko": 436, "##ale": 437, "bij": 438, "##eef": 439, "##opes": 440, "##ropes": 441, "##uropes": 442, "##pese": 443, "##opese": 444, "##ropese": 445, "##uropese": 446, "##eden": 447, "##lijke": 448, "##issi": 449, "##ben": 450, "europes": 451, "europese": 452, "##ki": 453, "##ebb": 454, "##ebbe": 455, "li": 456, "##bben": 457, "##ebben": 458, "##dt": 459, "pro": 460, "##rzi": 461, "hebb": 462, "hebbe": 463, "hebben": 464, "toe": 465, "##sp": 466, "##ela": 467, "##eeft": 468, "##ering": 469, "##rge": 470, "##gd": 471, "##io": 472, "##gs": 473, "##ement": 474, "wer": 475, "##issie": 476, "##rv": 477, "##nz": 478, "##icht": 479, "##missi": 480, "##missie": 481, "##pen": 482, "##kke": 483, "##ba": 484, "##echt": 485, "##cha": 486, "##ome": 487, "##nden": 488, "##nst": 489, "##ger": 490, "##ell": 491, "##orz": 492, "##oete": 493, "tot": 494, "j": 495, "##mmissi": 496, "##ommissi": 497, "all": 498, "##mmissie": 499, "##ommissie": 500, "##oeten": 501, "##nie": 502, "##ant": 503, "##deli": 504, "daa": 505, "bet": 506, "par": 507, "heef": 508, "heeft": 509, "##ier": 510, "##egen": 511, "moete": 512, "moeten": 513, "##oorz": 514, "alle": 515, "vers": 516, "ka": 517, "##ind": 518, "##dr": 519, "##ce": 520, "vr": 521, "##ud": 522, "commissi": 523, "commissie": 524, "##rle": 525, "##omen": 526, "##leme": 527, "ha": 528, "##lemen": 529, "##rn": 530, "##even": 531, "##sti": 532, "##bi": 533, "##ake": 534, "mijn": 535, "##aten": 536, "##ia": 537, "##nh": 538, "##orzi": 539, "##oorzi": 540, "daar": 541, "sta": 542, "##itt": 543, "##eit": 544, "##tw": 545, "doo": 546, "##taa": 547, "##ids": 548, "maar": 549, "##\u00eb": 550, "wil": 551, "##ho": 552, "##iti": 553, "lan": 554, "##dere": 555, "##aal": 556, "##ard": 557, "##nse": 558, "geb": 559, "##elen": 560, "##sla": 561, "door": 562, "##oord": 563, "##itte": 564, "-": 565, "##min": 566, "##tter": 567, "voorz": 568, "##eni": 569, "voorzi": 570, "##oed": 571, "##raa": 572, "##ach": 573, "##kin": 574, "##ische": 575, "##rste": 576, "##sse": 577, "##king": 578, "##elin": 579, "##fe": 580, "##zit": 581, "##ari": 582, "##ngs": 583, "##uit": 584, "##eling": 585, "##ouw": 586, "##zitt": 587, "##cti": 588, "con": 589, "##os": 590, "##rzit": 591, "##orzit": 592, "##oorzit": 593, "##itter": 594, "##lang": 595, "##erde": 596, "##rzitt": 597, "##orzitt": 598, "##oorzitt": 599, "##zitte": 600, "##zo": 601, "gro": 602, "##eken": 603, "##nc": 604, "##acht": 605, "##rzitte": 606, "##orzitte": 607, "##oorzitte": 608, "##zitter": 609, "##rzitter": 610, "##orzitter": 611, "##oorzitter": 612, "##elijke": 613, "za": 614, "bela": 615, "##tell": 616, "##ran": 617, "##gin": 618, "##scha": 619, "##tat": 620, "##br": 621, "##ew": 622, "ra": 623, "##lement": 624, "##tin": 625, "##elan": 626, "##etr": 627, "##lu": 628, "##ies": 629, "mee": 630, "voorzit": 631, "##ene": 632, "voorzitt": 633, "voorzitte": 634, "voorzitter": 635, "##eh": 636, "##este": 637, "ec": 638, "##ort": 639, "##kom": 640, "##arl": 641, "ku": 642, "##oud": 643, "##wa": 644, "##nin": 645, "##evo": 646, "##co": 647, "##lei": 648, "##keli": 649, "##ntw": 650, "##lg": 651, "le": 652, "##nhe": 653, "##erst": 654, "##rw": 655, "gev": 656, "ko": 657, "##erg": 658, "##rdt": 659, "hu": 660, "kun": 661, "##pp": 662, "##ordt": 663, "##tei": 664, "##ide": 665, "##elang": 666, "##vi": 667, "##str": 668, "##gev": 669, "wordt": 670, "men": 671, "##ist": 672, "##aard": 673, "af": 674, "belan": 675, "##ili": 676, "belang": 677, "##itei": 678, "##unn": 679, "##hap": 680, "##chap": 681, "##ut": 682, "##age": 683, "##lt": 684, "##eerd": 685, "##ting": 686, "##ning": 687, "##schap": 688, "dan": 689, "ont": 690, "an": 691, "##orm": 692, "##ree": 693, "##nti": 694, "##lag": 695, "land": 696, "##uc": 697, "##arle": 698, "##unne": 699, "##du": 700, "##rlem": 701, "##arlem": 702, "##rleme": 703, "##arleme": 704, "##rlemen": 705, "##arlemen": 706, "##rlement": 707, "##arlement": 708, "##ieu": 709, "##unnen": 710, "parl": 711, "parle": 712, "parlem": 713, "parleme": 714, "parlemen": 715, "parlement": 716, "##rh": 717, "##ings": 718, "kunn": 719, "kunne": 720, "kunnen": 721, "##hee": 722, "##rat": 723, "##tg": 724, "##ern": 725, "un": 726, "vol": 727, "##org": 728, "hi": 729, "##aag": 730, "##teit": 731, "##ert": 732, "##egi": 733, "##ect": 734, "##ente": 735, "##so": 736, "##wer": 737, "##era": 738, "##nze": 739, "##hi": 740, "##oge": 741, "##sa": 742, "##iteit": 743, "##leg": 744, "uni": 745, "##ctie": 746, "du": 747, "##ees": 748, "##nom": 749, "##din": 750, "##uwe": 751, "kan": 752, "##ange": 753, "##onde": 754, "##geli": 755, "##oen": 756, "gel": 757, "##delij": 758, "##delijk": 759, "##amen": 760, "##iek": 761, "##ming": 762, "##oer": 763, "##i\u00eb": 764, "ga": 765, "##rke": 766, "vi": 767, "##ov": 768, "##slag": 769, "##ms": 770, "##erh": 771, "##tate": 772, "##edi": 773, "##aad": 774, "##ea": 775, "werk": 776, "##za": 777, "##dst": 778, "##rag": 779, "ter": 780, "##ssen": 781, "unie": 782, "zou": 783, "##ude": 784, "##rsc": 785, "##nten": 786, "##ion": 787, "##hten": 788, "##chten": 789, "##wo": 790, "##nis": 791, "reg": 792, "##mo": 793, "##pl": 794, "##rsch": 795, "##erw": 796, "##nv": 797, "##bo": 798, "##rei": 799, "##ali": 800, "##rek": 801, "##lk": 802, "##oek": 803, "##taten": 804, "##ff": 805, "##heer": 806, "##inde": 807, "##erl": 808, "##teu": 809, "betr": 810, "##lee": 811, "##lit": 812, "##nl": 813, "(": 814, "##itie": 815, "bu": 816, "##egel": 817, "##tig": 818, "##ris": 819, ")": 820, "of": 821, "##etre": 822, "##eur": 823, "##voe": 824, "##ill": 825, "##art": 826, "##tee": 827, "##erm": 828, "##ging": 829, "##ndel": 830, "sp": 831, "sc": 832, "##ding": 833, "##anden": 834, "##stell": 835, "##gelij": 836, "##aro": 837, "##gelijk": 838, "##leid": 839, "2": 840, "##app": 841, "##ast": 842, "doe": 843, "##aken": 844, "##esc": 845, "##erz": 846, "##rte": 847, "##han": 848, "##ied": 849, "##ndere": 850, "##ndi": 851, "##erb": 852, "##je": 853, "sch": 854, "##esch": 855, "po": 856, "##gri": 857, "##ks": 858, "wat": 859, "lid": 860, "##rr": 861, "##ker": 862, "##aaro": 863, "##mee": 864, "so": 865, "##aak": 866, "naa": 867, "##pro": 868, "##ats": 869, "##md": 870, "##lge": 871, "##rot": 872, "##tem": 873, "##mst": 874, "##nw": 875, "##uu": 876, "##im": 877, "##lli": 878, "##tan": 879, "##rsl": 880, "ons": 881, "##dd": 882, "##ank": 883, "int": 884, "nog": 885, "zal": 886, "##chi": 887, "##ron": 888, "##erv": 889, "##land": 890, "##sten": 891, "gee": 892, "##aats": 893, "meer": 894, "##idst": 895, "##ties": 896, "##rijk": 897, "##igen": 898, "##tge": 899, "##ersl": 900, "##of": 901, "and": 902, "onz": 903, "##rme": 904, "##rsla": 905, "##tio": 906, "##rou": 907, "##ille": 908, "##zen": 909, "##tion": 910, "onze": 911, "go": 912, "##ersc": 913, "ande": 914, "##iten": 915, "##rslag": 916, "ander": 917, "ges": 918, "##ersch": 919, "##nhee": 920, "pl": 921, "##ersla": 922, "##mer": 923, "##nda": 924, "##dsta": 925, "##stat": 926, "##jnh": 927, "##ijnh": 928, "##rouw": 929, "##jnhe": 930, "##ijnhe": 931, "##erke": 932, "##rec": 933, "##nheer": 934, "##jnhee": 935, "##jnheer": 936, "##ijnhee": 937, "##ijnheer": 938, "##enk": 939, "mijnh": 940, "mijnhe": 941, "mijnhee": 942, "mijnheer": 943, "##tra": 944, "##ade": 945, "##enin": 946, "##ner": 947, "##erslag": 948, "##idsta": 949, "##po": 950, "inte": 951, "##oude": 952, "##grij": 953, "##nke": 954, "##y": 955, "##els": 956, "##ans": 957, "##ening": 958, "naar": 959, "##um": 960, "##ors": 961, "##oms": 962, "##linge": 963, "##rac": 964, "##omi": 965, "##rbe": 966, "##ote": 967, "##ove": 968, "##ntie": 969, "##dige": 970, "##eno": 971, "##zie": 972, "##ob": 973, "##oel": 974, "##dde": 975, "versl": 976, "##rki": 977, "teg": 978, "##elei": 979, "##au": 980, "tege": 981, "##maa": 982, "betre": 983, "##gg": 984, "##jz": 985, "##illen": 986, "##laa": 987, "##ezi": 988, "##ense": 989, "##ijz": 990, "##ina": 991, "##kkel": 992, "##uden": 993, "##euw": 994, "##ngr": 995, "##state": 996, "rec": 997, "versla": 998, "lids": 999, "lidst": 1000, "lidsta": 1001, "##rom": 1002, "##tro": 1003, "ne": 1004, "##olg": 1005, "verslag": 1006, "##bl": 1007, "##eleid": 1008, "##rui": 1009, "##uid": 1010, "##ikk": 1011, "##lingen": 1012, "ja": 1013, "##ona": 1014, "##elle": 1015, "##con": 1016, "##nter": 1017, "zic": 1018, "zich": 1019, "ben": 1020, "##schi": 1021, "##rdi": 1022, "raa": 1023, "##ffe": 1024, "##ouden": 1025, "##00": 1026, "##nal": 1027, "nu": 1028, "##agen": 1029, "goe": 1030, "##tij": 1031, "##hter": 1032, "##uur": 1033, "##chter": 1034, "her": 1035, "##rvo": 1036, "goed": 1037, "##ebr": 1038, "##are": 1039, "##gh": 1040, "##staten": 1041, "##omst": 1042, "verd": 1043, "##do": 1044, "beg": 1045, "##mente": 1046, "##andel": 1047, "raad": 1048, "##lf": 1049, "geen": 1050, "best": 1051, "gez": 1052, "##eva": 1053, "##zien": 1054, "##dstat": 1055, "##ieuw": 1056, "##dstate": 1057, "##dstaten": 1058, "##dra": 1059, "##idstat": 1060, "##idstate": 1061, "##idstaten": 1062, "##eed": 1063, "##ir": 1064, "##als": 1065, "##nsen": 1066, "##rmi": 1067, "sa": 1068, "##erste": 1069, "hie": 1070, "##onder": 1071, "##elli": 1072, "##taat": 1073, "str": 1074, "##ngri": 1075, "##ngrij": 1076, "##ure": 1077, "##dat": 1078, "##wij": 1079, "##raag": 1080, "##rder": 1081, "hier": 1082, "##iev": 1083, "##twi": 1084, "##iona": 1085, "##koms": 1086, "##komst": 1087, "##rati": 1088, "##ikke": 1089, "##oors": 1090, "##spr": 1091, "ten": 1092, "wel": 1093, "ontw": 1094, "gaa": 1095, "##oeg": 1096, "##voo": 1097, "##voor": 1098, "##fi": 1099, "##gele": 1100, "##iv": 1101, "##ega": 1102, "##angr": 1103, "##vr": 1104, "##roe": 1105, "##angri": 1106, "##angrij": 1107, "gem": 1108, "##tv": 1109, "##lde": 1110, "lidstat": 1111, "lidstate": 1112, "lidstaten": 1113, "ac": 1114, "##bie": 1115, "##kelij": 1116, "##kelijk": 1117, "##rkt": 1118, "##grijk": 1119, "##ngrijk": 1120, "##tis": 1121, "##angrijk": 1122, "##erki": 1123, "##ani": 1124, "##opa": 1125, "##nste": 1126, "##uss": 1127, "##woo": 1128, "##ai": 1129, "##cr": 1130, "##ropa": 1131, "##pee": 1132, "##wee": 1133, "##daa": 1134, "hun": 1135, "mens": 1136, "##oli": 1137, "zu": 1138, "##idd": 1139, "##langr": 1140, "##elangr": 1141, "##langri": 1142, "##elangri": 1143, "##langrij": 1144, "##elangrij": 1145, "##langrijk": 1146, "##elangrijk": 1147, "##enl": 1148, "##kken": 1149, "##uropa": 1150, "##sm": 1151, "##ema": 1152, "##rp": 1153, "belangr": 1154, "belangri": 1155, "belangrij": 1156, "belangrijk": 1157, "##ellen": 1158, "##van": 1159, "##rstel": 1160, "##echte": 1161, "##gt": 1162, "##idi": 1163, "##igd": 1164, "tegen": 1165, "##pel": 1166, "sl": 1167, "##tand": 1168, "##tal": 1169, "##idde": 1170, "rech": 1171, "##igh": 1172, "##gge": 1173, "recht": 1174, "##enti": 1175, "##rit": 1176, "##tor": 1177, "##ghe": 1178, "##vol": 1179, "##ppe": 1180, "##lig": 1181, "##werk": 1182, "##egr": 1183, "##ori": 1184, "20": 1185, "##lie": 1186, "##voer": 1187, "##elf": 1188, "##ewe": 1189, "##enen": 1190, "##eree": 1191, "##ikkel": 1192, "##rie": 1193, "europa": 1194, "##tere": 1195, "##tst": 1196, "ins": 1197, "##ka": 1198, "ei": 1199, "##ieve": 1200, "##unt": 1201, "##nds": 1202, "##uk": 1203, "##telle": 1204, "##rli": 1205, "##eun": 1206, "##bied": 1207, "##ensen": 1208, "##gie": 1209, "ech": 1210, "ti": 1211, "##wik": 1212, "mog": 1213, "moge": 1214, "##lis": 1215, "##enw": 1216, "##orst": 1217, "##ssa": 1218, "##teun": 1219, "##ighe": 1220, "##esl": 1221, "##orge": 1222, "##wikk": 1223, "##wikke": 1224, "echt": 1225, "##wikkel": 1226, "eer": 1227, "ri": 1228, "##ono": 1229, "##vin": 1230, "inter": 1231, "mense": 1232, "##ull": 1233, "##ero": 1234, "##atio": 1235, "##gra": 1236, "##ation": 1237, "##oorst": 1238, "##ntwi": 1239, "nam": 1240, "##rech": 1241, "##reg": 1242, "##recht": 1243, "voors": 1244, "##tellen": 1245, "##one": 1246, ":": 1247, "##telli": 1248, "##eng": 1249, "##oorde": 1250, "##llin": 1251, "##nem": 1252, "##oa": 1253, "##lling": 1254, "##teg": 1255, "##gan": 1256, "tu": 1257, "##sel": 1258, "##mp": 1259, "bl": 1260, "ba": 1261, "##ont": 1262, "##ges": 1263, "##eens": 1264, "##staa": 1265, "name": 1266, "##ster": 1267, "##twik": 1268, "##twikk": 1269, "##ntwik": 1270, "##ntwikk": 1271, "##twikke": 1272, "##ntwikke": 1273, "##twikkel": 1274, "##ntwikkel": 1275, "##tiona": 1276, "##die": 1277, "pla": 1278, "andere": 1279, "##roc": 1280, "##epa": 1281, "##kkeli": 1282, "##drag": 1283, "##opee": 1284, "##oll": 1285, "bev": 1286, "##ropee": 1287, "##uropee": 1288, "##act": 1289, "##pees": 1290, "##opees": 1291, "##ropees": 1292, "##uropees": 1293, "1": 1294, "##erp": 1295, "br": 1296, "##oce": 1297, "europee": 1298, "europees": 1299, "##enten": 1300, "tw": 1301, "##woor": 1302, "##woord": 1303, "##fen": 1304, "##roce": 1305, "besc": 1306, "besch": 1307, "##ulle": 1308, "wet": 1309, "aang": 1310, "##ullen": 1311, "bo": 1312, "##af": 1313, "##egg": 1314, "##if": 1315, "kom": 1316, "##jv": 1317, "##anc": 1318, "##ationa": 1319, "##ekk": 1320, "verb": 1321, "##rkin": 1322, "##stelli": 1323, "##red": 1324, "##esti": 1325, "##onom": 1326, "##ellin": 1327, "##tisc": 1328, "##tisch": 1329, "##elling": 1330, "##rti": 1331, "##vere": 1332, "zul": 1333, "##rking": 1334, "##nta": 1335, "nieu": 1336, "nieuw": 1337, "##ijv": 1338, "##erkin": 1339, "##erking": 1340, "##tri": 1341, "vra": 1342, "##olge": 1343, "##orste": 1344, "##akt": 1345, "##orstel": 1346, "##nomi": 1347, "##reen": 1348, "##arom": 1349, "##onomi": 1350, "##hou": 1351, "##ial": 1352, "##oorste": 1353, "mensen": 1354, "##nsc": 1355, "##oorstel": 1356, "##oal": 1357, "##rob": 1358, "##ddel": 1359, "##tellin": 1360, "##telling": 1361, "sam": 1362, "ontwi": 1363, "##aarom": 1364, "##eids": 1365, "##rage": 1366, "rege": 1367, "##nig": 1368, "ontwik": 1369, "ontwikk": 1370, "ontwikke": 1371, "ontwikkel": 1372, "##nci": 1373, "voorst": 1374, "##ereen": 1375, "same": 1376, "bed": 1377, "samen": 1378, "kr": 1379, "##cono": 1380, "##zon": 1381, "gew": 1382, "##conom": 1383, "##iddel": 1384, "beh": 1385, "##olle": 1386, "##ein": 1387, "##conomi": 1388, "lande": 1389, "##su": 1390, "##oals": 1391, "zoa": 1392, "zoal": 1393, "##evr": 1394, "zoals": 1395, "##tern": 1396, "##onal": 1397, "##its": 1398, "##stellin": 1399, "##stelling": 1400, "##lgen": 1401, "##ders": 1402, "##nsch": 1403, "##ieke": 1404, "landen": 1405, "##oep": 1406, "##ional": 1407, "##ann": 1408, "##hand": 1409, "##tiev": 1410, "##kh": 1411, "##sin": 1412, "##ebi": 1413, "##egd": 1414, "##inn": 1415, "##gro": 1416, "##rne": 1417, "##rva": 1418, "##eko": 1419, "##ebie": 1420, "##ebied": 1421, "tr": 1422, "dr": 1423, "##rege": 1424, "eco": 1425, "##eil": 1426, "staa": 1427, "##cia": 1428, "##olgen": 1429, "pe": 1430, "##pt": 1431, "nat": 1432, "##pre": 1433, "##rken": 1434, "##eem": 1435, "kw": 1436, "##ggen": 1437, "##jde": 1438, "##nwe": 1439, "##ijde": 1440, "##meen": 1441, "##ise": 1442, "mil": 1443, "aange": 1444, "##tieve": 1445, "##ett": 1446, "##entie": 1447, "##tiek": 1448, "##emee": 1449, "gebr": 1450, "##ader": 1451, "ar": 1452, "##x": 1453, "##hed": 1454, "##nale": 1455, "##stan": 1456, "##dele": 1457, "ro": 1458, "##echten": 1459, "##hede": 1460, "##heden": 1461, "##usse": 1462, "##ensc": 1463, "##rdig": 1464, "##khe": 1465, "##ref": 1466, "##ua": 1467, "##emeen": 1468, "##urg": 1469, "##rga": 1470, "##vaa": 1471, "##jkh": 1472, "##ijkh": 1473, "##jkhe": 1474, "##ijkhe": 1475, "##rmin": 1476, "##ogel": 1477, "##lijkh": 1478, "##lijkhe": 1479, "##rhe": 1480, "##ral": 1481, "##nee": 1482, "##evi": 1483, "##res": 1484, "##nan": 1485, "##ntr": 1486, "##lic": 1487, "##vaar": 1488, "##rna": 1489, "##eili": 1490, "##tuu": 1491, "##appe": 1492, "voorste": 1493, "##nscha": 1494, "##ensch": 1495, "fi": 1496, "bur": 1497, "voorstel": 1498, "echte": 1499, "zull": 1500, "zulle": 1501, "zullen": 1502, "##ringe": 1503, "##uct": 1504, "##nf": 1505, "##hr": 1506, "##wel": 1507, "##enst": 1508, "econ": 1509, "econo": 1510, "##leen": 1511, "##ogeli": 1512, "##ogelij": 1513, "##ogelijk": 1514, "econom": 1515, "daaro": 1516, "##taan": 1517, "##rond": 1518, "economi": 1519, "##ser": 1520, "##happ": 1521, "##chapp": 1522, "dui": 1523, "##schapp": 1524, "tij": 1525, "hoo": 1526, "##anda": 1527, "will": 1528, "##roo": 1529, "##rote": 1530, "##ab": 1531, "##val": 1532, "tijd": 1533, "##ringen": 1534, "##deri": 1535, "wille": 1536, "##ghei": 1537, "##gheid": 1538, "##delen": 1539, "##omis": 1540, "##onale": 1541, "##zond": 1542, "##hti": 1543, "##nschap": 1544, "##llee": 1545, "##ermi": 1546, "vee": 1547, "##ighei": 1548, "##igheid": 1549, "##enscha": 1550, "##mt": 1551, "##itg": 1552, "##ionale": 1553, "gen": 1554, "##enschap": 1555, "##cu": 1556, "prob": 1557, "##sb": 1558, "##chti": 1559, "##rekk": 1560, "bli": 1561, "##jf": 1562, "##ijf": 1563, "##ini": 1564, "##deren": 1565, "##euwe": 1566, "##ble": 1567, "##wen": 1568, "##inne": 1569, "##trek": 1570, "##eder": 1571, "##eter": 1572, "##issa": 1573, "##air": 1574, "willen": 1575, "##nat": 1576, "##epe": 1577, "##rzo": 1578, "##derin": 1579, "##laat": 1580, "##erei": 1581, "##dh": 1582, "##dering": 1583, "##rgen": 1584, "pol": 1585, "##rlij": 1586, "##nb": 1587, "##kki": 1588, "##ikkeli": 1589, "ber": 1590, "##menten": 1591, "##arin": 1592, "##ire": 1593, "##ieuwe": 1594, "am": 1595, "##erne": 1596, "##lui": 1597, "##hande": 1598, "##elijkh": 1599, "##elijkhe": 1600, "##cte": 1601, "ie": 1602, "##bel": 1603, "##uite": 1604, "##teli": 1605, "##tuur": 1606, "##rger": 1607, "##tten": 1608, "##\u00ebl": 1609, "##kelin": 1610, "##keling": 1611, "##ratie": 1612, "blij": 1613, "hoe": 1614, "##ussen": 1615, "twe": 1616, "twee": 1617, "inst": 1618, "##regel": 1619, "##lleen": 1620, "allee": 1621, "alleen": 1622, "##eho": 1623, "##uiten": 1624, "##teld": 1625, "##ving": 1626, "##egge": 1627, "jaa": 1628, "##dee": 1629, "##erzo": 1630, "##zoe": 1631, "##edr": 1632, "##nati": 1633, "jaar": 1634, "##eran": 1635, "##uide": 1636, "##houd": 1637, "nieuwe": 1638, "##eds": 1639, "##nko": 1640, "##eide": 1641, "##tional": 1642, "##kkelin": 1643, "##kkeling": 1644, "##wikkeli": 1645, "##ikkelin": 1646, "##ikkeling": 1647, "##wikkelin": 1648, "##wikkeling": 1649, "##por": 1650, "##fg": 1651, "##iste": 1652, "##liti": 1653, "##tref": 1654, "##twikkeli": 1655, "##twikkelin": 1656, "##twikkeling": 1657, "##ntwikkeli": 1658, "##ntwikkelin": 1659, "##ntwikkeling": 1660, "200": 1661, "##rlijk": 1662, "##gers": 1663, "##estel": 1664, "##uik": 1665, "##nanc": 1666, "##esta": 1667, "##handel": 1668, "##anci": 1669, "han": 1670, "##delin": 1671, "##deling": 1672, "##idel": 1673, "##urge": 1674, "##olit": 1675, "##enh": 1676, "##rel": 1677, "##ational": 1678, "##nli": 1679, "##laats": 1680, "veel": 1681, "echter": 1682, "##waa": 1683, "##ark": 1684, "##ideli": 1685, "##idelij": 1686, "##idelijk": 1687, "##oliti": 1688, "##bru": 1689, "##geve": 1690, "##inan": 1691, "##tl": 1692, "##rant": 1693, "##emm": 1694, "?": 1695, "##ffen": 1696, "##her": 1697, "##gend": 1698, "ged": 1699, "mogel": 1700, "mogeli": 1701, "mogelij": 1702, "mogelijk": 1703, "doel": 1704, "##esp": 1705, "##inanc": 1706, "##nanci": 1707, "##inanci": 1708, "##ntern": 1709, "si": 1710, "##ug": 1711, "##zoek": 1712, "##ief": 1713, "##fd": 1714, "intern": 1715, "##erder": 1716, "##sing": 1717, "##chr": 1718, "##eleg": 1719, "##rwe": 1720, "##ber": 1721, "##emo": 1722, "##urger": 1723, "##evin": 1724, "##ije": 1725, "mak": 1726, "##per": 1727, "##elo": 1728, "daarom": 1729, "##kkin": 1730, "##kking": 1731, "##eggen": 1732, "##ara": 1733, "##obl": 1734, "##err": 1735, "##nlij": 1736, "res": 1737, "per": 1738, "poli": 1739, "##cen": 1740, "##ust": 1741, "##erge": 1742, "##arde": 1743, "##'": 1744, "##oble": 1745, "##robl": 1746, "polit": 1747, "##roble": 1748, "tus": 1749, "tuss": 1750, "tusse": 1751, "tussen": 1752, "bep": 1753, "##ervo": 1754, "##evol": 1755, "##ragen": 1756, "##pec": 1757, "politi": 1758, "##nlijk": 1759, "##ndeli": 1760, "##nkel": 1761, "##ruik": 1762, "##nome": 1763, "##uidel": 1764, "##misc": 1765, "##uideli": 1766, "##misch": 1767, "##uidelij": 1768, "##uidelijk": 1769, "##steld": 1770, "verk": 1771, "##dien": 1772, "##enge": 1773, "ju": 1774, "make": 1775, "##ons": 1776, "##orte": 1777, "maken": 1778, "##tb": 1779, "##fo": 1780, "heer": 1781, "##gde": 1782, "##itiek": 1783, "##luit": 1784, "##ume": 1785, "##tru": 1786, "##rming": 1787, "ontwikkeli": 1788, "ontwikkelin": 1789, "ontwikkeling": 1790, "steu": 1791, "steun": 1792, "##brui": 1793, "##bruik": 1794, "##litie": 1795, "##eba": 1796, "fr": 1797, "##loo": 1798, "##ena": 1799, "##ler": 1800, "fin": 1801, "el": 1802, "##fs": 1803, "##odi": 1804, "##oort": 1805, "##vro": 1806, "##nomen": 1807, "##port": 1808, "min": 1809, "geme": 1810, "##rach": 1811, "##ins": 1812, "##happe": 1813, "##chappe": 1814, "##ouwe": 1815, "burg": 1816, "##rre": 1817, "##erhe": 1818, "##schappe": 1819, "##ette": 1820, "##racht": 1821, "zee": 1822, "##trekk": 1823, "burge": 1824, "##stig": 1825, "##esteld": 1826, "dien": 1827, "##umen": 1828, "##tionale": 1829, "##ationale": 1830, "##aris": 1831, "hand": 1832, "##olitie": 1833, "vor": 1834, "##ument": 1835, "##mat": 1836, "geh": 1837, "afg": 1838, "burger": 1839, "##rite": 1840, "##rdel": 1841, "##telij": 1842, "##sis": 1843, "##telijk": 1844, "##mend": 1845, "vri": 1846, "mid": 1847, "ev": 1848, "##ass": 1849, "##rzoe": 1850, "##acti": 1851, "##temm": 1852, "##erzoe": 1853, "##edig": 1854, "##cent": 1855, "midd": 1856, "##vrou": 1857, "##vrouw": 1858, "verw": 1859, "geva": 1860, "##evro": 1861, "##innen": 1862, "##nkom": 1863, "ric": 1864, "##aren": 1865, "midde": 1866, "##meens": 1867, "##teren": 1868, "##ike": 1869, "##led": 1870, "rich": 1871, "##over": 1872, "##evrou": 1873, "##evrouw": 1874, "mev": 1875, "mevr": 1876, "mevro": 1877, "mevrou": 1878, "mevrouw": 1879, "##emeens": 1880, "richt": 1881, "##eerde": 1882, "##tische": 1883, "ke": 1884, "hel": 1885, "##bre": 1886, "##hts": 1887, "kl": 1888, "##chts": 1889, "##ci\u00eb": 1890, "mar": 1891, "##oci": 1892, "##ssin": 1893, "stel": 1894, "##igi": 1895, "##sv": 1896, "##two": 1897, "##js": 1898, "##vor": 1899, "##naa": 1900, "##uwen": 1901, "##ssing": 1902, "##neme": 1903, "##arkt": 1904, "##baa": 1905, "##mende": 1906, "##\u00eble": 1907, "##waar": 1908, "politie": 1909, "##eving": 1910, "##ine": 1911, "##rzoek": 1912, "##rbi": 1913, "maat": 1914, "##erzoek": 1915, "##egin": 1916, "##enom": 1917, "fina": 1918, "##inder": 1919, "##eite": 1920, "##ebru": 1921, "eers": 1922, "eerst": 1923, "##rvan": 1924, "finan": 1925, "##rak": 1926, "financ": 1927, "##eensc": 1928, "##eensch": 1929, "##eenscha": 1930, "gemee": 1931, "gemeen": 1932, "##mb": 1933, "financi": 1934, "##stem": 1935, "##meensc": 1936, "##meensch": 1937, "##meenscha": 1938, "##eenschap": 1939, "##meenschap": 1940, "##emeensc": 1941, "##emeensch": 1942, "##emeenscha": 1943, "##emeenschap": 1944, "probl": 1945, "proble": 1946, "cr": 1947, "##omisc": 1948, "##jden": 1949, "##ijden": 1950, "##nomis": 1951, "gevo": 1952, "##onomis": 1953, "##omisch": 1954, "##orgen": 1955, "##mu": 1956, "##enome": 1957, "##nomisc": 1958, "##nomisch": 1959, "##onomisc": 1960, "##onomisch": 1961, "##uis": 1962, "##tai": 1963, "##veree": 1964, "##vereen": 1965, "##oede": 1966, "##ore": 1967, "##conomis": 1968, "##ntwo": 1969, "##conomisc": 1970, "##conomisch": 1971, "##ub": 1972, "##eda": 1973, "bele": 1974, "##ever": 1975, "proc": 1976, "##ost": 1977, "ind": 1978, "##peli": 1979, "##pu": 1980, "##zak": 1981, "##zet": 1982, "##twoo": 1983, "##'s": 1984, "##onc": 1985, "##twoor": 1986, "##twoord": 1987, "proce": 1988, "##erwe": 1989, "##itu": 1990, "plaa": 1991, "##atr": 1992, "##ntwoo": 1993, "##ntwoor": 1994, "##ntwoord": 1995, "##aarde": 1996, "##enomen": 1997, "##ocia": 1998, "##zake": 1999, "##hri": 2000, "begr": 2001, "##ijs": 2002, "##jve": 2003, "plaat": 2004, "##duc": 2005, "##enko": 2006, "##ode": 2007, "plaats": 2008, "der": 2009, "##fge": 2010, "gebi": 2011, "##jze": 2012, "gebie": 2013, "gebied": 2014, "gest": 2015, "duid": 2016, "##pg": 2017, "##oei": 2018, "##gens": 2019, "duide": 2020, "##rod": 2021, "##tste": 2022, "se": 2023, "##ijve": 2024, "haa": 2025, "##eker": 2026, "##derh": 2027, "verg": 2028, "##ijze": 2029, "duidel": 2030, "duideli": 2031, "duidelij": 2032, "duidelijk": 2033, "##emi": 2034, "##jg": 2035, "##i\u00ebl": 2036, "##reid": 2037, "##i\u00eble": 2038, "##ijg": 2039, "##etref": 2040, "gemeens": 2041, "gemeensc": 2042, "gemeensch": 2043, "gemeenscha": 2044, "gemeenschap": 2045, "##teri": 2046, "##eeld": 2047, "##gest": 2048, "fe": 2049, "##erken": 2050, "##evoe": 2051, "##litiek": 2052, "##olitiek": 2053, "grot": 2054, "grote": 2055, "##cher": 2056, "kome": 2057, "komen": 2058, "bete": 2059, "##ebrui": 2060, "##ebruik": 2061, "omd": 2062, "##mme": 2063, "##ca": 2064, "##mda": 2065, "##mdat": 2066, "##ppel": 2067, "##actie": 2068, "omda": 2069, "omdat": 2070, "bevo": 2071, "##treg": 2072, "##1": 2073, "##ouwen": 2074, "##iden": 2075, "##dhe": 2076, "##geven": 2077, "##ive": 2078, "##iale": 2079, "vrij": 2080, "##pelij": 2081, "##pelijk": 2082, "##ters": 2083, "##trege": 2084, "was": 2085, "##jven": 2086, "##tregel": 2087, "##ijven": 2088, "##oot": 2089, "##khei": 2090, "##kheid": 2091, "afge": 2092, "economis": 2093, "##rha": 2094, "economisc": 2095, "economisch": 2096, "##jkhei": 2097, "##ijkhei": 2098, "##jkheid": 2099, "##ijkheid": 2100, "noo": 2101, "besl": 2102, "##angen": 2103, "##lijkhei": 2104, "##lijkheid": 2105, "##aatr": 2106, "##dem": 2107, "wee": 2108, "##atre": 2109, "uitg": 2110, "##aatre": 2111, "conc": 2112, "##odu": 2113, "##aire": 2114, "##2": 2115, "##ekom": 2116, "##atreg": 2117, "##aatreg": 2118, "##atrege": 2119, "##aatrege": 2120, "##atregel": 2121, "##aatregel": 2122, "##kend": 2123, "##ric": 2124, "##pi": 2125, "##stand": 2126, "##9": 2127, "##ilig": 2128, "##eilig": 2129, "betref": 2130, "soc": 2131, "##dse": 2132, "##ardi": 2133, "##tek": 2134, "##erha": 2135, "soci": 2136, "##mati": 2137, "##orb": 2138, "##baar": 2139, "##anke": 2140, "##elde": 2141, "politiek": 2142, "##odig": 2143, "##rodu": 2144, "##oduc": 2145, "##roduc": 2146, "##rok": 2147, "##sar": 2148, "socia": 2149, "##volg": 2150, "##egele": 2151, "vera": 2152, "##slu": 2153, "##ood": 2154, "##lega": 2155, "##ult": 2156, "##nr": 2157, "##pge": 2158, "##fte": 2159, "##rma": 2160, "##elijkhei": 2161, "##elijkheid": 2162, "##nkoms": 2163, "##nkomst": 2164, "##achte": 2165, "##nni": 2166, "stem": 2167, "##igin": 2168, "##eeds": 2169, "##aardi": 2170, "##uat": 2171, "##oorb": 2172, "##gelen": 2173, "volg": 2174, "##rechte": 2175, "##kome": 2176, "##cial": 2177, "opg": 2178, "##spro": 2179, "##enkom": 2180, "##tige": 2181, "##cten": 2182, "##scher": 2183, "##geno": 2184, "##sari": 2185, "##iging": 2186, "##ssar": 2187, "veran": 2188, "##missa": 2189, "##ssari": 2190, "##mmissa": 2191, "##issar": 2192, "##ommissa": 2193, "##missar": 2194, "##issari": 2195, "##mmissar": 2196, "##missari": 2197, "##mmissari": 2198, "##ommissar": 2199, "##ommissari": 2200, "##cra": 2201, "##saris": 2202, "##ssaris": 2203, "##issaris": 2204, "##missaris": 2205, "##mmissaris": 2206, "##ommissaris": 2207, "##grot": 2208, "##gaa": 2209, "versc": 2210, "versch": 2211, "##egelen": 2212, "##doe": 2213, "##emaa": 2214, "##anne": 2215, "staat": 2216, "##av": 2217, "##chri": 2218, "gebru": 2219, "gebrui": 2220, "gebruik": 2221, "##ordel": 2222, "##ekki": 2223, "vraa": 2224, "##ets": 2225, "gaat": 2226, "vraag": 2227, "commissa": 2228, "commissar": 2229, "commissari": 2230, "##esche": 2231, "##crat": 2232, "##ardig": 2233, "##eenk": 2234, "commissaris": 2235, "##komen": 2236, "zel": 2237, "##sme": 2238, "##eenko": 2239, "zor": 2240, "##lite": 2241, "##ebe": 2242, "zorg": 2243, "wan": 2244, "##enwe": 2245, "##stie": 2246, "##aardig": 2247, "##rand": 2248, "##rscha": 2249, "##tair": 2250, "##bele": 2251, "##elinge": 2252, "##lp": 2253, "pu": 2254, "##spe": 2255, "zie": 2256, "##isse": 2257, "##lijn": 2258, "opge": 2259, "##ppeli": 2260, "##alis": 2261, "##oordel": 2262, "##aakt": 2263, "##ogen": 2264, "##rijd": 2265, "##rdr": 2266, "gele": 2267, "##stri": 2268, "##eff": 2269, "ame": 2270, "##erel": 2271, "##eenkom": 2272, "##iens": 2273, "##olk": 2274, "zeg": 2275, "##derz": 2276, "##eha": 2277, "cons": 2278, "##tief": 2279, "##rschi": 2280, "erv": 2281, "waaro": 2282, "inz": 2283, "##rhei": 2284, "##rheid": 2285, "##rede": 2286, "##rgers": 2287, "##ritei": 2288, "##riteit": 2289, "##ekkin": 2290, "##ekking": 2291, "##heids": 2292, "##nel": 2293, "##orme": 2294, "##slui": 2295, "ta": 2296, "eve": 2297, "##mische": 2298, "spe": 2299, "zelf": 2300, "##urgers": 2301, "##rekki": 2302, "even": 2303, "act": 2304, "##litei": 2305, "##liteit": 2306, "##regele": 2307, "##tregele": 2308, "##regelen": 2309, "##tregelen": 2310, "##erna": 2311, "##sluit": 2312, "##atregele": 2313, "##atregelen": 2314, "##aatregele": 2315, "##aatregelen": 2316, "##enkoms": 2317, "##enkomst": 2318, "##appel": 2319, "ing": 2320, "belei": 2321, "beleid": 2322, "haar": 2323, "##ezo": 2324, "##isi": 2325, "##erdr": 2326, "voe": 2327, "##lot": 2328, "verz": 2329, "##open": 2330, "##eenkoms": 2331, "##eenkomst": 2332, "##nders": 2333, "##appeli": 2334, "##ppelij": 2335, "##ppelijk": 2336, "##happel": 2337, "##chappel": 2338, "##happeli": 2339, "##chappeli": 2340, "##appelij": 2341, "##happelij": 2342, "##appelijk": 2343, "##chappelij": 2344, "##happelijk": 2345, "##chappelijk": 2346, "##schappel": 2347, "##schappeli": 2348, "##schappelij": 2349, "##schappelijk": 2350, "##uati": 2351, "zeer": 2352, "##rgi": 2353, "##vers": 2354, "##bat": 2355, "##rekkin": 2356, "##rekking": 2357, "##uatie": 2358, "##trekki": 2359, "##trekkin": 2360, "##trekking": 2361, "##rend": 2362, "##reld": 2363, "##ereld": 2364, "vert": 2365, "##enste": 2366, "##db": 2367, "##gez": 2368, "##etrek": 2369, "##herm": 2370, "lo": 2371, "##oti": 2372, "##etrekk": 2373, "verl": 2374, "##reng": 2375, "##fr": 2376, "##oren": 2377, "lev": 2378, "##cherm": 2379, "leve": 2380, "##escher": 2381, "volge": 2382, "man": 2383, "##erle": 2384, "##nve": 2385, "volgen": 2386, "##emd": 2387, "##tijd": 2388, "##arm": 2389, "ger": 2390, "fra": 2391, "pri": 2392, "##ebat": 2393, "##elingen": 2394, "\"": 2395, "##scherm": 2396, "aant": 2397, "##aties": 2398, "verde": 2399, "##uti": 2400, "##rich": 2401, "##zin": 2402, "##oon": 2403, "##escherm": 2404, "hou": 2405, "##lleg": 2406, "eerste": 2407, "##ocr": 2408, "wijz": 2409, "##arb": 2410, "##erscha": 2411, "##kte": 2412, "##echts": 2413, "##nschapp": 2414, "##nschappe": 2415, "##enhe": 2416, "were": 2417, "middel": 2418, "##ces": 2419, "vin": 2420, "##ezen": 2421, "##enschapp": 2422, "##enschappe": 2423, "betrek": 2424, "##etg": 2425, "##estie": 2426, "werel": 2427, "wereld": 2428, "##richt": 2429, "betrekk": 2430, "##eo": 2431, "##ram": 2432, "doen": 2433, "##etge": 2434, "##igde": 2435, "##teke": 2436, "##stelle": 2437, "##och": 2438, "##rate": 2439, "##orbe": 2440, "##nsp": 2441, "##teken": 2442, "##oog": 2443, "##anta": 2444, "##tieke": 2445, "##ogr": 2446, "vere": 2447, "##geb": 2448, "##lat": 2449, "##ehe": 2450, "##ract": 2451, "nati": 2452, "##ocra": 2453, "##ntal": 2454, "##tgev": 2455, "deb": 2456, "burgers": 2457, "##\u00ebn": 2458, "ki": 2459, "##nwer": 2460, "##enli": 2461, "##eiten": 2462, "##bou": 2463, "##llega": 2464, "##stellen": 2465, "##geste": 2466, "##iede": 2467, "##sol": 2468, "##iter": 2469, "##estaa": 2470, "##mel": 2471, "##ocrat": 2472, "deba": 2473, "##vaard": 2474, "##enlij": 2475, "geno": 2476, "##trat": 2477, "debat": 2478, "gaan": 2479, "##vens": 2480, "nod": 2481, "##ciale": 2482, "##oorbe": 2483, "##bij": 2484, "##nit": 2485, "##omische": 2486, "houd": 2487, "##nomische": 2488, "##onomische": 2489, "##ppo": 2490, "##nm": 2491, "##ander": 2492, "overe": 2493, "##werki": 2494, "##conomische": 2495, "##werkin": 2496, "##arv": 2497, "regi": 2498, "##ruk": 2499, "##eks": 2500, "##dhei": 2501, "##moc": 2502, "##dheid": 2503, "##werking": 2504, "vind": 2505, "ene": 2506, "##mocr": 2507, "##geri": 2508, "##mocra": 2509, "##enlijk": 2510, "##emoc": 2511, "##emocr": 2512, "##emocra": 2513, "##eest": 2514, "##cto": 2515, "##aarv": 2516, "##staan": 2517, "##egro": 2518, "##nwerk": 2519, "##roep": 2520, "##etrekki": 2521, "##etrekkin": 2522, "##gem": 2523, "##etrekking": 2524, "nodi": 2525, "nodig": 2526, "##oop": 2527, "den": 2528, "bin": 2529, "mark": 2530, "or": 2531, "part": 2532, "##terna": 2533, "##rschap": 2534, "##tli": 2535, "##mocrat": 2536, "toeg": 2537, "##erli": 2538, "##egev": 2539, "##emocrat": 2540, "##eval": 2541, "overee": 2542, "overeen": 2543, "##gang": 2544, "vas": 2545, "##elt": 2546, "##rmen": 2547, "##spa": 2548, "kri": 2549, "kwe": 2550, "##ligh": 2551, "##lighe": 2552, "##bee": 2553, "dem": 2554, "vast": 2555, "##ermin": 2556, "##rvoo": 2557, "##rvoor": 2558, "##wes": 2559, "##west": 2560, "##llinge": 2561, "##llingen": 2562, "##rnat": 2563, "##atu": 2564, "##ernat": 2565, "##rnati": 2566, "##ernati": 2567, "##ogra": 2568, "##5": 2569, "##ternat": 2570, "##crati": 2571, "##lighei": 2572, "##ligheid": 2573, "##ternati": 2574, "##oof": 2575, "gron": 2576, "grond": 2577, "##nderz": 2578, "##lst": 2579, "##houde": 2580, "##bouw": 2581, "##rechten": 2582, "##sbe": 2583, "gewe": 2584, "##ndaa": 2585, "##rmee": 2586, "##ici": 2587, "vei": 2588, "maatr": 2589, "maatre": 2590, "maatreg": 2591, "maatrege": 2592, "maatregel": 2593, "veil": 2594, "acti": 2595, "bere": 2596, "##htl": 2597, "##chtl": 2598, "##ellinge": 2599, "##rouwe": 2600, "veili": 2601, "##ellingen": 2602, "##rdra": 2603, "##tlij": 2604, "##rdeli": 2605, "##gevi": 2606, "##ichti": 2607, "##ctor": 2608, "##eringe": 2609, "geste": 2610, "##kr": 2611, "##ieden": 2612, "##eger": 2613, "##eau": 2614, "##lev": 2615, "##amm": 2616, "##tlijn": 2617, "##teur": 2618, "##htli": 2619, "##chtli": 2620, "##e\u00eb": 2621, "##htlij": 2622, "##chtlij": 2623, "##ichtl": 2624, "betrekki": 2625, "betrekkin": 2626, "betrekking": 2627, "bre": 2628, "##rwi": 2629, "##nderh": 2630, "##erdra": 2631, "##aarb": 2632, "##westi": 2633, "##westie": 2634, "##andaa": 2635, "##belei": 2636, "##beleid": 2637, "veilig": 2638, "##tellinge": 2639, "##tellingen": 2640, "##htlijn": 2641, "##chtlijn": 2642, "##erwi": 2643, "##th": 2644, "##ichtli": 2645, "##ichtlij": 2646, "##ichtlijn": 2647, "##stellinge": 2648, "##stellingen": 2649, "##gevin": 2650, "##geving": 2651, "##rog": 2652, "##enwer": 2653, "markt": 2654, "##olu": 2655, "lat": 2656, "##tua": 2657, "##ys": 2658, "pre": 2659, "verv": 2660, "##nhei": 2661, "##deel": 2662, "##nken": 2663, "##idin": 2664, "##ekt": 2665, "##derd": 2666, "##iding": 2667, "##kl": 2668, "demo": 2669, "##aand": 2670, "economische": 2671, "##rig": 2672, "##for": 2673, "##porte": 2674, "##eringen": 2675, "##racti": 2676, "eens": 2677, "##hil": 2678, "##rijke": 2679, "##reenk": 2680, "##ereenk": 2681, "##vereenk": 2682, "##gst": 2683, "##erschi": 2684, "##enwerk": 2685, "##ole": 2686, "##reenko": 2687, "##ereenko": 2688, "##reenkom": 2689, "##ereenkom": 2690, "##vereenko": 2691, "##vereenkom": 2692, "##bet": 2693, "##lke": 2694, "##nheid": 2695, "##werp": 2696, "##lich": 2697, "##ractie": 2698, "##anis": 2699, "mili": 2700, "##eta": 2701, "##iligh": 2702, "##ilighe": 2703, "##eiligh": 2704, "##eilighe": 2705, "##ilighei": 2706, "##iligheid": 2707, "##eilighei": 2708, "##eiligheid": 2709, "##ndem": 2710, "aanta": 2711, "##enhei": 2712, "##enheid": 2713, "##rwa": 2714, "##ald": 2715, "##menw": 2716, "##menwe": 2717, "##amenw": 2718, "##menwer": 2719, "##amenwe": 2720, "##amenwer": 2721, "##menwerk": 2722, "##amenwerk": 2723, "##fer": 2724, "##natio": 2725, "##nation": 2726, "##ergi": 2727, "##nationa": 2728, "##zel": 2729, "##sit": 2730, "##jge": 2731, "##ijge": 2732, "##gestel": 2733, "##gesteld": 2734, "##licht": 2735, "##trij": 2736, "##tuat": 2737, "##tuati": 2738, "##tuatie": 2739, "col": 2740, "im": 2741, "##itua": 2742, "regel": 2743, "##ituat": 2744, "##ituati": 2745, "##gelijke": 2746, "##ituatie": 2747, "##duct": 2748, "##erschap": 2749, "##eidi": 2750, "##eidin": 2751, "##enr": 2752, "##eiding": 2753, "##zonde": 2754, "##oten": 2755, "##ruc": 2756, "##ezie": 2757, "##rande": 2758, "##rouwen": 2759, "##reenkoms": 2760, "##ereenkoms": 2761, "##reenkomst": 2762, "##ereenkomst": 2763, "##vereenkoms": 2764, "##vereenkomst": 2765, "##ppor": 2766, "##pport": 2767, "bedr": 2768, "##effe": 2769, "##ndh": 2770, "##kst": 2771, "uite": 2772, "##antal": 2773, "##lec": 2774, "ru": 2775, "##atis": 2776, "##dri": 2777, "tra": 2778, "##cie": 2779, "berei": 2780, "##cho": 2781, "dee": 2782, "##chil": 2783, "aantal": 2784, "##htin": 2785, "##deme": 2786, "cont": 2787, "##chtin": 2788, "##endem": 2789, "##demen": 2790, "##itge": 2791, "##hting": 2792, "##chting": 2793, "##reke": 2794, "eig": 2795, "eige": 2796, "eigen": 2797, "##ora": 2798, "##nderen": 2799, "##vat": 2800, "##taire": 2801, "spr": 2802, "##rbij": 2803, "##ita": 2804, "##ism": 2805, "##anse": 2806, "##dement": 2807, "##nschappel": 2808, "##enschappel": 2809, "##nschappeli": 2810, "##enschappeli": 2811, "##nschappelij": 2812, "##enschappelij": 2813, "##nschappelijk": 2814, "##enschappelijk": 2815, "##schil": 2816, "denk": 2817, "##appo": 2818, "##appor": 2819, "##apport": 2820, "##mmin": 2821, "late": 2822, "##mming": 2823, "##itieke": 2824, "uitge": 2825, "##egeve": 2826, "##egeven": 2827, "dus": 2828, "##otin": 2829, "binn": 2830, "binne": 2831, "binnen": 2832, "##roti": 2833, "##ong": 2834, "##aald": 2835, "##ci\u00ebl": 2836, "##ci\u00eble": 2837, "coll": 2838, "##oting": 2839, "##nla": 2840, "##trijd": 2841, "##groti": 2842, "##rotin": 2843, "##grotin": 2844, "stra": 2845, "##roting": 2846, "##groting": 2847, "bui": 2848, "##rogr": 2849, "med": 2850, "##ndeme": 2851, "##endeme": 2852, "##ndemen": 2853, "##endemen": 2854, "##ndement": 2855, "##endement": 2856, "##teite": 2857, "##teiten": 2858, "##ocial": 2859, "opl": 2860, "ener": 2861, "##oss": 2862, "##iteite": 2863, "##all": 2864, "##iteiten": 2865, "##oduct": 2866, "##roduct": 2867, "##emmi": 2868, "##ndelin": 2869, "##itv": 2870, "##dan": 2871, "##ndeling": 2872, "##gio": 2873, "colle": 2874, "bepa": 2875, "##terk": 2876, "##dw": 2877, "##temmi": 2878, "##evens": 2879, "##rdrag": 2880, "##rent": 2881, "maatregele": 2882, "maatregelen": 2883, "##nre": 2884, "##erdrag": 2885, "##emmin": 2886, "##emming": 2887, "##litieke": 2888, "##olitieke": 2889, "##ndig": 2890, "##solu": 2891, "social": 2892, "##egrot": 2893, "##ands": 2894, "##temmin": 2895, "##temming": 2896, "##form": 2897, "##rwij": 2898, "##egio": 2899, "##ikt": 2900, "##mendem": 2901, "##mendeme": 2902, "##mendemen": 2903, "##mendement": 2904, "##erwij": 2905, "##ezien": 2906, "##tvo": 2907, "toek": 2908, "##nu": 2909, "##rgie": 2910, "##go": 2911, "##egroti": 2912, "##egrotin": 2913, "##egroting": 2914, "kwes": 2915, "kwest": 2916, "##root": 2917, "kwesti": 2918, "kwestie": 2919, "##inden": 2920, "##isme": 2921, "##\u00e9": 2922, "##ip": 2923, "##ergie": 2924, "##rgan": 2925, "##maal": 2926, "##dz": 2927, "##oere": 2928, "besta": 2929, "##nerg": 2930, "##etten": 2931, "##ecte": 2932, "##nlan": 2933, "##ane": 2934, "##nwerki": 2935, "##nwerkin": 2936, "##nwerking": 2937, "##nergi": 2938, "##ocrati": 2939, "##pas": 2940, "##nergie": 2941, "##rijg": 2942, "##ddele": 2943, "vero": 2944, "##zig": 2945, "amen": 2946, "amend": 2947, "amende": 2948, "##uren": 2949, "inge": 2950, "ope": 2951, "politieke": 2952, "##ienst": 2953, "##ddelen": 2954, "##gaan": 2955, "##uist": 2956, "amendem": 2957, "amendeme": 2958, "amendemen": 2959, "amendement": 2960, "##dur": 2961, "vro": 2962, "##ordeli": 2963, "##zonder": 2964, "##oordeli": 2965, "##gram": 2966, "##nzi": 2967, "##mocrati": 2968, "##emocrati": 2969, "zegg": 2970, "zegge": 2971, "zeggen": 2972, "##iddele": 2973, "verschi": 2974, "##mma": 2975, "##erhei": 2976, "##erheid": 2977, "##ps": 2978, "##ogram": 2979, "##emente": 2980, "##ramm": 2981, "besche": 2982, "##nterna": 2983, "##rogra": 2984, "##rogram": 2985, "democ": 2986, "democr": 2987, "democra": 2988, "interna": 2989, "##gramm": 2990, "##drage": 2991, "##ogramm": 2992, "##waard": 2993, "##rogramm": 2994, "##lend": 2995, "##iddelen": 2996, "stell": 2997, "##grijke": 2998, "##ngrijke": 2999, "##angrijke": 3000, "##rnatio": 3001, "##ernatio": 3002, "##rnation": 3003, "##ernation": 3004, "##rnationa": 3005, "##ernationa": 3006, "##gere": 3007, "democrat": 3008, "##antw": 3009, "##nternat": 3010, "samenw": 3011, "##antwo": 3012, "##antwoo": 3013, "##antwoor": 3014, "##antwoord": 3015, "##stru": 3016, "internat": 3017, "##nternati": 3018, "##ternatio": 3019, "##nternatio": 3020, "##ternation": 3021, "##nternation": 3022, "##ternationa": 3023, "##nternationa": 3024, "internati": 3025, "internatio": 3026, "internation": 3027, "internationa": 3028, "samenwe": 3029, "samenwer": 3030, "samenwerk": 3031, "##eschi": 3032, "##eenschapp": 3033, "##meenschapp": 3034, "##emeenschapp": 3035, "##eenschappe": 3036, "##meenschappe": 3037, "##emeenschappe": 3038, "##rschil": 3039, "##erschil": 3040, "##hu": 3041, "##pun": 3042, "##nstel": 3043, "buit": 3044, "##punt": 3045, "groe": 3046, "##ogi": 3047, "##evolg": 3048, "inv": 3049, "waard": 3050, "##ilie": 3051, "heel": 3052, "buite": 3053, "buiten": 3054, "bestaa": 3055, "stemm": 3056, "##erbe": 3057, "##akk": 3058, "nem": 3059, "neme": 3060, "nemen": 3061, "##effen": 3062, "##tz": 3063, "##ichte": 3064, "deel": 3065, "##rgel": 3066, "##nci\u00eb": 3067, "##anci\u00eb": 3068, "##nanci\u00eb": 3069, "##inanci\u00eb": 3070, "##gerin": 3071, "##plo": 3072, "##les": 3073, "##ror": 3074, "##noe": 3075, "##kele": 3076, "##staat": 3077, "##rnem": 3078, "sit": 3079, "##aart": 3080, "##bar": 3081, "##engen": 3082, "##sg": 3083, "##epen": 3084, "##oege": 3085, "natio": 3086, "nation": 3087, "bescher": 3088, "bescherm": 3089, "##aari": 3090, "stan": 3091, "##rtij": 3092, "##oeko": 3093, "fu": 3094, "nationa": 3095, "##fic": 3096, "##teed": 3097, "##pporte": 3098, "hij": 3099, "##amma": 3100, "stand": 3101, "##olleg": 3102, "gemeenschapp": 3103, "gemeenschappe": 3104, "##espr": 3105, "##e-": 3106, "##iser": 3107, "groo": 3108, "##ontr": 3109, "##itvo": 3110, "##seri": 3111, "prod": 3112, "groot": 3113, "situ": 3114, "##houden": 3115, "##oekom": 3116, "##rteu": 3117, "##langrijke": 3118, "##elangrijke": 3119, "##rteur": 3120, "##apporte": 3121, "##derzo": 3122, "##orteu": 3123, "##porteu": 3124, "##orteur": 3125, "##porteur": 3126, "toeko": 3127, "toekom": 3128, "##aarin": 3129, "##nderzo": 3130, "##enwerki": 3131, "##enwerkin": 3132, "##enwerking": 3133, "situa": 3134, "situat": 3135, "situati": 3136, "situatie": 3137, "begro": 3138, "##ramma": 3139, "##gramma": 3140, "##ogramma": 3141, "##rogramma": 3142, "##eru": 3143, "##nvo": 3144, "##menwerki": 3145, "##amenwerki": 3146, "##menwerkin": 3147, "##amenwerkin": 3148, "##menwerking": 3149, "##amenwerking": 3150, "belangrijke": 3151, "fei": 3152, "colleg": 3153, "elk": 3154, "mis": 3155, "##ue": 3156, "##gering": 3157, "##zic": 3158, "regio": 3159, "##neer": 3160, "##zich": 3161, "##prek": 3162, "##andeli": 3163, "rap": 3164, "##zelf": 3165, "##zicht": 3166, "##etro": 3167, "##los": 3168, "##eik": 3169, "vorm": 3170, "##paa": 3171, "geve": 3172, "##erkt": 3173, "##mers": 3174, "rapp": 3175, "rappo": 3176, "rappor": 3177, "rapport": 3178, "##anti": 3179, "##dza": 3180, "geval": 3181, "##derw": 3182, "feit": 3183, "##digd": 3184, "geg": 3185, "cri": 3186, "begrot": 3187, "##oeren": 3188, "stelle": 3189, "financi\u00eb": 3190, "##oem": 3191, "stellen": 3192, "begroti": 3193, "begrotin": 3194, "begroting": 3195, "##ves": 3196, "##zaa": 3197, "##log": 3198, "##dure": 3199, "##nderd": 3200, "##oven": 3201, "##genom": 3202, "##ekoms": 3203, "##ekomst": 3204, "##oekoms": 3205, "##oekomst": 3206, "zorge": 3207, "##genome": 3208, "##genomen": 3209, "toekoms": 3210, "toekomst": 3211, "begi": 3212, "##nstell": 3213, "begin": 3214, "##pporteu": 3215, "##pporteur": 3216, "##apporteu": 3217, "##apporteur": 3218, "##egeri": 3219, "##hill": 3220, "##ollega": 3221, "##ociale": 3222, "##nderw": 3223, "##woorde": 3224, "verdr": 3225, "zorgen": 3226, "##ecto": 3227, "##egerin": 3228, "##egering": 3229, "##sr": 3230, "collega": 3231, "democrati": 3232, "##ateg": 3233, "##aam": 3234, "##etgev": 3235, "##nger": 3236, "##enn": 3237, "sociale": 3238, "##reft": 3239, "##chill": 3240, "##teer": 3241, "##arti": 3242, "bew": 3243, "##rif": 3244, "##lege": 3245, "##edu": 3246, "onderz": 3247, "fun": 3248, "##ector": 3249, "##rio": 3250, "##beel": 3251, "##beeld": 3252, "##schill": 3253, "##alen": 3254, "##eek": 3255, "onderzo": 3256, "##rik": 3257, "##weg": 3258, "verschil": 3259, "##oorg": 3260, "##twoorde": 3261, "##dru": 3262, "##ntwoorde": 3263, "##orma": 3264, "##renge": 3265, "veiligh": 3266, "veilighe": 3267, "veilighei": 3268, "veiligheid": 3269, "##ib": 3270, "gevol": 3271, "verst": 3272, "##andelin": 3273, "##andeling": 3274, "hui": 3275, "stee": 3276, "gevolg": 3277, "hande": 3278, "##rander": 3279, "##und": 3280, "uits": 3281, "##sto": 3282, "reger": 3283, "produ": 3284, "produc": 3285, "##ban": 3286, "##dern": 3287, "##man": 3288, "##tsc": 3289, "ex": 3290, "laten": 3291, "##eci": 3292, "beho": 3293, "su": 3294, "meni": 3295, "##orit": 3296, "##geleg": 3297, "##ater": 3298, "werd": 3299, "##mens": 3300, "##hille": 3301, "##chille": 3302, "##spec": 3303, "zon": 3304, "##eso": 3305, "##hillen": 3306, "##chillen": 3307, "##schille": 3308, "##schillen": 3309, "##delijke": 3310, "##stu": 3311, "##derzoe": 3312, "##nderzoe": 3313, "##derzoek": 3314, "##nderzoek": 3315, "regeri": 3316, "regerin": 3317, "regering": 3318, "energ": 3319, "##maat": 3320, "##elk": 3321, "##edin": 3322, "##t-": 3323, "##zeg": 3324, "##nci\u00ebl": 3325, "##nci\u00eble": 3326, "##anci\u00ebl": 3327, "##nanci\u00ebl": 3328, "##anci\u00eble": 3329, "##inanci\u00ebl": 3330, "##nanci\u00eble": 3331, "##inanci\u00eble": 3332, "##treft": 3333, "##ift": 3334, "energi": 3335, "energie": 3336, "##vest": 3337, "menin": 3338, "mening": 3339, "##etreft": 3340, "betreft": 3341, "##erant": 3342, "goede": 3343, "lang": 3344, "##att": 3345, "verdra": 3346, "leven": 3347, "\u2013": 3348, "##andi": 3349, "##par": 3350, "##druk": 3351, "richtl": 3352, "richtli": 3353, "richtlij": 3354, "richtlijn": 3355, "inf": 3356, "##atuu": 3357, "onderw": 3358, "##stee": 3359, "##pect": 3360, "##aande": 3361, "##handeli": 3362, "pun": 3363, "##nbe": 3364, "vand": 3365, "##rbee": 3366, "##eding": 3367, "punt": 3368, "financi\u00ebl": 3369, "financi\u00eble": 3370, "dri": 3371, "##rbeel": 3372, "##rbeeld": 3373, "##eenschappel": 3374, "##meenschappel": 3375, "##eenschappeli": 3376, "##meenschappeli": 3377, "##eenschappelij": 3378, "##meenschappelij": 3379, "##eenschappelijk": 3380, "##meenschappelijk": 3381, "##emeenschappel": 3382, "##emeenschappeli": 3383, "##emeenschappelij": 3384, "##emeenschappelijk": 3385, "gemeenschappel": 3386, "gemeenschappeli": 3387, "gemeenschappelij": 3388, "gemeenschappelijk": 3389, "vis": 3390, "vanda": 3391, "##llend": 3392, "##rschill": 3393, "##erschill": 3394, "##oste": 3395, "##reken": 3396, "vandaa": 3397, "au": 3398, "##mid": 3399, "##orbee": 3400, "geld": 3401, "##oorbee": 3402, "##orbeel": 3403, "##oorbeel": 3404, "##orbeeld": 3405, "##oorbeeld": 3406, "wijze": 3407, "##dp": 3408, "verdrag": 3409, "##reff": 3410, "##reffe": 3411, "##ilit": 3412, "rapporte": 3413, "##nrec": 3414, "nood": 3415, "##nrech": 3416, "##nrecht": 3417, "##utie": 3418, "##wez": 3419, "##tsch": 3420, "##handelin": 3421, "##handeling": 3422, "##jken": 3423, "##ijken": 3424, "##enig": 3425, "##fde": 3426, "laa": 3427, "##nemen": 3428, "##blem": 3429, "##ifi": 3430, "##oblem": 3431, "##roblem": 3432, "##gende": 3433, "kad": 3434, "##lut": 3435, "krij": 3436, "##vend": 3437, "zoud": 3438, "krijg": 3439, "ong": 3440, "##bes": 3441, "zoude": 3442, "zouden": 3443, "##amel": 3444, "##slan": 3445, "##terin": 3446, "##ule": 3447, "##pra": 3448, "tijde": 3449, "##oni": 3450, "##enre": 3451, "kade": 3452, "##spect": 3453, "##rschille": 3454, "##erschille": 3455, "##rschillen": 3456, "##erschillen": 3457, "enk": 3458, "##ple": 3459, "enke": 3460, "enkel": 3461, "kader": 3462, "geven": 3463, "##lende": 3464, "##oora": 3465, "##trate": 3466, "##lieu": 3467, "##ilieu": 3468, "onderzoe": 3469, "onderzoek": 3470, "##nstelli": 3471, "##nstellin": 3472, "##nstelling": 3473, "##rans": 3474, "##eiden": 3475, "##nsel": 3476, "verder": 3477, "voora": 3478, "##tvoe": 3479, "##yst": 3480, "##okk": 3481, "samenwerki": 3482, "samenwerkin": 3483, "samenwerking": 3484, "rapporteu": 3485, "rapporteur": 3486, "##bare": 3487, "##tvoer": 3488, "##tred": 3489, "##nsti": 3490, "##akke": 3491, "##nstr": 3492, "##yste": 3493, "geze": 3494, "zak": 3495, "##umente": 3496, "##legen": 3497, "##rkl": 3498, "##olut": 3499, "milie": 3500, "milieu": 3501, "##ichtin": 3502, "ach": 3503, "onge": 3504, "##ichting": 3505, "##3": 3506, "##reffen": 3507, "##hermi": 3508, "##np": 3509, "##drij": 3510, "##erkl": 3511, "##nfo": 3512, "##zij": 3513, "##rmo": 3514, "##ukk": 3515, "acht": 3516, "##rantw": 3517, "##erantw": 3518, "##rantwo": 3519, "##erantwo": 3520, "##rantwoo": 3521, "##erantwoo": 3522, "##rantwoor": 3523, "##erantwoor": 3524, "##rantwoord": 3525, "##erantwoord": 3526, "##sat": 3527, "##chermi": 3528, "##hermin": 3529, "##chermin": 3530, "##erming": 3531, "##schermi": 3532, "##herming": 3533, "##schermin": 3534, "##cherming": 3535, "##scherming": 3536, "##eschermi": 3537, "##eschermin": 3538, "##escherming": 3539, "##umenten": 3540, "##rateg": 3541, "##trateg": 3542, "##ruit": 3543, "##jgen": 3544, "##ijgen": 3545, "##ergel": 3546, "##tegi": 3547, "##ategi": 3548, "##uch": 3549, "##rategi": 3550, "##trategi": 3551, "##orite": 3552, "##kaa": 3553, "##national": 3554, "wete": 3555, "weten": 3556, "##oritei": 3557, "##oriteit": 3558, "bez": 3559, "##tti": 3560, "##geme": 3561, "##reni": 3562, "fo": 3563, "zake": 3564, "mom": 3565, "##rza": 3566, "##rstell": 3567, "##stre": 3568, "werke": 3569, "##reik": 3570, "##onds": 3571, "##meli": 3572, "##oi": 3573, "##renti": 3574, "##lands": 3575, "##teeds": 3576, "steed": 3577, "steeds": 3578, "##daag": 3579, "##ucht": 3580, "##tse": 3581, "##midd": 3582, "pers": 3583, "##sland": 3584, "gek": 3585, "##ereni": 3586, "##renig": 3587, "##erenig": 3588, "##atiev": 3589, "##itvoe": 3590, "##itvoer": 3591, "##anv": 3592, "##rba": 3593, "##enla": 3594, "##ekend": 3595, "##elege": 3596, "##ivi": 3597, "##erte": 3598, "'": 3599, "##nzie": 3600, "zond": 3601, "vrou": 3602, "vrouw": 3603, "##see": 3604, "verschill": 3605, "verschille": 3606, "verschillen": 3607, "##zam": 3608, "##niti": 3609, "##vorm": 3610, "##antwoorde": 3611, "##ginge": 3612, "##gingen": 3613, "##ereik": 3614, "##erend": 3615, "##eslu": 3616, "##eslui": 3617, "##jks": 3618, "##ijks": 3619, "##weed": 3620, "##oment": 3621, "##kinge": 3622, "##kingen": 3623, "##ementen": 3624, "mome": 3625, "ef": 3626, "momen": 3627, "moment": 3628, "##aans": 3629, "##rla": 3630, "##rift": 3631, "##ntro": 3632, "##ifte": 3633, "##esluit": 3634, "##ndaag": 3635, "voort": 3636, "##arme": 3637, "##dac": 3638, "##isa": 3639, "##erzi": 3640, "##bli": 3641, "inste": 3642, "##udi": 3643, "##anie": 3644, "##rug": 3645, "##derha": 3646, "##nfor": 3647, "##nnin": 3648, "##zame": 3649, "##hrif": 3650, "##chrif": 3651, "##hrift": 3652, "##chrift": 3653, "##atisc": 3654, "##atisch": 3655, "##nning": 3656, "##nzien": 3657, "##td": 3658, "##rentie": 3659, "##atuur": 3660, "zonde": 3661, "##sd": 3662, "##schr": 3663, "##omp": 3664, "##ica": 3665, "##nderha": 3666, "##enlan": 3667, "##nform": 3668, "##bu": 3669, "##ezeg": 3670, "##old": 3671, "##tgevi": 3672, "##tgevin": 3673, "##tgeving": 3674, "##uig": 3675, "##seer": 3676, "##elegen": 3677, "##iaa": 3678, "handel": 3679, "##tga": 3680, "##ndhe": 3681, "##elst": 3682, "##andaag": 3683, "##ndb": 3684, "vandaag": 3685, "##genh": 3686, "##atieve": 3687, "national": 3688, "##off": 3689, "##iger": 3690, "##rol": 3691, "##etgevi": 3692, "##etgevin": 3693, "##etgeving": 3694, "##tori": 3695, "##ndu": 3696, "weg": 3697, "zonder": 3698, "##aran": 3699, "##iez": 3700, "##rengen": 3701, "red": 3702, "zaken": 3703, "##lings": 3704, "##onden": 3705, "##aas": 3706, "dank": 3707, "##enrec": 3708, "##rdelij": 3709, "##rdelijk": 3710, "##enrech": 3711, "##enrecht": 3712, "##nland": 3713, "wetg": 3714, "wetge": 3715, "wetgev": 3716, "##ameli": 3717, "##estr": 3718, "##rijge": 3719, "##ezon": 3720, "open": 3721, "##ctu": 3722, "##tscha": 3723, "houde": 3724, "##bleme": 3725, "##blemen": 3726, "##obleme": 3727, "##robleme": 3728, "##oblemen": 3729, "##roblemen": 3730, "schr": 3731, "##dach": 3732, "##dacht": 3733, "terr": 3734, "##ow": 3735, "##vang": 3736, "##solut": 3737, "##gis": 3738, "waari": 3739, "waarin": 3740, "##llende": 3741, "##okke": 3742, "verant": 3743, "verantw": 3744, "verantwo": 3745, "verantwoo": 3746, "verantwoor": 3747, "verantwoord": 3748, "##lj": 3749, "##luti": 3750, "##uto": 3751, "##oluti": 3752, "##ndhei": 3753, "##ndheid": 3754, "##a'": 3755, "##ndse": 3756, "##a's": 3757, "##ezond": 3758, "##melij": 3759, "##melijk": 3760, "##rifte": 3761, "##hrifte": 3762, "##chrifte": 3763, "##lop": 3764, "##tering": 3765, "##aarm": 3766, "##edri": 3767, "##son": 3768, "lei": 3769, "##emin": 3770, "##lise": 3771, "##ernem": 3772, "##nrechte": 3773, "##ika": 3774, "gra": 3775, "##matie": 3776, "##rso": 3777, "##ndie": 3778, "##lste": 3779, "houden": 3780, "##nist": 3781, "##tui": 3782, "##ormen": 3783, "lij": 3784, "##ione": 3785, "##lech": 3786, "##sh": 3787, "##lecht": 3788, "##mie": 3789, "##pli": 3790, "##gsp": 3791, "##offe": 3792, "##vaardi": 3793, "problem": 3794, "bren": 3795, "##ged": 3796, "##hik": 3797, "##odz": 3798, "##treff": 3799, "##treffe": 3800, "##midde": 3801, "##ndien": 3802, "##evaa": 3803, "##lutie": 3804, "##olutie": 3805, "##ppen": 3806, "##chik": 3807, "##volge": 3808, "##twe": 3809, "##erso": 3810, "onderh": 3811, "##middel": 3812, "##rbo": 3813, "laat": 3814, "##evaar": 3815, "##fend": 3816, "##oodz": 3817, "beter": 3818, "breng": 3819, "##ante": 3820, "##rhan": 3821, "##nationale": 3822, "##odza": 3823, "##oodza": 3824, "##rhand": 3825, "##oral": 3826, "##edrij": 3827, "##schik": 3828, "##enrechte": 3829, "##amelij": 3830, "##amelijk": 3831, "##erga": 3832, "##sati": 3833, "##ngsp": 3834, "leid": 3835, "##nrechten": 3836, "##ezin": 3837, "##enrechten": 3838, "eff": 3839, "uw": 3840, "##rstelle": 3841, "##ister": 3842, "##rtu": 3843, "##egenh": 3844, "##rstellen": 3845, "actie": 3846, "mani": 3847, "sle": 3848, "##rbet": 3849, "##satie": 3850, "##uri": 3851, "##vaardig": 3852, "##arden": 3853, "##rzie": 3854, "overeenk": 3855, "##rmat": 3856, "veren": 3857, "##eet": 3858, "overeenko": 3859, "overeenkom": 3860, "##nier": 3861, "aand": 3862, "vereni": 3863, "verenig": 3864, "##nsu": 3865, "##epas": 3866, "##nspa": 3867, "##rko": 3868, "##ordelij": 3869, "##ordelijk": 3870, "stat": 3871, "##oordelij": 3872, "##oordelijk": 3873, "##rgeli": 3874, "##tschap": 3875, "noodz": 3876, "noodza": 3877, "##7": 3878, "##alle": 3879, "##rda": 3880, "##ewo": 3881, "ied": 3882, "iede": 3883, "ieder": 3884, "##merk": 3885, "##tva": 3886, "##ilj": 3887, "##edur": 3888, "har": 3889, "##esol": 3890, "##elste": 3891, "##tit": 3892, "##tn": 3893, "##rgelij": 3894, "##rgelijk": 3895, "##pla": 3896, "sche": 3897, "##rantwoorde": 3898, "##erantwoorde": 3899, "##rnational": 3900, "##ernational": 3901, "##armee": 3902, "##aarme": 3903, "##esolu": 3904, "##lijv": 3905, "##enb": 3906, "had": 3907, "##ehan": 3908, "##ternational": 3909, "##nternational": 3910, "##andb": 3911, "##genhe": 3912, "##treffen": 3913, "##aarmee": 3914, "voll": 3915, "volle": 3916, "international": 3917, "##edure": 3918, "##dens": 3919, "##vea": 3920, "##kla": 3921, "##veau": 3922, "##ivea": 3923, "##iveau": 3924, "##bete": 3925, "##ergeli": 3926, "##ergelij": 3927, "##ergelijk": 3928, "zien": 3929, "##truc": 3930, "##erhan": 3931, "##erhand": 3932, "##ruct": 3933, "##truct": 3934, "##aring": 3935, "verbe": 3936, "##lijve": 3937, "##egenhe": 3938, "##stige": 3939, "##ledi": 3940, "##lijven": 3941, "##dank": 3942, "vl": 3943, "##endi": 3944, "##erbet": 3945, "##4": 3946, "##senr": 3947, "##epaa": 3948, "##senre": 3949, "verh": 3950, "##erlij": 3951, "##legenh": 3952, "##legenhe": 3953, "rechte": 3954, "##gani": 3955, "##senrec": 3956, "##senrech": 3957, "##senrecht": 3958, "aut": 3959, "##enoe": 3960, "##arbi": 3961, "##rwer": 3962, "##rgani": 3963, "onders": 3964, "##osi": 3965, "##elegenh": 3966, "##elegenhe": 3967, "##eschik": 3968, "##erba": 3969, "##aarbi": 3970, "##alit": 3971, "##ooral": 3972, "##nsenr": 3973, "##ensenr": 3974, "##nsenre": 3975, "##ensenre": 3976, "##nsenrec": 3977, "##ensenrec": 3978, "##nsenrech": 3979, "##ensenrech": 3980, "##nsenrecht": 3981, "##ensenrecht": 3982, "##seerd": 3983, "vooral": 3984, "##minge": 3985, "##mingen": 3986, "##mun": 3987, "##terne": 3988, "##daan": 3989, "tijden": 3990, "##preke": 3991, "##url": 3992, "##tters": 3993, "##rbete": 3994, "##erbete": 3995, "##akel": 3996, "##kelijke": 3997, "##mig": 3998, "##esolut": 3999, "##oorge": 4000, "##beter": 4001, "##rbeter": 4002, "##erbeter": 4003, "##eac": 4004, "##omt": 4005, "##twer": 4006, "mensenr": 4007, "##achten": 4008, "mensenre": 4009, "mensenrec": 4010, "mensenrech": 4011, "mensenrecht": 4012, "lu": 4013, "##zing": 4014, "overeenkoms": 4015, "overeenkomst": 4016, "##tuig": 4017, "##egeli": 4018, "##ganis": 4019, "##ekke": 4020, "##senrechte": 4021, "##nsenrechte": 4022, "##ensenrechte": 4023, "nationale": 4024, "##senrechten": 4025, "##nsenrechten": 4026, "##ensenrechten": 4027, "##rganis": 4028, "##ja": 4029, "##estaan": 4030, "##rum": 4031, "##cc": 4032, "##eede": 4033, "##enland": 4034, "##soluti": 4035, "##\u00ef": 4036, "##aarden": 4037, "##ndern": 4038, "##jzen": 4039, "##ijzen": 4040, "##solutie": 4041, "##itters": 4042, "##esoluti": 4043, "##esolutie": 4044, "##zitters": 4045, "##ffend": 4046, "##iken": 4047, "milj": 4048, "verbet": 4049, "verbete": 4050, "verbeter": 4051, "mensenrechte": 4052, "##isat": 4053, "mensenrechten": 4054, "beslu": 4055, "beslui": 4056, "besluit": 4057, "##estem": 4058, "##anier": 4059, "##rhande": 4060, "##antie": 4061, "##rzitters": 4062, "##orzitters": 4063, "##oorzitters": 4064, "##rnationale": 4065, "##ernationale": 4066, "##ternationale": 4067, "##nternationale": 4068, "internationale": 4069, "##ecti": 4070, "manie": 4071, "##iep": 4072, "manier": 4073, "##bs": 4074, "##effend": 4075, "##slo": 4076, "##onf": 4077, "##maak": 4078, "##tege": 4079, "##lar": 4080, "##reffend": 4081, "##n-": 4082, "natu": 4083, "##ossi": 4084, "##ced": 4085, "##pan": 4086, "##edere": 4087, "##erwer": 4088, "##nza": 4089, "##oj": 4090, "as": 4091, "##uurl": 4092, ";": 4093, "##toe": 4094, "##rijgen": 4095, "##ehee": 4096, "##tof": 4097, "probleme": 4098, "problemen": 4099, "##ntee": 4100, "##tegen": 4101, "##ontro": 4102, "fa": 4103, "bereik": 4104, "##zegd": 4105, "##eco": 4106, "##oces": 4107, "##roces": 4108, "##treffend": 4109, "##nderi": 4110, "##lstel": 4111, "##elstel": 4112, "##moe": 4113, "##sk": 4114, "##nderin": 4115, "##arbij": 4116, "##aarbij": 4117, "##anz": 4118, "##plos": 4119, "##u-": 4120, "ein": 4121, "ch": 4122, "eind": 4123, "##woordel": 4124, "##woordeli": 4125, "##woordelij": 4126, "##woordelijk": 4127, "erva": 4128, "##ehand": 4129, "##twoordel": 4130, "##ntwoordel": 4131, "##twoordeli": 4132, "##antwoordel": 4133, "##ntwoordeli": 4134, "##twoordelij": 4135, "##antwoordeli": 4136, "##ntwoordelij": 4137, "##antwoordelij": 4138, "##rantwoordel": 4139, "##twoordelijk": 4140, "##erantwoordel": 4141, "##rantwoordeli": 4142, "##ntwoordelijk": 4143, "##erantwoordeli": 4144, "##rantwoordelij": 4145, "##antwoordelijk": 4146, "##erantwoordelij": 4147, "##rantwoordelijk": 4148, "##erantwoordelijk": 4149, "##ndering": 4150, "##ledig": 4151, "##s-": 4152, "##oels": 4153, "product": 4154, "verzo": 4155, "##isati": 4156, "##nts": 4157, "##reden": 4158, "##blee": 4159, "##erhande": 4160, "verantwoorde": 4161, "##gelijkh": 4162, "##gelijkhe": 4163, "tweed": 4164, "voorb": 4165, "##isatie": 4166, "##lstell": 4167, "##stra": 4168, "##oelst": 4169, "##oelste": 4170, "##oelstel": 4171, "##elstell": 4172, "##lstelli": 4173, "##lstellin": 4174, "##lstelling": 4175, "##oelstell": 4176, "##elstelli": 4177, "##elstellin": 4178, "##elstelling": 4179, "##oelstelli": 4180, "##oelstellin": 4181, "##oelstelling": 4182, "##erand": 4183, "##iat": 4184, "##oepe": 4185, "##htig": 4186, "##chtig": 4187, "##iee": 4188, "##erande": 4189, "##erander": 4190, "##lede": 4191, "##redi": 4192, "##ezegd": 4193, "##rige": 4194, "##olo": 4195, "##o'": 4196, "volk": 4197, "##mmer": 4198, "##rika": 4199, "##hn": 4200, "##itga": 4201, "##osten": 4202, "##leem": 4203, "##sum": 4204, "##rhandel": 4205, "##bleem": 4206, "##erhandel": 4207, "##emer": 4208, "##digh": 4209, "##dighe": 4210, "inza": 4211, "##oblee": 4212, "##roblee": 4213, "##obleem": 4214, "##robleem": 4215, "##weede": 4216, "tweede": 4217, "##derne": 4218, "##mmig": 4219, "##ninge": 4220, "##ningen": 4221, "##osit": 4222, "onderha": 4223, "##allen": 4224, "##paal": 4225, "vrouwe": 4226, "natuu": 4227, "natuur": 4228, "##oef": 4229, "##lgens": 4230, "##olgens": 4231, "diens": 4232, "##nsten": 4233, "##loss": 4234, "##volgen": 4235, "##rov": 4236, "gema": 4237, "##erla": 4238, "##okken": 4239, "##dbo": 4240, "##leden": 4241, "##bil": 4242, "##ncie": 4243, "##siti": 4244, "##derhan": 4245, "##derhand": 4246, "##jec": 4247, "imm": 4248, "##anen": 4249, "##elings": 4250, "##ormi": 4251, "voorzitters": 4252, "scha": 4253, "##tur": 4254, "##raf": 4255, "##oev": 4256, "##lled": 4257, "##ima": 4258, "##rokk": 4259, "##8": 4260, "##trol": 4261, "##ositi": 4262, "##nderhan": 4263, "##nderhand": 4264, "##tione": 4265, "##erlijk": 4266, "##sitie": 4267, "##oeke": 4268, "##alise": 4269, "oplo": 4270, "##ntrol": 4271, "##ploss": 4272, "geda": 4273, "##ontrol": 4274, "##keni": 4275, "##ositie": 4276, "wetgevi": 4277, "wetgevin": 4278, "wetgeving": 4279, "##lti": 4280, "##ocen": 4281, "##ocent": 4282, "dienst": 4283, "##nsi": 4284, "graa": 4285, "##derhande": 4286, "##nderhande": 4287, "##rijv": 4288, "##derhandel": 4289, "##nderhandel": 4290, "info": 4291, "zw": 4292, "##nzak": 4293, "##ndbo": 4294, "##andbo": 4295, "##lfs": 4296, "slec": 4297, "slech": 4298, "slecht": 4299, "##iel": 4300, "rek": 4301, "frac": 4302, "fract": 4303, "fracti": 4304, "fractie": 4305, "schri": 4306, "##mmu": 4307, "##nzake": 4308, "mede": 4309, "##iati": 4310, "##dbou": 4311, "##nigd": 4312, "voorg": 4313, "##6": 4314, "##jkt": 4315, "##ijkt": 4316, "##get": 4317, "infor": 4318, "inform": 4319, "blijv": 4320, "blijve": 4321, "blijven": 4322, "##spre": 4323, "##lv": 4324, "##ordi": 4325, "gege": 4326, "##maakt": 4327, "##teerd": 4328, "##role": 4329, "##orstell": 4330, "##oorstell": 4331, "inzak": 4332, "##ffi": 4333, "##olled": 4334, "gezo": 4335, "##wet": 4336, "##ndbou": 4337, "##dbouw": 4338, "##andbou": 4339, "##ndbouw": 4340, "##andbouw": 4341, "inzake": 4342, "##epaal": 4343, "jui": 4344, "bov": 4345, "##trole": 4346, "##mmun": 4347, "##ntrole": 4348, "##ontrole": 4349, "##genhei": 4350, "##genheid": 4351, "bove": 4352, "##inst": 4353, "boven": 4354, "beha": 4355, "##jker": 4356, "##ijker": 4357, "##ekeni": 4358, "##doen": 4359, "verantwoordel": 4360, "verantwoordeli": 4361, "verantwoordelij": 4362, "verantwoordelijk": 4363, "##nstru": 4364, "##lledi": 4365, "zod": 4366, "##bili": 4367, "##lledig": 4368, "##olledi": 4369, "##olledig": 4370, "##pass": 4371, "instel": 4372, "##ancie": 4373, "##elfs": 4374, "landb": 4375, "##egenhei": 4376, "##egenheid": 4377, "reke": 4378, "##illend": 4379, "reken": 4380, "landbo": 4381, "landbou": 4382, "landbouw": 4383, "##risi": 4384, "gegev": 4385, "gegeve": 4386, "gegeven": 4387, "##luite": 4388, "##legenhei": 4389, "##legenheid": 4390, "ondern": 4391, "##hoo": 4392, "instell": 4393, "##orstelle": 4394, "##oorstelle": 4395, "##orstellen": 4396, "##oorstellen": 4397, "##rocen": 4398, "##rocent": 4399, "bepaa": 4400, "bepaal": 4401, "##elegenhei": 4402, "##elegenheid": 4403, "##itb": 4404, "##bra": 4405, "##nkeli": 4406, "##enigd": 4407, "##delinge": 4408, "##lema": 4409, "##luiten": 4410, "##fin": 4411, "##uni": 4412, "##jdens": 4413, "##ijdens": 4414, "##deni": 4415, "##01": 4416, "##orw": 4417, "##env": 4418, "vrouwen": 4419, "##renigd": 4420, "##erenigd": 4421, "##uidi": 4422, "bijz": 4423, "##oorw": 4424, "oplos": 4425, "##egie": 4426, "spec": 4427, "procen": 4428, "procent": 4429, "##isti": 4430, "##nkelij": 4431, "##nkelijk": 4432, "##ehou": 4433, "volled": 4434, "volledi": 4435, "volledig": 4436, "##sge": 4437, "##ehoud": 4438, "tijdens": 4439, "krijge": 4440, "krijgen": 4441, "comp": 4442, "##digen": 4443, "zek": 4444, "zeke": 4445, "zeker": 4446, "gezeg": 4447, "##las": 4448, "##ormin": 4449, "##orming": 4450, "##iend": 4451, "##aanse": 4452, "alt": 4453, "##oru": 4454, "##kb": 4455, "##jzo": 4456, "##ijzo": 4457, "verenigd": 4458, "##jzon": 4459, "##ijzon": 4460, "##rzien": 4461, "namel": 4462, "nameli": 4463, "namelij": 4464, "namelijk": 4465, "##tersc": 4466, "##eming": 4467, "gezegd": 4468, "##rmati": 4469, "##jh": 4470, "##ijh": 4471, "##hillend": 4472, "##chillend": 4473, "##schillend": 4474, "##rschillend": 4475, "##erschillend": 4476, "verschillend": 4477, "bijzo": 4478, "##jzond": 4479, "bijzon": 4480, "##ijzond": 4481, "##jzonde": 4482, "bijzond": 4483, "##ijzonde": 4484, "##jzonder": 4485, "bijzonde": 4486, "##ijzonder": 4487, "bijzonder": 4488, "vrag": 4489, "vrage": 4490, "vragen": 4491, "##ars": 4492, "rede": 4493, "bas": 4494, "##ondh": 4495, "##asi": 4496, "mon": 4497, "oploss": 4498, "##ondhe": 4499, "##ondhei": 4500, "##ondheid": 4501, "toege": 4502, "graag": 4503, "##arva": 4504, "##zondh": 4505, "##ezondh": 4506, "##zondhe": 4507, "##ezondhe": 4508, "##zondhei": 4509, "##ezondhei": 4510, "##zondheid": 4511, "##ezondheid": 4512, "##tersch": 4513, "##order": 4514, "##atte": 4515, "sy": 4516, "##erug": 4517, "gezi": 4518, "##arvan": 4519, "##tegie": 4520, "##ategie": 4521, "##trum": 4522, "auto": 4523, "hoop": 4524, "##rategie": 4525, "##trategie": 4526, "##aarva": 4527, "##aarvan": 4528, "eu-": 4529, "problee": 4530, "probleem": 4531, "##cties": 4532, "teru": 4533, "alg": 4534, "terug": 4535, "##slot": 4536, "##terscha": 4537, "uitv": 4538, "##lope": 4539, "##bon": 4540, "##abi": 4541, "##ormat": 4542, "##eper": 4543, "##nwo": 4544, "##forma": 4545, "##ormati": 4546, "##iatie": 4547, "##brei": 4548, "##breid": 4549, "gep": 4550, "##terschap": 4551, "##steu": 4552, "alge": 4553, "##paald": 4554, "##epaald": 4555, "##steun": 4556, "##entr": 4557, "##dden": 4558, "##sul": 4559, "##ttersc": 4560, "##ttersch": 4561, "##ittersc": 4562, "##zittersc": 4563, "##ittersch": 4564, "##tterscha": 4565, "##rzittersc": 4566, "##tterschap": 4567, "##orzittersc": 4568, "##oorzittersc": 4569, "##zittersch": 4570, "##rzittersch": 4571, "##orzittersch": 4572, "##oorzittersch": 4573, "##itterscha": 4574, "##itterschap": 4575, "##zitterscha": 4576, "##rzitterscha": 4577, "##zitterschap": 4578, "##orzitterscha": 4579, "##rzitterschap": 4580, "##oorzitterscha": 4581, "##orzitterschap": 4582, "##oorzitterschap": 4583, "brenge": 4584, "##rijh": 4585, "##oke": 4586, "brengen": 4587, "verm": 4588, "##ommu": 4589, "##ommun": 4590, "##nancie": 4591, "##inancie": 4592, "parti": 4593, "##vormi": 4594, "##format": 4595, "##rmatie": 4596, "##ormatie": 4597, "##anken": 4598, "##lande": 4599, "##oudi": 4600, "pos": 4601, "##formati": 4602, "##kste": 4603, "##ture": 4604, "##oeri": 4605, "##ingsp": 4606, "##gew": 4607, "middele": 4608, "##lopen": 4609, "##dragen": 4610, "##oda": 4611, "##rokke": 4612, "##rkla": 4613, "##erkla": 4614, "##temd": 4615, "##illende": 4616, "leg": 4617, "bepaald": 4618, "##ienste": 4619, "perso": 4620, "##ots": 4621, "##rlo": 4622, "##oced": 4623, "##roced": 4624, "##esi": 4625, "##keu": 4626, "tran": 4627, "##formatie": 4628, "##cedu": 4629, "##cedur": 4630, "##ocedu": 4631, "##rocedu": 4632, "##ocedur": 4633, "##cedure": 4634, "##rocedur": 4635, "##ocedure": 4636, "##rocedure": 4637, "##tens": 4638, "instelli": 4639, "instellin": 4640, "instelling": 4641, "##vormin": 4642, "##vorming": 4643, "##rokken": 4644, "##eers": 4645, "ban": 4646, "##hillende": 4647, "##chillende": 4648, "##schillende": 4649, "##rschillende": 4650, "##erschillende": 4651, "##akeli": 4652, "##epr": 4653, "verschillende": 4654, "middelen": 4655, "##edaa": 4656, "##nad": 4657, "##urli": 4658, "##xt": 4659, "sn": 4660, "##ewel": 4661, "##nkele": 4662, "rechten": 4663, "weer": 4664, "##hie": 4665, "indi": 4666, "##eert": 4667, "voorzittersc": 4668, "voorzittersch": 4669, "voorzitterscha": 4670, "voorzitterschap": 4671, "##trok": 4672, "trans": 4673, "##erme": 4674, "vervo": 4675, "##nforma": 4676, "##agi": 4677, "##oordi": 4678, "##lid": 4679, "##nformat": 4680, "##nformati": 4681, "oor": 4682, "##nderne": 4683, "##keur": 4684, "##\u00e9n": 4685, "##vee": 4686, "##alite": 4687, "achte": 4688, "dis": 4689, "##eraa": 4690, "##tuurl": 4691, "##uurli": 4692, "##rdere": 4693, "rol": 4694, "ad": 4695, "##amens": 4696, "##ekken": 4697, "##woordi": 4698, "aanv": 4699, "##urlij": 4700, "##isis": 4701, "##uurlij": 4702, "##pelijke": 4703, "slo": 4704, "##urlijk": 4705, "##uurlijk": 4706, "##nnee": 4707, "##alde": 4708, "##lage": 4709, "##cl": 4710, "##tuurli": 4711, "##nformatie": 4712, "##tuurlij": 4713, "enkele": 4714, "##tuurlijk": 4715, "##risis": 4716, "##lere": 4717, "##ulp": 4718, "##rkel": 4719, "sec": 4720, "##oken": 4721, "##peci": 4722, "contr": 4723, "##idig": 4724, "##uidig": 4725, "##ndp": 4726, "##jl": 4727, "##sve": 4728, "##ess": 4729, "bedri": 4730, "##.": 4731, "##ijl": 4732, "waarb": 4733, "voorstell": 4734, "##stemd": 4735, "##alitei": 4736, "##aliteit": 4737, "##urr": 4738, "rechts": 4739, "##plic": 4740, "##rus": 4741, "##aderi": 4742, "##gek": 4743, "##ectie": 4744, "##rijve": 4745, "##ossin": 4746, "##ossing": 4747, "##aalde": 4748, "##onsu": 4749, "##ecten": 4750, "##naal": 4751, "##aderin": 4752, "##rea": 4753, "##dag": 4754, "##adering": 4755, "##sli": 4756, "voorge": 4757, "##estemd": 4758, "##vent": 4759, "kle": 4760, "##eral": 4761, "##proc": 4762, "##nemi": 4763, "##lein": 4764, "##rdee": 4765, "##ratis": 4766, "bedrij": 4767, "##ldo": 4768, "##evor": 4769, "##dpu": 4770, "##dpun": 4771, "##dpunt": 4772, "##etek": 4773, "##oes": 4774, "##trokk": 4775, "##trokke": 4776, "##trokken": 4777, "##ept": 4778, "##mij": 4779, "##nemin": 4780, "##chn": 4781, "##neming": 4782, "##roei": 4783, "##jds": 4784, "##ijds": 4785, "huid": 4786, "##derst": 4787, "##proce": 4788, "##bei": 4789, "##akelij": 4790, "voorstelle": 4791, "voorstellen": 4792, "##i\u00ebn": 4793, "##dernem": 4794, "##ndernem": 4795, "##akelijk": 4796, "##artij": 4797, "##jzi": 4798, "##ensten": 4799, "##ijzi": 4800, "##erkel": 4801, "##ukke": 4802, "##eteke": 4803, "##eteken": 4804, "##iaal": 4805, "##asis": 4806, "##nsta": 4807, "##iensten": 4808, "##emaak": 4809, "want": 4810, "##nderst": 4811, "##emaakt": 4812, "##stis": 4813, "##orl": 4814, "##leve": 4815, "verba": 4816, "##andp": 4817, "##sn": 4818, "##stisc": 4819, "##stisch": 4820, "herv": 4821, "onderhan": 4822, "onderhand": 4823, "##ehande": 4824, "##ehandel": 4825, "huidi": 4826, "huidig": 4827, "##echn": 4828, "beschi": 4829, "##nva": 4830, "##voeg": 4831, "##gevo": 4832, "##idige": 4833, "##uidige": 4834, "##uctu": 4835, "spre": 4836, "toen": 4837, "vre": 4838, "beschik": 4839, "mind": 4840, "##ilite": 4841, "minde": 4842, "minder": 4843, "##atuurl": 4844, "##atuurli": 4845, "##atuurlij": 4846, "##rijven": 4847, "##ensi": 4848, "##atuurlijk": 4849, "##ucti": 4850, "##tbr": 4851, "##scho": 4852, "##oerd": 4853, "##ructu": 4854, "##tructu": 4855, "##tati": 4856, "##prak": 4857, "##ndpu": 4858, "##ndpun": 4859, "##ndpunt": 4860, "natuurl": 4861, "onderhande": 4862, "natuurli": 4863, "natuurlij": 4864, "natuurlijk": 4865, "##zett": 4866, "##une": 4867, "##fec": 4868, "onderhandel": 4869, "##iere": 4870, "##lossi": 4871, "##lossin": 4872, "##lossing": 4873, "sne": 4874, "##rove": 4875, "##lote": 4876, "##fect": 4877, "welk": 4878, "##ofd": 4879, "##waarde": 4880, "##annee": 4881, "##andpu": 4882, "##andpun": 4883, "##andpunt": 4884, "##loten": 4885, "zelfs": 4886, "consu": 4887, "ca": 4888, "##nisa": 4889, "##kenin": 4890, "beste": 4891, "##haa": 4892, "achter": 4893, "huidige": 4894, "##etere": 4895, "##kening": 4896, "##delingen": 4897, "##tandp": 4898, "##eloo": 4899, "##plossi": 4900, "##plossin": 4901, "##plossing": 4902, "ant": 4903, "##tandpu": 4904, "##nterne": 4905, "##tandpun": 4906, "##tandpunt": 4907, "##unte": 4908, "uitb": 4909, "##ex": 4910, "##ave": 4911, "##eslo": 4912, "##edaan": 4913, "juis": 4914, "juist": 4915, "##natie": 4916, "##evoeg": 4917, "##ppelijke": 4918, "##appelijke": 4919, "##happelijke": 4920, "##chappelijke": 4921, "##nisat": 4922, "namen": 4923, "cris": 4924, "##schappelijke": 4925, "##tia": 4926, "##beu": 4927, "snel": 4928, "##nteg": 4929, "##elg": 4930, "##beur": 4931, "##jdr": 4932, "##ijdr": 4933, "##lfd": 4934, "##fende": 4935, "##rev": 4936, "##lgem": 4937, "uitvo": 4938, "##pak": 4939, "uitvoe": 4940, "uitvoer": 4941, "##lgeme": 4942, "##emaal": 4943, "aanz": 4944, "interne": 4945, "##nsum": 4946, "##onsum": 4947, "##lta": 4948, "##ilitei": 4949, "##iliteit": 4950, "informa": 4951, "##oofd": 4952, "##perk": 4953, "doels": 4954, "##rdo": 4955, "beschermi": 4956, "beschermin": 4957, "bescherming": 4958, "##etrok": 4959, "##tings": 4960, "##npa": 4961, "doelst": 4962, "doelste": 4963, "doelstel": 4964, "doelstell": 4965, "doelstelli": 4966, "doelstellin": 4967, "doelstelling": 4968, "##teem": 4969, "woo": 4970, "##erre": 4971, "##rende": 4972, "##etrokk": 4973, "##etrokke": 4974, "##etrokken": 4975, "informat": 4976, "informati": 4977, "##dia": 4978, "onderne": 4979, "##ystee": 4980, "##steem": 4981, "##ysteem": 4982, "##lfde": 4983, "waarde": 4984, "##beid": 4985, "##oeken": 4986, "gebe": 4987, "##ekenin": 4988, "##ekening": 4989, "tek": 4990, "##dwe": 4991, "##ject": 4992, "##grat": 4993, "##ogelijkh": 4994, "##ogelijkhe": 4995, "hele": 4996, "##grati": 4997, "##rwerp": 4998, "\u00e9": 4999, "speci": 5000, "basi": 5001, "##tinge": 5002, "##ffende": 5003, "##rkeli": 5004, "##gratie": 5005, "##rkelij": 5006, "##rkelijk": 5007, "##dend": 5008, "##erkeli": 5009, "##erkelij": 5010, "##erkelijk": 5011, "schrif": 5012, "schrift": 5013, "##efe": 5014, "basis": 5015, "##rtr": 5016, "##mmen": 5017, "##lemaa": 5018, "##effende": 5019, "##gisc": 5020, "##emme": 5021, "##strij": 5022, "##lden": 5023, "##gisch": 5024, "##ftel": 5025, "##reffende": 5026, "##fteli": 5027, "##ftelij": 5028, "##ftelijk": 5029, "##iftel": 5030, "##ifteli": 5031, "##iftelij": 5032, "##iftelijk": 5033, "##riftel": 5034, "##hriftel": 5035, "##rifteli": 5036, "schrifte": 5037, "##chriftel": 5038, "##hrifteli": 5039, "##riftelij": 5040, "schriftel": 5041, "##chrifteli": 5042, "##hriftelij": 5043, "##riftelijk": 5044, "schrifteli": 5045, "##chriftelij": 5046, "##hriftelijk": 5047, "schriftelij": 5048, "##chriftelijk": 5049, "schriftelijk": 5050, "##rsp": 5051, "commu": 5052, "commun": 5053, "##tend": 5054, "##jdra": 5055, "##ijdra": 5056, "strat": 5057, "voorbe": 5058, "##vert": 5059, "##erec": 5060, "##ubl": 5061, "##orui": 5062, "strate": 5063, "##ria": 5064, "##oruit": 5065, "##ooru": 5066, "informatie": 5067, "##dg": 5068, "##oorui": 5069, "##ooruit": 5070, "algem": 5071, "algeme": 5072, "standp": 5073, "##eine": 5074, "##rbei": 5075, "##rbeid": 5076, "standpu": 5077, "##olog": 5078, "standpun": 5079, "standpunt": 5080, "##elfd": 5081, "##treffende": 5082, "##dent": 5083, "##iene": 5084, "##werke": 5085, "##ebeu": 5086, "##ebeur": 5087, "##assi": 5088, "verwe": 5089, "##elfde": 5090, "##rro": 5091, "bie": 5092, "##dv": 5093, "genoe": 5094, "##cur": 5095, "##tingen": 5096, "##geva": 5097, "##unten": 5098, "vooru": 5099, "voorui": 5100, "vooruit": 5101, "##cratis": 5102, "##kee": 5103, "##nneer": 5104, "##ida": 5105, "##ezet": 5106, "##gels": 5107, "betek": 5108, "beteke": 5109, "beteken": 5110, "##logi": 5111, "wann": 5112, "##anneer": 5113, "##ubli": 5114, "wanne": 5115, "wannee": 5116, "wanneer": 5117, "gebeu": 5118, "gebeur": 5119, "##nisati": 5120, "rea": 5121, "##rmij": 5122, "##ermij": 5123, "##ewi": 5124, "##ebo": 5125, "zoda": 5126, "##lemaal": 5127, "##nisatie": 5128, "##onge": 5129, "##chu": 5130, "verte": 5131, "##erwerp": 5132, "##ngez": 5133, "##gene": 5134, "prog": 5135, "##erech": 5136, "##erecht": 5137, "##rlijke": 5138, "##chie": 5139, "##jhe": 5140, "##ijhe": 5141, "verzoe": 5142, "##oz": 5143, "strateg": 5144, "bijd": 5145, "##stit": 5146, "bijdr": 5147, "##rover": 5148, "consum": 5149, "betro": 5150, "##reve": 5151, "strategi": 5152, "##oepen": 5153, "##inis": 5154, "##sid": 5155, "##ndelinge": 5156, "##dus": 5157, "bijdra": 5158, "kwa": 5159, "##slote": 5160, "##sloten": 5161, "##gelo": 5162, "##nemer": 5163, "ondernem": 5164, "##zelfd": 5165, "##zelfde": 5166, "bied": 5167, "ster": 5168, "##rvoe": 5169, "##ntra": 5170, "##tm": 5171, "gezon": 5172, "##enta": 5173, "##rdige": 5174, "##nlijke": 5175, "##ustr": 5176, "##landen": 5177, "##schri": 5178, "##reven": 5179, "##eslot": 5180, "##eslote": 5181, "##esloten": 5182, "##keer": 5183, "##cat": 5184, "pas": 5185, "pra": 5186, "##rse": 5187, "##ichten": 5188, "gezond": 5189, "##mste": 5190, "bestaan": 5191, "##preken": 5192, "##oris": 5193, "staan": 5194, "##oorden": 5195, "##ologi": 5196, "##uctie": 5197, "##enwo": 5198, "som": 5199, "jo": 5200, "kos": 5201, "##edige": 5202, "##asse": 5203, "##rijhe": 5204, "##ttin": 5205, "##hoe": 5206, "##tne": 5207, "##enad": 5208, "oplossi": 5209, "oplossin": 5210, "oplossing": 5211, "progr": 5212, "##aars": 5213, "##genw": 5214, "##tiv": 5215, "##sent": 5216, "niv": 5217, "##rdeel": 5218, "##band": 5219, "nive": 5220, "\u00e9\u00e9": 5221, "\u00e9\u00e9n": 5222, "##legd": 5223, "##urre": 5224, "##tbre": 5225, "##tali": 5226, "nivea": 5227, "niveau": 5228, "##rale": 5229, "##ncu": 5230, "##ners": 5231, "##atische": 5232, "namens": 5233, "##rake": 5234, "##roke": 5235, "##tiat": 5236, "##ece": 5237, "##ice": 5238, "##jen": 5239, "##egenw": 5240, "uiter": 5241, "##jo": 5242, "##liser": 5243, "##tiati": 5244, "##rban": 5245, "##atst": 5246, "##doo": 5247, "##rwaa": 5248, "##atief": 5249, "stemmi": 5250, "##biede": 5251, "##tiatie": 5252, "stemmin": 5253, "stemming": 5254, "vrijh": 5255, "##roken": 5256, "##vord": 5257, "##vorde": 5258, "##vorder": 5259, "##inist": 5260, "##rwaar": 5261, "##tsl": 5262, "##tik": 5263, "##weze": 5264, "##wezen": 5265, "##aatst": 5266, "##geren": 5267, "##curr": 5268, "##jdi": 5269, "##itia": 5270, "##ncur": 5271, "##strijd": 5272, "##lige": 5273, "##ehoude": 5274, "##oncu": 5275, "##ncurr": 5276, "##oncur": 5277, "##oncurr": 5278, "##curre": 5279, "##ncurre": 5280, "##oncurre": 5281, "##nitia": 5282, "##o's": 5283, "##itiat": 5284, "##nitiat": 5285, "##oldo": 5286, "komt": 5287, "##rhandeli": 5288, "##erhandeli": 5289, "##rhandelin": 5290, "##erhandelin": 5291, "##rhandeling": 5292, "##erhandeling": 5293, "daarv": 5294, "##itiati": 5295, "##nitiati": 5296, "##ijdi": 5297, "onderst": 5298, "##esu": 5299, "##rges": 5300, "##had": 5301, "##tap": 5302, "##imi": 5303, "##lijker": 5304, "##demente": 5305, "##dementen": 5306, "##itiatie": 5307, "##nitiatie": 5308, "##fere": 5309, "##reidi": 5310, "##reidin": 5311, "##reiding": 5312, "mini": 5313, "##derhandeli": 5314, "##nderhandeli": 5315, "##derhandelin": 5316, "##nderhandelin": 5317, "##derhandeling": 5318, "##nderhandeling": 5319, "##onen": 5320, "##rings": 5321, "##owe": 5322, "##fra": 5323, "##ntel": 5324, "##dis": 5325, "##arte": 5326, "##asti": 5327, "##tab": 5328, "##anni": 5329, "##ldoe": 5330, "##iem": 5331, "##rc": 5332, "verkl": 5333, "##elegd": 5334, "##lagen": 5335, "##oldoe": 5336, "crisi": 5337, "crisis": 5338, "##edie": 5339, "mogen": 5340, "##ffec": 5341, "##ffect": 5342, "org": 5343, "net": 5344, "##jdrag": 5345, "##ijdrag": 5346, "##jdrage": 5347, "##ijdrage": 5348, "orga": 5349, "##genwo": 5350, "##egenwo": 5351, "##erban": 5352, "##erbi": 5353, "disc": 5354, "##ester": 5355, "##nstellinge": 5356, "##nstellingen": 5357, "mees": 5358, "woor": 5359, "woord": 5360, "##ordig": 5361, "##ndemente": 5362, "##endemente": 5363, "##ndementen": 5364, "##endementen": 5365, "##sver": 5366, "##nwoo": 5367, "##ork": 5368, "##mendemente": 5369, "##mendementen": 5370, "##ankel": 5371, "##nwoor": 5372, "##nwoord": 5373, "##gre": 5374, "##spar": 5375, "##bilit": 5376, "##enwoo": 5377, "##enwoor": 5378, "##enwoord": 5379, "##genwoo": 5380, "##egenwoo": 5381, "##genwoor": 5382, "##nwoordi": 5383, "##egenwoor": 5384, "##genwoord": 5385, "##enwoordi": 5386, "##egenwoord": 5387, "##genwoordi": 5388, "##egenwoordi": 5389, "##oordig": 5390, "##woordig": 5391, "##nwoordig": 5392, "##enwoordig": 5393, "##genwoordig": 5394, "##egenwoordig": 5395, "##eperk": 5396, "##serin": 5397, "##sering": 5398, "##htv": 5399, "##chtv": 5400, "##evord": 5401, "##evorde": 5402, "##evorder": 5403, "concu": 5404, "concur": 5405, "##toff": 5406, "concurr": 5407, "concurre": 5408, "##anzi": 5409, "##rpl": 5410, "##sume": 5411, "##ieel": 5412, "##tting": 5413, "##bieden": 5414, "##delijkh": 5415, "##delijkhe": 5416, "##rakt": 5417, "##toffe": 5418, "##nsume": 5419, "##onsume": 5420, "##rdigd": 5421, "##ime": 5422, "##ieb": 5423, "##wijs": 5424, "##iseri": 5425, "##\u00f3": 5426, "##gezi": 5427, "##rband": 5428, "##erband": 5429, "##seli": 5430, "##dge": 5431, "##iserin": 5432, "##isering": 5433, "##stin": 5434, "meest": 5435, "##ndac": 5436, "##sma": 5437, "bena": 5438, "##ooi": 5439, "##erpl": 5440, "##rteg": 5441, "gesc": 5442, "##istis": 5443, "##ctiev": 5444, "bijdrag": 5445, "bijdrage": 5446, "##ndach": 5447, "##ndacht": 5448, "##istisc": 5449, "##istisch": 5450, "3": 5451, "##ankeli": 5452, "##ankelij": 5453, "##ankelijk": 5454, "##andac": 5455, "##lim": 5456, "##bilite": 5457, "##sult": 5458, "##obe": 5459, "##loof": 5460, "gesch": 5461, "##alin": 5462, "##pri": 5463, "##ratisc": 5464, "##ratisch": 5465, "##bilitei": 5466, "##biliteit": 5467, "##andach": 5468, "##andacht": 5469, "##cratisc": 5470, "##cratisch": 5471, "##tike": 5472, "##strum": 5473, "##dels": 5474, "##mes": 5475, "##sst": 5476, "##cier": 5477, "##nstrum": 5478, "##rume": 5479, "##trume": 5480, "##rumen": 5481, "##strume": 5482, "##trumen": 5483, "##rument": 5484, "##nstrume": 5485, "##strumen": 5486, "##trument": 5487, "##nstrumen": 5488, "##strument": 5489, "##nstrument": 5490, "vold": 5491, "aanda": 5492, "aandac": 5493, "aandach": 5494, "aandacht": 5495, "##ereid": 5496, "\u201d": 5497, "##uld": 5498, "##arop": 5499, "##owel": 5500, "##voerd": 5501, "##mpe": 5502, "##kg": 5503, "##gu": 5504, "##anzie": 5505, "##anzien": 5506, "behan": 5507, "geli": 5508, "progra": 5509, "program": 5510, "behand": 5511, "behande": 5512, "behandel": 5513, "##rvor": 5514, "##hul": 5515, "consume": 5516, "##rvorm": 5517, "##ervor": 5518, "zow": 5519, "##ervorm": 5520, "programm": 5521, "##rvoer": 5522, "arb": 5523, "ken": 5524, "##dzak": 5525, "##ndelij": 5526, "##ndelijk": 5527, "gea": 5528, "##enis": 5529, "aanzi": 5530, "##anp": 5531, "##dzake": 5532, "##adr": 5533, "aanzie": 5534, "aanzien": 5535, "##kw": 5536, "verzoek": 5537, "reso": 5538, "##cre": 5539, "amendemente": 5540, "amendementen": 5541, "##aarop": 5542, "hoog": 5543, "zowe": 5544, "zowel": 5545, "##sumen": 5546, "##sument": 5547, "##nsumen": 5548, "##onsumen": 5549, "##nsument": 5550, "##onsument": 5551, "posi": 5552, "posit": 5553, "positi": 5554, "##emers": 5555, "##igt": 5556, "##oeve": 5557, "##lari": 5558, "##omie": 5559, "resol": 5560, "resolu": 5561, "contro": 5562, "##nomie": 5563, "##zakel": 5564, "##zakeli": 5565, "##zakelij": 5566, "##zakelijk": 5567, "##entee": 5568, "##onomie": 5569, "gere": 5570, "##vu": 5571, "##edan": 5572, "##nemers": 5573, "derd": 5574, "derde": 5575, "##rtege": 5576, "verle": 5577, "##rtegen": 5578, "positie": 5579, "##tera": 5580, "##dzakel": 5581, "##dzakeli": 5582, "##dzakelij": 5583, "##dzakelijk": 5584, "##edra": 5585, "##ehouden": 5586, "##cce": 5587, "##roj": 5588, "##achti": 5589, "##esul": 5590, "##evolge": 5591, "##kere": 5592, "##esult": 5593, "##egri": 5594, "##ertr": 5595, "consumen": 5596, "consument": 5597, "##inse": 5598, "##ansp": 5599, "stri": 5600, "##rve": 5601, "##angs": 5602, "##amp": 5603, "id": 5604, "##ncier": 5605, "##ancier": 5606, "gedaa": 5607, "gre": 5608, "verkla": 5609, "##anw": 5610, "##urd": 5611, "##eric": 5612, "arbe": 5613, "benad": 5614, "arbei": 5615, "bijv": 5616, "arbeid": 5617, "reden": 5618, "verban": 5619, "##ocratis": 5620, "##rlan": 5621, "##last": 5622, "##ulta": 5623, "##erwa": 5624, "volgens": 5625, "##ctieve": 5626, "toc": 5627, "##anpa": 5628, "toch": 5629, "derg": 5630, "derge": 5631, "dergel": 5632, "dergeli": 5633, "dergelij": 5634, "dergelijk": 5635, "iet": 5636, "##ient": 5637, "##issen": 5638, "sti": 5639, "##estri": 5640, "##oegd": 5641, "##isten": 5642, "##fel": 5643, "##jvo": 5644, "moei": 5645, "##erich": 5646, "##ervoe": 5647, "verband": 5648, "##ana": 5649, "geho": 5650, "##rtn": 5651, "##ericht": 5652, "##voorb": 5653, "##voorbe": 5654, "##fh": 5655, "##e\u00ebn": 5656, "##rto": 5657, "klei": 5658, "resolut": 5659, "##denin": 5660, "klein": 5661, "##mocratis": 5662, "##emocratis": 5663, "##voorbee": 5664, "##voorbeel": 5665, "##voorbeeld": 5666, "##rri": 5667, "ide": 5668, "##egels": 5669, "##rtne": 5670, "##artn": 5671, "##rkom": 5672, "##ndus": 5673, "##schie": 5674, "bevor": 5675, "bevord": 5676, "bevorde": 5677, "bevorder": 5678, "##jfe": 5679, "##ijfe": 5680, "mogelijkh": 5681, "mogelijkhe": 5682, "##assin": 5683, "##jne": 5684, "##sulta": 5685, "ervo": 5686, "##uim": 5687, "##ijne": 5688, "##artne": 5689, "##ded": 5690, "##rdeni": 5691, "##rdenin": 5692, "##dening": 5693, "##rdening": 5694, "##plich": 5695, "##plicht": 5696, "aanp": 5697, "##ijvo": 5698, "ervoo": 5699, "ervoor": 5700, "sla": 5701, "##stemm": 5702, "vinde": 5703, "vinden": 5704, "dag": 5705, "iets": 5706, "kin": 5707, "##kti": 5708, "##jvoo": 5709, "##ijvoo": 5710, "##jvoor": 5711, "##ijvoor": 5712, "resoluti": 5713, "resolutie": 5714, "##assing": 5715, "leide": 5716, "bijvo": 5717, "##verd": 5718, "##sprek": 5719, "##oedi": 5720, "war": 5721, "##jvoorb": 5722, "##ijvoorb": 5723, "##jvoorbe": 5724, "##ijvoorbe": 5725, "##jvoorbee": 5726, "##ijvoorbee": 5727, "##jvoorbeel": 5728, "##ijvoorbeel": 5729, "##jvoorbeeld": 5730, "##ijvoorbeeld": 5731, "bijvoo": 5732, "bijvoor": 5733, "gelij": 5734, "bijvoorb": 5735, "bijvoorbe": 5736, "bijvoorbee": 5737, "bijvoorbeel": 5738, "bijvoorbeeld": 5739, "##tner": 5740, "gelijk": 5741, "##rtner": 5742, "##artner": 5743, "##erva": 5744, "##hal": 5745, "##erings": 5746, "##nige": 5747, "get": 5748, "verp": 5749, "##ndelingen": 5750, "##ezing": 5751, "##nga": 5752, "##anva": 5753, "hervo": 5754, "##ret": 5755, "##andelinge": 5756, "##andelingen": 5757, "ini": 5758, "##atsc": 5759, "hervor": 5760, "hervorm": 5761, "##derwe": 5762, "sect": 5763, "##joe": 5764, "aanpa": 5765, "##appen": 5766, "##aatsc": 5767, "gehe": 5768, "##prake": 5769, "##dust": 5770, "##digde": 5771, "##ndust": 5772, "##dustr": 5773, "##ndustr": 5774, "##atsch": 5775, "##rein": 5776, "##anisa": 5777, "##anisat": 5778, "programma": 5779, "##ustri": 5780, "##elp": 5781, "##aatsch": 5782, "##erij": 5783, "##erti": 5784, "##dustri": 5785, "##ndustri": 5786, "secto": 5787, "##esulta": 5788, "sector": 5789, "##atscha": 5790, "##aatscha": 5791, "##lgend": 5792, "##olgend": 5793, "##atschap": 5794, "##aatschap": 5795, "##ganisa": 5796, "##rganisa": 5797, "##ganisat": 5798, "##rganisat": 5799, "##\u00efn": 5800, "##voegd": 5801, "##evoegd": 5802, "conf": 5803, "##ljo": 5804, "##koo": 5805, "##edo": 5806, "##vl": 5807, "gec": 5808, "##iljo": 5809, "##riteite": 5810, "##riteiten": 5811, "##ljoe": 5812, "##oriteite": 5813, "##oriteiten": 5814, "##joen": 5815, "##iljoe": 5816, "##ljoen": 5817, "##iljoen": 5818, "gevolge": 5819, "##kba": 5820, "##nieu": 5821, "##aut": 5822, "##cratie": 5823, "##tschapp": 5824, "##ikel": 5825, "##roepe": 5826, "##andse": 5827, "##passi": 5828, "##gad": 5829, "##eune": 5830, "ervan": 5831, "gemaa": 5832, "rus": 5833, "stap": 5834, "##landse": 5835, "tec": 5836, "##conomie": 5837, "miljo": 5838, "##gebi": 5839, "##gins": 5840, "##gebie": 5841, "##gebied": 5842, "##klar": 5843, "##nlands": 5844, "miljoe": 5845, "miljoen": 5846, "gemaak": 5847, "gemaakt": 5848, "##enlands": 5849, "control": 5850, "##mar": 5851, "##net": 5852, "gedaan": 5853, "##passin": 5854, "##passing": 5855, "##ldoen": 5856, "waarv": 5857, "##oldoen": 5858, "##kelings": 5859, "##menl": 5860, "##ller": 5861, "##legg": 5862, "##oork": 5863, "controle": 5864, "##nancier": 5865, "##inancier": 5866, "gren": 5867, "##amenl": 5868, "tech": 5869, "eni": 5870, "techn": 5871, "##emb": 5872, "##odzak": 5873, "##oodzak": 5874, "##odzake": 5875, "##oodzake": 5876, "##orwa": 5877, "##kkelings": 5878, "##indere": 5879, "##oorwa": 5880, "##ikkelings": 5881, "##wikkelings": 5882, "sterk": 5883, "##ijen": 5884, "##orwaa": 5885, "##oorwaa": 5886, "##orwaar": 5887, "##oorwaar": 5888, "##wal": 5889, "##odzakel": 5890, "##oodzakel": 5891, "##odzakeli": 5892, "##oodzakeli": 5893, "##odzakelij": 5894, "##oodzakelij": 5895, "##odzakelijk": 5896, "##oodzakelijk": 5897, "bepe": 5898, "beper": 5899, "beperk": 5900, "iedere": 5901, "##rklar": 5902, "##erklar": 5903, "##andig": 5904, "##elke": 5905, "##sluite": 5906, "##nderwe": 5907, "##erteg": 5908, "##ertege": 5909, "##ertegen": 5910, "##derhe": 5911, "effe": 5912, "##sser": 5913, "##unen": 5914, "##verh": 5915, "verga": 5916, "##rkg": 5917, "##estrij": 5918, "##espro": 5919, "##sw": 5920, "##evoer": 5921, "##lka": 5922, "##eunen": 5923, "##twikkelings": 5924, "##ntwikkelings": 5925, "financie": 5926, "##aling": 5927, "##erkg": 5928, "##verg": 5929, "##ussi": 5930, "##adru": 5931, "bek": 5932, "##ordeni": 5933, "##ordenin": 5934, "##ordening": 5935, "##adruk": 5936, "##tivi": 5937, "noodzak": 5938, "noodzake": 5939, "noodzakel": 5940, "noodzakeli": 5941, "noodzakelij": 5942, "noodzakelijk": 5943, "##gade": 5944, "##nschappelijke": 5945, "##enschappelijke": 5946, "enig": 5947, "gelo": 5948, "##rekke": 5949, "##rze": 5950, "mag": 5951, "kind": 5952, "##taal": 5953, "##nor": 5954, "init": 5955, "initi": 5956, "##arant": 5957, "##kent": 5958, "##iver": 5959, "##aliser": 5960, "##insel": 5961, "##egins": 5962, "##sting": 5963, "##oje": 5964, "##nstig": 5965, "resu": 5966, "##vit": 5967, "##anisati": 5968, "resul": 5969, "result": 5970, "tre": 5971, "##teune": 5972, "##ase": 5973, "##roje": 5974, "##sluiten": 5975, "##gader": 5976, "##teunen": 5977, "organ": 5978, "##ginse": 5979, "##eginse": 5980, "##ginsel": 5981, "##eginsel": 5982, "##anisatie": 5983, "here": 5984, "##rgad": 5985, "##ergad": 5986, "##rgade": 5987, "##ergade": 5988, "##rgader": 5989, "##ergader": 5990, "##ganisati": 5991, "##rganisati": 5992, "##tgan": 5993, "##ojec": 5994, "##rojec": 5995, "##oject": 5996, "##roject": 5997, "##tgang": 5998, "##ciaa": 5999, "##ganisatie": 6000, "##rganisatie": 6001, "heren": 6002, "##dre": 6003, "##paalde": 6004, "##epaalde": 6005, "##wijz": 6006, "##ctiv": 6007, "##inderen": 6008, "##rwaard": 6009, "##egan": 6010, "##nct": 6011, "##nigde": 6012, "##nam": 6013, "##ehoe": 6014, "##rgest": 6015, "vrijhe": 6016, "##ciaal": 6017, "onderwe": 6018, "##reer": 6019, "effec": 6020, "effect": 6021, "##etreff": 6022, "##etreffe": 6023, "##etreffen": 6024, "##nieuw": 6025, "##ezig": 6026, "##vall": 6027, "##igr": 6028, "##uz": 6029, "##telijke": 6030, "##lstellinge": 6031, "##elstellinge": 6032, "##lstellingen": 6033, "##oelstellinge": 6034, "##elstellingen": 6035, "##oelstellingen": 6036, "kra": 6037, "##vel": 6038, "##elijker": 6039, "##tegenw": 6040, "##tegenwo": 6041, "##tegenwoo": 6042, "##tegenwoor": 6043, "##tegenwoord": 6044, "##tegenwoordi": 6045, "##rwaarde": 6046, "/": 6047, "##tho": 6048, "initia": 6049, "##tegenwoordig": 6050, "##odat": 6051, "##eror": 6052, "initiat": 6053, "##ukken": 6054, "verge": 6055, "##drijv": 6056, "##enigde": 6057, "##renigde": 6058, "##erenigde": 6059, "##\u00ebnt": 6060, "drie": 6061, "##inat": 6062, "initiati": 6063, "##derwer": 6064, "##list": 6065, "hul": 6066, "duu": 6067, "##annin": 6068, "verenigde": 6069, "duur": 6070, "voer": 6071, "##voeri": 6072, "werkg": 6073, "##rtegenw": 6074, "##ertegenw": 6075, "##rtegenwo": 6076, "##ertegenwo": 6077, "##rtegenwoo": 6078, "##ertegenwoo": 6079, "##rtegenwoor": 6080, "##ertegenwoor": 6081, "##rtegenwoord": 6082, "##ertegenwoord": 6083, "##rtegenwoordi": 6084, "##ertegenwoordi": 6085, "##pann": 6086, "##rtegenwoordig": 6087, "##ertegenwoordig": 6088, "##nderwer": 6089, "initiatie": 6090, "##each": 6091, "##assen": 6092, "##eind": 6093, "verste": 6094, "##jp": 6095, "zodat": 6096, "##ijp": 6097, "##anning": 6098, "##derwerp": 6099, "##nderwerp": 6100, "##rpe": 6101, "onderhandeli": 6102, "onderhandelin": 6103, "onderhandeling": 6104, "groei": 6105, "cu": 6106, "##rtui": 6107, "##jnen": 6108, "##ijnen": 6109, "##mijn": 6110, "##door": 6111, "##zijd": 6112, "##ebre": 6113, "bepaalde": 6114, "##kende": 6115, "##ute": 6116, "##gezie": 6117, "##gezien": 6118, "lig": 6119, "##ltij": 6120, "##ocratisc": 6121, "##ocratisch": 6122, "##ltijd": 6123, "##rvormi": 6124, "##ervormi": 6125, "##rvormin": 6126, "##ervormin": 6127, "##jns": 6128, "##ijns": 6129, "##rvorming": 6130, "##ervorming": 6131, "##-e": 6132, "##ardigd": 6133, "##aardigd": 6134, "##feren": 6135, "##ervoer": 6136, "##doel": 6137, "##rord": 6138, "instellinge": 6139, "instellingen": 6140, "##estrijd": 6141, "##erord": 6142, "##lechts": 6143, "genom": 6144, "##rorde": 6145, "##erorde": 6146, "##i\u00ebnt": 6147, "viss": 6148, "##rgeste": 6149, "##rorden": 6150, "##erorden": 6151, "slechts": 6152, "##handelinge": 6153, "##handelingen": 6154, "##rordeni": 6155, "##erordeni": 6156, "##rordenin": 6157, "##erordenin": 6158, "##rordening": 6159, "##erordening": 6160, "##itai": 6161, "##disc": 6162, "##itair": 6163, "##ebra": 6164, "onderwer": 6165, "##adi": 6166, "verpl": 6167, "##rim": 6168, "nad": 6169, "lange": 6170, "onderwerp": 6171, "ag": 6172, "genome": 6173, "genomen": 6174, "##rho": 6175, "##brac": 6176, "##brach": 6177, "##anwe": 6178, "##aven": 6179, "##bracht": 6180, "##nere": 6181, "##rtuig": 6182, "##enz": 6183, "art": 6184, "ontwikkelings": 6185, "betrok": 6186, "betrokk": 6187, "betrokke": 6188, "betrokken": 6189, "##fl": 6190, "##arn": 6191, "##vaardigd": 6192, "resulta": 6193, "##eloof": 6194, "vaa": 6195, "##vange": 6196, "##ldi": 6197, "##mocratisc": 6198, "##mocratisch": 6199, "##emocratisc": 6200, "##emocratisch": 6201, "##drijve": 6202, "##strat": 6203, "##drijven": 6204, "##jft": 6205, "##ijft": 6206, "voork": 6207, "##abo": 6208, "##itbr": 6209, "##tatie": 6210, "##offen": 6211, "##enni": 6212, "##igra": 6213, "state": 6214, "##evoerd": 6215, "##ncti": 6216, "gezondh": 6217, "gezondhe": 6218, "gezondhei": 6219, "gezondheid": 6220, "##rster": 6221, "##rgestel": 6222, "##rgesteld": 6223, "slot": 6224, "##nce": 6225, "##ebrac": 6226, "##ebrach": 6227, "##ebracht": 6228, "##jst": 6229, "##erster": 6230, "##ebiede": 6231, "##pz": 6232, "##ebieden": 6233, "##bere": 6234, "##itst": 6235, "##ijst": 6236, "##elas": 6237, "##isser": 6238, "nee": 6239, "##emmen": 6240, "volgend": 6241, "je": 6242, "##terke": 6243, "##eig": 6244, "alti": 6245, "##gelege": 6246, "##gelegen": 6247, "##vite": 6248, "##kge": 6249, "##vitei": 6250, "##viteit": 6251, "##ivit": 6252, "##wali": 6253, "pres": 6254, "##elast": 6255, "##raan": 6256, "gestem": 6257, "##ertu": 6258, "gestemd": 6259, "##erho": 6260, "##tvaa": 6261, "##tvaar": 6262, "##oos": 6263, "uitbr": 6264, "##icat": 6265, "##lac": 6266, "##ndr": 6267, "##urt": 6268, "##mog": 6269, "altij": 6270, "altijd": 6271, "##volk": 6272, "##nui": 6273, "##fici": 6274, "##ivite": 6275, "##ivitei": 6276, "##iviteit": 6277, "##sterk": 6278, "##ctivi": 6279, "partij": 6280, "ero": 6281, "staten": 6282, "##oega": 6283, "##ducti": 6284, "##ienen": 6285, "##ewee": 6286, "##evolgen": 6287, "es": 6288, "##orga": 6289, "##endie": 6290, "vergad": 6291, "vergade": 6292, "vergader": 6293, "visse": 6294, "##tuk": 6295, "##etreffend": 6296, "##vendi": 6297, "##nuit": 6298, "ware": 6299, "hulp": 6300, "##too": 6301, "##rren": 6302, "##mde": 6303, "beda": 6304, "voldo": 6305, "##etreffende": 6306, "##mul": 6307, "ree": 6308, "##ovend": 6309, "##nov": 6310, "##oepa": 6311, "##edrag": 6312, "##rnemi": 6313, "##rnemin": 6314, "##rneming": 6315, "##endien": 6316, "##einde": 6317, "##agin": 6318, "##oepas": 6319, "##onaa": 6320, "##oegan": 6321, "##rsterk": 6322, "##ersterk": 6323, "##msti": 6324, "gewo": 6325, "##ffic": 6326, "##delijkhei": 6327, "##delijkheid": 6328, "##valle": 6329, "insp": 6330, "##ibe": 6331, "sys": 6332, "##venti": 6333, "##late": 6334, "syst": 6335, "syste": 6336, "##temme": 6337, "##nha": 6338, "##tivit": 6339, "geleg": 6340, "verster": 6341, "versterk": 6342, "gevolgen": 6343, "##fha": 6344, "##omsti": 6345, "##rhandelinge": 6346, "##erhandelinge": 6347, "##rhandelingen": 6348, "##erhandelingen": 6349, "##dam": 6350, "##komsti": 6351, "##derhandelinge": 6352, "##nderhandelinge": 6353, "##derhandelingen": 6354, "##nderhandelingen": 6355, "jar": 6356, "##mstig": 6357, "##omstig": 6358, "##komstig": 6359, "##imaa": 6360, "##anderi": 6361, "##edank": 6362, "voldoe": 6363, "##lles": 6364, "##khed": 6365, "##khede": 6366, "##kheden": 6367, "zet": 6368, "##anderin": 6369, "##andering": 6370, "##randeri": 6371, "##randerin": 6372, "##randering": 6373, "##eranderi": 6374, "##eranderin": 6375, "##erandering": 6376, "##larin": 6377, "##laring": 6378, "##tve": 6379, "hervormi": 6380, "hervormin": 6381, "##klari": 6382, "##klarin": 6383, "##klaring": 6384, "hervorming": 6385, "##auw": 6386, "##tivite": 6387, "##tivitei": 6388, "##tiviteit": 6389, "##zek": 6390, "##geg": 6391, "##rklari": 6392, "##rklarin": 6393, "##rklaring": 6394, "toep": 6395, "##erklari": 6396, "##erklarin": 6397, "##erklaring": 6398, "toepa": 6399, "toepas": 6400, "##rsta": 6401, "##win": 6402, "##tegr": 6403, "##gee": 6404, "##ffici": 6405, "##loe": 6406, "##ngeno": 6407, "##rmijn": 6408, "##ermijn": 6409, "##vangen": 6410, "##ntegr": 6411, "##fhan": 6412, "##iz": 6413, "##gebr": 6414, "##temmen": 6415, "##vallen": 6416, "##ngere": 6417, "##ngev": 6418, "##kaar": 6419, "##tim": 6420, "##rije": 6421, "##rstr": 6422, "verand": 6423, "verande": 6424, "verander": 6425, "##jkhed": 6426, "##ijkhed": 6427, "##jkhede": 6428, "##lijkhed": 6429, "##ijkhede": 6430, "##jkheden": 6431, "##lijkhede": 6432, "##ijkheden": 6433, "##lijkheden": 6434, "##bev": 6435, "ord": 6436, "##ni\u00eb": 6437, "stre": 6438, "##pm": 6439, "##roepen": 6440, "##inati": 6441, "##tree": 6442, "kost": 6443, "##verl": 6444, "##hin": 6445, "##orwaard": 6446, "##orwaarde": 6447, "##oorwaard": 6448, "##oorwaarde": 6449, "##onaal": 6450, "##eacht": 6451, "##tandi": 6452, "##enlijke": 6453, "##alt": 6454, "##kij": 6455, "##cati": 6456, "##gste": 6457, "##standi": 6458, "##gelegenh": 6459, "##gelegenhe": 6460, "##sies": 6461, "democratis": 6462, "##lki": 6463, "##stische": 6464, "##itbre": 6465, "orde": 6466, "##q": 6467, "##ionaa": 6468, "##ionaal": 6469, "##ondi": 6470, "##rneme": 6471, "##tabi": 6472, "##sere": 6473, "##evolk": 6474, "##tandig": 6475, "##standig": 6476, "##ewer": 6477, "##veste": 6478, "##oest": 6479, "##atste": 6480, "behoe": 6481, "##gspr": 6482, "##lkin": 6483, "##entra": 6484, "##ames": 6485, "##derl": 6486, "##catie": 6487, "bedan": 6488, "bedank": 6489, "##olki": 6490, "##uta": 6491, "##olkin": 6492, "##epass": 6493, "uitbre": 6494, "rekeni": 6495, "rekenin": 6496, "rekening": 6497, "##zeke": 6498, "##zeker": 6499, "spo": 6500, "##ific": 6501, "##beids": 6502, "##rbeids": 6503, "##nisc": 6504, "##zor": 6505, "##arit": 6506, "verteg": 6507, "vertege": 6508, "vertegen": 6509, "vertegenw": 6510, "vertegenwo": 6511, "vertegenwoo": 6512, "vertegenwoor": 6513, "vertegenwoord": 6514, "vertegenwoordi": 6515, "vertegenwoordig": 6516, "##erstr": 6517, "##htva": 6518, "##chtva": 6519, "##rtik": 6520, "kor": 6521, "geko": 6522, "dam": 6523, "19": 6524, "##aatste": 6525, "##lking": 6526, "##htvaa": 6527, "##chtvaa": 6528, "##htvaar": 6529, "##chtvaar": 6530, "##nves": 6531, "##nvest": 6532, "##\u00f6": 6533, "##tikel": 6534, "##rtike": 6535, "##rtikel": 6536, "##ior": 6537, "##olking": 6538, "##rukk": 6539, "arbeids": 6540, "##orges": 6541, "##itd": 6542, "laats": 6543, "laatst": 6544, "##seren": 6545, "arti": 6546, "##rland": 6547, "##nisch": 6548, "##oorges": 6549, "##vendie": 6550, "##vendien": 6551, "##tze": 6552, "##rten": 6553, "##urs": 6554, "##aging": 6555, "##rpli": 6556, "##rplic": 6557, "##rplich": 6558, "##rplicht": 6559, "##rdelijkh": 6560, "##rdelijkhe": 6561, "##erpli": 6562, "##erplic": 6563, "##erplich": 6564, "##erplicht": 6565, "bestr": 6566, "##rrent": 6567, "vertr": 6568, "##eike": 6569, "##nveste": 6570, "##urren": 6571, "##curren": 6572, "##urrent": 6573, "##ncurren": 6574, "##oncurren": 6575, "##current": 6576, "##ncurrent": 6577, "##oncurrent": 6578, "##isee": 6579, "##oepass": 6580, "werken": 6581, "partn": 6582, "partne": 6583, "partner": 6584, "##iseer": 6585, "##ngspr": 6586, "##tic": 6587, "##ordelijkh": 6588, "##ordelijkhe": 6589, "##trou": 6590, "##oordelijkh": 6591, "##woordelijkh": 6592, "##oordelijkhe": 6593, "##woordelijkhe": 6594, "##twoordelijkh": 6595, "##ntwoordelijkh": 6596, "##twoordelijkhe": 6597, "##antwoordelijkh": 6598, "##ntwoordelijkhe": 6599, "##rantwoordelijkh": 6600, "##antwoordelijkhe": 6601, "##erantwoordelijkh": 6602, "##rantwoordelijkhe": 6603, "##erantwoordelijkhe": 6604, "##ltu": 6605, "##anb": 6606, "##esli": 6607, "##meri": 6608, "toega": 6609, "##econ": 6610, "##mbe": 6611, "arm": 6612, "##bod": 6613, "##volki": 6614, "##volkin": 6615, "##volking": 6616, "##lach": 6617, "##eroe": 6618, "##ertui": 6619, "##oerin": 6620, "welke": 6621, "##verw": 6622, "##fgel": 6623, "##tver": 6624, "##derste": 6625, "##nle": 6626, "##ultu": 6627, "##eiken": 6628, "jare": 6629, "jaren": 6630, "##iori": 6631, "##una": 6632, "toepass": 6633, "betreff": 6634, "betreffe": 6635, "betreffen": 6636, "instr": 6637, "##para": 6638, "tur": 6639, "##oering": 6640, "##nau": 6641, "##ertuig": 6642, "##blie": 6643, "##war": 6644, "toegan": 6645, "##rkge": 6646, "weet": 6647, "##ga'": 6648, "##ga's": 6649, "##akti": 6650, "##ieri": 6651, "##edrijv": 6652, "##erkge": 6653, "##ucte": 6654, "##rdoo": 6655, "##nderste": 6656, "##lus": 6657, "uitd": 6658, "##rakti": 6659, "hog": 6660, "##ega'": 6661, "##lega'": 6662, "##ega's": 6663, "##llega'": 6664, "##lega's": 6665, "##ollega'": 6666, "##llega's": 6667, "##ollega's": 6668, "verwa": 6669, "hoge": 6670, "##elden": 6671, "sto": 6672, "afgel": 6673, "##gn": 6674, "##ingspr": 6675, "##rgelijke": 6676, "voorges": 6677, "##lse": 6678, "##evolki": 6679, "##evolkin": 6680, "##evolking": 6681, "##qu": 6682, "##kn": 6683, "##ekst": 6684, "##ocratie": 6685, "##ducte": 6686, "##ublie": 6687, "dienste": 6688, "##wac": 6689, "visser": 6690, "alles": 6691, "collega'": 6692, "collega's": 6693, "instru": 6694, "##oducte": 6695, "##roducte": 6696, "##bor": 6697, "bovend": 6698, "##erro": 6699, "##edel": 6700, "##moed": 6701, "##gspro": 6702, "zaa": 6703, "##ilij": 6704, "##rer": 6705, "##ucten": 6706, "##ducten": 6707, "waarop": 6708, "##oeil": 6709, "##zorg": 6710, "##ovendi": 6711, "artik": 6712, "artike": 6713, "artikel": 6714, "##oducten": 6715, "##roducten": 6716, "##ergelijke": 6717, "##stg": 6718, "##rkte": 6719, "bovendi": 6720, "##ovendie": 6721, "bovendie": 6722, "##ovendien": 6723, "bovendien": 6724, "##urk": 6725, "werkge": 6726, "##zaam": 6727, "##slis": 6728, "##ductie": 6729, "##eslis": 6730, "##trouw": 6731, "##oeili": 6732, "##eilij": 6733, "##ilijk": 6734, "##oeilij": 6735, "##eilijk": 6736, "##oeilijk": 6737, "##ctivit": 6738, "antw": 6739, "##nmi": 6740, "ext": 6741, "##voerin": 6742, "concurren": 6743, "##gevoe": 6744, "##voering": 6745, "gestel": 6746, "concurrent": 6747, "gesteld": 6748, "##wor": 6749, "##rof": 6750, "##rior": 6751, "##mak": 6752, "strij": 6753, "##riori": 6754, "##utor": 6755, "##ctivite": 6756, "##ctivitei": 6757, "##ctiviteit": 6758, "overh": 6759, "##venw": 6760, "##etred": 6761, "##edrijve": 6762, "gezie": 6763, "gezien": 6764, "##edrijven": 6765, "##rschr": 6766, "##ngspro": 6767, "voord": 6768, "##utori": 6769, "##jzig": 6770, "##wach": 6771, "##wacht": 6772, "##rdin": 6773, "##uike": 6774, "##aarn": 6775, "strijd": 6776, "##prok": 6777, "verantwoordelijkh": 6778, "verantwoordelijkhe": 6779, "##ijzig": 6780, "##mocratie": 6781, "##sprok": 6782, "##rens": 6783, "##ngenom": 6784, "##emocratie": 6785, "##ngenome": 6786, "##iorit": 6787, "##ngenomen": 6788, "##proke": 6789, "##sproke": 6790, "##proken": 6791, "##sproken": 6792, "##riorit": 6793, "##eis": 6794, "##fie": 6795, "antwo": 6796, "antwoo": 6797, "antwoor": 6798, "antwoord": 6799, "##rijks": 6800, "##ransp": 6801, "##esprok": 6802, "##rkee": 6803, "##rkeer": 6804, "##gdh": 6805, "##esproke": 6806, "##esproken": 6807, "##gdhe": 6808, "##oducti": 6809, "##roducti": 6810, "##reike": 6811, "##reiken": 6812, "hoof": 6813, "hoofd": 6814, "##lati": 6815, "##jkst": 6816, "##ijkst": 6817, "vel": 6818, "##erse": 6819, "dame": 6820, "##lgende": 6821, "##olgende": 6822, "##hen": 6823, "##ape": 6824, "instrum": 6825, "instrume": 6826, "instrumen": 6827, "instrument": 6828, "##tges": 6829, "##kse": 6830, "##atschapp": 6831, "##aatschapp": 6832, "##angez": 6833, "aangez": 6834, "led": 6835, "##ict": 6836, "##elop": 6837, "##span": 6838, "diensten": 6839, "##rdoor": 6840, "##trie": 6841, "ce": 6842, "##annen": 6843, "dames": 6844, "##svo": 6845, "lede": 6846, "5": 6847, "##ingspro": 6848, "##eheer": 6849, "##emt": 6850, "##ici\u00eb": 6851, "##stge": 6852, "gesl": 6853, "##pn": 6854, "democratie": 6855, "voorw": 6856, "##ngezi": 6857, "##rrenti": 6858, "##urrenti": 6859, "##currenti": 6860, "##ncurrenti": 6861, "##oncurrenti": 6862, "##kz": 6863, "##liek": 6864, "waarm": 6865, "##reek": 6866, "##torit": 6867, "ern": 6868, "##rekken": 6869, "##fgev": 6870, "leden": 6871, "##utorit": 6872, "laatste": 6873, "roe": 6874, "##rrentie": 6875, "##urrentie": 6876, "##currentie": 6877, "##ncurrentie": 6878, "##oncurrentie": 6879, "##ntwe": 6880, "##gaderi": 6881, "##rgaderi": 6882, "##gaderin": 6883, "##ergaderi": 6884, "##rgaderin": 6885, "##ergaderin": 6886, "##gadering": 6887, "##rgadering": 6888, "##ergadering": 6889, "##ereike": 6890, "##ereiken": 6891, "##ngezie": 6892, "##ngezien": 6893, "##ags": 6894, "##erze": 6895, "##oh": 6896, "val": 6897, "##oeft": 6898, "##uze": 6899, "##dk": 6900, "##zaak": 6901, "##soo": 6902, "##onn": 6903, "##ntwer": 6904, "##erkee": 6905, "##erkeer": 6906, "##cus": 6907, "ona": 6908, "##rni": 6909, "##spann": 6910, "##twerp": 6911, "##e\u00ef": 6912, "##astin": 6913, "##asting": 6914, "##pele": 6915, "##nver": 6916, "##stemmi": 6917, "organi": 6918, "##ekr": 6919, "##elope": 6920, "##ntwerp": 6921, "##nele": 6922, "##indel": 6923, "##orgest": 6924, "##oorgest": 6925, "##lange": 6926, "##abil": 6927, "##ink": 6928, "##trede": 6929, "##sz": 6930, "kinde": 6931, "kinder": 6932, "##tar": 6933, "##sab": 6934, "##kko": 6935, "##itgan": 6936, "##itgang": 6937, "organis": 6938, "##sle": 6939, "##lve": 6940, "##rijp": 6941, "##leer": 6942, "##elopen": 6943, "##ton": 6944, "##ventie": 6945, "tev": 6946, "##tore": 6947, "lis": 6948, "##sov": 6949, "##moge": 6950, "##abili": 6951, "##erlan": 6952, "voorgest": 6953, "##oez": 6954, "##ghed": 6955, "##ghede": 6956, "##gheden": 6957, "##orzie": 6958, "##oene": 6959, "##oorzie": 6960, "##ighed": 6961, "##ighede": 6962, "##igheden": 6963, "##lm": 6964, "##stemmin": 6965, "##stemming": 6966, "turk": 6967, "##jhei": 6968, "##ijhei": 6969, "##jheid": 6970, "##ijheid": 6971, "##tbrei": 6972, "##itbrei": 6973, "##tbreid": 6974, "##itbreid": 6975, "##rori": 6976, "##espe": 6977, "##ekent": 6978, "##angezi": 6979, "aangezi": 6980, "waarme": 6981, "##erent": 6982, "concurrenti": 6983, "##ierin": 6984, "##angezie": 6985, "##angezien": 6986, "aangezie": 6987, "aangezien": 6988, "veror": 6989, "##aast": 6990, "verord": 6991, "waarmee": 6992, "##orgeste": 6993, "##oorgeste": 6994, "voorgeste": 6995, "krac": 6996, "krach": 6997, "verorde": 6998, "betreffend": 6999, "verorden": 7000, "betreffende": 7001, "##ctief": 7002, "##istische": 7003, "waren": 7004, "kracht": 7005, "##strie": 7006, "##abon": 7007, "##ustrie": 7008, "##dustrie": 7009, "##ndustrie": 7010, "verordeni": 7011, "verordenin": 7012, "verordening": 7013, "opn": 7014, "##oemd": 7015, "##lacht": 7016, "concurrentie": 7017, "##erbo": 7018, "##vera": 7019, "##ngst": 7020, "opt": 7021, "##tners": 7022, "##rtners": 7023, "##artners": 7024, "uitbrei": 7025, "uitbreid": 7026, "##iod": 7027, "##digi": 7028, "##rror": 7029, "##mark": 7030, "miss": 7031, "##estig": 7032, "geha": 7033, "##inatie": 7034, "sol": 7035, "##sabo": 7036, "##ernemi": 7037, "##ernemin": 7038, "##erneming": 7039, "##ssab": 7040, "##cee": 7041, "##-l": 7042, "##error": 7043, "vij": 7044, "##noem": 7045, "##rrori": 7046, "##roris": 7047, "##errori": 7048, "##rroris": 7049, "##erroris": 7050, "##dernemi": 7051, "##ndernemi": 7052, "##dernemin": 7053, "##ndernemin": 7054, "##derneming": 7055, "##nderneming": 7056, "##lasti": 7057, "democratisc": 7058, "democratisch": 7059, "##ssabo": 7060, "##sabon": 7061, "##ssabon": 7062, "##issab": 7063, "##issabo": 7064, "##issabon": 7065, "##treden": 7066, "liss": 7067, "##mentee": 7068, "kli": 7069, "##usl": 7070, "##jkste": 7071, "##ijkste": 7072, "##digin": 7073, "##diging": 7074, "moeil": 7075, "moeili": 7076, "moeilij": 7077, "moeilijk": 7078, "##orko": 7079, "erk": 7080, "opm": 7081, "lissa": 7082, "lissab": 7083, "lissabo": 7084, "lissabon": 7085, "erke": 7086, "##ceer": 7087, "##usla": 7088, "##tale": 7089, "##uslan": 7090, "##prog": 7091, "##usland": 7092, "##niste": 7093, "luc": 7094, "##ocht": 7095, "##gelop": 7096, "##gelope": 7097, "##gelopen": 7098, "erken": 7099, "##\u00ebr": 7100, "##rzij": 7101, "##rzijd": 7102, "##verhe": 7103, "##gische": 7104, "##erzij": 7105, "##erzijd": 7106, "##gevaa": 7107, "##rijhei": 7108, "##rijheid": 7109, "verpli": 7110, "verplic": 7111, "verplich": 7112, "verplicht": 7113, "##otings": 7114, "##rotings": 7115, "##grotings": 7116, "##egrotings": 7117, "##tenl": 7118, "##ket": 7119, "##vul": 7120, "regels": 7121, "##pte": 7122, "voed": 7123, "##lichti": 7124, "##sy": 7125, "##rdigde": 7126, "##erden": 7127, "##indeli": 7128, "##torite": 7129, "##oorko": 7130, "##drukk": 7131, "##utorite": 7132, "##toritei": 7133, "##utoritei": 7134, "##toriteit": 7135, "##utoriteit": 7136, "##orkom": 7137, "prio": 7138, "##oorkom": 7139, "belas": 7140, "belast": 7141, "##hank": 7142, "##progr": 7143, "##gelegenhei": 7144, "##gelegenheid": 7145, "##progra": 7146, "##program": 7147, "##eug": 7148, "inve": 7149, "##programm": 7150, "##fhank": 7151, "economie": 7152, "##hanke": 7153, "##hankel": 7154, "##hankeli": 7155, "##hankelij": 7156, "##hankelijk": 7157, "##fhanke": 7158, "##fhankel": 7159, "##fhankeli": 7160, "##fhankelij": 7161, "##fhankelijk": 7162, "##rleg": 7163, "##gevaar": 7164, "begrotings": 7165, "prior": 7166, "##toren": 7167, "##naf": 7168, "##orgestel": 7169, "##oorgestel": 7170, "##orgesteld": 7171, "##oorgesteld": 7172, "priori": 7173, "voorgestel": 7174, "voorgesteld": 7175, "dra": 7176, "strategie": 7177, "##lastin": 7178, "##lasting": 7179, "einde": 7180, "afgev": 7181, "voldoen": 7182, "##elasti": 7183, "##vind": 7184, "##oze": 7185, "##elastin": 7186, "##elasting": 7187, "##naut": 7188, "geac": 7189, "voorko": 7190, "##arvo": 7191, "voorkom": 7192, "##aarvo": 7193, "##ratische": 7194, "##arvoo": 7195, "##arvoor": 7196, "##aarvoo": 7197, "##aarvoor": 7198, "##cratische": 7199, "##cit": 7200, "##dende": 7201, "##urz": 7202, "priorit": 7203, "##panni": 7204, "##ndels": 7205, "##pannin": 7206, "##panning": 7207, "##com": 7208, "##lek": 7209, "##andels": 7210, "dergelijke": 7211, "##rschri": 7212, "transp": 7213, "##indelij": 7214, "##indelijk": 7215, "##gal": 7216, "plan": 7217, "##itz": 7218, "##msten": 7219, "##ti\u00eb": 7220, "##euz": 7221, "##eenschappelijke": 7222, "##meenschappelijke": 7223, "##emeenschappelijke": 7224, "##bliek": 7225, "##ubliek": 7226, "gemeenschappelijke": 7227, "##ieren": 7228, "afs": 7229, "##rpen": 7230, "##zette": 7231, "zwa": 7232, "##iseerd": 7233, "##iebe": 7234, "geco": 7235, "##-f": 7236, "##teel": 7237, "onv": 7238, "##programma": 7239, "age": 7240, "##elaa": 7241, "##rns": 7242, "##mber": 7243, "##rad": 7244, "##ranti": 7245, "##ardigde": 7246, "##aardigde": 7247, "##entel": 7248, "##oots": 7249, "##fici\u00eb": 7250, "##ieven": 7251, "##ci\u00ebn": 7252, "##oductie": 7253, "##roductie": 7254, "##olid": 7255, "##vaardigde": 7256, "agen": 7257, "##rwijs": 7258, "##erwijs": 7259, "##pal": 7260, "overt": 7261, "##ffici\u00eb": 7262, "##onst": 7263, "##tekent": 7264, "##ngt": 7265, "##kkelij": 7266, "##kkelijk": 7267, "##dinge": 7268, "##uler": 7269, "##iever": 7270, "##rantie": 7271, "##eroep": 7272, "##dingen": 7273, "doelstellinge": 7274, "doelstellingen": 7275, "##pme": 7276, "overhe": 7277, "##euze": 7278, "uitst": 7279, "##ener": 7280, "##rpr": 7281, "##agd": 7282, "opz": 7283, "kort": 7284, "verklar": 7285, "##wege": 7286, "##kri": 7287, "##eerder": 7288, "##erda": 7289, "##geze": 7290, "besp": 7291, "##nstem": 7292, "##wees": 7293, "##evaard": 7294, "##sre": 7295, "##tk": 7296, "vergaderi": 7297, "vergaderin": 7298, "vergadering": 7299, "##ndt": 7300, "evenw": 7301, "##auta": 7302, "##evaardi": 7303, "##evaardig": 7304, "##chen": 7305, "##gevaard": 7306, "##gevaardi": 7307, "##gevaardig": 7308, "terro": 7309, "##evaardigd": 7310, "##gevaardigd": 7311, "terror": 7312, "terrori": 7313, "terroris": 7314, "##itenl": 7315, "##struc": 7316, "luch": 7317, "lucht": 7318, "##eti": 7319, "##20": 7320, "##struct": 7321, "##rism": 7322, "##omste": 7323, "##usi": 7324, "##komste": 7325, "##iniste": 7326, "##etekent": 7327, "##omsten": 7328, "##komsten": 7329, "betekent": 7330, "##lb": 7331, "##oit": 7332, "##mule": 7333, "ontwe": 7334, "##ieze": 7335, "##zoeke": 7336, "##rsteu": 7337, "##rsteun": 7338, "prak": 7339, "##fw": 7340, "##risme": 7341, "prakt": 7342, "prakti": 7343, "##slage": 7344, "##slagen": 7345, "##ersteu": 7346, "##ersteun": 7347, "##dersteu": 7348, "##dersteun": 7349, "volgende": 7350, "##ndersteu": 7351, "##ndersteun": 7352, "##icati": 7353, "##itaire": 7354, "ontwer": 7355, "ontwerp": 7356, "th": 7357, "geloo": 7358, "##redin": 7359, "##reding": 7360, "inves": 7361, "invest": 7362, "voorwa": 7363, "voorwaa": 7364, "voorwaar": 7365, "##ezel": 7366, "##pmer": 7367, "##pmerk": 7368, "##scu": 7369, "##kne": 7370, "##ngel": 7371, "##itin": 7372, "##rkn": 7373, "##embe": 7374, "##rect": 7375, "##tenla": 7376, "##unda": 7377, "##icatie": 7378, "##muna": 7379, "onderhandelinge": 7380, "onderhandelingen": 7381, "##mmuna": 7382, "##ommuna": 7383, "##uitenl": 7384, "##urza": 7385, "##unau": 7386, "##munau": 7387, "##unaut": 7388, "##mmunau": 7389, "##ommunau": 7390, "vele": 7391, "##tenlan": 7392, "##munaut": 7393, "##mmunaut": 7394, "##ommunaut": 7395, "##erkn": 7396, "##uurz": 7397, "##evere": 7398, "buitenl": 7399, "##iting": 7400, "##tenland": 7401, "##nauta": 7402, "##unauta": 7403, "##uurza": 7404, "##munauta": 7405, "##mmunauta": 7406, "##ommunauta": 7407, "sprek": 7408, "spreke": 7409, "##itenla": 7410, "##uitenla": 7411, "##itenlan": 7412, "##uitenlan": 7413, "##itenland": 7414, "##uitenland": 7415, "investe": 7416, "##nister": 7417, "onderste": 7418, "##norm": 7419, "##ico": 7420, "##inister": 7421, "##enoem": 7422, "buitenla": 7423, "buitenlan": 7424, "buitenland": 7425, "##ieni": 7426, "##nspan": 7427, "opme": 7428, "opmer": 7429, "opmerk": 7430, "geloof": 7431, "aanb": 7432, "integ": 7433, "##escho": 7434, "##spra": 7435, "##llem": 7436, "gebo": 7437, "##neren": 7438, "##nba": 7439, "##iorite": 7440, "##rkne": 7441, "##ktij": 7442, "##riorite": 7443, "##gevens": 7444, "##egevens": 7445, "##gelegd": 7446, "##llema": 7447, "##erkne": 7448, "##mv": 7449, "oog": 7450, "##tredi": 7451, "##tredin": 7452, "##treding": 7453, "##orr": 7454, "##pecte": 7455, "##specte": 7456, "##edse": 7457, "##rkome": 7458, "##aden": 7459, "allem": 7460, "##llemaa": 7461, "ondersteu": 7462, "ondersteun": 7463, "allema": 7464, "##aagd": 7465, "##won": 7466, "##egang": 7467, "##gheids": 7468, "##igheids": 7469, "##llemaal": 7470, "##grijks": 7471, "##ngrijks": 7472, "##angrijks": 7473, "##xi": 7474, "allemaa": 7475, "allemaal": 7476, "##cri": 7477, "##fgeva": 7478, "##lima": 7479, "##ioritei": 7480, "##ioriteit": 7481, "##rioritei": 7482, "##rioriteit": 7483, "##pti": 7484, "##lichtin": 7485, "##lichting": 7486, "##sproc": 7487, "koste": 7488, "##rijf": 7489, "##sproce": 7490, "##nspann": 7491, "##wijl": 7492, "##gelijkhei": 7493, "##gelijkheid": 7494, "##merki": 7495, "##ekome": 7496, "##merkin": 7497, "##merking": 7498, "##ekomen": 7499, "##langrijks": 7500, "##elangrijks": 7501, "##imu": 7502, "##lijf": 7503, "##utai": 7504, "##leine": 7505, "##utair": 7506, "##rijkst": 7507, "blijk": 7508, "##ttel": 7509, "bevol": 7510, "##rijdi": 7511, "werkn": 7512, "werkne": 7513, "duurz": 7514, "duurza": 7515, "##ivers": 7516, "##ament": 7517, "bevolk": 7518, "##uitg": 7519, "##knem": 7520, "##grijkst": 7521, "##ngrijkst": 7522, "##angrijkst": 7523, "##rkomen": 7524, "##autai": 7525, "##ndam": 7526, "##nautai": 7527, "##autair": 7528, "##unautai": 7529, "##nautair": 7530, "##unautair": 7531, "##munautai": 7532, "##mmunautai": 7533, "##munautair": 7534, "##ommunautai": 7535, "##mmunautair": 7536, "##ommunautair": 7537, "##kneme": 7538, "##knemer": 7539, "##rknem": 7540, "##erknem": 7541, "##rkneme": 7542, "##erkneme": 7543, "##rknemer": 7544, "##erknemer": 7545, "##roor": 7546, "##zijds": 7547, "##imaat": 7548, "communa": 7549, "##rzijds": 7550, "##erzijds": 7551, "communau": 7552, "communaut": 7553, "##rnst": 7554, "##oegang": 7555, "##langrijkst": 7556, "##elangrijkst": 7557, "bestri": 7558, "bestrij": 7559, "##nkomste": 7560, "##nkomsten": 7561, "communauta": 7562, "toet": 7563, "##eled": 7564, "fund": 7565, "##lkaa": 7566, "##ewerk": 7567, "##danke": 7568, "##nged": 7569, "##danken": 7570, "dient": 7571, "##sbel": 7572, "##edanke": 7573, "##edanken": 7574, "##genen": 7575, "bevolki": 7576, "bevolkin": 7577, "bevolking": 7578, "##tsp": 7579, "##eits": 7580, "##gent": 7581, "enige": 7582, "##estaat": 7583, "bedanke": 7584, "bedanken": 7585, "##alo": 7586, "ondernemi": 7587, "ondernemin": 7588, "onderneming": 7589, "##kra": 7590, "##teits": 7591, "##ember": 7592, "##etw": 7593, "##erpr": 7594, "werknem": 7595, "werkneme": 7596, "werknemer": 7597, "##uel": 7598, "##taand": 7599, "##iteits": 7600, "##eroo": 7601, "##veren": 7602, "##onee": 7603, "##nes": 7604, "##eurt": 7605, "##rlen": 7606, "erns": 7607, "ernst": 7608, "##dame": 7609, "boe": 7610, "##tele": 7611, "##koor": 7612, "##romi": 7613, "soo": 7614, "soor": 7615, "##evaardigde": 7616, "##gevaardigde": 7617, "soort": 7618, "##limaa": 7619, "##limaat": 7620, "gar": 7621, "##ndame": 7622, "##fgevaa": 7623, "##fgevaar": 7624, "##fgevaard": 7625, "##fgevaardi": 7626, "##fgevaardig": 7627, "##vra": 7628, "##damen": 7629, "##undam": 7630, "##undame": 7631, "##ndamen": 7632, "##dament": 7633, "##undamen": 7634, "##ndament": 7635, "##undament": 7636, "##fgevaardigd": 7637, "##erlen": 7638, "##erni": 7639, "##kkoo": 7640, "##vester": 7641, "##koord": 7642, "##kgel": 7643, "zaak": 7644, "##kkoor": 7645, "##nvester": 7646, "##rf": 7647, "##kkoord": 7648, "##kers": 7649, "cul": 7650, "##enm": 7651, "##tabil": 7652, "begri": 7653, "verke": 7654, "##tabili": 7655, "term": 7656, "##fgevaardigde": 7657, "##dings": 7658, "##breidi": 7659, "##breidin": 7660, "##breiding": 7661, "##ssc": 7662, "##otst": 7663, "##rson": 7664, "##itsl": 7665, "##diger": 7666, "##erson": 7667, "communautai": 7668, "communautair": 7669, "##kgele": 7670, "##kgeleg": 7671, "##rijkste": 7672, "ab": 7673, "somm": 7674, "minis": 7675, "##anu": 7676, "##fgelo": 7677, "afgelo": 7678, "minist": 7679, "##lkaar": 7680, "cult": 7681, "ministe": 7682, "vijf": 7683, "minister": 7684, "##hrij": 7685, "##chrij": 7686, "##uitga": 7687, "##rkgel": 7688, "##erkgel": 7689, "##rkgele": 7690, "##erkgele": 7691, "##rkgeleg": 7692, "##kgelege": 7693, "##erkgeleg": 7694, "##kgelegen": 7695, "##rkgelege": 7696, "##erkgelege": 7697, "##rkgelegen": 7698, "##kgelegenh": 7699, "##erkgelegen": 7700, "##kgelegenhe": 7701, "##rkgelegenh": 7702, "##erkgelegenh": 7703, "##rkgelegenhe": 7704, "##kgelegenhei": 7705, "##erkgelegenhe": 7706, "##rkgelegenhei": 7707, "##kgelegenheid": 7708, "##erkgelegenhei": 7709, "##rkgelegenheid": 7710, "##erkgelegenheid": 7711, "##grijkste": 7712, "##ngrijkste": 7713, "##angrijkste": 7714, "elka": 7715, "##fgelop": 7716, "afgelop": 7717, "##fgelope": 7718, "afgelope": 7719, "##fgelopen": 7720, "afgelopen": 7721, "##eal": 7722, "##epro": 7723, "##mige": 7724, "##tbreidi": 7725, "##itbreidi": 7726, "##tbreidin": 7727, "##itbreidin": 7728, "##tbreiding": 7729, "##itbreiding": 7730, "##nise": 7731, "##nteel": 7732, "gewee": 7733, "bevoe": 7734, "bevoeg": 7735, "elkaa": 7736, "elkaar": 7737, "funda": 7738, "cultu": 7739, "werkgel": 7740, "werkgele": 7741, "werkgeleg": 7742, "##enteel": 7743, "bevoegd": 7744, "werkgelege": 7745, "werkgelegen": 7746, "werkgelegenh": 7747, "werkgelegenhe": 7748, "werkgelegenhei": 7749, "werkgelegenheid": 7750, "fundam": 7751, "fundame": 7752, "fundamen": 7753, "fundament": 7754, "##langrijkste": 7755, "##elangrijkste": 7756, "stab": 7757, "##ssch": 7758, "##steri": 7759, "##mbi": 7760, "##lpe": 7761, "stabi": 7762, "##onne": 7763, "hart": 7764, "##envo": 7765, "belangrijks": 7766, "##enha": 7767, "##elijkhed": 7768, "##elijkhede": 7769, "##elijkheden": 7770, "##astg": 7771, "##egelij": 7772, "##egelijk": 7773, "##traf": 7774, "##nstemm": 7775, "proj": 7776, "proje": 7777, "projec": 7778, "project": 7779, "##ldig": 7780, "vastg": 7781, "##cite": 7782, "##cif": 7783, "maak": 7784, "##erat": 7785, "##oorl": 7786, "##ota": 7787, "##veel": 7788, "##rwac": 7789, "##erwac": 7790, "##rwach": 7791, "##erwach": 7792, "gesp": 7793, "##rwacht": 7794, "##erwacht": 7795, "##weest": 7796, "uitbreidi": 7797, "uitbreidin": 7798, "uitbreiding": 7799, "##cifi": 7800, "spel": 7801, "des": 7802, "##erlijke": 7803, "##rwijl": 7804, "##erwijl": 7805, "##nvaa": 7806, "##nvaar": 7807, "##kie": 7808, "geach": 7809, "geacht": 7810, "##nninge": 7811, "##imin": 7812, "##nningen": 7813, "##rdelijkhei": 7814, "##rdelijkheid": 7815, "##erve": 7816, "belangrijkst": 7817, "##efi": 7818, "##astge": 7819, "klim": 7820, "##rijde": 7821, "##wic": 7822, "##spo": 7823, "opr": 7824, "del": 7825, "##mmige": 7826, "vastge": 7827, "##estu": 7828, "partners": 7829, "afgeva": 7830, "##ordelijkhei": 7831, "##oordelijkhei": 7832, "##ordelijkheid": 7833, "##woordelijkhei": 7834, "##oordelijkheid": 7835, "##woordelijkheid": 7836, "##twoordelijkhei": 7837, "##ntwoordelijkhei": 7838, "##twoordelijkheid": 7839, "##antwoordelijkhei": 7840, "##ntwoordelijkheid": 7841, "##rantwoordelijkhei": 7842, "##antwoordelijkheid": 7843, "##erantwoordelijkhei": 7844, "##rantwoordelijkheid": 7845, "##erantwoordelijkheid": 7846, "vorme": 7847, "afgevaa": 7848, "afgevaar": 7849, "afgevaard": 7850, "afgevaardi": 7851, "afgevaardig": 7852, "##nwi": 7853, "vormen": 7854, "afgevaardigd": 7855, "klima": 7856, "##ssel": 7857, "stemme": 7858, "proces": 7859, "4": 7860, "##ewees": 7861, "##epal": 7862, "waarbi": 7863, "##levi": 7864, "bestrijd": 7865, "##trijdi": 7866, "autor": 7867, "##grijp": 7868, "ker": 7869, "##epl": 7870, "afgevaardigde": 7871, "##eweest": 7872, "voere": 7873, "voeren": 7874, "##epassi": 7875, "##lpen": 7876, "it": 7877, "##onel": 7878, "##uiste": 7879, "##ommig": 7880, "autori": 7881, "##ommige": 7882, "spra": 7883, "gewees": 7884, "geweest": 7885, "##lte": 7886, "sommi": 7887, "sommig": 7888, "sommige": 7889, "##ecif": 7890, "##idelijke": 7891, "stemmen": 7892, "##wich": 7893, "##pecif": 7894, "##ecifi": 7895, "##pecifi": 7896, "##sties": 7897, "##eoo": 7898, "##esties": 7899, "##ewij": 7900, "##sec": 7901, "##knemers": 7902, "##rknemers": 7903, "##erknemers": 7904, "##oend": 7905, "##enba": 7906, "##wicht": 7907, "##erio": 7908, "##sseri": 7909, "inspa": 7910, "inspan": 7911, "geri": 7912, "##sumente": 7913, "##sumenten": 7914, "##oepassi": 7915, "##epassin": 7916, "##oepassin": 7917, "##epassing": 7918, "##oepassing": 7919, "##nsumente": 7920, "##onsumente": 7921, "##nsumenten": 7922, "##onsumenten": 7923, "##cuss": 7924, "##selij": 7925, "##selijk": 7926, "##orkome": 7927, "##orkomen": 7928, "##eroor": 7929, "##oorkome": 7930, "##oorkomen": 7931, "maan": 7932, "##iscu": 7933, "##serij": 7934, "kleine": 7935, "##ewa": 7936, "##stuk": 7937, "##sserij": 7938, "toegang": 7939, "##isseri": 7940, "##isserij": 7941, "##kbaa": 7942, "##kbaar": 7943, "##isere": 7944, "##bera": 7945, "##ienin": 7946, "##iseren": 7947, "##menteel": 7948, "##iening": 7949, "##eure": 7950, "ir": 7951, "erop": 7952, "voorkome": 7953, "voorkomen": 7954, "##arite": 7955, "##uige": 7956, "waarom": 7957, "##npak": 7958, "belangrijkste": 7959, "consumente": 7960, "consumenten": 7961, "##aritei": 7962, "##ariteit": 7963, "##scus": 7964, "!": 7965, "##ocratische": 7966, "##ften": 7967, "##sj": 7968, "klimaa": 7969, "klimaat": 7970, "werknemers": 7971, "##egt": 7972, "maand": 7973, "##nno": 7974, "priorite": 7975, "##robe": 7976, "autorit": 7977, "inspann": 7978, "##von": 7979, "##telde": 7980, "sprak": 7981, "##riod": 7982, "##efin": 7983, "##eriod": 7984, "##kten": 7985, "##liss": 7986, "##etal": 7987, "##cussi": 7988, "prioritei": 7989, "prioriteit": 7990, "##oetr": 7991, "toepassi": 7992, "toepassin": 7993, "toepassing": 7994, "##anvaa": 7995, "##anvaar": 7996, "##hoef": 7997, "##ehoef": 7998, "##sone": 7999, "##rdele": 8000, "toez": 8001, "gevoe": 8002, "##nvaard": 8003, "kans": 8004, "##anvaard": 8005, "##iscus": 8006, "zett": 8007, "zette": 8008, "##oende": 8009, "##doend": 8010, "##hoeft": 8011, "##onele": 8012, "##ehoeft": 8013, "##evall": 8014, "aller": 8015, "##spanni": 8016, "##dighed": 8017, "##dighede": 8018, "##digheden": 8019, "##aranti": 8020, "##arantie": 8021, "##tbe": 8022, "##reu": 8023, "##tiep": 8024, "##rsone": 8025, "##ersone": 8026, "##spannin": 8027, "##spanning": 8028, "##ardo": 8029, "##lla": 8030, "##erenti": 8031, "##scuss": 8032, "##iscuss": 8033, "##scussi": 8034, "##iscussi": 8035, "##iets": 8036, "##tionaa": 8037, "##ationaa": 8038, "##tionaal": 8039, "##ationaal": 8040, "besli": 8041, "beslis": 8042, "bedrijv": 8043, "##inig": 8044, "##disch": 8045, "via": 8046, "##enu": 8047, "mac": 8048, "bestaat": 8049, "##ider": 8050, "##ruike": 8051, "verantwoordelijkhei": 8052, "verantwoordelijkheid": 8053, "##mocratische": 8054, "verklari": 8055, "verklarin": 8056, "verklaring": 8057, "##emocratische": 8058, "##taande": 8059, "##doende": 8060, "##leidi": 8061, "##leidin": 8062, "##elu": 8063, "##leiding": 8064, "##oetre": 8065, "invester": 8066, "belasti": 8067, "belastin": 8068, "belasting": 8069, "kon": 8070, "wen": 8071, "##oma": 8072, "##ie\u00eb": 8073, "biede": 8074, "zetten": 8075, "##nties": 8076, "##erende": 8077, "##enke": 8078, "##ie\u00ebn": 8079, "##unc": 8080, "ops": 8081, "bieden": 8082, "##ligheids": 8083, "##ifie": 8084, "##ucc": 8085, "##nspanni": 8086, "##nspannin": 8087, "##nspanning": 8088, "daarb": 8089, "##beg": 8090, "##uut": 8091, "##iligheids": 8092, "##eiligheids": 8093, "##02": 8094, "##nsl": 8095, "##prod": 8096, "##bt": 8097, "leiden": 8098, "##pres": 8099, "geo": 8100, "gene": 8101, "##o-": 8102, "##erleg": 8103, "def": 8104, "##rkie": 8105, "financier": 8106, "##atten": 8107, "##iezi": 8108, "##eeg": 8109, "##eurd": 8110, "##erkie": 8111, "##chad": 8112, "aans": 8113, "##nho": 8114, "##avi": 8115, "bedrijve": 8116, "bedrijven": 8117, "terw": 8118, "terwi": 8119, "deg": 8120, "specif": 8121, "specifi": 8122, "terwij": 8123, "terwijl": 8124, "##deree": 8125, "##rdelen": 8126, "##ederee": 8127, "##achtig": 8128, "aanva": 8129, "##dereen": 8130, "##edereen": 8131, "##euren": 8132, "iederee": 8133, "iedereen": 8134, "##gl": 8135, "##derhei": 8136, "##derheid": 8137, "kwal": 8138, "##strijdi": 8139, "##iode": 8140, "##riode": 8141, "##ionel": 8142, "##eriode": 8143, "nau": 8144, "##enee": 8145, "##gat": 8146, "dru": 8147, "##-a": 8148, "##vou": 8149, "##ionele": 8150, "nauw": 8151, "##walit": 8152, "##oetred": 8153, "##orig": 8154, "##vertu": 8155, "##orlo": 8156, "##vertui": 8157, "##vertuig": 8158, "##ident": 8159, "kwali": 8160, "##ronde": 8161, "##senti": 8162, "##pij": 8163, "stu": 8164, "##produ": 8165, "##iezin": 8166, "scho": 8167, "##produc": 8168, "##noemd": 8169, "##waarden": 8170, "##iezing": 8171, "##eza": 8172, "##onte": 8173, "##veri": 8174, "##bruike": 8175, "##chul": 8176, "chi": 8177, "##uikt": 8178, "##ceerd": 8179, "##gemee": 8180, "##staand": 8181, "##hel": 8182, "##-p": 8183, "##menta": 8184, "reed": 8185, "##kiez": 8186, "##rijden": 8187, "##en-": 8188, "##e\u00efn": 8189, "##99": 8190, "##enne": 8191, "voorwaard": 8192, "voorwaarde": 8193, "reeds": 8194, "##rijs": 8195, "##anpak": 8196, "##erland": 8197, "##ruitg": 8198, "##rnsti": 8199, "##rnstig": 8200, "##eini": 8201, "##langen": 8202, "ernsti": 8203, "ernstig": 8204, "##rkiez": 8205, "##erkiez": 8206, "amb": 8207, "##fiek": 8208, "waarbij": 8209, "##eachte": 8210, "##kan": 8211, "##luk": 8212, "ge\u00ef": 8213, "##ezelf": 8214, "rui": 8215, "##ctuu": 8216, "##ctuur": 8217, "##ifiek": 8218, "##oeme": 8219, "##-fr": 8220, "##uele": 8221, "##ssent": 8222, "##voud": 8223, "##elev": 8224, "##rukke": 8225, "##kije": 8226, "##rtoe": 8227, "##cifie": 8228, "##ecifie": 8229, "##cifiek": 8230, "##pecifie": 8231, "##ecifiek": 8232, "##pecifiek": 8233, "##ssenti": 8234, "##vond": 8235, "##iatief": 8236, "geachte": 8237, "##sra": 8238, "##ndee": 8239, "##ngew": 8240, "##erri": 8241, "bereike": 8242, "bereiken": 8243, "##tiatief": 8244, "##itiatief": 8245, "##nitiatief": 8246, "autorite": 8247, "autoritei": 8248, "autoriteit": 8249, "##ront": 8250, "##weld": 8251, "##enken": 8252, "dia": 8253, "##mal": 8254, "veroo": 8255, "veroor": 8256, "dege": 8257, "##int": 8258, "##aags": 8259, "##haal": 8260, "##sliss": 8261, "##esliss": 8262, "##ruikt": 8263, "##bruikt": 8264, "##enden": 8265, "kenn": 8266, "##rimi": 8267, "##markt": 8268, "##krij": 8269, "##pv": 8270, "##jdin": 8271, "##ijdin": 8272, "##jding": 8273, "##ijding": 8274, "##elede": 8275, "##ermo": 8276, "##-fra": 8277, "overtu": 8278, "overtui": 8279, "overtuig": 8280, "##plan": 8281, "##rnaa": 8282, "##kiezi": 8283, "##kiezin": 8284, "##kiezing": 8285, "verwac": 8286, "verwach": 8287, "verwacht": 8288, "##rkiezi": 8289, "##erkiezi": 8290, "##rkiezin": 8291, "##erkiezin": 8292, "##rkiezing": 8293, "##erkiezing": 8294, "##zieni": 8295, "##rzieni": 8296, "##erati": 8297, "##vlo": 8298, "##onis": 8299, "##erentie": 8300, "##zienin": 8301, "##rzienin": 8302, "##ziening": 8303, "##rziening": 8304, "##ean": 8305, "toetr": 8306, "##frac": 8307, "##cces": 8308, "##fract": 8309, "##mpl": 8310, "##fracti": 8311, "##enda": 8312, "indu": 8313, "gara": 8314, "zit": 8315, "proced": 8316, "indus": 8317, "indust": 8318, "industr": 8319, "##rimin": 8320, "##rstan": 8321, "##leren": 8322, "##ucce": 8323, "##aus": 8324, "##alist": 8325, "##ucces": 8326, "##anten": 8327, "##enze": 8328, "##tba": 8329, "##liseri": 8330, "##liserin": 8331, "##lisering": 8332, "##fractie": 8333, "##ferent": 8334, "##rweg": 8335, "##tekend": 8336, "industri": 8337, "aangen": 8338, "##egene": 8339, "suc": 8340, "##ndw": 8341, "##sic": 8342, "##efte": 8343, "##ferenti": 8344, "##sbele": 8345, "beta": 8346, "##ruitga": 8347, "cen": 8348, "##tda": 8349, "##edoe": 8350, "procedu": 8351, "procedur": 8352, "##sys": 8353, "procedure": 8354, "succ": 8355, "succe": 8356, "succes": 8357, "##mon": 8358, "##syst": 8359, "##syste": 8360, "##nische": 8361, "##edeli": 8362, "##gemen": 8363, "visseri": 8364, "garan": 8365, "visserij": 8366, "##ntele": 8367, "##ggi": 8368, "##udig": 8369, "##voudi": 8370, "##oudig": 8371, "##voudig": 8372, "##nks": 8373, "taa": 8374, "##rtel": 8375, "##stere": 8376, "werkel": 8377, "##ntere": 8378, "##gemeen": 8379, "##iering": 8380, "##ln": 8381, "toetre": 8382, "##tma": 8383, "##hav": 8384, "specifie": 8385, "specifiek": 8386, "##rstand": 8387, "##ggin": 8388, "teks": 8389, "tekst": 8390, "##eging": 8391, "##eleden": 8392, "vervoe": 8393, "##oefte": 8394, "##tenlands": 8395, "##itenlands": 8396, "##uitenlands": 8397, "##kor": 8398, "gehou": 8399, "##uidelijke": 8400, "gehoud": 8401, "gehoude": 8402, "gehouden": 8403, "##hoefte": 8404, "##ehoefte": 8405, "buitenlands": 8406, "##elat": 8407, "##rtro": 8408, "mu": 8409, "aanpak": 8410, "##oden": 8411, "##ezelfd": 8412, "##ezelfde": 8413, "##bur": 8414, "##eikt": 8415, "gebiede": 8416, "##abilit": 8417, "##kkinge": 8418, "##kkingen": 8419, "gebieden": 8420, "##kenn": 8421, "##zetten": 8422, "##clu": 8423, "ak": 8424, "##mit": 8425, "##uitgan": 8426, "##uitgang": 8427, "##organ": 8428, "##espec": 8429, "##gging": 8430, "##nlandse": 8431, "##enlandse": 8432, "##evalle": 8433, "##unct": 8434, "##angeno": 8435, "##ndin": 8436, "vervoer": 8437, "##ruitgan": 8438, "##ruitgang": 8439, "lib": 8440, "##rzam": 8441, "##isic": 8442, "mor": 8443, "##gati": 8444, "daarbi": 8445, "##westies": 8446, "##evallen": 8447, "##sico": 8448, "##isico": 8449, "##eria": 8450, "hen": 8451, "##efen": 8452, "vrijhei": 8453, "vrijheid": 8454, "##-frac": 8455, "##-fract": 8456, "##-fracti": 8457, "##-fractie": 8458, "##rzame": 8459, "mat": 8460, "##orzien": 8461, "##oorzien": 8462, "behoef": 8463, "ple": 8464, "##ami": 8465, "##pb": 8466, "##angenom": 8467, "##angenome": 8468, "##lijks": 8469, "##angenomen": 8470, "aangeno": 8471, "aangenom": 8472, "aangenome": 8473, "aangenomen": 8474, "systee": 8475, "systeem": 8476, "##titu": 8477, "verze": 8478, "##smi": 8479, "##nol": 8480, "behoeft": 8481, "##jfel": 8482, "##ijfel": 8483, "##gatie": 8484, "vaak": 8485, "##amente": 8486, "##rgr": 8487, "##wijf": 8488, "##wijfe": 8489, "##wijfel": 8490, "##ertro": 8491, "##derwi": 8492, "##nderwi": 8493, "##erig": 8494, "##tsta": 8495, "##riti": 8496, "##derwij": 8497, "##nderwij": 8498, "werkeli": 8499, "werkelij": 8500, "werkelijk": 8501, "##borg": 8502, "##anninge": 8503, "##anningen": 8504, "##mmers": 8505, "gebra": 8506, "daarbij": 8507, "toetred": 8508, "inspanni": 8509, "inspannin": 8510, "inspanning": 8511, "##latie": 8512, "##gezet": 8513, "##stitu": 8514, "verkee": 8515, "verkeer": 8516, "##enoemd": 8517, "discu": 8518, "ele": 8519, "##cip": 8520, "##damente": 8521, "##ndamente": 8522, "##undamente": 8523, "##entele": 8524, "##rali": 8525, "##staande": 8526, "fundamente": 8527, "##eminge": 8528, "##riek": 8529, "##emingen": 8530, "##cieri": 8531, "##cierin": 8532, "##ciering": 8533, "##ncieri": 8534, "##ancieri": 8535, "##ncierin": 8536, "##nancieri": 8537, "##ancierin": 8538, "##nciering": 8539, "##inancieri": 8540, "##nancierin": 8541, "##anciering": 8542, "##inancierin": 8543, "##nanciering": 8544, "##inanciering": 8545, "##vati": 8546, "##rsi": 8547, "##arov": 8548, "##sbelei": 8549, "##sbeleid": 8550, "##ncr": 8551, "##deld": 8552, "##\u2019": 8553, "##rtijd": 8554, "##indt": 8555, "fran": 8556, "##erik": 8557, "##-b": 8558, "##apen": 8559, "##sco": 8560, "##stek": 8561, "##abilite": 8562, "##gep": 8563, "##cret": 8564, "person": 8565, "##gden": 8566, "gede": 8567, "steune": 8568, "meerd": 8569, "steunen": 8570, "cent": 8571, "##abilitei": 8572, "##abiliteit": 8573, "##reikt": 8574, "##uigen": 8575, "##oeds": 8576, "discus": 8577, "discuss": 8578, "##erika": 8579, "##else": 8580, "imme": 8581, "discussi": 8582, "lijk": 8583, "vie": 8584, "##nspar": 8585, "##ods": 8586, "meerde": 8587, "##anspa": 8588, "##ebruike": 8589, "meerder": 8590, "##derwijs": 8591, "##nderwijs": 8592, "ira": 8593, "##steren": 8594, "##panninge": 8595, "##panningen": 8596, "##merik": 8597, "##ialo": 8598, "##ondw": 8599, "##merika": 8600, "gebrac": 8601, "gebrach": 8602, "gebracht": 8603, "##cente": 8604, "##ereikt": 8605, "##uitv": 8606, "##huld": 8607, "##rijdin": 8608, "##ndigh": 8609, "##ndighe": 8610, "##dsm": 8611, "##rijding": 8612, "persone": 8613, "kindere": 8614, "##mpr": 8615, "kinderen": 8616, "hon": 8617, "##tionel": 8618, "##tionele": 8619, "##spara": 8620, "##issc": 8621, "integr": 8622, "##wb": 8623, "##rondw": 8624, "##eerst": 8625, "##anspar": 8626, "##ranspa": 8627, "##ranspar": 8628, "##issch": 8629, "mond": 8630, "##pelen": 8631, "##init": 8632, "##uctuu": 8633, "##uctuur": 8634, "##ructuu": 8635, "##tructuu": 8636, "##ructuur": 8637, "##tructuur": 8638, "##ents": 8639, "##neminge": 8640, "##nemingen": 8641, "##paran": 8642, "##uder": 8643, "##nspara": 8644, "##anspara": 8645, "##ranspara": 8646, "##sparan": 8647, "##parant": 8648, "##nsparan": 8649, "##ansparan": 8650, "##ransparan": 8651, "##sparant": 8652, "##nsparant": 8653, "##ansparant": 8654, "##ransparant": 8655, "##erneme": 8656, "##ici\u00ebn": 8657, "diene": 8658, "dienen": 8659, "##ferentie": 8660, "##aardo": 8661, "##uwb": 8662, "begins": 8663, "veiligheids": 8664, "##usie": 8665, "##gelin": 8666, "##geling": 8667, "##leerd": 8668, "##sect": 8669, "##gion": 8670, "jon": 8671, "##mentel": 8672, "##nvou": 8673, "##deringe": 8674, "##envou": 8675, "##nvoud": 8676, "##rneminge": 8677, "##rnemingen": 8678, "##envoud": 8679, "##deringen": 8680, "##mentele": 8681, "##espre": 8682, "##egion": 8683, "##ardoo": 8684, "##aardoo": 8685, "##ardoor": 8686, "##aardoor": 8687, "ruim": 8688, "##ngeren": 8689, "##eweld": 8690, "beginse": 8691, "beginsel": 8692, "organisa": 8693, "organisat": 8694, "transpa": 8695, "##ordee": 8696, "erg": 8697, "transpar": 8698, "##singe": 8699, "##oruitg": 8700, "##gsproc": 8701, "##ooruitg": 8702, "##ussie": 8703, "##ngsproc": 8704, "vooruitg": 8705, "##cussie": 8706, "##gsproce": 8707, "##nsie": 8708, "##nolo": 8709, "help": 8710, "##ngsproce": 8711, "stru": 8712, "##rnemen": 8713, "##eggi": 8714, "##erneminge": 8715, "##ernemingen": 8716, "##mpro": 8717, "##derneminge": 8718, "##nderneminge": 8719, "##dernemingen": 8720, "##ndernemingen": 8721, "##nolog": 8722, "##giona": 8723, "##egiona": 8724, "transpara": 8725, "transparan": 8726, "wei": 8727, "##name": 8728, "transparant": 8729, "soli": 8730, "##eggin": 8731, "##egging": 8732, "##loog": 8733, "##ieg": 8734, "##ito": 8735, "##waardi": 8736, "##secto": 8737, "##sector": 8738, "##ordeel": 8739, "bereikt": 8740, "solid": 8741, "immer": 8742, "##nvoudi": 8743, "##envoudi": 8744, "##nvoudig": 8745, "##envoudig": 8746, "##singen": 8747, "##waardig": 8748, "##tijk": 8749, "##aktij": 8750, "##rtrou": 8751, "##gsl": 8752, "##scussie": 8753, "##iscussie": 8754, "##rid": 8755, "##raktij": 8756, "##ersi": 8757, "##edien": 8758, "activ": 8759, "##ktijk": 8760, "##aktijk": 8761, "##raktijk": 8762, "##ngaa": 8763, "##dsel": 8764, "##nologi": 8765, "##ober": 8766, "##aliseri": 8767, "##aliserin": 8768, "##alisering": 8769, "##brek": 8770, "##hno": 8771, "##sschi": 8772, "jong": 8773, "##uncti": 8774, "##tsv": 8775, "##ncre": 8776, "##oncr": 8777, "##onnen": 8778, "sprake": 8779, "##agst": 8780, "##oncre": 8781, "##nding": 8782, "##chno": 8783, "##ersp": 8784, "##lida": 8785, "ou": 8786, "##ci\u00ebnt": 8787, "##echno": 8788, "##ndwe": 8789, "##ingsproc": 8790, "##oruitga": 8791, "##ooruitga": 8792, "wijzen": 8793, "##vie": 8794, "##ingsproce": 8795, "vooruitga": 8796, "##uitvo": 8797, "##vloe": 8798, "overg": 8799, "##hien": 8800, "##chien": 8801, "spa": 8802, "##gsb": 8803, "##schien": 8804, "immers": 8805, "##sschie": 8806, "##oew": 8807, "##isschi": 8808, "gegevens": 8809, "missc": 8810, "missch": 8811, "misschi": 8812, "##isschie": 8813, "##sschien": 8814, "misschie": 8815, "##isschien": 8816, "misschien": 8817, "##ertrou": 8818, "##rtrouw": 8819, "##ertrouw": 8820, "##evel": 8821, "##boe": 8822, "##ordige": 8823, "##uce": 8824, "##fici\u00ebn": 8825, "##ici\u00ebnt": 8826, "##fici\u00ebnt": 8827, "##dert": 8828, "pass": 8829, "##oordige": 8830, "##woordige": 8831, "##nwoordige": 8832, "##enwoordige": 8833, "##genwoordige": 8834, "##egenwoordige": 8835, "concr": 8836, "concre": 8837, "##ffici\u00ebn": 8838, "##ffici\u00ebnt": 8839, "##ebruikt": 8840, "gewel": 8841, "##ergr": 8842, "geweld": 8843, "##chuld": 8844, "centr": 8845, "##tegenwoordige": 8846, "##aloo": 8847, "##gevoer": 8848, "##gevoerd": 8849, "##oruitgan": 8850, "##ooruitgan": 8851, "##oruitgang": 8852, "##ooruitgang": 8853, "##arbo": 8854, "##tels": 8855, "vooruitgan": 8856, "vooruitgang": 8857, "voorbee": 8858, "voorbeel": 8859, "voorbeeld": 8860, "##viteite": 8861, "##viteiten": 8862, "bepal": 8863, "##keren": 8864, "##duce": 8865, "##aloog": 8866, "##olida": 8867, "oms": 8868, "schad": 8869, "##iviteite": 8870, "##tiviteite": 8871, "##iviteiten": 8872, "##tiviteiten": 8873, "##rrei": 8874, "##tral": 8875, "##rtegenwoordige": 8876, "##ertegenwoordige": 8877, "##rele": 8878, "vred": 8879, "##rere": 8880, "##hikk": 8881, "##chikk": 8882, "geric": 8883, "gerich": 8884, "gericht": 8885, "ris": 8886, "##noeg": 8887, "##dm": 8888, "##prom": 8889, "##itse": 8890, "##elge": 8891, "##ctiviteite": 8892, "##ctiviteiten": 8893, "wie": 8894, "##erpe": 8895, "akk": 8896, "##ialoo": 8897, "##ialoog": 8898, "##eurs": 8899, "##enwi": 8900, "maakt": 8901, "##eded": 8902, "##ogis": 8903, "mod": 8904, "##ekkinge": 8905, "##ekkingen": 8906, "##proces": 8907, "##fon": 8908, "##enoeg": 8909, "##migr": 8910, "##eelt": 8911, "##ensie": 8912, "##egdh": 8913, "##egdhe": 8914, "##oegdh": 8915, "##oegdhe": 8916, "##rts": 8917, "##voegdh": 8918, "##evoegdh": 8919, "##voegdhe": 8920, "##evoegdhe": 8921, "##edt": 8922, "##loed": 8923, "##reren": 8924, "##aagst": 8925, "vrede": 8926, "##geke": 8927, "##eali": 8928, "bero": 8929, "##egaa": 8930, "##rist": 8931, "##hnol": 8932, "##chnol": 8933, "##echnol": 8934, "##hnolo": 8935, "##chnolo": 8936, "##hnolog": 8937, "##echnolo": 8938, "##chnolog": 8939, "##echnolog": 8940, "##kene": 8941, "##ngsl": 8942, "##arna": 8943, "for": 8944, "##roots": 8945, "##overe": 8946, "niets": 8947, "##tuige": 8948, "##evee": 8949, "##ogie": 8950, "struc": 8951, "struct": 8952, "structu": 8953, "##egelin": 8954, "gi": 8955, "##elic": 8956, "##egeling": 8957, "behoefte": 8958, "##jar": 8959, "stabil": 8960, "pak": 8961, "stabili": 8962, "##hnologi": 8963, "##chnologi": 8964, "##echnologi": 8965, "waarva": 8966, "waarvan": 8967, "##tiee": 8968, "##rekkinge": 8969, "##rekkingen": 8970, "##trekkinge": 8971, "##trekkingen": 8972, "vertro": 8973, "bespr": 8974, "##espect": 8975, "##esprek": 8976, "##verle": 8977, "##ebel": 8978, "##oter": 8979, "##rstre": 8980, "sin": 8981, "##erstre": 8982, "##nhou": 8983, "##omend": 8984, "mate": 8985, "##pens": 8986, "organisati": 8987, "##nhoud": 8988, "idee": 8989, "##ecen": 8990, "geled": 8991, "##aarov": 8992, "##arove": 8993, "##aarove": 8994, "##arover": 8995, "##aarover": 8996, "##igrat": 8997, "##trijdin": 8998, "##estrijdi": 8999, "##strijdin": 9000, "##trijding": 9001, "##estrijdin": 9002, "##strijding": 9003, "##estrijding": 9004, "##igrati": 9005, "behe": 9006, "##schikk": 9007, "nor": 9008, "akko": 9009, "akkoo": 9010, "akkoor": 9011, "akkoord": 9012, "##igratie": 9013, "##etrekkinge": 9014, "##etrekkingen": 9015, "##telt": 9016, "##gm": 9017, "meded": 9018, "##vaart": 9019, "##ila": 9020, "organisatie": 9021, "eis": 9022, "##kenen": 9023, "##add": 9024, "drin": 9025, "##ldoend": 9026, "##oldoend": 9027, "##tije": 9028, "##tijen": 9029, "##ldoende": 9030, "##oldoende": 9031, "vermi": 9032, "##rtije": 9033, "##artije": 9034, "##derda": 9035, "##rtijen": 9036, "##artijen": 9037, "kant": 9038, "daarva": 9039, "daarvan": 9040, "##ompr": 9041, "##zoeken": 9042, "##middele": 9043, "##middelen": 9044, "##bro": 9045, "##dwet": 9046, "##spreke": 9047, "gebruikt": 9048, "region": 9049, "##lever": 9050, "##enkomste": 9051, "##enkomsten": 9052, "##nderda": 9053, "##errei": 9054, "rusl": 9055, "rusla": 9056, "ruslan": 9057, "rusland": 9058, "##lijkt": 9059, "##elpe": 9060, "verki": 9061, "##ondwe": 9062, "##andigh": 9063, "##andighe": 9064, "##ompro": 9065, "##logie": 9066, "verho": 9067, "verkie": 9068, "##eenkomste": 9069, "##eenkomsten": 9070, "##rondwe": 9071, "##rbor": 9072, "##iende": 9073, "##drukke": 9074, "##aarna": 9075, "##ndwet": 9076, "##ondwet": 9077, "##rondwet": 9078, "##migra": 9079, "##egenen": 9080, "##mh": 9081, "##dighei": 9082, "##digheid": 9083, "##isen": 9084, "##rborg": 9085, "regiona": 9086, "##promi": 9087, "##beurt": 9088, "vori": 9089, "vorig": 9090, "##o\u00f6": 9091, "##spreken": 9092, "##ndige": 9093, "##dba": 9094, "chin": 9095, "##bas": 9096, "##dell": 9097, "##inds": 9098, "##mprom": 9099, "##mpromi": 9100, "##omprom": 9101, "##ompromi": 9102, "##walite": 9103, "##walitei": 9104, "##waliteit": 9105, "oud": 9106, "##nwic": 9107, "##enwic": 9108, "##nwich": 9109, "##enwich": 9110, "##nwicht": 9111, "##enwicht": 9112, "##rzoeke": 9113, "##rwaarden": 9114, "gelede": 9115, "asp": 9116, "pub": 9117, "201": 9118, "##rderen": 9119, "##ologie": 9120, "##edoel": 9121, "##-r": 9122, "##jt": 9123, "##erzie": 9124, "##erzoeke": 9125, "##vatt": 9126, "##romis": 9127, "##orwaarden": 9128, "##oorwaarden": 9129, "grondw": 9130, "jur": 9131, "##promis": 9132, "##mpromis": 9133, "##ompromis": 9134, "publ": 9135, "publi": 9136, "kosten": 9137, "##drijf": 9138, "##gedi": 9139, "compr": 9140, "##levin": 9141, "##leving": 9142, "##elpen": 9143, "activi": 9144, "##mene": 9145, "##uiti": 9146, "verr": 9147, "geza": 9148, "##teraa": 9149, "##uitin": 9150, "##uiting": 9151, "##elange": 9152, "ap": 9153, "##alv": 9154, "##ingsl": 9155, "##eemt": 9156, "punte": 9157, "punten": 9158, "##lusi": 9159, "bewe": 9160, "compro": 9161, "comprom": 9162, "compromi": 9163, "##rsoo": 9164, "oos": 9165, "##nkr": 9166, "##side": 9167, "##ersoo": 9168, "oost": 9169, "verkiez": 9170, "democratische": 9171, "##tstel": 9172, "onderwi": 9173, "##chan": 9174, "##tsb": 9175, "##tandigh": 9176, "##standigh": 9177, "##tandighe": 9178, "##standighe": 9179, "##stelde": 9180, "##sele": 9181, "##urea": 9182, "##ebeurt": 9183, "##kelen": 9184, "compromis": 9185, "onderwij": 9186, "aanw": 9187, "wens": 9188, "risi": 9189, "termi": 9190, "##elangen": 9191, "##tieven": 9192, "##itste": 9193, "gebeurt": 9194, "##andere": 9195, "##ewoo": 9196, "##ffer": 9197, "risic": 9198, "##nadr": 9199, "risico": 9200, "##hij": 9201, "##enadr": 9202, "##nadru": 9203, "##enadru": 9204, "##nadruk": 9205, "##enadruk": 9206, "rel": 9207, "benadr": 9208, "benadru": 9209, "benadruk": 9210, "##etredi": 9211, "##etredin": 9212, "##etreding": 9213, "##var": 9214, "##rderi": 9215, "##ijt": 9216, "##schrij": 9217, "##sove": 9218, "##verhei": 9219, "##verheid": 9220, "##chij": 9221, "##nfl": 9222, "##raak": 9223, "gevaa": 9224, "##oetredi": 9225, "##oetredin": 9226, "##oetreding": 9227, "gevaar": 9228, "##veran": 9229, "##best": 9230, "juri": 9231, "##rheids": 9232, "##reau": 9233, "##msta": 9234, "##zinge": 9235, "geleden": 9236, "##zingen": 9237, "##atig": 9238, "##igden": 9239, "##anderen": 9240, "##nstemmi": 9241, "##sover": 9242, "##hijn": 9243, "##chijn": 9244, "##gedie": 9245, "##lita": 9246, "##oedig": 9247, "##ureau": 9248, "dezel": 9249, "##eider": 9250, "dezelf": 9251, "##venwi": 9252, "dezelfd": 9253, "dezelfde": 9254, "##fond": 9255, "vertrou": 9256, "vertrouw": 9257, "##venwic": 9258, "##venwich": 9259, "##venwicht": 9260, "##spanninge": 9261, "##spanningen": 9262, "##oemen": 9263, "##nteer": 9264, "##nspanninge": 9265, "##nspanningen": 9266, "##ppi": 9267, "inn": 9268, "##clus": 9269, "legg": 9270, "legge": 9271, "leggen": 9272, "##urki": 9273, "##\u2019s": 9274, "verbo": 9275, "##\u00f6r": 9276, "##mstan": 9277, "##itiev": 9278, "##mstand": 9279, "##tut": 9280, "##uits": 9281, "onderd": 9282, "##ertij": 9283, "groots": 9284, "verkiezi": 9285, "verkiezin": 9286, "verkiezing": 9287, "##sterin": 9288, "herz": 9289, "grens": 9290, "##ertijd": 9291, "##stering": 9292, "##llig": 9293, "##kaan": 9294, "tegel": 9295, "##nvoe": 9296, "tegeli": 9297, "tegelij": 9298, "tegelijk": 9299, "##itieve": 9300, "##pni": 9301, "##ssinge": 9302, "##rkij": 9303, "##mstandi": 9304, "##mstandig": 9305, "##rmoe": 9306, "##eteren": 9307, "onderwijs": 9308, "blijf": 9309, "gebruike": 9310, "##tant": 9311, "##urkij": 9312, "##esteri": 9313, "##nism": 9314, "##rkije": 9315, "##urkije": 9316, "##mstandigh": 9317, "##mstandighe": 9318, "##eman": 9319, "##ogelijkhei": 9320, "##ogelijkheid": 9321, "##ssingen": 9322, "##neel": 9323, "onm": 9324, "ess": 9325, "##esid": 9326, "##ngi": 9327, "##werken": 9328, "##az": 9329, "initiatief": 9330, "dele": 9331, "##iber": 9332, "tere": 9333, "anders": 9334, "##ltr": 9335, "bereid": 9336, "onts": 9337, "norm": 9338, "kwalit": 9339, "##aarbo": 9340, "##raags": 9341, "##rrein": 9342, "##ntiee": 9343, "levens": 9344, "##tvoeri": 9345, "esse": 9346, "##errein": 9347, "##tabilit": 9348, "##dedi": 9349, "dial": 9350, "##schu": 9351, "essen": 9352, "##oedse": 9353, "##penb": 9354, "##cep": 9355, "##nstemmin": 9356, "##nstemming": 9357, "##ociaa": 9358, "##ociaal": 9359, "##egra": 9360, "##tein": 9361, "##rgd": 9362, "##lusie": 9363, "##tabilite": 9364, "##tabilitei": 9365, "##tabiliteit": 9366, "##edsel": 9367, "##oedsel": 9368, "##rbr": 9369, "##trouwe": 9370, "##gstu": 9371, "##\u00ebre": 9372, "wijzi": 9373, "##raagst": 9374, "daarm": 9375, "daarme": 9376, "##\u00ebren": 9377, "##pnie": 9378, "opni": 9379, "##pnieu": 9380, "##pnieuw": 9381, "opnie": 9382, "opnieu": 9383, "opnieuw": 9384, "##nges": 9385, "##siden": 9386, "daarmee": 9387, "##ndele": 9388, "##stij": 9389, "##sident": 9390, "##tdag": 9391, "##dit": 9392, "##pzi": 9393, "terec": 9394, "terech": 9395, "terecht": 9396, "prij": 9397, "##randere": 9398, "beo": 9399, "##xp": 9400, "##randeren": 9401, "##ogisc": 9402, "##ogisch": 9403, "turki": 9404, "##g-": 9405, "turkij": 9406, "onderneminge": 9407, "ondernemingen": 9408, "turkije": 9409, "##ndelen": 9410, "essent": 9411, "wijzig": 9412, "essenti": 9413, "dialo": 9414, "termij": 9415, "termijn": 9416, "##toriteite": 9417, "##utoriteite": 9418, "##toriteiten": 9419, "##utoriteiten": 9420, "##diend": 9421, "lever": 9422, "uitste": 9423, "##pmerki": 9424, "##pmerkin": 9425, "##pmerking": 9426, "##wijd": 9427, "##resi": 9428, "##ize": 9429, "##dic": 9430, "activit": 9431, "##bin": 9432, "sociaa": 9433, "##ndighed": 9434, "##ndighede": 9435, "##ndigheden": 9436, "sociaal": 9437, "##daad": 9438, "##arbor": 9439, "##aarbor": 9440, "##arborg": 9441, "##aarborg": 9442, "overhei": 9443, "overheid": 9444, "maats": 9445, "gelege": 9446, "##andighed": 9447, "##andighede": 9448, "##andigheden": 9449, "##ncl": 9450, "##gsc": 9451, "##anger": 9452, "##orgd": 9453, "##hto": 9454, "##emene": 9455, "##tent": 9456, "##ras": 9457, "##soon": 9458, "##rsoon": 9459, "##ersoon": 9460, "##tandighed": 9461, "##standighed": 9462, "##tandighede": 9463, "##standighede": 9464, "##tandigheden": 9465, "##standigheden": 9466, "##mstandighed": 9467, "##mstandighede": 9468, "##mstandigheden": 9469, "##hani": 9470, "activite": 9471, "activitei": 9472, "activiteit": 9473, "gelegen": 9474, "##eteri": 9475, "bei": 9476, "discussie": 9477, "##arr": 9478, "##erzien": 9479, "##reide": 9480, "##derde": 9481, "uitga": 9482, "##gar": 9483, "##eterin": 9484, "##hanis": 9485, "##up": 9486, "##tieel": 9487, "##lijft": 9488, "##mmigr": 9489, "##ie-": 9490, "opmerki": 9491, "opmerkin": 9492, "opmerking": 9493, "##d-": 9494, "aspe": 9495, "solida": 9496, "##gepa": 9497, "slu": 9498, "zui": 9499, "##omende": 9500, "vertegenwoordige": 9501, "##dsc": 9502, "toes": 9503, "##esterin": 9504, "##estering": 9505, "##resid": 9506, "##deeld": 9507, "##ctio": 9508, "##nstit": 9509, "##vesteri": 9510, "##nvesteri": 9511, "##vesterin": 9512, "##nvesterin": 9513, "##vestering": 9514, "##nvestering": 9515, "##nstitu": 9516, "##mand": 9517, "##gstuk": 9518, "##roter": 9519, "##ezic": 9520, "##ezich": 9521, "aspec": 9522, "groter": 9523, "aspect": 9524, "##yp": 9525, "##ezicht": 9526, "##utaire": 9527, "##vatie": 9528, "genoeg": 9529, "openb": 9530, "slui": 9531, "##overee": 9532, "##elem": 9533, "##penba": 9534, "##overeen": 9535, "##rspr": 9536, "##overeenk": 9537, "##overeenko": 9538, "##overeenkom": 9539, "##overeenkoms": 9540, "##overeenkomst": 9541, "##mmigra": 9542, "##stree": 9543, "##oduce": 9544, "##roduce": 9545, "mogelijkhei": 9546, "mogelijkheid": 9547, "twi": 9548, "##ngsb": 9549, "voorzie": 9550, "##htinge": 9551, "##chtinge": 9552, "##htingen": 9553, "##chtingen": 9554, "##ction": 9555, "bar": 9556, "openba": 9557, "##lko": 9558, "##laas": 9559, "##autaire": 9560, "##nautaire": 9561, "##unautaire": 9562, "##munautaire": 9563, "##mmunautaire": 9564, "##ommunautaire": 9565, "bezo": 9566, "##itut": 9567, "##versc": 9568, "##nfe": 9569, "##ndia": 9570, "##titut": 9571, "##itda": 9572, "##stitut": 9573, "ople": 9574, "##oneel": 9575, "##versch": 9576, "##anbe": 9577, "##oezi": 9578, "##\u00f6rd": 9579, "##o\u00f6r": 9580, "##o\u00f6rd": 9581, "##\u00f6rdi": 9582, "##o\u00f6rdi": 9583, "##\u00f6rdin": 9584, "##o\u00f6rdin": 9585, "##agstu": 9586, "##aagstu": 9587, "##agstuk": 9588, "##aagstuk": 9589, "##nisme": 9590, "##raagstu": 9591, "##raagstuk": 9592, "probe": 9593, "##itdag": 9594, "##rderin": 9595, "##rdering": 9596, "##istr": 9597, "opzi": 9598, "##nvoer": 9599, "##ootst": 9600, "##tande": 9601, "helpe": 9602, "##oeli": 9603, "inzi": 9604, "##/": 9605, "immi": 9606, "##swa": 9607, "immig": 9608, "immigr": 9609, "helpen": 9610, "##ocu": 9611, "##ubs": 9612, "##stande": 9613, "##elaas": 9614, "##estelde": 9615, "##gelijkhed": 9616, "##gelijkhede": 9617, "##gelijkheden": 9618, "##eschikk": 9619, "getr": 9620, "bedo": 9621, "inspanninge": 9622, "inspanningen": 9623, "producte": 9624, "##evend": 9625, "dialoo": 9626, "dialoog": 9627, "##edrijf": 9628, "##jpe": 9629, "##ijpe": 9630, "##kaans": 9631, "immigra": 9632, "##centr": 9633, "##out": 9634, "##norme": 9635, "##egat": 9636, "voeds": 9637, "voedse": 9638, "voedsel": 9639, "##nkri": 9640, "grondwe": 9641, "##rmoed": 9642, "##erie": 9643, "producten": 9644, "grondwet": 9645, "zin": 9646, "medi": 9647, "##betere": 9648, "##hol": 9649, "##derli": 9650, "##entiee": 9651, "##rbetere": 9652, "##beteren": 9653, "##erbetere": 9654, "##rbeteren": 9655, "##erbeteren": 9656, "##dsma": 9657, "verbetere": 9658, "verbeteren": 9659, "##eside": 9660, "##zenl": 9661, "##nso": 9662, "##vis": 9663, "##esiden": 9664, "##dagi": 9665, "##esident": 9666, "##ezenl": 9667, "##zenli": 9668, "##zenlij": 9669, "##zenlijk": 9670, "##ezenli": 9671, "##ezenlij": 9672, "##ezenlijk": 9673, "##itvoeri": 9674, "##reside": 9675, "##residen": 9676, "##resident": 9677, "ci": 9678, "##cept": 9679, "herzi": 9680, "herzie": 9681, "hela": 9682, "helaa": 9683, "helaas": 9684, "##nzet": 9685, "##egati": 9686, "toetredi": 9687, "toetredin": 9688, "toetreding": 9689, "##zamen": 9690, "##dagin": 9691, "##daging": 9692, "##eoor": 9693, "##tdagi": 9694, "##itdagi": 9695, "##tdagin": 9696, "##itdagin": 9697, "##tdaging": 9698, "##itdaging": 9699, "##irec": 9700, "##ordere": 9701, "##ego": 9702, "##orderen": 9703, "##peri": 9704, "##mina": 9705, "abs": 9706, "##egatie": 9707, "##rgro": 9708, "uitda": 9709, "##idden": 9710, "harte": 9711, "##emde": 9712, "##htige": 9713, "##chtige": 9714, "spele": 9715, "uitdag": 9716, "dring": 9717, "##ntv": 9718, "##inen": 9719, "##lgemee": 9720, "##lgemeen": 9721, "##ibera": 9722, "partije": 9723, "##sts": 9724, "beroe": 9725, "partijen": 9726, "##ezam": 9727, "##ezame": 9728, "##tvaard": 9729, "##ebele": 9730, "##tvaardi": 9731, "##tvaardig": 9732, "##einig": 9733, "##rzaa": 9734, "##-d": 9735, "##voorz": 9736, "##tuigen": 9737, "##ntieel": 9738, "communautaire": 9739, "##voorzi": 9740, "producti": 9741, "##rachte": 9742, "sluit": 9743, "##nget": 9744, "herzien": 9745, "##erschr": 9746, "bedoe": 9747, "##gege": 9748, "##moede": 9749, "##scr": 9750, "##woon": 9751, "bedoel": 9752, "belange": 9753, "##lks": 9754, "##udt": 9755, "##dui": 9756, "schen": 9757, "##alve": 9758, "##mte": 9759, "overw": 9760, "func": 9761, "##ebelei": 9762, "##ebeleid": 9763, "##raal": 9764, "uitvoeri": 9765, "tel": 9766, "ge\u00efn": 9767, "funct": 9768, "functi": 9769, "terre": 9770, "ser": 9771, "kwesties": 9772, "##matig": 9773, "mode": 9774, "##oeder": 9775, "##idis": 9776, "##rdiger": 9777, "##dzaa": 9778, "bevoegdh": 9779, "bevoegdhe": 9780, "belangen": 9781, "##oudt": 9782, "##ersta": 9783, "##rkinge": 9784, "##rkingen": 9785, "##dheids": 9786, "##rwo": 9787, "##erkinge": 9788, "##erkingen": 9789, "top": 9790, "##gegev": 9791, "##gegeve": 9792, "##erc": 9793, "##iebel": 9794, "##gegeven": 9795, "gri": 9796, "##irect": 9797, "##euri": 9798, "betrekkinge": 9799, "betrekkingen": 9800, "##lgemen": 9801, "##nclu": 9802, "hers": 9803, "##ezamen": 9804, "##erwo": 9805, "##rdelin": 9806, "##dar": 9807, "##clusi": 9808, "##rdeling": 9809, "praktij": 9810, "##itsp": 9811, "##ennen": 9812, "##rete": 9813, "praktijk": 9814, "##nstige": 9815, "##gemene": 9816, "uitdagi": 9817, "uitdagin": 9818, "uitdaging": 9819, "blijft": 9820, "##lgemene": 9821, "gespr": 9822, "##ala": 9823, "##ewoon": 9824, "##kort": 9825, "algemen": 9826, "algemene": 9827, "##beh": 9828, "geba": 9829, "##egelijke": 9830, "##edigen": 9831, "##gsm": 9832, "##tuti": 9833, "##ituti": 9834, "##tituti": 9835, "##vordere": 9836, "##vorderen": 9837, "##stituti": 9838, "algemee": 9839, "algemeen": 9840, "##erdere": 9841, "##fri": 9842, "##-s": 9843, "##pzic": 9844, "##pzich": 9845, "##pzicht": 9846, "##idisc": 9847, "##ingsb": 9848, "##egens": 9849, "bestu": 9850, "##ikaa": 9851, "##ngin": 9852, "##stuu": 9853, "beoo": 9854, "##raar": 9855, "##trekke": 9856, "##nkrij": 9857, "##eraar": 9858, "##oto": 9859, "##izen": 9860, "persoo": 9861, "persoon": 9862, "##nfr": 9863, "##clusie": 9864, "##organi": 9865, "##etering": 9866, "##organis": 9867, "##lijken": 9868, "##tgest": 9869, "##rtrouwe": 9870, "##ertrouwe": 9871, "##ralis": 9872, "##krijk": 9873, "daarn": 9874, "##stuur": 9875, "##ieken": 9876, "##beteri": 9877, "##rbeteri": 9878, "##beterin": 9879, "##erbeteri": 9880, "##rbeterin": 9881, "##betering": 9882, "##erbeterin": 9883, "##rbetering": 9884, "##erbetering": 9885, "##rijpe": 9886, "##fli": 9887, "##andele": 9888, "##andelen": 9889, "##evordere": 9890, "##evorderen": 9891, "##issin": 9892, "##issing": 9893, "##ikaan": 9894, "##cum": 9895, "vier": 9896, "##nkrijk": 9897, "opzic": 9898, "opzich": 9899, "##ool": 9900, "##evan": 9901, "opzicht": 9902, "##htel": 9903, "##chtel": 9904, "midden": 9905, "##renz": 9906, "imp": 9907, "##adde": 9908, "##afh": 9909, "##akken": 9910, "##rikaa": 9911, "##ediend": 9912, "bezi": 9913, "##rikaan": 9914, "##cul": 9915, "##ddell": 9916, "##iddell": 9917, "beid": 9918, "##fonds": 9919, "##twerk": 9920, "##aarl": 9921, "##digden": 9922, "##erheids": 9923, "##ldt": 9924, "financieri": 9925, "financierin": 9926, "financiering": 9927, "beide": 9928, "##diens": 9929, "##dienst": 9930, "##eninge": 9931, "##ikaans": 9932, "##eningen": 9933, "##ewez": 9934, "##eweze": 9935, "##ewezen": 9936, "##reig": 9937, "##erale": 9938, "geef": 9939, "##rvol": 9940, "##rmoede": 9941, "##rikaans": 9942, "##kert": 9943, "sind": 9944, "##entieel": 9945, "##nhan": 9946, "##fers": 9947, "##trouwen": 9948, "sinds": 9949, "##eoord": 9950, "maatsc": 9951, "maatsch": 9952, "maatscha": 9953, "maatschap": 9954, "##tiever": 9955, "##eenst": 9956, "maatschapp": 9957, "##ervol": 9958, "##eoorde": 9959, "##erko": 9960, "##tegra": 9961, "##ctore": 9962, "##ntegra": 9963, "##ltat": 9964, "##ultat": 9965, "##niv": 9966, "##ctoren": 9967, "##oele": 9968, "##saties": 9969, "et": 9970, "##opt": 9971, "##pst": 9972, "##ierv": 9973, "##eto": 9974, "toezi": 9975, "degen": 9976, "##rzoeken": 9977, "##kerh": 9978, "bevordere": 9979, "bevorderen": 9980, "##nive": 9981, "##lex": 9982, "##nstan": 9983, "##mg": 9984, "degene": 9985, "##edk": 9986, "##nzen": 9987, "handels": 9988, "##erzoeken": 9989, "##telse": 9990, "##otste": 9991, "##lsel": 9992, "##egis": 9993, "##kerhe": 9994, "##dstaa": 9995, "##genda": 9996, "##-o": 9997, "##eldt": 9998, "##dene": 9999, "verbeteri": 10000, "verbeterin": 10001, "verbetering": 10002, "##trati": 10003, "##aps": 10004, "##udin": 10005, "##gelijker": 10006, "##oudin": 10007, "##vraa": 10008, "##vraag": 10009, "##ermen": 10010, "##orism": 10011, "##orda": 10012, "investeri": 10013, "investerin": 10014, "investering": 10015, "##adden": 10016, "##cume": 10017, "##cumen": 10018, "##estuu": 10019, "##estuur": 10020, "##rorism": 10021, "##rrorism": 10022, "##errorism": 10023, "##orisme": 10024, "##fieke": 10025, "##uding": 10026, "##ndheids": 10027, "##rorisme": 10028, "##rrorisme": 10029, "##errorisme": 10030, "##elsel": 10031, "##ifieke": 10032, "zei": 10033, "##iebele": 10034, "##ootste": 10035, "##telsel": 10036, "##ouding": 10037, "##wezi": 10038, "##ekerh": 10039, "##wezig": 10040, "##pend": 10041, "##iebelei": 10042, "##iebeleid": 10043, "##ondheids": 10044, "##zondheids": 10045, "##ezondheids": 10046, "##ekerhe": 10047, "##rdigden": 10048, "##frik": 10049, "##frika": 10050, "##enstem": 10051, "besliss": 10052, "##cifieke": 10053, "##ecifieke": 10054, "##pecifieke": 10055, "##olks": 10056, "##teria": 10057, "##urel": 10058, "##raten": 10059, "woorde": 10060, "##muni": 10061, "cre": 10062, "##ergro": 10063, "resp": 10064, "##nderl": 10065, "##toffen": 10066, "industrie": 10067, "##ikb": 10068, "##past": 10069, "##oedk": 10070, "vla": 10071, "##kelijkh": 10072, "##kelijkhe": 10073, "volks": 10074, "##itera": 10075, "woorden": 10076, "##iete": 10077, "##orn": 10078, "hadd": 10079, "daarna": 10080, "hadde": 10081, "hadden": 10082, "##omente": 10083, "##urele": 10084, "##rker": 10085, "##ardigden": 10086, "##aardigden": 10087, "##ocum": 10088, "##ocume": 10089, "##ocumen": 10090, "##cument": 10091, "##ocument": 10092, "##vaardigden": 10093, "##boek": 10094, "##kaanse": 10095, "##zichte": 10096, "##rnie": 10097, "momente": 10098, "##eln": 10099, "##leven": 10100, "##lict": 10101, "gelu": 10102, "##evaardigden": 10103, "##gevaardigden": 10104, "##fgevaardigden": 10105, "##rootst": 10106, "##isaties": 10107, "##ordele": 10108, "##dstaat": 10109, "##erige": 10110, "const": 10111, "##sultat": 10112, "evenwi": 10113, "evenwic": 10114, "evenwich": 10115, "evenwicht": 10116, "##arh": 10117, "##idstaa": 10118, "##stof": 10119, "lijkt": 10120, "invo": 10121, "##lkom": 10122, "##kelijkhei": 10123, "##kelijkheid": 10124, "kij": 10125, "sub": 10126, "autoriteite": 10127, "autoriteiten": 10128, "##ress": 10129, "##fv": 10130, "##daat": 10131, "##orza": 10132, "oe": 10133, "##scri": 10134, "elke": 10135, "vertrouwe": 10136, "##hem": 10137, "##mhe": 10138, "##urid": 10139, "##wd": 10140, "##oewe": 10141, "##ridi": 10142, "##alinge": 10143, "##alingen": 10144, "##nali": 10145, "##ridis": 10146, "##egelijker": 10147, "indie": 10148, "indien": 10149, "##rhal": 10150, "##uridi": 10151, "##uridis": 10152, "aanbe": 10153, "##ridisc": 10154, "##idisch": 10155, "##uridisc": 10156, "##ridisch": 10157, "##uridisch": 10158, "##onfe": 10159, "##re\u00eb": 10160, "##jkert": 10161, "##kerti": 10162, "##ijkert": 10163, "##jkerti": 10164, "##kertij": 10165, "##lijkert": 10166, "##ijkerti": 10167, "##jkertij": 10168, "##kertijd": 10169, "##elijkert": 10170, "##lijkerti": 10171, "##ijkertij": 10172, "##jkertijd": 10173, "##elijkerti": 10174, "##lijkertij": 10175, "##ijkertijd": 10176, "##elijkertij": 10177, "##lijkertijd": 10178, "##elijkertijd": 10179, "##erhal": 10180, "##gelijkert": 10181, "##egelijkert": 10182, "##gelijkerti": 10183, "##egelijkerti": 10184, "##gelijkertij": 10185, "##egelijkertij": 10186, "##gelijkertijd": 10187, "##egelijkertijd": 10188, "##ikba": 10189, "##htvaard": 10190, "##chtvaard": 10191, "##htvaardi": 10192, "##chtvaardi": 10193, "##htvaardig": 10194, "##chtvaardig": 10195, "betere": 10196, "##beral": 10197, "##iberal": 10198, "tegelijke": 10199, "tegelijker": 10200, "eno": 10201, "##mva": 10202, "##lz": 10203, "tegelijkert": 10204, "tegelijkerti": 10205, "tegelijkertij": 10206, "tegelijkertijd": 10207, "##nderli": 10208, "##teraar": 10209, "##rdigh": 10210, "##rdighe": 10211, "##lak": 10212, "##teringe": 10213, "beroep": 10214, "##teringen": 10215, "##idstaat": 10216, "##lau": 10217, "enor": 10218, "enorm": 10219, "##egrij": 10220, "##arkte": 10221, "##aci": 10222, "teve": 10223, "##tratie": 10224, "ligt": 10225, "jurid": 10226, "juridi": 10227, "juridis": 10228, "##urzam": 10229, "##uurzam": 10230, "##initi": 10231, "##nteerd": 10232, "##echtv": 10233, "juridisc": 10234, "juridisch": 10235, "##proced": 10236, "##fa": 10237, "##ardigh": 10238, "##ardighe": 10239, "##-v": 10240, "ier": 10241, "inged": 10242, "##beve": 10243, "##aardigh": 10244, "##aardighe": 10245, "##procedu": 10246, "##procedur": 10247, "##procedure": 10248, "##ted": 10249, "##urzame": 10250, "##uurzame": 10251, "##tgeb": 10252, "##echtva": 10253, "invoe": 10254, "##rvolg": 10255, "##ervolg": 10256, "##echtvaa": 10257, "##echtvaar": 10258, "##echtvaard": 10259, "##echtvaardi": 10260, "##echtvaardig": 10261, "##raard": 10262, "##ginn": 10263, "duidelijke": 10264, "specifieke": 10265, "##appi": 10266, "##heel": 10267, "##eraard": 10268, "##egrijp": 10269, "##ols": 10270, "##ju": 10271, "##verwe": 10272, "##bren": 10273, "##ngend": 10274, "##verk": 10275, "##teraard": 10276, "genoem": 10277, "genoemd": 10278, "##iteraa": 10279, "##iteraar": 10280, "##iteraard": 10281, "fl": 10282, "##bsi": 10283, "##reenkomste": 10284, "##ereenkomste": 10285, "##reenkomsten": 10286, "##vereenkomste": 10287, "##ereenkomsten": 10288, "##vereenkomsten": 10289, "uitera": 10290, "uiteraa": 10291, "uiteraar": 10292, "uiteraard": 10293, "##epast": 10294, "cor": 10295, "##dari": 10296, "eerd": 10297, "eerde": 10298, "eerder": 10299, "##chei": 10300, "beschikk": 10301, "##menli": 10302, "goedk": 10303, "##amenli": 10304, "##menlij": 10305, "##uwd": 10306, "##amenlij": 10307, "gezam": 10308, "gezame": 10309, "##nisaties": 10310, "##zamenl": 10311, "##ezamenl": 10312, "##zamenli": 10313, "##menlijk": 10314, "##ezamenli": 10315, "##zamenlij": 10316, "##amenlijk": 10317, "##ezamenlij": 10318, "##zamenlijk": 10319, "##ezamenlijk": 10320, "gezamen": 10321, "gezamenl": 10322, "gezamenli": 10323, "gezamenlij": 10324, "gezamenlijk": 10325, "##fini": 10326, "##terd": 10327, "##met": 10328, "centra": 10329, "##esla": 10330, "##chou": 10331, "slac": 10332, "slach": 10333, "slacht": 10334, "##erma": 10335, "##anks": 10336, "##idar": 10337, "##nderde": 10338, "##ma'": 10339, "##ma's": 10340, "##ordelen": 10341, "##ginne": 10342, "##anisaties": 10343, "##arand": 10344, "##ganisaties": 10345, "##rganisaties": 10346, "##loos": 10347, "##ogelijkhed": 10348, "##ogelijkhede": 10349, "##ogelijkheden": 10350, "##ltate": 10351, "##ltaten": 10352, "##ultate": 10353, "##esultat": 10354, "##sultate": 10355, "##ultaten": 10356, "##esultate": 10357, "##sultaten": 10358, "##esultaten": 10359, "##ordiger": 10360, "##oordiger": 10361, "##woordiger": 10362, "##lidar": 10363, "##olidar": 10364, "##nwoordiger": 10365, "##enwoordiger": 10366, "##genwoordiger": 10367, "##egenwoordiger": 10368, "##tegenwoordiger": 10369, "##rtegenwoordiger": 10370, "##ertegenwoordiger": 10371, "##egre": 10372, "##cheid": 10373, "##igg": 10374, "##hade": 10375, "##icit": 10376, "##ales": 10377, "aanwe": 10378, "##ginnen": 10379, "##ectiev": 10380, "##eginn": 10381, "##chade": 10382, "##rap": 10383, "##arande": 10384, "beginn": 10385, "##nseli": 10386, "##ectieve": 10387, "##eginne": 10388, "beginne": 10389, "lee": 10390, "##ato": 10391, "invoer": 10392, "##verm": 10393, "##eginnen": 10394, "beginnen": 10395, "duurzam": 10396, "duurzame": 10397, "##efini": 10398, "##itee": 10399, "##ugd": 10400, "##enstemm": 10401, "il": 10402, "##ehoo": 10403, "afr": 10404, "##renze": 10405, "##dische": 10406, "##uldi": 10407, "##oner": 10408, "##gsv": 10409, "##iginge": 10410, "##igingen": 10411, "inh": 10412, "##part": 10413, "hoev": 10414, "hoeve": 10415, "##emand": 10416, "##idari": 10417, "vervol": 10418, "##lidari": 10419, "##olidari": 10420, "##sje": 10421, "##nging": 10422, "coh": 10423, "##uldig": 10424, "afgevaardigden": 10425, "##product": 10426, "##darit": 10427, "##idarit": 10428, "##structu": 10429, "##offer": 10430, "##lidarit": 10431, "##olidarit": 10432, "terrorism": 10433, "##gedien": 10434, "terrorisme": 10435, "##oegen": 10436, "##darite": 10437, "##idarite": 10438, "##daritei": 10439, "##lidarite": 10440, "##idaritei": 10441, "##dariteit": 10442, "##olidarite": 10443, "##idariteit": 10444, "##agt": 10445, "##smid": 10446, "##smidd": 10447, "##lidaritei": 10448, "##olidaritei": 10449, "##lidariteit": 10450, "##olidariteit": 10451, "##smidde": 10452, "##smiddel": 10453, "##gediend": 10454, "ontv": 10455, "aar": 10456, "##gron": 10457, "##everen": 10458, "integra": 10459, "##ngedi": 10460, "oude": 10461, "6": 10462, "dier": 10463, "solidar": 10464, "behee": 10465, "beheer": 10466, "##rese": 10467, "##kerhei": 10468, "##kerheid": 10469, "##ekerhei": 10470, "##ekerheid": 10471, "##luc": 10472, "##itein": 10473, "feite": 10474, "##tgeste": 10475, "##breng": 10476, "##wijzi": 10477, "##reens": 10478, "##grond": 10479, "##har": 10480, "##leide": 10481, "##jecte": 10482, "##tgestel": 10483, "##eheel": 10484, "##teen": 10485, "##tgesteld": 10486, "##astr": 10487, "##etai": 10488, "##eenste": 10489, "##aagt": 10490, "##atse": 10491, "##reenst": 10492, "##ereens": 10493, "##vereens": 10494, "##ereenst": 10495, "##reenste": 10496, "##vereenst": 10497, "##ereenste": 10498, "##vereenste": 10499, "##eenstem": 10500, "##reenstem": 10501, "##ereenstem": 10502, "##vereenstem": 10503, "real": 10504, "doc": 10505, "overeens": 10506, "overeenst": 10507, "overeenste": 10508, "overeenstem": 10509, "##aatse": 10510, "##hteli": 10511, "##chteli": 10512, "##eron": 10513, "##arhe": 10514, "##ngedie": 10515, "##nme": 10516, "##rtrouwen": 10517, "##ertrouwen": 10518, "##ikaanse": 10519, "##enzen": 10520, "solidari": 10521, "##mings": 10522, "solidarit": 10523, "geschi": 10524, "##ctur": 10525, "##ecent": 10526, "solidarite": 10527, "solidaritei": 10528, "solidariteit": 10529, "##ngedien": 10530, "##ngediend": 10531, "##renzen": 10532, "##rikaanse": 10533, "##cture": 10534, "##etti": 10535, "exp": 10536, "##rgaa": 10537, "##rem": 10538, "vervolg": 10539, "ingedi": 10540, "productie": 10541, "##jecten": 10542, "ingedie": 10543, "ingedien": 10544, "ingediend": 10545, "##hni": 10546, "##aarh": 10547, "##aarhe": 10548, "##dha": 10549, "##geh": 10550, "##l-": 10551, "##cer": 10552, "kwalite": 10553, "kwalitei": 10554, "kwaliteit": 10555, "##chni": 10556, "##rderh": 10557, "##erderh": 10558, "##rderhe": 10559, "##erderhe": 10560, "##eerderh": 10561, "##eerderhe": 10562, "##eus": 10563, "##arli": 10564, "##echni": 10565, "mach": 10566, "grootst": 10567, "gu": 10568, "bure": 10569, "activiteite": 10570, "activiteiten": 10571, "##oewel": 10572, "##erschri": 10573, "##rlog": 10574, "##mpen": 10575, "##gma": 10576, "##orlog": 10577, "##rlegg": 10578, "##omentee": 10579, "##omenteel": 10580, "jonge": 10581, "##oods": 10582, "##ementa": 10583, "##eluk": 10584, "momentee": 10585, "momenteel": 10586, "gehee": 10587, "##keuri": 10588, "##oordele": 10589, "##gv": 10590, "##xtr": 10591, "geheel": 10592, "meerderh": 10593, "meerderhe": 10594, "##atieven": 10595, "##rootste": 10596, "##laatse": 10597, "##teind": 10598, "##amh": 10599, "##teinde": 10600, "##hoor": 10601, "##nstitut": 10602, "##ukt": 10603, "uitei": 10604, "uitein": 10605, "##iteind": 10606, "uiteind": 10607, "##iteinde": 10608, "uiteinde": 10609, "##erbr": 10610, "##amer": 10611, "##evoo": 10612, "##tspr": 10613, "##rante": 10614, "##tensc": 10615, "##ott": 10616, "##gb": 10617, "##ppij": 10618, "##tes": 10619, "##aamh": 10620, "##ereer": 10621, "##asee": 10622, "##aseer": 10623, "##nmid": 10624, "##nmidd": 10625, "##zigi": 10626, "##jzigi": 10627, "##zigin": 10628, "##ijzigi": 10629, "##jzigin": 10630, "##ziging": 10631, "##ijzigin": 10632, "##jziging": 10633, "##ijziging": 10634, "##eindel": 10635, "##eindeli": 10636, "##eindelij": 10637, "##eindelijk": 10638, "##teindel": 10639, "##teindeli": 10640, "##teindelij": 10641, "##teindelijk": 10642, "gelegenh": 10643, "gelegenhe": 10644, "##iteindel": 10645, "uiteindel": 10646, "##iteindeli": 10647, "uiteindeli": 10648, "##iteindelij": 10649, "uiteindelij": 10650, "##iteindelijk": 10651, "uiteindelijk": 10652, "##tensch": 10653, "bri": 10654, "##onse": 10655, "##luch": 10656, "##aarli": 10657, "##evoor": 10658, "##pgel": 10659, "##des": 10660, "reali": 10661, "##lementa": 10662, "stabilit": 10663, "##tstek": 10664, "##rra": 10665, "##chto": 10666, "##mmuni": 10667, "##duren": 10668, "stabilite": 10669, "stabilitei": 10670, "stabiliteit": 10671, "##lucht": 10672, "degenen": 10673, "##eenstemm": 10674, "##reenstemm": 10675, "##ereenstemm": 10676, "##vereenstemm": 10677, "verhe": 10678, "##rderhei": 10679, "##erderhei": 10680, "##rderheid": 10681, "##eerderhei": 10682, "##erderheid": 10683, "##eerderheid": 10684, "kern": 10685, "##derzi": 10686, "overeenstemm": 10687, "##arlij": 10688, "##besc": 10689, "##aarlij": 10690, "##besch": 10691, "vraags": 10692, "##estaand": 10693, "vraagst": 10694, "##laar": 10695, "##nfer": 10696, "##aste": 10697, "kijk": 10698, "##vinde": 10699, "##nclus": 10700, "##ogin": 10701, "ill": 10702, "##plichti": 10703, "##nclusi": 10704, "##iema": 10705, "##ezinge": 10706, "##once": 10707, "##ezingen": 10708, "##nbev": 10709, "##gestelde": 10710, "##enstemmi": 10711, "##lemente": 10712, "##ova": 10713, "##rven": 10714, "##nclusie": 10715, "##oging": 10716, "meerderhei": 10717, "meerderheid": 10718, "##ngsc": 10719, "resultat": 10720, "resultate": 10721, "resultaten": 10722, "##sf": 10723, "##terst": 10724, "##ssies": 10725, "##ndan": 10726, "respe": 10727, "respec": 10728, "respect": 10729, "##epu": 10730, "noe": 10731, "##onfer": 10732, "##ntral": 10733, "##entral": 10734, "##keld": 10735, "##tzi": 10736, "##lh": 10737, "##nfere": 10738, "##onfere": 10739, "##nferen": 10740, "##onferen": 10741, "presi": 10742, "presid": 10743, "##egrat": 10744, "##tegrat": 10745, "##ntegrat": 10746, "##usti": 10747, "##nade": 10748, "##onfl": 10749, "##derzij": 10750, "##derzijd": 10751, "##stant": 10752, "##amhe": 10753, "##nfli": 10754, "##flic": 10755, "##onfli": 10756, "##nflic": 10757, "##flict": 10758, "##onflic": 10759, "##nflict": 10760, "##onflict": 10761, "##egrati": 10762, "##tegrati": 10763, "##ntegrati": 10764, "##aamhe": 10765, "##gss": 10766, "##pac": 10767, "extr": 10768, "##derzijds": 10769, "##selen": 10770, "##aanden": 10771, "##lso": 10772, "##egratie": 10773, "##tegratie": 10774, "##ntegratie": 10775, "##utio": 10776, "sterke": 10777, "##ution": 10778, "##swaa": 10779, "##ohe": 10780, "doet": 10781, "##iezinge": 10782, "##kiezinge": 10783, "##iezingen": 10784, "##kiezingen": 10785, "##rkiezinge": 10786, "##erkiezinge": 10787, "##rkiezingen": 10788, "##erkiezingen": 10789, "noem": 10790, "##vinden": 10791, "##nferent": 10792, "##onferent": 10793, "##nferenti": 10794, "##onferenti": 10795, "##nferentie": 10796, "##onferentie": 10797, "##oordelen": 10798, "##igge": 10799, "kla": 10800, "##erker": 10801, "##ernemen": 10802, "##arhei": 10803, "##arheid": 10804, "##swaar": 10805, "tal": 10806, "##elig": 10807, "##arlijk": 10808, "##aarlijk": 10809, "##tstell": 10810, "##tvoerin": 10811, "##tvoering": 10812, "##base": 10813, "##aringe": 10814, "##aringen": 10815, "##ojecte": 10816, "##rojecte": 10817, "##vull": 10818, "##grijpe": 10819, "maande": 10820, "vertrouwen": 10821, "##ekene": 10822, "##muler": 10823, "##ekenen": 10824, "##ernie": 10825, "##turel": 10826, "##et-": 10827, "##turele": 10828, "##aarhei": 10829, "##aarheid": 10830, "##ingsc": 10831, "##ojecten": 10832, "##rojecten": 10833, "##oorda": 10834, "##ekende": 10835, "schu": 10836, "##sno": 10837, "##uiken": 10838, "##oelt": 10839, "##uctur": 10840, "##enstemmin": 10841, "##enstemming": 10842, "##eenstemmi": 10843, "##reenstemmi": 10844, "##eenstemmin": 10845, "##ereenstemmi": 10846, "##reenstemmin": 10847, "##eenstemming": 10848, "##vereenstemmi": 10849, "##ereenstemmin": 10850, "##reenstemming": 10851, "##vereenstemmin": 10852, "##ereenstemming": 10853, "##vereenstemming": 10854, "##eeks": 10855, "##ructur": 10856, "##tructur": 10857, "##ngsm": 10858, "##inc": 10859, "overeenstemmi": 10860, "overeenstemmin": 10861, "overeenstemming": 10862, "##ucture": 10863, "##bso": 10864, "##ructure": 10865, "##tructure": 10866, "##lissi": 10867, "##lissin": 10868, "##lissing": 10869, "rep": 10870, "##slissi": 10871, "##eslissi": 10872, "##slissin": 10873, "##eslissin": 10874, "##slissing": 10875, "##eslissing": 10876, "##happen": 10877, "##lici": 10878, "##chappen": 10879, "##houw": 10880, "##-g": 10881, "##siev": 10882, "##ndank": 10883, "##iu": 10884, "##happi": 10885, "##appij": 10886, "##chappi": 10887, "##happij": 10888, "##schappi": 10889, "##chappij": 10890, "##schappij": 10891, "##enaa": 10892, "##iders": 10893, "##vesti": 10894, "preside": 10895, "presiden": 10896, "##eor": 10897, "president": 10898, "##000": 10899, "##aseerd": 10900, "##chouw": 10901, "##lma": 10902, "##schappen": 10903, "##grote": 10904, "##danks": 10905, "##ndanks": 10906, "vraagstu": 10907, "abso": 10908, "vraagstuk": 10909, "herst": 10910, "##dwi": 10911, "amer": 10912, "ameri": 10913, "##rumente": 10914, "##trumente": 10915, "##strumente": 10916, "##nstrumente": 10917, "##inste": 10918, "##achto": 10919, "##gewe": 10920, "cohe": 10921, "##ild": 10922, "##haps": 10923, "##ichtig": 10924, "##vloed": 10925, "##toffer": 10926, "##estaande": 10927, "##fecti": 10928, "##fst": 10929, "##htof": 10930, "##chtof": 10931, "##htoff": 10932, "##chtoff": 10933, "##bevel": 10934, "##chaps": 10935, "##schaps": 10936, "##lachto": 10937, "##achtof": 10938, "##htoffe": 10939, "##achtoff": 10940, "##chtoffe": 10941, "##ehoor": 10942, "##lachtof": 10943, "##htoffer": 10944, "##lachtoff": 10945, "##achtoffe": 10946, "##chtoffer": 10947, "##lachtoffe": 10948, "##achtoffer": 10949, "##lachtoffer": 10950, "##smiddele": 10951, "##oezic": 10952, "##oezich": 10953, "##oezicht": 10954, "##smiddelen": 10955, "##esluite": 10956, "schade": 10957, "##schou": 10958, "bestaand": 10959, "##schouw": 10960, "##urend": 10961, "noor": 10962, "##dzaak": 10963, "##nstituti": 10964, "##rumenten": 10965, "##trumenten": 10966, "##strumenten": 10967, "##nstrumenten": 10968, "##plei": 10969, "##erdi": 10970, "##wak": 10971, "##logis": 10972, "##assa": 10973, "##poo": 10974, "##etens": 10975, "##ebas": 10976, "komend": 10977, "##erpen": 10978, "##itstek": 10979, "tie": 10980, "##ager": 10981, "##imt": 10982, "##ngsv": 10983, "##leggi": 10984, "##leggin": 10985, "##legging": 10986, "lidstaa": 10987, "lidstaat": 10988, "amerik": 10989, "amerika": 10990, "##ncret": 10991, "##oncret": 10992, "##rwez": 10993, "uitstek": 10994, "##vende": 10995, "##erwez": 10996, "##egaan": 10997, "kee": 10998, "##wu": 10999, "##vern": 11000, "maanden": 11001, "##rweze": 11002, "##imina": 11003, "##ensel": 11004, "##rwezen": 11005, "##reis": 11006, "##erweze": 11007, "##erwezen": 11008, "##tschappi": 11009, "##atschappi": 11010, "##tschappij": 11011, "##aatschappi": 11012, "##atschappij": 11013, "##aatschappij": 11014, "publie": 11015, "publiek": 11016, "##esluiten": 11017, "##enseli": 11018, "##nselij": 11019, "##nselijk": 11020, "##burg": 11021, "##ervan": 11022, "##ntre": 11023, "##enselij": 11024, "##enselijk": 11025, "grootste": 11026, "##ndeld": 11027, "##io'": 11028, "##io's": 11029, "inzie": 11030, "##epla": 11031, "##ebase": 11032, "##nner": 11033, "##imul": 11034, "##basee": 11035, "##ebasee": 11036, "##baseer": 11037, "##ebaseer": 11038, "##baseerd": 11039, "##ebaseerd": 11040, "##ngss": 11041, "verlen": 11042, "concret": 11043, "##rkenn": 11044, "##enle": 11045, "teven": 11046, "tevens": 11047, "##strek": 11048, "##uimt": 11049, "##nvl": 11050, "##rachten": 11051, "##logisc": 11052, "##logisch": 11053, "##ndo": 11054, "##ehandeli": 11055, "##ehandelin": 11056, "##ehandeling": 11057, "dir": 11058, "geslo": 11059, "##titi": 11060, "##mogen": 11061, "##schij": 11062, "##icee": 11063, "##iceer": 11064, "gl": 11065, "##rimina": 11066, "tien": 11067, "begrij": 11068, "begrijp": 11069, "##groe": 11070, "##steke": 11071, "199": 11072, "gebas": 11073, "gebase": 11074, "gebasee": 11075, "gebaseer": 11076, "gebaseerd": 11077, "##crete": 11078, "##afha": 11079, "##nologie": 11080, "techno": 11081, "##schijn": 11082, "##rber": 11083, "##kkeld": 11084, "##egal": 11085, "zitt": 11086, "##gelg": 11087, "##ingsm": 11088, "##mind": 11089, "##leids": 11090, "libe": 11091, "##arsc": 11092, "##inci": 11093, "rece": 11094, "##sio": 11095, "##timu": 11096, "##eleids": 11097, "##nwez": 11098, "##sda": 11099, "##tutio": 11100, "##itutio": 11101, "##tution": 11102, "##titutio": 11103, "##hep": 11104, "##itution": 11105, "##titution": 11106, "##stitutio": 11107, "##epte": 11108, "##stitution": 11109, "opst": 11110, "##tj": 11111, "##nstitutio": 11112, "##nstitution": 11113, "##timul": 11114, "##anwez": 11115, "##arsch": 11116, "##nwezi": 11117, "##anwezi": 11118, "##nwezig": 11119, "##anwezig": 11120, "##osse": 11121, "##eiders": 11122, "aanwez": 11123, "##steken": 11124, "##erstel": 11125, "aanwezi": 11126, "aanwezig": 11127, "##gete": 11128, "##verig": 11129, "keer": 11130, "##afhan": 11131, "gezondheids": 11132, "vertegenwoordiger": 11133, "kie": 11134, "##zaamh": 11135, "##zaamhe": 11136, "##ekeu": 11137, "##verb": 11138, "##imte": 11139, "##stst": 11140, "##hikb": 11141, "##chikb": 11142, "##hikba": 11143, "##schikb": 11144, "##chikba": 11145, "##schikba": 11146, "##rachti": 11147, "##eschikb": 11148, "##eschikba": 11149, "dire": 11150, "direc": 11151, "##hes": 11152, "direct": 11153, "##bsol": 11154, "##bsolu": 11155, "##aff": 11156, "beschikb": 11157, "beschikba": 11158, "##ingss": 11159, "conse": 11160, "##idsm": 11161, "liber": 11162, "##chep": 11163, "absol": 11164, "absolu": 11165, "##tif": 11166, "gevall": 11167, "gevalle": 11168, "gevallen": 11169, "##ekeur": 11170, "##-i": 11171, "##ebt": 11172, "bestaande": 11173, "##ologis": 11174, "slachto": 11175, "slachtof": 11176, "slachtoff": 11177, "slachtoffe": 11178, "slachtoffer": 11179, "agend": 11180, "##enhan": 11181, "##odzaa": 11182, "##oodzaa": 11183, "##odzaak": 11184, "##oodzaak": 11185, "spreken": 11186, "##pali": 11187, "##eidsm": 11188, "spelen": 11189, "##sidi": 11190, "##uimte": 11191, "##nlev": 11192, "neg": 11193, "##andeld": 11194, "integrat": 11195, "##ologisc": 11196, "##ologisch": 11197, "##icite": 11198, "##tue": 11199, "##palin": 11200, "##epali": 11201, "##epalin": 11202, "##paling": 11203, "##epaling": 11204, "integrati": 11205, "zov": 11206, "##itvoerin": 11207, "##itvoering": 11208, "agenda": 11209, "zove": 11210, "hebt": 11211, "##anui": 11212, "##anuit": 11213, "##isd": 11214, "armo": 11215, "integratie": 11216, "hal": 11217, "##iscr": 11218, "armoe": 11219, "voorwaarden": 11220, "##minde": 11221, "##she": 11222, "##minder": 11223, "##tschappe": 11224, "armoed": 11225, "hoew": 11226, "hoewe": 11227, "hoewel": 11228, "##tje": 11229, "##rkten": 11230, "##listi": 11231, "##hnologie": 11232, "##chnologie": 11233, "##echnologie": 11234, "gepr": 11235, "##bit": 11236, "##ikkeld": 11237, "geslot": 11238, "geslote": 11239, "gesloten": 11240, "inzien": 11241, "##lgev": 11242, "onve": 11243, "terrei": 11244, "terrein": 11245, "armoede": 11246, "##genl": 11247, "##rric": 11248, "##tsen": 11249, "komende": 11250, "overi": 11251, "duit": 11252, "##gio'": 11253, "##egio'": 11254, "##gio's": 11255, "##egio's": 11256, "##ltre": 11257, "vanu": 11258, "geldt": 11259, "##elgev": 11260, "##\u00ebnte": 11261, "##orsp": 11262, "##verige": 11263, "##acties": 11264, "##iezen": 11265, "##raad": 11266, "hem": 11267, "dringe": 11268, "dringen": 11269, "inde": 11270, "macht": 11271, "dec": 11272, "##pgen": 11273, "##ierd": 11274, "lic": 11275, "opgen": 11276, "##pgeno": 11277, "opgeno": 11278, "verwez": 11279, "##nvlo": 11280, "verweze": 11281, "verwezen": 11282, "duits": 11283, "##risc": 11284, "hierv": 11285, "insta": 11286, "win": 11287, "vanui": 11288, "vanuit": 11289, "technol": 11290, "##risch": 11291, "technolo": 11292, "technolog": 11293, "##crim": 11294, "##gional": 11295, "##egional": 11296, "##i\u00ebnte": 11297, "techni": 11298, "##ncrete": 11299, "##oncrete": 11300, "concrete": 11301, "opgel": 11302, "##hina": 11303, "##pgenom": 11304, "##pgenome": 11305, "##pgenomen": 11306, "opgenom": 11307, "opgenome": 11308, "opgenomen": 11309, "overig": 11310, "##rmog": 11311, "##rmoge": 11312, "omst": 11313, "##wikkeld": 11314, "##ermog": 11315, "##ermoge": 11316, "##crimi": 11317, "##crimin": 11318, "##wegi": 11319, "##aarsc": 11320, "##gsbe": 11321, "##wegin": 11322, "##nvloe": 11323, "uitz": 11324, "effi": 11325, "effic": 11326, "##ltur": 11327, "overige": 11328, "effici": 11329, "uitvoerin": 11330, "uitvoering": 11331, "##listis": 11332, "druk": 11333, "##listisc": 11334, "##listisch": 11335, "fon": 11336, "technologi": 11337, "##enade": 11338, "##nvloed": 11339, "##aarsch": 11340, "##ruiken": 11341, "##ewu": 11342, "##rmogen": 11343, "##ermogen": 11344, "##ubsi": 11345, "##ultur": 11346, "##bsid": 11347, "##ubsid": 11348, "##iteri": 11349, "##bsidi": 11350, "##kre": 11351, "##tiem": 11352, "##ubsidi": 11353, "daad": 11354, "##durend": 11355, "##idt": 11356, "##rdaa": 11357, "##sdi": 11358, "gelegenhei": 11359, "gelegenheid": 11360, "##handeld": 11361, "##anbev": 11362, "##enlev": 11363, "##-pr": 11364, "##egelg": 11365, "##gelge": 11366, "##egelge": 11367, "##gelgev": 11368, "##egelgev": 11369, "##wus": 11370, "##ewus": 11371, "##wust": 11372, "##ewust": 11373, "##imen": 11374, "##rplichti": 11375, "##erplichti": 11376, "##anm": 11377, "##eschou": 11378, "##eschouw": 11379, "##egeno": 11380, "##plichtin": 11381, "##plichting": 11382, "##rschij": 11383, "##rschijn": 11384, "##rgaan": 11385, "##afhank": 11386, "##afhanke": 11387, "##afhankel": 11388, "##afhankeli": 11389, "##afhankelij": 11390, "##afhankelijk": 11391, "##deer": 11392, "##rrich": 11393, "##rricht": 11394, "##uchtv": 11395, "beleids": 11396, "##tenscha": 11397, "pakk": 11398, "##nnov": 11399, "##tus": 11400, "##raagt": 11401, "subs": 11402, "##bruiken": 11403, "##tenschap": 11404, "libera": 11405, "pakke": 11406, "##erric": 11407, "##errich": 11408, "##erricht": 11409, "##geko": 11410, "behandeli": 11411, "behandelin": 11412, "behandeling": 11413, "##rplichtin": 11414, "##erplichtin": 11415, "##rplichting": 11416, "##erplichting": 11417, "##eland": 11418, "##dsen": 11419, "##nent": 11420, "##rpre": 11421, "neem": 11422, "##ures": 11423, "##comm": 11424, "##lture": 11425, "##ulture": 11426, "##ptie": 11427, "##erpre": 11428, "##lja": 11429, "##ffecti": 11430, "##zend": 11431, "##neen": 11432, "##weging": 11433, "##dsch": 11434, "##ienl": 11435, "wijzigi": 11436, "wijzigin": 11437, "wijziging": 11438, "##utione": 11439, "##ienli": 11440, "##ienlij": 11441, "##rmind": 11442, "##ermind": 11443, "##rminde": 11444, "##erminde": 11445, "##rminder": 11446, "##erminder": 11447, "defi": 11448, "##zienl": 11449, "##nzienl": 11450, "##zienli": 11451, "##anzienl": 11452, "##nzienli": 11453, "##zienlij": 11454, "##ienlijk": 11455, "##anzienli": 11456, "##nzienlij": 11457, "##zienlijk": 11458, "##anzienlij": 11459, "##nzienlijk": 11460, "##anzienlijk": 11461, "##tutione": 11462, "##eth": 11463, "##itutione": 11464, "##titutione": 11465, "##stitutione": 11466, "heri": 11467, "##jdragen": 11468, "##ijdragen": 11469, "##nstitutione": 11470, "prec": 11471, "##anism": 11472, "toezic": 11473, "toezich": 11474, "toezicht": 11475, "co\u00f6": 11476, "##ri\u00eb": 11477, "##tigd": 11478, "##riter": 11479, "##tijn": 11480, "##systee": 11481, "##systeem": 11482, "##rukken": 11483, "##legge": 11484, "##uli": 11485, "wed": 11486, "adv": 11487, "##verdr": 11488, "##ardige": 11489, "groep": 11490, "##\u00f3r": 11491, "##anisme": 11492, "confl": 11493, "confli": 11494, "conflic": 11495, "conflict": 11496, "##ecia": 11497, "##etensc": 11498, "beke": 11499, "##etensch": 11500, "##etenscha": 11501, "##etenschap": 11502, "##ezor": 11503, "##ezorg": 11504, "##riteri": 11505, "##itspr": 11506, "##itgeb": 11507, "##iggen": 11508, "bedrijf": 11509, "herin": 11510, "##opp": 11511, "##gionale": 11512, "##egionale": 11513, "##omin": 11514, "##strate": 11515, "china": 11516, "grie": 11517, "##the": 11518, "inno": 11519, "##eeln": 11520, "##nnis": 11521, "innov": 11522, "uitgeb": 11523, "onaf": 11524, "##igend": 11525, "##\u00f3\u00f3": 11526, "##rbie": 11527, "##\u00f3\u00f3r": 11528, "##erbie": 11529, "##arkten": 11530, "##pecia": 11531, "aanzienl": 11532, "aanzienli": 11533, "aanzienlij": 11534, "aanzienlijk": 11535, "##heu": 11536, "##rschrij": 11537, "##ronder": 11538, "tro": 11539, "##reed": 11540, "##eratie": 11541, "uitsl": 11542, "##iali": 11543, "##uchte": 11544, "##ealis": 11545, "##oso": 11546, "##igers": 11547, "##aki": 11548, "##alig": 11549, "##tsteke": 11550, "##erlo": 11551, "##tsteken": 11552, "peri": 11553, "ol": 11554, "##ulere": 11555, "##uleren": 11556, "##elv": 11557, "defin": 11558, "##ly": 11559, "defini": 11560, "##dsl": 11561, "0": 11562, "bescho": 11563, "noodzaa": 11564, "noodzaak": 11565, "##aardige": 11566, "##geen": 11567, "##itsteke": 11568, "##itsteken": 11569, "effici\u00eb": 11570, "effici\u00ebn": 11571, "effici\u00ebnt": 11572, "##rip": 11573, "##eoordel": 11574, "gecon": 11575, "uitsteke": 11576, "uitsteken": 11577, "aard": 11578, "noord": 11579, "richti": 11580, "##vene": 11581, "richtin": 11582, "richting": 11583, "##nafh": 11584, "##nafha": 11585, "##nafhan": 11586, "##stekend": 11587, "##andh": 11588, "##nova": 11589, "##eeste": 11590, "##nafhank": 11591, "v\u00f3": 11592, "v\u00f3\u00f3": 11593, "v\u00f3\u00f3r": 11594, "fond": 11595, "##evat": 11596, "##rdb": 11597, "##nafhanke": 11598, "##nafhankel": 11599, "##nafhankeli": 11600, "##nafhankelij": 11601, "##nafhankelijk": 11602, "##ondse": 11603, "##nctio": 11604, "##nction": 11605, "##akte": 11606, "besluite": 11607, "##tstekend": 11608, "##eist": 11609, "##itstekend": 11610, "fonds": 11611, "uitstekend": 11612, "bank": 11613, "##fti": 11614, "##edene": 11615, "##ingsv": 11616, "lich": 11617, "##ovat": 11618, "##ereis": 11619, "bijdragen": 11620, "##novat": 11621, "aanbev": 11622, "##jee": 11623, "##aginge": 11624, "##strateg": 11625, "##agingen": 11626, "wein": 11627, "weini": 11628, "weinig": 11629, "##strategi": 11630, "##ardb": 11631, "##jeen": 11632, "##olen": 11633, "kop": 11634, "waarbo": 11635, "##tko": 11636, "##ndert": 11637, "##jpen": 11638, "##ijpen": 11639, "##voel": 11640, "##traa": 11641, "getro": 11642, "##ovati": 11643, "##novati": 11644, "huis": 11645, "##ommuni": 11646, "##vri": 11647, "##tsla": 11648, "##rnstige": 11649, "##dersc": 11650, "##a\u00eb": 11651, "##eltr": 11652, "ernstige": 11653, "##ntst": 11654, "besluiten": 11655, "##ovatie": 11656, "##novatie": 11657, "##rep": 11658, "waarbor": 11659, "waarborg": 11660, "##dersch": 11661, "##reerd": 11662, "##ltaa": 11663, "##veli": 11664, "##kkele": 11665, "##tanti": 11666, "##iscri": 11667, "##scrim": 11668, "burea": 11669, "bureau": 11670, "##alu": 11671, "##nctie": 11672, "##scrimi": 11673, "##scrimin": 11674, "##ogelijke": 11675, "##a\u00ebl": 11676, "straf": 11677, "##rzek": 11678, "##rzeke": 11679, "##rzeker": 11680, "##ra\u00eb": 11681, "##ra\u00ebl": 11682, "##punte": 11683, "##unctio": 11684, "##unction": 11685, "blijkt": 11686, "##sra\u00eb": 11687, "##sra\u00ebl": 11688, "##punten": 11689, "##erzek": 11690, "##erzeke": 11691, "##erzeker": 11692, "##berei": 11693, "vermin": 11694, "##llere": 11695, "##evoel": 11696, "regelg": 11697, "regelge": 11698, "regelgev": 11699, "##eki": 11700, "onafh": 11701, "onafha": 11702, "onafhan": 11703, "onafhank": 11704, "##stanti": 11705, "onafhanke": 11706, "onafhankel": 11707, "onafhankeli": 11708, "onafhankelij": 11709, "onafhankelijk": 11710, "##kkelen": 11711, "##iceerd": 11712, "##rbod": 11713, "##rmt": 11714, "veranderi": 11715, "veranderin": 11716, "verandering": 11717, "##iscrim": 11718, "##ekomsti": 11719, "wate": 11720, "##oekomsti": 11721, "##orderi": 11722, "##orderin": 11723, "##ordering": 11724, "##word": 11725, "water": 11726, "##rbied": 11727, "##erbied": 11728, "##rachtig": 11729, "##iscrimi": 11730, "##iscrimin": 11731, "toekomsti": 11732, "overl": 11733, "##ekomstig": 11734, "##oekomstig": 11735, "bro": 11736, "##strati": 11737, "beschou": 11738, "beschouw": 11739, "toekomstig": 11740, "##verge": 11741, "pi": 11742, "##tgel": 11743, "##ndsen": 11744, "##eres": 11745, "##ondsen": 11746, "eise": 11747, "##adrukk": 11748, "inho": 11749, "##ilita": 11750, "##eltre": 11751, "inhou": 11752, "##vena": 11753, "##hor": 11754, "##ros": 11755, "##adrukke": 11756, "##exi": 11757, "##ialis": 11758, "##tvan": 11759, "inhoud": 11760, "##naam": 11761, "##gedr": 11762, "##rdat": 11763, "##illi": 11764, "regional": 11765, "##eveli": 11766, "##ntva": 11767, "##ouwb": 11768, "##utt": 11769, "morg": 11770, "##ipe": 11771, "zuid": 11772, "##ltref": 11773, "##ltreff": 11774, "##ltreffe": 11775, "##stratie": 11776, "##oeltr": 11777, "##oeltre": 11778, "##eltref": 11779, "##oeltref": 11780, "##eltreff": 11781, "##oeltreff": 11782, "##eltreffe": 11783, "##ltreffen": 11784, "##oeltreffe": 11785, "##eltreffen": 11786, "##ltreffend": 11787, "##oeltreffen": 11788, "##eltreffend": 11789, "##oeltreffend": 11790, "docu": 11791, "dage": 11792, "geeft": 11793, "docum": 11794, "docume": 11795, "documen": 11796, "document": 11797, "daarvo": 11798, "daarvoo": 11799, "daarvoor": 11800, "##ntvan": 11801, "##rijz": 11802, "##laten": 11803, "##oorn": 11804, "##genli": 11805, "eisen": 11806, "##lom": 11807, "##pin": 11808, "##nweg": 11809, "##amentel": 11810, "##damentel": 11811, "##amentele": 11812, "##ndamentel": 11813, "##damentele": 11814, "##undamentel": 11815, "##ndamentele": 11816, "##undamentele": 11817, "##ncip": 11818, "fundamentel": 11819, "fundamentele": 11820, "##tgee": 11821, "##stste": 11822, "##erbod": 11823, "##ptr": 11824, "##ium": 11825, "wetens": 11826, "##ultaa": 11827, "betal": 11828, "##vestig": 11829, "##genlij": 11830, "##tifi": 11831, "##iele": 11832, "##gdhei": 11833, "##gdheid": 11834, "doelt": 11835, "##ststel": 11836, "##rdighei": 11837, "##rdigheid": 11838, "##atsv": 11839, "##erdee": 11840, "##inner": 11841, "##laag": 11842, "##tific": 11843, "##ltaat": 11844, "##sultaa": 11845, "##ultaat": 11846, "##esultaa": 11847, "##sultaat": 11848, "##esultaat": 11849, "##rust": 11850, "voldoend": 11851, "##matis": 11852, "##isb": 11853, "##aatsv": 11854, "isr": 11855, "verla": 11856, "isra": 11857, "##ekte": 11858, "voldoende": 11859, "rij": 11860, "effecti": 11861, "##erdeel": 11862, "##ndeel": 11863,
[...]
