{"byte_pairs": {"__sow": 5, "__eow": 6, "##e": 7, "##n": 8, "##a": 9, "##i": 10, "##t": 11, "##r": 12, "##o": 13, "##en": 14, "##s": 15, "##l": 16, "##d": 17, "d": 18, "##g": 19, "##er": 20, "v": 21, "##an": 22, "##k": 23, "de": 24, "##m": 25, "##u": 26, "e": 27, "##et": 28, "##te": 29, "##de": 30, "##j": 31, "##ie": 32, "h": 33, "##ij": 34, "##el": 35, "##c": 36, "o": 37, "##p": 38, "i": 39, "##h": 40, "##or": 41, "##ge": 42, "m": 43, "##aa": 44, "he": 45, "##at": 46, "w": 47, "##in": 48, "##v": 49, "##ng": 50, "##ee": 51, "b": 52, "##.": 53, "##nd": 54, "va": 55, "##le": 56, "a": 57, "van": 58, "g": 59, "t": 60, "##re": 61, "##oo": 62, "##ar": 63, "##st": 64, "##b": 65, "z": 66, "##ch": 67, "##,": 68, "##it": 69, "##li": 70, "het": 71, "##ing": 72, "##oor": 73, "##oe": 74, "##ti": 75, "in": 76, "##f": 77, "##z": 78, "##ro": 79, "ge": 80, "##rd": 81, "##es": 82, "##ke": 83, "be": 84, "da": 85, "n": 86, "##me": 87, "##nt": 88, "##w": 89, "s": 90, "vo": 91, "en": 92, "##ri": 93, "##nde": 94, "##gen": 95, "##ve": 96, "##aar": 97, "##ten": 98, "##is": 99, "ve": 100, "##den": 101, "ee": 102, "te": 103, "voo": 104, "voor": 105, "##eg": 106, "##ns": 107, "##ed": 108, "##ra": 109, "een": 110, "##al": 111, "ver": 112, "##ei": 113, "p": 114, "##n.": 115, "##om": 116, "dat": 117, "##em": 118, "##on": 119, "di": 120, "me": 121, "##men": 122, "##id": 123, "##ne": 124, "##rs": 125, "##jk": 126, "k": 127, "##ijk": 128, "##en.": 129, "##he": 130, "##der": 131, "##se": 132, "##ig": 133, "##ur": 134, "##lij": 135, "r": 136, "op": 137, "##ht": 138, "##cht": 139, "##ll": 140, "##tie": 141, "##ere": 142, "##jn": 143, "##ijn": 144, "c": 145, "##la": 146, "we": 147, "##ev": 148, "##ste": 149, "##eli": 150, "on": 151, "##ta": 152, "##ek": 153, "##ord": 154, "##ers": 155, "##pe": 156, "l": 157, "##rde": 158, "##lijk": 159, "##mi": 160, "zi": 161, "##sc": 162, "##ni": 163, "##ter": 164, "##ze": 165, "##and": 166, "is": 167, "##eer": 168, "##nge": 169, "u": 170, "aa": 171, "##ss": 172, "aan": 173, "##lle": 174, "##ren": 175, "wi": 176, "##di": 177, "##ver": 178, "al": 179, "##sch": 180, "co": 181, "##tr": 182, "##ent": 183, "##ken": 184, "##eb": 185, "##we": 186, "mo": 187, "##ag": 188, "##ol": 189, "##be": 190, "##len": 191, "##nder": 192, "##ez": 193, "##ens": 194, "##si": 195, "st": 196, "##ele": 197, "die": 198, "##op": 199, "##un": 200, "##n,": 201, "##eid": 202, "##elij": 203, "##elijk": 204, "ni": 205, "ma": 206, "zij": 207, "mi": 208, "ik": 209, "##rk": 210, "##mm": 211, "wo": 212, "wa": 213, "##eme": 214, "##end": 215, "##il": 216, "##rt": 217, "nie": 218, "##ic": 219, "##ui": 220, "##ou": 221, "##ec": 222, "##ef": 223, "wor": 224, "##ot": 225, "word": 226, "to": 227, "##ls": 228, "##ege": 229, "##en,": 230, "##ede": 231, "zo": 232, "##zi": 233, "##iet": 234, "##ati": 235, "##erd": 236, "##nen": 237, "##orde": 238, "##ak": 239, "##ngen": 240, "om": 241, "met": 242, "##og": 243, "re": 244, "zijn": 245, "##tel": 246, "niet": 247, "##est": 248, "##rden": 249, "##ld": 250, "##vo": 251, "eu": 252, "##rg": 253, "ov": 254, "##eu": 255, "ove": 256, "over": 257, "##na": 258, "##ts": 259, "##erk": 260, "wij": 261, "##oet": 262, "er": 263, "##iss": 264, "##am": 265, "##eze": 266, "##ok": 267, "##emen": 268, "##rop": 269, "##eren": 270, "moe": 271, "##aat": 272, "##ha": 273, "##een": 274, "##ete": 275, "##ang": 276, "na": 277, "##ds": 278, "##ct": 279, "##uro": 280, "##ven": 281, "##del": 282, "##mis": 283, "##ad": 284, "##nn": 285, "##ment": 286, "eur": 287, "##mmi": 288, "euro": 289, "oo": 290, "##eri": 291, "##orden": 292, "com": 293, "##omm": 294, "##rz": 295, "##rin": 296, "##rij": 297, "##rl": 298, "##nte": 299, "ui": 300, "uit": 301, "moet": 302, "##inge": 303, "##ft": 304, "##ssi": 305, "do": 306, "##rm": 307, "hee": 308, "##ingen": 309, "##eel": 310, "##urop": 311, "##tt": 312, "##ich": 313, "##da": 314, "##sie": 315, "##eve": 316, "##ige": 317, "europ": 318, "##gel": 319, "bi": 320, "##llen": 321, "##0": 322, "##ite": 323, "##ma": 324, "##as": 325, "##sl": 326, "comm": 327, "##eke": 328, "pr": 329, "##ope": 330, "##ommi": 331, "##ien": 332, "##ende": 333, "##ac": 334, "##kt": 335, "dit": 336, "##lan": 337, "##va": 338, "##atie": 339, "##uw": 340, "##miss": 341, "##nne": 342, "worde": 343, "worden": 344, "##hte": 345, "##chte": 346, "ook": 347, "##lin": 348, "##eft": 349, "##mmis": 350, "##ommis": 351, "##mmiss": 352, "##ommiss": 353, "##hei": 354, "##gi": 355, "ze": 356, "##tte": 357, "##heid": 358, "##eld": 359, "maa": 360, "##kk": 361, "##lo": 362, "##ling": 363, "commi": 364, "commis": 365, "##ande": 366, "commiss": 367, "##nk": 368, "##gr": 369, "f": 370, "la": 371, "##jke": 372, "##ijke": 373, "##sta": 374, "dez": 375, "deze": 376, "##ik": 377, "##ssie": 378, "##dig": 379, "##ep": 380, "heb": 381, "##tre": 382, "##us": 383, "##ring": 384, "mij": 385, "##ru": 386, "##-": 387, "##ond": 388, "##aan": 389, "pa": 390, "##t.": 391, "##stel": 392, "##issi": 393, "##eten": 394, "##no": 395, "##od": 396, "##rope": 397, "no": 398, "bes": 399, "##pr": 400, "##urope": 401, "##pa": 402, "##rst": 403, "##sen": 404, "##che": 405, "##tu": 406, "##ga": 407, "europe": 408, "##ate": 409, "##ap": 410, "##ement": 411, "##issie": 412, "##nnen": 413, "##missi": 414, "##isc": 415, "##missie": 416, "##eef": 417, "als": 418, "##rb": 419, "##oc": 420, "ond": 421, "##ech": 422, "##mmissi": 423, "##ommissi": 424, "##mmissie": 425, "##ommissie": 426, "waa": 427, "##kel": 428, "##dt": 429, "bij": 430, "waar": 431, "##ame": 432, "ho": 433, "##lem": 434, "##eeft": 435, "##ul": 436, "commissi": 437, "commissie": 438, "onde": 439, "##erin": 440, "##to": 441, "onder": 442, "##sp": 443, "gr": 444, "##wi": 445, "ste": 446, "##gd": 447, "daa": 448, "##rzi": 449, "##jd": 450, "##ijd": 451, "##ier": 452, "bel": 453, "##rv": 454, "##ko": 455, "##eden": 456, "##ci": 457, "##ese": 458, "##d.": 459, "##sche": 460, "ka": 461, "##icht": 462, "##ki": 463, "heef": 464, "heeft": 465, "mijn": 466, "##gs": 467, "##lijke": 468, "##isch": 469, "##bb": 470, "daar": 471, "vers": 472, "##bbe": 473, "##ering": 474, "##nh": 475, "##ome": 476, "j": 477, "##io": 478, "##ale": 479, "##ant": 480, "##ben": 481, "##orz": 482, "##ell": 483, "par": 484, "##ba": 485, "toe": 486, "##ebb": 487, "##ebbe": 488, "vr": 489, "##echt": 490, "##bben": 491, "##ebben": 492, "##deli": 493, "##nz": 494, "pro": 495, "all": 496, "##ind": 497, "hebb": 498, "hebbe": 499, "hebben": 500, "##leme": 501, "bet": 502, "##lemen": 503, "##rge": 504, "##oorz": 505, "##ela": 506, "alle": 507, "##egen": 508, "ha": 509, "##oete": 510, "##rle": 511, "li": 512, "##ud": 513, "##omen": 514, "##kke": 515, "##ake": 516, "##oeten": 517, "##ho": 518, "##dr": 519, "##nden": 520, "##pen": 521, "wer": 522, "wil": 523, "moete": 524, "moeten": 525, "##raa": 526, "##nst": 527, "##nie": 528, "##pes": 529, "##ger": 530, "maar": 531, "tot": 532, "##cha": 533, "##itt": 534, "##orzi": 535, "##oorzi": 536, "##opes": 537, "##pese": 538, "##ropes": 539, "##opese": 540, "##uropes": 541, "##ropese": 542, "##uropese": 543, "##ard": 544, "##even": 545, "##taa": 546, "##rn": 547, "##bi": 548, "europes": 549, "europese": 550, "##tw": 551, "##rste": 552, "##t,": 553, "##iti": 554, "##dere": 555, "voorz": 556, "##tter": 557, "ra": 558, "doo": 559, "##itte": 560, "##oord": 561, "##ce": 562, "##aal": 563, "geb": 564, "##sti": 565, "voorzi": 566, "sta": 567, "##eken": 568, "##ach": 569, "con": 570, "##sla": 571, "##ouw": 572, "##r,": 573, "door": 574, "lan": 575, "##min": 576, "##lu": 577, "##zit": 578, "##ia": 579, "##acht": 580, "##br": 581, "##elin": 582, "##zitt": 583, "##ort": 584, "##kin": 585, "men": 586, "##nhe": 587, "##eit": 588, "##oed": 589, "##itter": 590, "##aten": 591, "##rzit": 592, "##zitte": 593, "##orzit": 594, "##oorzit": 595, "##rzitt": 596, "##eni": 597, "##eling": 598, "##orzitt": 599, "##oorzitt": 600, "za": 601, "##eh": 602, "##elen": 603, "##nse": 604, "##zo": 605, "##rzitte": 606, "##zitter": 607, "##orzitte": 608, "##oorzitte": 609, "##rzitter": 610, "##orzitter": 611, "##oorzitter": 612, "##lement": 613, "##king": 614, "##os": 615, "##erde": 616, "##uit": 617, "##ids": 618, "ku": 619, "##fe": 620, "##co": 621, "##rdt": 622, "ko": 623, "##arl": 624, "##ies": 625, "dan": 626, "voorzit": 627, "voorzitt": 628, "voorzitte": 629, "##ordt": 630, "voorzitter": 631, "##ngs": 632, "##cti": 633, "##tell": 634, "wordt": 635, "##elijke": 636, "##etr": 637, "kun": 638, "##hee": 639, "gro": 640, "hi": 641, "##sse": 642, "##ew": 643, "##ari": 644, "ec": 645, "gev": 646, "##lag": 647, "##lg": 648, "af": 649, "##aard": 650, "##lang": 651, "##ente": 652, "##ene": 653, "##oud": 654, "mee": 655, "##rw": 656, "##gin": 657, "##ische": 658, "##ran": 659, "##nc": 660, "##unn": 661, "##tin": 662, "##scha": 663, "##erst": 664, "an": 665, "##nin": 666, "##lei": 667, "##ili": 668, "##unne": 669, "kan": 670, "##este": 671, "##gev": 672, "##unnen": 673, "##arle": 674, "##rlem": 675, "##arlem": 676, "##rleme": 677, "##arleme": 678, "##rlemen": 679, "##arlemen": 680, "##rlement": 681, "##arlement": 682, "##vi": 683, "kunn": 684, "kunne": 685, "kunnen": 686, "##\u00eb": 687, "bela": 688, "##wa": 689, "##ut": 690, "parl": 691, "##pp": 692, "parle": 693, "parlem": 694, "parleme": 695, "parlemen": 696, "parlement": 697, "##age": 698, "##kom": 699, "##leg": 700, "##aag": 701, "##keli": 702, "##elan": 703, "##er,": 704, "##uc": 705, "##evo": 706, "##aad": 707, "##du": 708, "##ntw": 709, "##ide": 710, "##orm": 711, "##lt": 712, "du": 713, "##eerd": 714, "##e,": 715, "##tat": 716, "vol": 717, "##hi": 718, "##ning": 719, "##erg": 720, "le": 721, "##slag": 722, "##nten": 723, "##ieu": 724, "##lee": 725, "##din": 726, "##tg": 727, "##ting": 728, "##wer": 729, "##heer": 730, "##ist": 731, "##oen": 732, "##tei": 733, "##elang": 734, "##rh": 735, "ont": 736, "land": 737, "##d,": 738, "##delij": 739, "##str": 740, "##delijk": 741, "##hap": 742, "##chap": 743, "##schap": 744, "##ert": 745, "##oer": 746, "##itei": 747, "hu": 748, "belan": 749, "##so": 750, "ga": 751, "##ange": 752, "##ree": 753, "belang": 754, "##ctie": 755, "##org": 756, "##geli": 757, "##iek": 758, "##rag": 759, "un": 760, "##s,": 761, "##00": 762, "##ings": 763, "##wo": 764, "sp": 765, "##s.": 766, "##nti": 767, "##lk": 768, "##den.": 769, "##ern": 770, "gel": 771, "##sa": 772, "##era": 773, "##oge": 774, "of": 775, "##ude": 776, "##nis": 777, "##ill": 778, "betr": 779, "uni": 780, "##onde": 781, "##rke": 782, "##egel": 783, "zou": 784, "##nze": 785, "##za": 786, "##ect": 787, "vi": 788, "##rsc": 789, "##ding": 790, "##oek": 791, "##ov": 792, "##eur": 793, "##nom": 794, "##teit": 795, "##voe": 796, "##rsl": 797, "-": 798, "##nl": 799, "##inde": 800, "##iteit": 801, "##erw": 802, "##rsch": 803, "##ats": 804, "##ming": 805, "##ms": 806, "werk": 807, "##lit": 808, "##erh": 809, "##erb": 810, "##ndere": 811, "##rek": 812, "##rei": 813, "##edi": 814, "##ersl": 815, "##itie": 816, "##ali": 817, "##aats": 818, "##aak": 819, "##pl": 820, "nog": 821, "##erz": 822, "##erv": 823, "##rsla": 824, "##ndi": 825, "##etre": 826, "##uwe": 827, "##bo": 828, "##jnh": 829, "##ijnh": 830, "ter": 831, "##jnhe": 832, "##ijnhe": 833, "##lge": 834, "unie": 835, "##nhee": 836, "##ks": 837, "##amen": 838, "##ees": 839, "##nheer": 840, "##rslag": 841, "##jnhee": 842, "##ijnhee": 843, "##jnheer": 844, "##ijnheer": 845, "##nv": 846, "mijnh": 847, "mijnhe": 848, "mijnhee": 849, "mijnheer": 850, "reg": 851, "##po": 852, "##app": 853, "##chi": 854, "##ersla": 855, "##ter,": 856, "##erl": 857, "##tee": 858, "gee": 859, "##ion": 860, "##art": 861, "##hten": 862, "##chten": 863, "##mee": 864, "##ea": 865, "##aro": 866, "##ssen": 867, "##mer": 868, "##aken": 869, "##erslag": 870, "##stell": 871, "##tan": 872, "##ast": 873, "##erm": 874, "##teu": 875, "##pro": 876, "and": 877, "##rte": 878, "ons": 879, "##ille": 880, "##tig": 881, "##ors": 882, "##leid": 883, "##gelij": 884, "##gelijk": 885, "wat": 886, "##e.": 887, "##igen": 888, "ande": 889, "ander": 890, "##ndel": 891, "##anden": 892, "##egi": 893, "##tter,": 894, "versl": 895, "##itter,": 896, "##zitter,": 897, "##rzitter,": 898, "##orzitter,": 899, "##oorzitter,": 900, "##rou": 901, "##tate": 902, "##ff": 903, "pl": 904, "##aaro": 905, "voorzitter,": 906, "##esc": 907, "##mente": 908, "##ker": 909, "##ade": 910, "##rouw": 911, "versla": 912, "doe": 913, "verslag": 914, "##ties": 915, "##han": 916, "##je": 917, "hie": 918, "##ging": 919, "naa": 920, "##tge": 921, "go": 922, "##nw": 923, "##esch": 924, "##eed": 925, "##laa": 926, "hier": 927, "##mo": 928, "##dst": 929, "##eno": 930, "zal": 931, "##gri": 932, "##rijk": 933, "##rec": 934, "raa": 935, "##bl": 936, "##eva": 937, "bu": 938, "##enin": 939, "##tro": 940, "##uu": 941, "1": 942, "##md": 943, "##raag": 944, "##illen": 945, "##hter": 946, "##chter": 947, "##rot": 948, "##ersc": 949, "po": 950, "##taten": 951, "##ied": 952, "##i\u00eb": 953, "##mst": 954, "wel": 955, "##rat": 956, "raad": 957, "##schi": 958, "##ening": 959, "##9": 960, "##lli": 961, "##rme": 962, "##ersch": 963, "so": 964, "##dd": 965, "##um": 966, "##ir": 967, "##rdi": 968, "betre": 969, "int": 970, "##oors": 971, "meer": 972, "##ank": 973, "##oude": 974, "##jz": 975, "##gen.": 976, "##rac": 977, "##ote": 978, "sc": 979, "ges": 980, "##ijz": 981, "zic": 982, "zich": 983, "geen": 984, "##iten": 985, "##g.": 986, "##ove": 987, "##elle": 988, "##au": 989, "##ron": 990, "ne": 991, "##erke": 992, "##lf": 993, "##olg": 994, "##nke": 995, "nu": 996, "##rbe": 997, "##spr": 998, "##uid": 999, "##ob": 1000, "##tem": 1001, "##im": 1002, "##vr": 1003, "##ans": 1004, "onz": 1005, "naar": 1006, "##wee": 1007, "goe": 1008, "##y": 1009, "##zie": 1010, "sch": 1011, "ja": 1012, "goed": 1013, "onze": 1014, "##tio": 1015, "##tion": 1016, "##unt": 1017, "##els": 1018, "##gg": 1019, "##rvo": 1020, "best": 1021, "##rki": 1022, "##uden": 1023, "##sten": 1024, "##ebr": 1025, "##of": 1026, "##rui": 1027, "##lie": 1028, "##grij": 1029, "gaa": 1030, "##zen": 1031, "##nda": 1032, "inte": 1033, "##enk": 1034, "##land": 1035, "gem": 1036, "lid": 1037, "##agen": 1038, "##dige": 1039, "##ema": 1040, "##do": 1041, "##are": 1042, "##ega": 1043, "##wij": 1044, "##ai": 1045, "##linge": 1046, "##ten.": 1047, "##idst": 1048, "##gele": 1049, "##ezi": 1050, "##ouden": 1051, "##elei": 1052, "##rstel": 1053, "##woo": 1054, "##oms": 1055, "##maa": 1056, "##oel": 1057, "##'": 1058, "##ntie": 1059, "##ris": 1060, "##tra": 1061, "ech": 1062, "##nter": 1063, "##lde": 1064, "##ure": 1065, "beg": 1066, "ten": 1067, "ri": 1068, "##tij": 1069, "teg": 1070, "##als": 1071, "tege": 1072, "##orst": 1073, "##ense": 1074, "rec": 1075, "verd": 1076, "##dde": 1077, "##dra": 1078, "##rom": 1079, "##eleid": 1080, "##rp": 1081, "##uur": 1082, "##enten": 1083, "##zien": 1084, "##idi": 1085, "voors": 1086, "##oorst": 1087, "##dsta": 1088, "##oeg": 1089, "##stat": 1090, "##kkel": 1091, "##lingen": 1092, "##omi": 1093, "##esl": 1094, "vra": 1095, "##elf": 1096, "##idsta": 1097, "echt": 1098, "##ngr": 1099, "##erste": 1100, "##rr": 1101, "##ikk": 1102, "##igd": 1103, "##tand": 1104, "##nal": 1105, "##kelij": 1106, "##ellen": 1107, "##kelijk": 1108, "##taat": 1109, "am": 1110, "##andel": 1111, "##onder": 1112, "##gt": 1113, "##gh": 1114, "##tal": 1115, "##ges": 1116, "##euw": 1117, "##ani": 1118, "##uk": 1119, "##voo": 1120, "##voor": 1121, "##rmi": 1122, "pla": 1123, "ei": 1124, "##kken": 1125, "##tst": 1126, "##ona": 1127, "##dat": 1128, "gez": 1129, "##werk": 1130, "##gge": 1131, "##telle": 1132, "eer": 1133, "ac": 1134, "##ffe": 1135, "##fi": 1136, "##elli": 1137, "##omst": 1138, "lids": 1139, "lidst": 1140, "lidsta": 1141, "##enl": 1142, "##voer": 1143, "##daa": 1144, "##rie": 1145, "##state": 1146, "##orste": 1147, "##erki": 1148, "##van": 1149, "##orstel": 1150, "##ina": 1151, "##oorste": 1152, "##oorstel": 1153, "##ren.": 1154, "##enen": 1155, "sa": 1156, "##rli": 1157, "zu": 1158, "voorst": 1159, "##ero": 1160, "##reg": 1161, "ben": 1162, "##oll": 1163, "##ngri": 1164, "nam": 1165, "##ngrij": 1166, "##tellen": 1167, "##die": 1168, "##nsen": 1169, "##uss": 1170, "##rder": 1171, "##vol": 1172, "##bie": 1173, "##roe": 1174, "##one": 1175, "##ieuw": 1176, "##lis": 1177, "##nem": 1178, "##oli": 1179, "##koms": 1180, "##con": 1181, "##komst": 1182, "name": 1183, "##rkt": 1184, "##:": 1185, "andere": 1186, "##iona": 1187, "rech": 1188, "recht": 1189, "##erp": 1190, "##pel": 1191, "##ikke": 1192, "str": 1193, "##ont": 1194, "her": 1195, "##angr": 1196, "pe": 1197, "##evr": 1198, "##angri": 1199, "##angrij": 1200, "##ken.": 1201, "##nta": 1202, "##tor": 1203, "##grijk": 1204, "##ngrijk": 1205, "##woor": 1206, "##woord": 1207, "bo": 1208, "##angrijk": 1209, "mens": 1210, "ontw": 1211, "##epa": 1212, "##men.": 1213, "##staten": 1214, "2": 1215, "##staa": 1216, "##igh": 1217, "##tv": 1218, "##cr": 1219, "##eem": 1220, "##rti": 1221, "tw": 1222, "##rech": 1223, "##recht": 1224, "##nste": 1225, "##idd": 1226, "##enw": 1227, "##iev": 1228, "##egr": 1229, "tegen": 1230, "##ner": 1231, "##dstat": 1232, "##dstate": 1233, "##dstaten": 1234, "##idstat": 1235, "##idstate": 1236, "##idstaten": 1237, "##twi": 1238, "##sel": 1239, "##bied": 1240, "##ghe": 1241, "mog": 1242, "moge": 1243, "kom": 1244, "voorste": 1245, "##ewe": 1246, "##tis": 1247, "##rob": 1248, "voorstel": 1249, "##langr": 1250, "##elangr": 1251, "##langri": 1252, "##elangri": 1253, "##langrij": 1254, "##elangrij": 1255, "##langrijk": 1256, "##elangrijk": 1257, "##echte": 1258, "##ppe": 1259, "##af": 1260, "ti": 1261, "echte": 1262, "##rage": 1263, "##nsc": 1264, "##ull": 1265, "##enti": 1266, "##val": 1267, "##olle": 1268, "belangr": 1269, "belangri": 1270, "belangrij": 1271, "belangrijk": 1272, "##rege": 1273, "##ka": 1274, "##gan": 1275, "##eng": 1276, "hun": 1277, "##jv": 1278, "##nsch": 1279, "mil": 1280, "tu": 1281, "verb": 1282, "##olge": 1283, "beh": 1284, "ins": 1285, "##eens": 1286, "##idde": 1287, "##rga": 1288, "##ijv": 1289, "inter": 1290, "##drag": 1291, "##gra": 1292, "##lig": 1293, "##tere": 1294, "##mend": 1295, "lidstat": 1296, "lidstate": 1297, "lidstaten": 1298, "##menten": 1299, "##rne": 1300, "##ensen": 1301, "##hou": 1302, "##egd": 1303, "##vin": 1304, "##akt": 1305, "##vaa": 1306, "##lic": 1307, "##iv": 1308, "##ighe": 1309, "##oorde": 1310, "##eun": 1311, "sl": 1312, "##rit": 1313, "##orge": 1314, "##vaar": 1315, "##lgen": 1316, "##rkin": 1317, "##ster": 1318, "##ntr": 1319, "##nig": 1320, "##rking": 1321, "##oa": 1322, "bl": 1323, "##teun": 1324, "aang": 1325, "##nf": 1326, "##erkin": 1327, "##erking": 1328, "br": 1329, "##mende": 1330, "##egg": 1331, "##ein": 1332, "##act": 1333, "##eds": 1334, "##ikkel": 1335, "##rati": 1336, "##pre": 1337, "##ref": 1338, "##rdig": 1339, "##ori": 1340, "##g,": 1341, "##2": 1342, "##llin": 1343, "wet": 1344, "##mt": 1345, "bed": 1346, "##olgen": 1347, "##laat": 1348, "##lling": 1349, "##rva": 1350, "##hand": 1351, "rege": 1352, "##its": 1353, "##nds": 1354, "##ise": 1355, "echter": 1356, "bev": 1357, "##inn": 1358, "##ensc": 1359, "##tri": 1360, "##ulle": 1361, "##ders": 1362, "##ieve": 1363, "##emee": 1364, "##ullen": 1365, "mense": 1366, "##fen": 1367, "##ssa": 1368, "heer": 1369, "##telli": 1370, "##ader": 1371, "##nscha": 1372, "##meen": 1373, "##ensch": 1374, "##sin": 1375, "##wik": 1376, "##pee": 1377, "besc": 1378, "besch": 1379, "##eree": 1380, "##wikk": 1381, "##wikke": 1382, "##atio": 1383, "##wikkel": 1384, "##ekk": 1385, "##ation": 1386, "nat": 1387, "dr": 1388, "##ggen": 1389, "##arom": 1390, "##ble": 1391, "##aarom": 1392, "##dem": 1393, "##tiek": 1394, "gew": 1395, "##tiona": 1396, "##air": 1397, "##oal": 1398, "##leen": 1399, "##emeen": 1400, "##kh": 1401, "##ire": 1402, "##ett": 1403, "##zon": 1404, "##ral": 1405, "##llee": 1406, "zul": 1407, "kr": 1408, "##ieke": 1409, "##nschap": 1410, "gebr": 1411, "##enscha": 1412, "##enschap": 1413, "##oals": 1414, "will": 1415, "zoa": 1416, "zoal": 1417, "zoals": 1418, "##laats": 1419, "##1": 1420, "wille": 1421, "##kkeli": 1422, "tr": 1423, "##stan": 1424, "##eko": 1425, "##sm": 1426, "prob": 1427, "##opa": 1428, "kw": 1429, "##ua": 1430, "##mp": 1431, "##uct": 1432, "aange": 1433, "vee": 1434, "##su": 1435, "ame": 1436, "##x": 1437, "##ebi": 1438, "##den,": 1439, "##esti": 1440, "##ropa": 1441, "##regel": 1442, "##stelli": 1443, "##ellin": 1444, "##ntwi": 1445, "##elling": 1446, "ie": 1447, "##ebie": 1448, "##ebied": 1449, "##tl": 1450, "##por": 1451, "##ddel": 1452, "##epe": 1453, "##tuu": 1454, "willen": 1455, "hoo": 1456, "##taan": 1457, "##nb": 1458, "##uropa": 1459, "##iddel": 1460, "##twik": 1461, "##twikk": 1462, "##ntwik": 1463, "##ntwikk": 1464, "##twikke": 1465, "##twikkel": 1466, "##ntwikke": 1467, "##ntwikkel": 1468, "##nwe": 1469, "##rzo": 1470, "##oep": 1471, "##jf": 1472, "##ijf": 1473, "##lleen": 1474, "lande": 1475, "ba": 1476, "allee": 1477, "alleen": 1478, "twe": 1479, "twee": 1480, "##hed": 1481, "##ono": 1482, "##nee": 1483, "##hede": 1484, "##tref": 1485, "##ationa": 1486, "##tten": 1487, "##heden": 1488, "##red": 1489, "##teld": 1490, "landen": 1491, "##eids": 1492, "gen": 1493, "##ini": 1494, "dui": 1495, "##eil": 1496, "##ng.": 1497, "##tellin": 1498, "##telling": 1499, "##happ": 1500, "##chapp": 1501, "##schapp": 1502, "staa": 1503, "##tisc": 1504, "##tisch": 1505, "##ial": 1506, "jaa": 1507, "jaar": 1508, "##roo": 1509, "##itg": 1510, "##gro": 1511, "##pt": 1512, "daaro": 1513, "##rken": 1514, "##ann": 1515, "##eder": 1516, "##onal": 1517, "ar": 1518, "##enh": 1519, "##inne": 1520, "##cu": 1521, "##ie,": 1522, "##stellin": 1523, "##stelling": 1524, "##estel": 1525, "##res": 1526, "##vro": 1527, "##fg": 1528, "##rlij": 1529, "##cte": 1530, "##ional": 1531, "nieu": 1532, "nieuw": 1533, "##lui": 1534, "mensen": 1535, "##ogel": 1536, "ric": 1537, "##ie.": 1538, "rich": 1539, "tij": 1540, "sam": 1541, "richt": 1542, "##?": 1543, "##entie": 1544, "tijd": 1545, "##eleg": 1546, "##edr": 1547, "same": 1548, "samen": 1549, "##dien": 1550, "##obl": 1551, "##eren.": 1552, "##oble": 1553, "##robl": 1554, "##roble": 1555, "##tuur": 1556, "##hti": 1557, "##chti": 1558, "##egge": 1559, "##zoe": 1560, "bep": 1561, "##ser": 1562, "##teg": 1563, "##ogeli": 1564, "##ogelij": 1565, "##ogelijk": 1566, "##uide": 1567, "##erne": 1568, "##erzo": 1569, "##vrou": 1570, "##vrouw": 1571, "##esta": 1572, "##khe": 1573, "##houd": 1574, "##zond": 1575, "##rwe": 1576, "##5": 1577, "ontwi": 1578, "##arin": 1579, "##evro": 1580, "##ragen": 1581, "ontwik": 1582, "ontwikk": 1583, "ontwikke": 1584, "ontwikkel": 1585, "##jkh": 1586, "##ijkh": 1587, "##jkhe": 1588, "##ijkhe": 1589, "##lijkh": 1590, "##lijkhe": 1591, "##mme": 1592, "europa": 1593, "##vere": 1594, "##evrou": 1595, "##evrouw": 1596, "##usse": 1597, "mev": 1598, "mevr": 1599, "mevro": 1600, "mevrou": 1601, "mevrouw": 1602, "##dee": 1603, "##cia": 1604, "##evi": 1605, "##ervo": 1606, "##tern": 1607, "##deri": 1608, "hoe": 1609, "##idel": 1610, "##uite": 1611, "##fs": 1612, "bli": 1613, "##steld": 1614, "##uik": 1615, "per": 1616, "##hande": 1617, "##dele": 1618, "##jde": 1619, "##ringe": 1620, "##rhe": 1621, "##rote": 1622, "##gens": 1623, "##ijde": 1624, "##nome": 1625, "##rlijk": 1626, "##tiev": 1627, "##eili": 1628, "##ideli": 1629, "##idelij": 1630, "##idelijk": 1631, "##ug": 1632, "zull": 1633, "zulle": 1634, "zullen": 1635, "##nci": 1636, "##ust": 1637, "eers": 1638, "eerst": 1639, "##uiten": 1640, "##liti": 1641, "##appe": 1642, "##zoek": 1643, "##reen": 1644, "##wel": 1645, "##sb": 1646, "##bru": 1647, "##olit": 1648, "##port": 1649, "##ermi": 1650, "##ringen": 1651, "geva": 1652, "##esteld": 1653, "ber": 1654, "blij": 1655, "veel": 1656, "##urg": 1657, "##deme": 1658, "##ereen": 1659, "##ten,": 1660, "##pees": 1661, "##opee": 1662, "##ropee": 1663, "##uropee": 1664, "##gde": 1665, "##demen": 1666, "##deren": 1667, "##opees": 1668, "##ropees": 1669, "##uropees": 1670, "##oliti": 1671, "##rmin": 1672, "##fo": 1673, "##mat": 1674, "plaa": 1675, "##echten": 1676, "ged": 1677, "##nomen": 1678, "##derin": 1679, "##dh": 1680, "##gend": 1681, "##handel": 1682, "##dering": 1683, "##onom": 1684, "##dement": 1685, "fr": 1686, "##per": 1687, "##nale": 1688, "plaat": 1689, "##tb": 1690, "##delin": 1691, "geme": 1692, "##)": 1693, "##nkel": 1694, "##ghei": 1695, "##gheid": 1696, "##esp": 1697, "##deling": 1698, "##ndem": 1699, "##delen": 1700, "##eggen": 1701, "plaats": 1702, "europee": 1703, "europees": 1704, "pol": 1705, "##tieve": 1706, "##eeds": 1707, "##ing.": 1708, "##eho": 1709, "han": 1710, "##ighei": 1711, "##igheid": 1712, "##uidel": 1713, "inst": 1714, "##uideli": 1715, "##arde": 1716, "##wen": 1717, "##uidelij": 1718, "##uidelijk": 1719, "##fd": 1720, "##kki": 1721, "##endem": 1722, "##mu": 1723, "##ndeme": 1724, "##endeme": 1725, "##ndemen": 1726, "##endemen": 1727, "##ndement": 1728, "##endement": 1729, "##ins": 1730, "##tai": 1731, "##nomi": 1732, "##erge": 1733, "##onomi": 1734, "##etref": 1735, "##r.": 1736, "##waa": 1737, "##rekk": 1738, "##ief": 1739, "##itiek": 1740, "ju": 1741, "ev": 1742, "##mendem": 1743, "##mendeme": 1744, "##mendemen": 1745, "##mendement": 1746, "vraa": 1747, "vraag": 1748, "##bel": 1749, "##trek": 1750, "##sing": 1751, "##emm": 1752, "##anda": 1753, "##cono": 1754, "##anc": 1755, "geh": 1756, "##conom": 1757, "##pu": 1758, "##lijn": 1759, "##ruik": 1760, "afg": 1761, "##erei": 1762, "##elijkh": 1763, "##elijkhe": 1764, "##ara": 1765, "amen": 1766, "amend": 1767, "poli": 1768, "amende": 1769, "##conomi": 1770, "##lega": 1771, "##ler": 1772, "##nli": 1773, "##ike": 1774, "polit": 1775, "politi": 1776, "##ette": 1777, "amendem": 1778, "amendeme": 1779, "amendemen": 1780, "amendement": 1781, "##oort": 1782, "##rond": 1783, "##fge": 1784, "##litie": 1785, "##orte": 1786, "##ume": 1787, "##rod": 1788, "vor": 1789, "probl": 1790, "proble": 1791, "##ber": 1792, "##brui": 1793, "##bruik": 1794, "##eide": 1795, "##eter": 1796, "##ving": 1797, "##luit": 1798, "##enom": 1799, "##ca": 1800, "##enome": 1801, "besl": 1802, "##two": 1803, "##ussen": 1804, "##enst": 1805, "bur": 1806, "der": 1807, "##tional": 1808, "##pi": 1809, "betref": 1810, "##rak": 1811, "##olitie": 1812, "eco": 1813, "gemee": 1814, "gemeen": 1815, "##iste": 1816, "##enomen": 1817, "##nat": 1818, "##eba": 1819, "##roc": 1820, "##erder": 1821, "##geve": 1822, "##nlij": 1823, "stel": 1824, "##evol": 1825, "##onale": 1826, "##ntwo": 1827, "##meens": 1828, "##ionale": 1829, "##euwe": 1830, "##umen": 1831, "##pec": 1832, "##ument": 1833, "el": 1834, "mogel": 1835, "mogeli": 1836, "mogelij": 1837, "mogelijk": 1838, "##twoo": 1839, "mak": 1840, "##rzoe": 1841, "##emeens": 1842, "##erzoe": 1843, "##bre": 1844, "##eensc": 1845, "##eensch": 1846, "##twoor": 1847, "##twoord": 1848, "##neme": 1849, "##eenscha": 1850, "##issa": 1851, "##ntwoo": 1852, "##ntwoor": 1853, "##ntwoord": 1854, "##meensc": 1855, "##emeensc": 1856, "##meensch": 1857, "##emeensch": 1858, "##meenscha": 1859, "##eenschap": 1860, "##emeenscha": 1861, "##meenschap": 1862, "##emeenschap": 1863, "si": 1864, "##aire": 1865, "min": 1866, "##oce": 1867, "fra": 1868, "afge": 1869, "##nati": 1870, "##rgen": 1871, "##nlijk": 1872, "##ffen": 1873, "steu": 1874, "steun": 1875, "##rok": 1876, "##enge": 1877, "##ons": 1878, "##hts": 1879, "##ieuwe": 1880, "##aren": 1881, "daarom": 1882, "ind": 1883, "##kelin": 1884, "##keling": 1885, "##chts": 1886, "##her": 1887, "##ub": 1888, "##aris": 1889, "##roce": 1890, "##rant": 1891, "##rach": 1892, "dien": 1893, "##gest": 1894, "##racht": 1895, "##ikkeli": 1896, "##rna": 1897, "##ational": 1898, "##ije": 1899, "gemeens": 1900, "gemeensc": 1901, "gemeensch": 1902, "gemeenscha": 1903, "gemeenschap": 1904, "make": 1905, "##innen": 1906, "##gen,": 1907, "##acti": 1908, "##rzoek": 1909, "##erzoek": 1910, "##baa": 1911, "##temm": 1912, "maat": 1913, "maken": 1914, "##ena": 1915, "ke": 1916, "res": 1917, "fi": 1918, "##ardi": 1919, "##pg": 1920, "##atr": 1921, "politie": 1922, "##duc": 1923, "##if": 1924, "##len.": 1925, "##ebru": 1926, "##evin": 1927, "##ark": 1928, "hand": 1929, "##aarde": 1930, "##tste": 1931, "##dse": 1932, "##kkin": 1933, "##kking": 1934, "##mati": 1935, "##ost": 1936, "##rvan": 1937, "##reid": 1938, "nieuwe": 1939, "zee": 1940, "##js": 1941, "##kkelin": 1942, "##kkeling": 1943, "##ab": 1944, "##wikkeli": 1945, "##ikkelin": 1946, "##wikkelin": 1947, "##ikkeling": 1948, "##wikkeling": 1949, "##egin": 1950, "begr": 1951, "duid": 1952, "##over": 1953, "##spro": 1954, "doel": 1955, "##ssin": 1956, "##nko": 1957, "verw": 1958, "tus": 1959, "tuss": 1960, "tusse": 1961, "tussen": 1962, "verk": 1963, "##rbi": 1964, "##eerde": 1965, "duide": 1966, "##emente": 1967, "##mb": 1968, "verg": 1969, "##ssing": 1970, "##inder": 1971, "##ass": 1972, "econ": 1973, "econo": 1974, "##emi": 1975, "econom": 1976, "##ine": 1977, "##twikkeli": 1978, "##twikkelin": 1979, "##twikkeling": 1980, "##ntwikkeli": 1981, "##ntwikkelin": 1982, "##ntwikkeling": 1983, "##zak": 1984, "duidel": 1985, "duideli": 1986, "duidelij": 1987, "duidelijk": 1988, "##rger": 1989, "haa": 1990, "##tru": 1991, "##ijs": 1992, "##elo": 1993, "##odu": 1994, "economi": 1995, "##av": 1996, "##zake": 1997, "grot": 1998, "##treg": 1999, "##aardi": 2000, "##stig": 2001, "##eran": 2002, "##rodu": 2003, "##peli": 2004, "##trege": 2005, "##oduc": 2006, "##roduc": 2007, "##happe": 2008, "##chappe": 2009, "##schappe": 2010, "##tregel": 2011, "grote": 2012, "##eeld": 2013, "zel": 2014, "##uis": 2015, "##nan": 2016, "##aatr": 2017, "##urge": 2018, "uitg": 2019, "fe": 2020, "##atre": 2021, "##vaard": 2022, "##aatre": 2023, "##ore": 2024, "gaat": 2025, "##omis": 2026, "volg": 2027, "##och": 2028, "##eha": 2029, "##erwe": 2030, "##tair": 2031, "##zet": 2032, "##atreg": 2033, "##aatreg": 2034, "##atrege": 2035, "##aatrege": 2036, "##evoe": 2037, "##atregel": 2038, "##aatregel": 2039, "##waar": 2040, "##teri": 2041, "##eker": 2042, "##ndeli": 2043, "##orb": 2044, "##ardig": 2045, "##loo": 2046, "##onc": 2047, "##elde": 2048, "##tli": 2049, "eerste": 2050, "##jve": 2051, "pu": 2052, "##sv": 2053, "##kend": 2054, "##ode": 2055, "##aardig": 2056, "ing": 2057, "##litiek": 2058, "##olitiek": 2059, "##itu": 2060, "zelf": 2061, "##teren": 2062, "##jze": 2063, "##achte": 2064, "wee": 2065, "##slu": 2066, "##ters": 2067, "##ebrui": 2068, "##ebruik": 2069, "##odi": 2070, "bele": 2071, "gevo": 2072, "se": 2073, "##rdel": 2074, "##htl": 2075, "##chtl": 2076, "##pelij": 2077, "##pelijk": 2078, "versc": 2079, "versch": 2080, "##ijze": 2081, "##stand": 2082, "##oorb": 2083, "##ichtl": 2084, "##actie": 2085, "##lleg": 2086, "##gers": 2087, "##igi": 2088, "##ouwe": 2089, "##tlij": 2090, "##tlijn": 2091, "##htli": 2092, "##chtli": 2093, "##htlij": 2094, "##chtlij": 2095, "##htlijn": 2096, "##chtlijn": 2097, "##rma": 2098, "##ichtli": 2099, "##ichtlij": 2100, "##ichtlijn": 2101, "##ijve": 2102, "##erhe": 2103, "##pge": 2104, "##rre": 2105, "##rming": 2106, "ro": 2107, "kome": 2108, "komen": 2109, "##eda": 2110, "hel": 2111, "##trekk": 2112, "##jn.": 2113, "##ijn.": 2114, "##ntern": 2115, "##oede": 2116, "##cten": 2117, "##rschi": 2118, "opg": 2119, "##urger": 2120, "gebi": 2121, "gebie": 2122, "gebied": 2123, "##nel": 2124, "##gie": 2125, "##egele": 2126, "intern": 2127, "##olk": 2128, "##angen": 2129, "##/": 2130, "##emaa": 2131, "##oci": 2132, "mili": 2133, "##baar": 2134, "##llega": 2135, "##jg": 2136, "##ijg": 2137, "noo": 2138, "##naa": 2139, "##rha": 2140, "##ppel": 2141, "##sar": 2142, "##tionale": 2143, "##ationale": 2144, "ontwikkeli": 2145, "ontwikkelin": 2146, "ontwikkeling": 2147, "##'s": 2148, "(": 2149, "##eving": 2150, "##slui": 2151, "mar": 2152, "##oei": 2153, "##ekom": 2154, "##led": 2155, "##emo": 2156, "##jven": 2157, "##ijven": 2158, "##eval": 2159, "##mel": 2160, "politiek": 2161, "##ratie": 2162, "##gelen": 2163, "##sluit": 2164, "##lot": 2165, "##tek": 2166, "vri": 2167, "##eite": 2168, "##geno": 2169, "col": 2170, "ta": 2171, "##rig": 2172, "##ocia": 2173, "vin": 2174, "conc": 2175, "opge": 2176, "zeg": 2177, "##egelen": 2178, "inz": 2179, "##a'": 2180, "##anta": 2181, "or": 2182, "##edig": 2183, "##\u00ebl": 2184, "##ehe": 2185, "verz": 2186, "##aakt": 2187, "##erha": 2188, "##vor": 2189, "burg": 2190, "##hr": 2191, "burge": 2192, "geno": 2193, "##uat": 2194, "##ng,": 2195, "bete": 2196, "##err": 2197, "##iden": 2198, "volge": 2199, "omd": 2200, "eve": 2201, "##ets": 2202, "##mda": 2203, "##mdat": 2204, "vera": 2205, "even": 2206, "omda": 2207, "omdat": 2208, "volgen": 2209, "##dhe": 2210, "##rd.": 2211, "##geven": 2212, "burger": 2213, "##stri": 2214, "##volg": 2215, "##uwen": 2216, "aant": 2217, "##db": 2218, "##kome": 2219, "##th": 2220, "##sari": 2221, "bevo": 2222, "##bat": 2223, "##ssar": 2224, "##missa": 2225, "##issar": 2226, "##ssari": 2227, "##mmissa": 2228, "##missar": 2229, "##issari": 2230, "##ommissa": 2231, "##mmissar": 2232, "##missari": 2233, "##ommissar": 2234, "##mmissari": 2235, "##ommissari": 2236, "##spe": 2237, "##saris": 2238, "##stelle": 2239, "was": 2240, "##ssaris": 2241, "##issaris": 2242, "##missaris": 2243, "##mmissaris": 2244, "##ommissaris": 2245, "##nkom": 2246, "stem": 2247, "haar": 2248, "hou": 2249, "vind": 2250, "commissa": 2251, "commissar": 2252, "commissari": 2253, "##jden": 2254, "##ijden": 2255, "##regele": 2256, "##tregele": 2257, "##regelen": 2258, "##tregelen": 2259, "mid": 2260, "commissaris": 2261, "##igin": 2262, "##atregele": 2263, "##aatregele": 2264, "##atregelen": 2265, "##aatregelen": 2266, "##nm": 2267, "##ever": 2268, "##derh": 2269, "##misc": 2270, "cons": 2271, "verv": 2272, "##misch": 2273, "gebru": 2274, "gebrui": 2275, "gebruik": 2276, "##bou": 2277, "midd": 2278, "##enhe": 2279, "##komen": 2280, "##an.": 2281, "wan": 2282, "##oot": 2283, "##gaa": 2284, "dus": 2285, "##ebat": 2286, "##erken": 2287, "##rel": 2288, "midde": 2289, "##99": 2290, "##stellen": 2291, "##ilie": 2292, "##ood": 2293, "coll": 2294, "##arv": 2295, "##iging": 2296, "##go": 2297, "##doe": 2298, "##igde": 2299, "##aarv": 2300, "kl": 2301, "##geste": 2302, "##khei": 2303, "##kheid": 2304, "##lite": 2305, "##ren,": 2306, "##rite": 2307, "##ppeli": 2308, "##ram": 2309, "veran": 2310, "##uti": 2311, "soc": 2312, "##stie": 2313, "##nr": 2314, "##jkhei": 2315, "##ijkhei": 2316, "##jkheid": 2317, "##ijkheid": 2318, "colle": 2319, "##anci": 2320, "##lijkhei": 2321, "##lijkheid": 2322, "##tische": 2323, "##orbe": 2324, "vert": 2325, "##zin": 2326, "##arkt": 2327, "##ntal": 2328, "##cho": 2329, "##nschapp": 2330, "##nschappe": 2331, "gest": 2332, "##enschapp": 2333, "##enschappe": 2334, "##\"": 2335, "##cial": 2336, "##tief": 2337, "##inan": 2338, "soci": 2339, "\"": 2340, "##gst": 2341, "##nders": 2342, "##elinge": 2343, "zijn.": 2344, "##alis": 2345, "voe": 2346, "##nanc": 2347, "##oon": 2348, "##appel": 2349, "socia": 2350, "##elt": 2351, "##oorbe": 2352, "vrij": 2353, "##ric": 2354, "wijz": 2355, "##lich": 2356, "##reng": 2357, "##litei": 2358, "##liteit": 2359, "##happel": 2360, "##appeli": 2361, "##chappel": 2362, "##happeli": 2363, "##chappeli": 2364, "##inanc": 2365, "##ppelij": 2366, "##appelij": 2367, "##ppelijk": 2368, "##schappel": 2369, "##happelij": 2370, "##appelijk": 2371, "##schappeli": 2372, "##chappelij": 2373, "##happelijk": 2374, "##chappelijk": 2375, "##nanci": 2376, "##inanci": 2377, "##schappelij": 2378, "##schappelijk": 2379, "im": 2380, "##uati": 2381, "20": 2382, "##uatie": 2383, "##nit": 2384, "##stem": 2385, "pri": 2386, "##ogr": 2387, "##derz": 2388, "##oren": 2389, "##tige": 2390, "##oop": 2391, "waaro": 2392, "##licht": 2393, "##ult": 2394, "##rdr": 2395, "##orgen": 2396, "##gem": 2397, "##kte": 2398, "##estaa": 2399, "##cher": 2400, "zeer": 2401, "##iale": 2402, "##ouwen": 2403, "belei": 2404, "beleid": 2405, "deb": 2406, "##rden.": 2407, "##gez": 2408, "##enwe": 2409, "##ing,": 2410, "##ebe": 2411, "##elijkhei": 2412, "##elijkheid": 2413, "##hil": 2414, "houd": 2415, "##nni": 2416, "kri": 2417, "##bouw": 2418, "##atu": 2419, "##rede": 2420, "##echts": 2421, "##bee": 2422, "deba": 2423, "##olleg": 2424, "##idin": 2425, "vas": 2426, "##iding": 2427, "debat": 2428, "##eff": 2429, "staat": 2430, "##odig": 2431, "vast": 2432, "##ogra": 2433, "##teke": 2434, "##enko": 2435, "##teken": 2436, "##ementen": 2437, "##amm": 2438, "##ngen.": 2439, "##veree": 2440, "##vereen": 2441, "colleg": 2442, "act": 2443, "gaan": 2444, "##zig": 2445, "##ogen": 2446, "med": 2447, "##eidi": 2448, "##ezo": 2449, "##eidin": 2450, "##eiding": 2451, "##\u00eble": 2452, "##erschi": 2453, "##erdr": 2454, "##rechte": 2455, "##arm": 2456, "##aties": 2457, "maatr": 2458, "maatre": 2459, "maatreg": 2460, "maatrege": 2461, "maatregel": 2462, "##nhei": 2463, "##oti": 2464, "##estie": 2465, "lo": 2466, "den": 2467, "aanta": 2468, "##rhei": 2469, "##rheid": 2470, "##nomis": 2471, "##onomis": 2472, "##for": 2473, "##ilig": 2474, "##eilig": 2475, "##omisc": 2476, "ger": 2477, "richtl": 2478, "richtli": 2479, "richtlij": 2480, "richtlijn": 2481, "##staan": 2482, "##omisch": 2483, "##all": 2484, "##nomisc": 2485, "##onomisc": 2486, "##nomisch": 2487, "##onomisch": 2488, "##ekt": 2489, "##conomis": 2490, "##rijd": 2491, "##ollega": 2492, "##gestel": 2493, "##elingen": 2494, "##conomisc": 2495, "##conomisch": 2496, "##taire": 2497, "##ract": 2498, "##eks": 2499, "##gesteld": 2500, "verl": 2501, "##bij": 2502, "##\u00e9": 2503, "##ekki": 2504, "##chr": 2505, "##orme": 2506, "##oog": 2507, "##bele": 2508, "collega": 2509, "bin": 2510, "dee": 2511, "##lke": 2512, "##ip": 2513, "##nheid": 2514, "##anne": 2515, "##iens": 2516, "doen": 2517, "##geri": 2518, "##chil": 2519, "##lieu": 2520, "##ilieu": 2521, "eens": 2522, "##enhei": 2523, "##enheid": 2524, "##deel": 2525, "##geb": 2526, "##ordel": 2527, "spe": 2528, "##antal": 2529, "##eger": 2530, "##erle": 2531, "fin": 2532, "##teli": 2533, "##pun": 2534, "##punt": 2535, "##schil": 2536, "man": 2537, "##rog": 2538, "##isse": 2539, "##ppo": 2540, "##weed": 2541, "aantal": 2542, "##open": 2543, "is.": 2544, "##tieke": 2545, "##ichti": 2546, "milie": 2547, "milieu": 2548, "gele": 2549, "##omen.": 2550, "##tijd": 2551, "##olu": 2552, "eig": 2553, "eige": 2554, "eigen": 2555, "##fer": 2556, "##heids": 2557, "##aand": 2558, "##rmee": 2559, "spr": 2560, "##ald": 2561, "##sol": 2562, "##grot": 2563, "##oordel": 2564, "bepa": 2565, "##ontr": 2566, "##ive": 2567, "##i\u00ebl": 2568, "ki": 2569, "##ole": 2570, "##i\u00eble": 2571, "##rekki": 2572, "##ekkin": 2573, "##ekking": 2574, "##houde": 2575, "##ezen": 2576, "verde": 2577, "cont": 2578, "##lat": 2579, "##zel": 2580, "##scher": 2581, "zie": 2582, "##reke": 2583, "##ci\u00eb": 2584, "##rgan": 2585, "##mers": 2586, "##iter": 2587, "##lend": 2588, "##enli": 2589, "economis": 2590, "##reft": 2591, "##nkoms": 2592, "##nkomst": 2593, "economisc": 2594, "economisch": 2595, "##wes": 2596, "##enkom": 2597, "##west": 2598, "##etg": 2599, "##duct": 2600, "inge": 2601, "##nderz": 2602, "vero": 2603, "##eta": 2604, "##lp": 2605, "##esche": 2606, "##enlij": 2607, "##nschappel": 2608, "##enschappel": 2609, "##nschappeli": 2610, "##enschappeli": 2611, "##nschappelij": 2612, "##enschappelij": 2613, "##nschappelijk": 2614, "##enschappelijk": 2615, "##anke": 2616, "##ora": 2617, "##nzi": 2618, "##etge": 2619, "##emd": 2620, "##aald": 2621, "nati": 2622, "##werki": 2623, "##werkin": 2624, "##zonde": 2625, "##ruk": 2626, "##werking": 2627, "bre": 2628, "##rand": 2629, "bedr": 2630, "##fr": 2631, "##porte": 2632, "##rwi": 2633, "##etrek": 2634, "##erwi": 2635, "##treft": 2636, "##teur": 2637, "##etreft": 2638, "betreft": 2639, "##oduct": 2640, "##roduct": 2641, "##cto": 2642, "##etrekk": 2643, "##racti": 2644, "##digd": 2645, "##roep": 2646, "##trekki": 2647, "##rekkin": 2648, "##trekkin": 2649, "##rekking": 2650, "##trekking": 2651, "prod": 2652, "verschi": 2653, "##westi": 2654, "##westie": 2655, "##nsp": 2656, "##ppor": 2657, "##pport": 2658, "##dhei": 2659, "##dheid": 2660, "##itge": 2661, "##rend": 2662, "##tua": 2663, "##nla": 2664, "##rogr": 2665, "geval": 2666, "##k.": 2667, "##orden.": 2668, "##ciale": 2669, "part": 2670, "besta": 2671, "##enlijk": 2672, "##ractie": 2673, "deel": 2674, "##rich": 2675, "##sbe": 2676, "uite": 2677, "erv": 2678, "##nderen": 2679, "##htin": 2680, "##chtin": 2681, "##richt": 2682, "kwe": 2683, "##hting": 2684, "##chting": 2685, "##dri": 2686, "##rijke": 2687, "##eenk": 2688, "##gram": 2689, "betrek": 2690, "acti": 2691, "##anis": 2692, "##rschil": 2693, "##erschil": 2694, "##kl": 2695, "binn": 2696, "binne": 2697, "binnen": 2698, "##eenko": 2699, "fina": 2700, "betrekk": 2701, "##tgev": 2702, "uitge": 2703, "##lev": 2704, "##form": 2705, "finan": 2706, "##eenkom": 2707, "financ": 2708, "##rvoo": 2709, "##rvoor": 2710, "financi": 2711, "##werp": 2712, "##mma": 2713, "##rdra": 2714, "maatregele": 2715, "maatregelen": 2716, "##ctor": 2717, "##gaan": 2718, "##eringe": 2719, "lat": 2720, "zor": 2721, "##ogram": 2722, "zorg": 2723, "##erdra": 2724, "##rogra": 2725, "##nve": 2726, "##vers": 2727, "##rogram": 2728, "##ces": 2729, "##ramm": 2730, "##kst": 2731, "##weg": 2732, "##gramm": 2733, "##arb": 2734, "##egro": 2735, "##ogramm": 2736, "##rogramm": 2737, "##appo": 2738, "##appor": 2739, "##apport": 2740, "##cra": 2741, "##anse": 2742, "##rnem": 2743, "##rent": 2744, "##ken,": 2745, "##sg": 2746, "##paa": 2747, "##rbij": 2748, "vere": 2749, "##ritei": 2750, "##riteit": 2751, "##eiten": 2752, "bestaa": 2753, "##rdeli": 2754, "##k,": 2755, "##etten": 2756, "##enkoms": 2757, "##enkomst": 2758, "##ue": 2759, "##kr": 2760, "##ndig": 2761, "lev": 2762, "##nlan": 2763, "##sis": 2764, "regel": 2765, "##hu": 2766, "##oere": 2767, "##eest": 2768, "leve": 2769, "##dur": 2770, "middel": 2771, "##rouwe": 2772, "##crat": 2773, "##arti": 2774, "zegg": 2775, "zegge": 2776, "##eo": 2777, "zeggen": 2778, "mis": 2779, "##derd": 2780, "##oten": 2781, "##tuat": 2782, "##tuati": 2783, "##tuatie": 2784, "hij": 2785, "##itua": 2786, "##ituat": 2787, "##ituati": 2788, "stan": 2789, "##ituatie": 2790, "stand": 2791, "##ys": 2792, "##solu": 2793, "##jge": 2794, "##ijge": 2795, "##lec": 2796, "##hill": 2797, "##zonder": 2798, "gewe": 2799, "##amma": 2800, "##effe": 2801, "##gelijke": 2802, "##ramma": 2803, "##gramma": 2804, "##ogramma": 2805, "##rogramma": 2806, "denk": 2807, "##noe": 2808, "##eenkoms": 2809, "##eenkomst": 2810, "##nwer": 2811, "##eringen": 2812, "##rgel": 2813, "##iede": 2814, "pre": 2815, "##itieke": 2816, "##nemen": 2817, "##inden": 2818, "##ecte": 2819, "##rijg": 2820, "##antw": 2821, "##dp": 2822, "##antwo": 2823, "##antwoo": 2824, "##antwoor": 2825, "##antwoord": 2826, "##000": 2827, "##aari": 2828, "##egev": 2829, "##aarin": 2830, "##stu": 2831, "##belei": 2832, "##beleid": 2833, "##chill": 2834, "##rwij": 2835, "##erwij": 2836, "nem": 2837, "##epen": 2838, "##ld.": 2839, "##llend": 2840, "neme": 2841, "nemen": 2842, "##rscha": 2843, "##mmer": 2844, "##herm": 2845, "##ogi": 2846, "##schill": 2847, "##erli": 2848, "##escher": 2849, "##vens": 2850, "##litieke": 2851, "##olitieke": 2852, "##rmen": 2853, "##cherm": 2854, "##rtij": 2855, "bui": 2856, "##andi": 2857, "##ita": 2858, "##uist": 2859, "##pra": 2860, "##erscha": 2861, "##kele": 2862, "##ligh": 2863, "kwes": 2864, "kwest": 2865, "kwesti": 2866, "kwestie": 2867, "##drage": 2868, "stell": 2869, "pun": 2870, "##oof": 2871, "punt": 2872, "##erna": 2873, "##gevi": 2874, "##maal": 2875, "##kt.": 2876, "##lighe": 2877, "toek": 2878, "stemm": 2879, "late": 2880, "##etrekki": 2881, "##etrekkin": 2882, "##etrekking": 2883, "##espr": 2884, "##erkt": 2885, "##scherm": 2886, "##nwerk": 2887, "verschil": 2888, "toeg": 2889, "##escherm": 2890, "##rwa": 2891, "enk": 2892, "enke": 2893, "enkel": 2894, "bere": 2895, "rap": 2896, "##dz": 2897, "##geleg": 2898, "heel": 2899, "19": 2900, "##lighei": 2901, "##ligheid": 2902, "##uch": 2903, "##mmin": 2904, "##mming": 2905, "##gevin": 2906, "##geving": 2907, "##root": 2908, "mark": 2909, "politieke": 2910, "geld": 2911, "##ermin": 2912, "##hille": 2913, "##chille": 2914, "##hillen": 2915, "##chillen": 2916, "##schille": 2917, "##schillen": 2918, "##nderh": 2919, "##oven": 2920, "ope": 2921, "##eschi": 2922, "produ": 2923, "rapp": 2924, "rappo": 2925, "rappor": 2926, "rapport": 2927, "##emmi": 2928, "##eru": 2929, "produc": 2930, "##uren": 2931, "##lende": 2932, "overe": 2933, "##dure": 2934, "##temmi": 2935, "##oni": 2936, "##ndh": 2937, "##mische": 2938, "##und": 2939, "betrekki": 2940, "betrekkin": 2941, "betrekking": 2942, "##aam": 2943, "##ntro": 2944, "##ocial": 2945, "##okk": 2946, "inf": 2947, "##rdrag": 2948, "##staat": 2949, "##eenschapp": 2950, "##meenschapp": 2951, "##eenschappe": 2952, "##emeenschapp": 2953, "##meenschappe": 2954, "##emeenschappe": 2955, "##ucht": 2956, "200": 2957, "##nken": 2958, "##erdrag": 2959, "nod": 2960, "##trij": 2961, "##ong": 2962, "##emmin": 2963, "##emming": 2964, "vei": 2965, "##oorg": 2966, "##ruc": 2967, "##ocr": 2968, "veil": 2969, "##zaa": 2970, "##enr": 2971, "##lst": 2972, "veili": 2973, "zw": 2974, "##nu": 2975, "##atuu": 2976, "##vend": 2977, "gron": 2978, "grond": 2979, "##pas": 2980, "##gerin": 2981, "werd": 2982, "uits": 2983, "##ieden": 2984, "##temmin": 2985, "##temming": 2986, "##gering": 2987, "overee": 2988, "overeen": 2989, "##cen": 2990, "##e\u00eb": 2991, "##rouwen": 2992, "##enwer": 2993, "social": 2994, "##zelf": 2995, "##rgers": 2996, "##gang": 2997, "##ici": 2998, "##rschill": 2999, "##erschill": 3000, "##teed": 3001, "##woorde": 3002, "gemeenschapp": 3003, "gemeenschappe": 3004, "##urgers": 3005, "##beel": 3006, "##beeld": 3007, "##evaa": 3008, "##orma": 3009, "nodi": 3010, "nodig": 3011, "stelle": 3012, "##aan.": 3013, "##oeren": 3014, "tra": 3015, "##genom": 3016, "##genome": 3017, "##genomen": 3018, "##evaar": 3019, "##isi": 3020, "stellen": 3021, "##rechten": 3022, "##elk": 3023, "##otin": 3024, "##llinge": 3025, "##llingen": 3026, "##bet": 3027, "##egeri": 3028, "##pporte": 3029, "##prek": 3030, "##3": 3031, "##roti": 3032, "##enste": 3033, "##lege": 3034, "opl": 3035, "##oege": 3036, "##demente": 3037, "##dementen": 3038, "##sme": 3039, "##eren,": 3040, "##enwerk": 3041, "##iser": 3042, "fei": 3043, "##sat": 3044, "##egerin": 3045, "##egering": 3046, "ex": 3047, "cr": 3048, "##menw": 3049, "##tz": 3050, "##oss": 3051, "##twoorde": 3052, "buit": 3053, "##men,": 3054, "##groti": 3055, "##ntwoorde": 3056, "veilig": 3057, "##rotin": 3058, "##oting": 3059, "##grotin": 3060, "##roting": 3061, "##groting": 3062, "##nen.": 3063, "##itv": 3064, "##amel": 3065, "natio": 3066, "nation": 3067, "nationa": 3068, "buite": 3069, "##ikt": 3070, "##apporte": 3071, "buiten": 3072, "##amenw": 3073, "##menwe": 3074, "##vaardi": 3075, "##menwer": 3076, "##ellinge": 3077, "##ellingen": 3078, "##tvo": 3079, "##grijke": 3080, "##ngrijke": 3081, "##amenwe": 3082, "##amenwer": 3083, "##menwerk": 3084, "##amenwerk": 3085, "##edu": 3086, "##ocra": 3087, "##iligh": 3088, "##eiligh": 3089, "##ilighe": 3090, "##eilighe": 3091, "##ilighei": 3092, "##eilighei": 3093, "##iligheid": 3094, "##eiligheid": 3095, "markt": 3096, "##angrijke": 3097, "sit": 3098, "##anv": 3099, "geste": 3100, "ru": 3101, "waard": 3102, "imm": 3103, "##trijd": 3104, "##rik": 3105, "##rschille": 3106, "##erschille": 3107, "##rschillen": 3108, "##erschillen": 3109, "##neer": 3110, "regi": 3111, "laa": 3112, "##8": 3113, "##aarb": 3114, "##ander": 3115, "##meli": 3116, "##egrot": 3117, "##ocrat": 3118, "groo": 3119, "groot": 3120, "situ": 3121, "##oeko": 3122, "##nre": 3123, "##oekom": 3124, "##nzie": 3125, "##atis": 3126, "toeko": 3127, "toekom": 3128, "##tellinge": 3129, "##tellingen": 3130, "##aande": 3131, "situa": 3132, "situat": 3133, "situati": 3134, "situatie": 3135, "##seri": 3136, "##nbe": 3137, "##egroti": 3138, "##egrotin": 3139, "##egroting": 3140, "##\u00ebn": 3141, "##stellinge": 3142, "##stellingen": 3143, "##nstel": 3144, "worden.": 3145, "##houden": 3146, "##reken": 3147, "##effen": 3148, "##vaardig": 3149, "##eek": 3150, "##eau": 3151, "##log": 3152, "##ichte": 3153, "##ndemente": 3154, "##endemente": 3155, "##ndementen": 3156, "##endementen": 3157, "##ezie": 3158, "##rteu": 3159, "##niti": 3160, "##mendemente": 3161, "##mendementen": 3162, "##crati": 3163, "reger": 3164, "##rteur": 3165, "##orteu": 3166, "##porteu": 3167, "##orteur": 3168, "##porteur": 3169, "bez": 3170, "##etro": 3171, "##engen": 3172, "##nfo": 3173, "vl": 3174, "##egeve": 3175, "##rbee": 3176, "##ndaa": 3177, "##spec": 3178, "##moc": 3179, "##evolg": 3180, "regeri": 3181, "regerin": 3182, "regering": 3183, "wete": 3184, "weten": 3185, "##rol": 3186, "##blem": 3187, "##egeven": 3188, "##rbeel": 3189, "##rbeeld": 3190, "##enn": 3191, "##llende": 3192, "##oblem": 3193, "##roblem": 3194, "##emoc": 3195, "##ands": 3196, "##mocr": 3197, "##emocr": 3198, "##ven.": 3199, "##mocra": 3200, "##emocra": 3201, "##fde": 3202, "##rige": 3203, "##oste": 3204, "##orbee": 3205, "##ged": 3206, "##oorbee": 3207, "##orbeel": 3208, "##oorbeel": 3209, "##orbeeld": 3210, "##oorbeeld": 3211, "##andaa": 3212, "##man": 3213, "##ane": 3214, "##dza": 3215, "##pporteu": 3216, "##apporteu": 3217, "##pporteur": 3218, "##apporteur": 3219, "berei": 3220, "##terna": 3221, "##o'": 3222, "vorm": 3223, "##renge": 3224, "amendemente": 3225, "amendementen": 3226, "##erd.": 3227, "##ater": 3228, "##tse": 3229, "##langrijke": 3230, "##elangrijke": 3231, "##mocrat": 3232, "##emocrat": 3233, "##mun": 3234, "##geme": 3235, "##eso": 3236, "##derw": 3237, "##utie": 3238, "rapporte": 3239, "##genh": 3240, "##ordeli": 3241, "##twe": 3242, "ong": 3243, "##slo": 3244, "##oordeli": 3245, "##mid": 3246, "##nger": 3247, "##nzien": 3248, "##erga": 3249, "belangrijke": 3250, "##waard": 3251, "##spa": 3252, "begro": 3253, "##oora": 3254, "##gende": 3255, "##son": 3256, "verschill": 3257, "verschille": 3258, "verschillen": 3259, "##los": 3260, "##pect": 3261, "##ib": 3262, "##nsi": 3263, "pers": 3264, "voora": 3265, "##cie": 3266, "##alen": 3267, "verdr": 3268, "##rnat": 3269, "##ernat": 3270, "##rnati": 3271, "##ernati": 3272, "##eenschappel": 3273, "##meenschappel": 3274, "##eenschappeli": 3275, "##emeenschappel": 3276, "##meenschappeli": 3277, "##eenschappelij": 3278, "##emeenschappeli": 3279, "##meenschappelij": 3280, "##eenschappelijk": 3281, "##emeenschappelij": 3282, "##meenschappelijk": 3283, "##emeenschappelijk": 3284, "##legen": 3285, "##ndie": 3286, "##ternat": 3287, "##anti": 3288, "##ekoms": 3289, "##oekoms": 3290, "##ekomst": 3291, "##oekomst": 3292, "##ternati": 3293, "##gere": 3294, "##rstell": 3295, "burgers": 3296, "##omische": 3297, "##nomische": 3298, "##onomische": 3299, "stee": 3300, "toekoms": 3301, "toekomst": 3302, "##cent": 3303, "##derzo": 3304, "##nderzo": 3305, "##ndien": 3306, "zak": 3307, "gemeenschappel": 3308, "gemeenschappeli": 3309, "gemeenschappelij": 3310, "gemeenschappelijk": 3311, "##conomische": 3312, "##atuur": 3313, "##erel": 3314, "##lut": 3315, "##melij": 3316, "##melijk": 3317, "##nwerki": 3318, "##nwerkin": 3319, "##nwerking": 3320, "geve": 3321, "##zeg": 3322, "##ameli": 3323, "##drij": 3324, "##ced": 3325, "##e-": 3326, "##isa": 3327, "##erhei": 3328, "##erheid": 3329, "goede": 3330, "krij": 3331, "##ehan": 3332, "##erbe": 3333, "##teite": 3334, "##teiten": 3335, "##eslu": 3336, "krijg": 3337, "##eslui": 3338, "##bar": 3339, "##ves": 3340, "##iteite": 3341, "##iteiten": 3342, "##esluit": 3343, "geze": 3344, "lang": 3345, "##reenk": 3346, "##ereenk": 3347, "##vereenk": 3348, "##eld.": 3349, "kad": 3350, "##ps": 3351, "##att": 3352, "##l,": 3353, "bew": 3354, "##telij": 3355, "##telijk": 3356, "##nderw": 3357, "##plo": 3358, "##eet": 3359, "##reenko": 3360, "##ereenko": 3361, "##reenkom": 3362, "##vereenko": 3363, "##ereenkom": 3364, "##vereenkom": 3365, "##erant": 3366, "##id.": 3367, "##eci": 3368, "##dan": 3369, "##01": 3370, "fu": 3371, "##aart": 3372, "onge": 3373, "##ecto": 3374, "##spect": 3375, "##rschap": 3376, "geg": 3377, "elk": 3378, "##ekend": 3379, "rapporteu": 3380, "rapporteur": 3381, "##ezien": 3382, "kade": 3383, "##ichtin": 3384, "##reld": 3385, "##ereld": 3386, "##ban": 3387, "##ndb": 3388, "##ichting": 3389, "dem": 3390, "kader": 3391, "##eede": 3392, "##sati": 3393, "##gani": 3394, "zake": 3395, "##erschap": 3396, "begrot": 3397, "##ica": 3398, "##amelij": 3399, "##amelijk": 3400, "##ector": 3401, "##ukk": 3402, "##satie": 3403, "##rda": 3404, "onderz": 3405, "##nvo": 3406, "##nderd": 3407, "begroti": 3408, "begrotin": 3409, "begroting": 3410, "##oi": 3411, "##itvo": 3412, "su": 3413, "##dru": 3414, "##rgani": 3415, "##dv": 3416, "##ganis": 3417, "##bli": 3418, "##ociale": 3419, "##matie": 3420, "nood": 3421, "##hri": 3422, "##olut": 3423, "wijze": 3424, "##alle": 3425, "laten": 3426, "##les": 3427, "##delijke": 3428, "##rganis": 3429, "dri": 3430, "##rans": 3431, "##terin": 3432, "besche": 3433, "##ontro": 3434, "##ndelin": 3435, "##ndeling": 3436, "##okke": 3437, "feit": 3438, "##elege": 3439, "gevol": 3440, "demo": 3441, "onderzo": 3442, "##nsel": 3443, "gevolg": 3444, "sociale": 3445, "verdra": 3446, "##enb": 3447, "##t-": 3448, "##reenkoms": 3449, "##ereenkoms": 3450, "##reenkomst": 3451, "##vereenkoms": 3452, "##ereenkomst": 3453, "##vereenkomst": 3454, "##ergel": 3455, "##midd": 3456, "begi": 3457, "##rba": 3458, "begin": 3459, "##twer": 3460, "gek": 3461, "##elegen": 3462, "##enla": 3463, "##ehand": 3464, "##rantw": 3465, "##schr": 3466, "##sit": 3467, "##omt": 3468, "##erantw": 3469, "##rantwo": 3470, "##erantwo": 3471, "##rantwoo": 3472, "##erantwoo": 3473, "##rantwoor": 3474, "##erantwoor": 3475, "##rantwoord": 3476, "##erantwoord": 3477, "##natio": 3478, "##nation": 3479, "##fic": 3480, "##nstell": 3481, "##nfor": 3482, "##enwerki": 3483, "##enwerkin": 3484, "##enwerking": 3485, "##nationa": 3486, "zon": 3487, "##20": 3488, "##rstelle": 3489, "##rstellen": 3490, "verdrag": 3491, "##ddele": 3492, "onderw": 3493, "gra": 3494, "##wez": 3495, "beho": 3496, "##menwerki": 3497, "##amenwerki": 3498, "##menwerkin": 3499, "##amenwerkin": 3500, "##menwerking": 3501, "##amenwerking": 3502, "##rande": 3503, "##eid.": 3504, "economische": 3505, "##pli": 3506, "##nform": 3507, "##ddelen": 3508, "groe": 3509, "##trol": 3510, "##zic": 3511, "vro": 3512, "##merk": 3513, "##epaa": 3514, "##ensi": 3515, "##ister": 3516, "lij": 3517, "##erzi": 3518, "##zich": 3519, "##vat": 3520, "samenw": 3521, "##zicht": 3522, "har": 3523, "##ntrol": 3524, "##ontrol": 3525, "##enig": 3526, "##evens": 3527, "were": 3528, "##weede": 3529, "##stre": 3530, "##rso": 3531, "##vest": 3532, "##reff": 3533, "##reffe": 3534, "samenwe": 3535, "samenwer": 3536, "samenwerk": 3537, "##antwoorde": 3538, "zaken": 3539, "##onf": 3540, "##iddele": 3541, "##druk": 3542, "##mens": 3543, "##mmu": 3544, "##zij": 3545, "##olo": 3546, "##slot": 3547, "ach": 3548, "bescher": 3549, "bescherm": 3550, "meni": 3551, "werel": 3552, "wereld": 3553, "##isat": 3554, "tweed": 3555, "##n?": 3556, "##anie": 3557, "acht": 3558, "##eiden": 3559, "##dac": 3560, "##ehee": 3561, "##iddelen": 3562, "##nd.": 3563, "tweede": 3564, "##role": 3565, "##mmun": 3566, "##4": 3567, "stra": 3568, "##andb": 3569, "##see": 3570, "laat": 3571, "##trole": 3572, "mom": 3573, "##ntrole": 3574, "##ontrole": 3575, "##gsp": 3576, "open": 3577, "##uri": 3578, "##nland": 3579, "##erso": 3580, "##enlan": 3581, "##egenh": 3582, "natu": 3583, "##ocrati": 3584, "##teeds": 3585, "steed": 3586, "steeds": 3587, "##edri": 3588, "##derzoe": 3589, "##nderzoe": 3590, "##derzoek": 3591, "##nderzoek": 3592, "##blee": 3593, "##ctu": 3594, "##edur": 3595, "##a's": 3596, "##teer": 3597, "zoud": 3598, "##l.": 3599, "menin": 3600, "mening": 3601, "frac": 3602, "fract": 3603, "fracti": 3604, "fractie": 3605, "zoude": 3606, "zouden": 3607, "##hn": 3608, "##leem": 3609, "##bleem": 3610, "##stee": 3611, "##oblee": 3612, "##roblee": 3613, "##obleem": 3614, "##robleem": 3615, "##jgen": 3616, "##ijgen": 3617, "##edure": 3618, "tijde": 3619, "##mocrati": 3620, "##emocrati": 3621, "##ple": 3622, "weg": 3623, "##bleme": 3624, "##blemen": 3625, "geven": 3626, "##renti": 3627, "##obleme": 3628, "##robleme": 3629, "##oblemen": 3630, "##roblemen": 3631, "##vorm": 3632, "verzo": 3633, "##gio": 3634, "##orit": 3635, "##etgev": 3636, "##rokk": 3637, "##oorge": 3638, "##edrij": 3639, "##ezeg": 3640, "##luti": 3641, "##ernem": 3642, "##oluti": 3643, "##egio": 3644, "##umente": 3645, "##oem": 3646, "##seer": 3647, "lu": 3648, "##paal": 3649, "volk": 3650, "beha": 3651, "beslu": 3652, "beslui": 3653, "besluit": 3654, "##isati": 3655, "##genhe": 3656, "##akel": 3657, "##isatie": 3658, "##enoe": 3659, "##oment": 3660, "fun": 3661, "##ngsp": 3662, "ied": 3663, "iede": 3664, "ieder": 3665, "natuu": 3666, "natuur": 3667, "##rdelij": 3668, "mome": 3669, "momen": 3670, "moment": 3671, "##rdelijk": 3672, "##ika": 3673, "##ione": 3674, "##geva": 3675, "##akk": 3676, "mede": 3677, "##sd": 3678, "##oral": 3679, "##egenhe": 3680, "national": 3681, "##sr": 3682, "##yst": 3683, "problem": 3684, "##url": 3685, "##umenten": 3686, "##itb": 3687, "bren": 3688, "##legenh": 3689, "##legenhe": 3690, "##yste": 3691, "##jks": 3692, "##ijks": 3693, "##rug": 3694, "##reffen": 3695, "##rengen": 3696, "##rentie": 3697, "##arme": 3698, "##rkl": 3699, "##ifi": 3700, "##ga'": 3701, "##ega'": 3702, "##lega'": 3703, "##llega'": 3704, "##ollega'": 3705, "##reni": 3706, "##maak": 3707, "##elegenh": 3708, "##elegenhe": 3709, "##andeli": 3710, "##lise": 3711, "##rwer": 3712, "##rmat": 3713, "##egeli": 3714, "##ereni": 3715, "collega'": 3716, "##rio": 3717, "##erkl": 3718, "houde": 3719, "##renig": 3720, "##erenig": 3721, "##solut": 3722, "##7": 3723, "##jken": 3724, "##nsti": 3725, "inste": 3726, "##ijken": 3727, "##hik": 3728, "##osten": 3729, "##lutie": 3730, "##olutie": 3731, "##chik": 3732, "as": 3733, "##rza": 3734, "##eac": 3735, "waari": 3736, "waarin": 3737, "democ": 3738, "democr": 3739, "##ndu": 3740, "houden": 3741, "democra": 3742, "##lands": 3743, "##uurl": 3744, "onderzoe": 3745, "onderzoek": 3746, "had": 3747, "##chri": 3748, "##midde": 3749, "proc": 3750, "##lgens": 3751, "##olgens": 3752, "namel": 3753, "nameli": 3754, "namelij": 3755, "namelijk": 3756, "##udi": 3757, "##schik": 3758, "##epaal": 3759, "##rijge": 3760, "##nstelli": 3761, "##nstellin": 3762, "##nstelling": 3763, "##par": 3764, "##nsta": 3765, "##erte": 3766, "##ooral": 3767, "vooral": 3768, "##endi": 3769, "democrat": 3770, "##bra": 3771, "##middel": 3772, "breng": 3773, "##toe": 3774, "verant": 3775, "verantw": 3776, "verantwo": 3777, "verantwoo": 3778, "verantwoor": 3779, "verantwoord": 3780, "##ule": 3781, "##tege": 3782, "##rgeli": 3783, "##alit": 3784, "##ommu": 3785, "##ommun": 3786, "##dbo": 3787, "##nsu": 3788, "##uig": 3789, "##terk": 3790, "##tsc": 3791, "##ilit": 3792, "##rtu": 3793, "voort": 3794, "##odz": 3795, "##aarm": 3796, "verst": 3797, "vervo": 3798, "bepaa": 3799, "bepaal": 3800, "##len,": 3801, "proce": 3802, "##dern": 3803, "veiligh": 3804, "veilighe": 3805, "veilighei": 3806, "veiligheid": 3807, "##emin": 3808, "##eco": 3809, "##rgelij": 3810, "##rgelijk": 3811, "red": 3812, "##6": 3813, "##dach": 3814, "##dacht": 3815, "##erba": 3816, "parti": 3817, "##illend": 3818, "##tegen": 3819, "regio": 3820, "##preke": 3821, "##ice": 3822, "##bare": 3823, "##oodz": 3824, "##orstell": 3825, "##oorstell": 3826, "##jkt": 3827, "##ijkt": 3828, "##rla": 3829, "zond": 3830, "##erwer": 3831, "vrag": 3832, "vrage": 3833, "vragen": 3834, "##tering": 3835, "##kaa": 3836, "verder": 3837, "##com": 3838, "hande": 3839, "##allen": 3840, "##ordelij": 3841, "##ergeli": 3842, "##ergelij": 3843, "##ergelijk": 3844, "##odza": 3845, "##oodza": 3846, "##oordelij": 3847, "##ordelijk": 3848, "voorg": 3849, "inv": 3850, "##oordelijk": 3851, "##ndp": 3852, "##rantwoorde": 3853, "##erantwoorde": 3854, "hui": 3855, "dank": 3856, "##eik": 3857, "mani": 3858, "##edin": 3859, "##ndbo": 3860, "##andbo": 3861, "##vang": 3862, "##stru": 3863, "democrati": 3864, "bov": 3865, "##ewo": 3866, "##iat": 3867, "##dbou": 3868, "##tui": 3869, "info": 3870, "##oev": 3871, "gema": 3872, "##orstelle": 3873, "##oorstelle": 3874, "##orstellen": 3875, "##oorstellen": 3876, "##ci\u00ebl": 3877, "##ci\u00eble": 3878, "##bs": 3879, "##tti": 3880, "##ndbou": 3881, "##dbouw": 3882, "##andbou": 3883, "##ndbouw": 3884, "##andbouw": 3885, "product": 3886, "##onden": 3887, "bove": 3888, "boven": 3889, "##sh": 3890, "##eschik": 3891, "##gis": 3892, "##enland": 3893, "problee": 3894, "probleem": 3895, "##zegd": 3896, "##aans": 3897, "##rvoe": 3898, "landb": 3899, "zonde": 3900, "199": 3901, "##andelin": 3902, "##andeling": 3903, "##lech": 3904, "##lecht": 3905, "landbo": 3906, "landbou": 3907, "landbouw": 3908, "##hillend": 3909, "##chillend": 3910, "##schillend": 3911, "##rschillend": 3912, "##erschillend": 3913, "verschillend": 3914, "##nier": 3915, "##rov": 3916, "##ekke": 3917, "##maakt": 3918, "##estr": 3919, "##tit": 3920, "contr": 3921, "##lfs": 3922, "##orw": 3923, "infor": 3924, "inform": 3925, "##esol": 3926, "##tvoe": 3927, "##esolu": 3928, "##oke": 3929, "##chn": 3930, "##lop": 3931, "##oorw": 3932, "zorge": 3933, "##kla": 3934, "##np": 3935, "##eding": 3936, "##volge": 3937, "##bes": 3938, "##ienst": 3939, "##aarme": 3940, "##armee": 3941, "##orite": 3942, "##dpu": 3943, "##dpun": 3944, "##dpunt": 3945, "noodz": 3946, "noodza": 3947, "##nterna": 3948, "##estaan": 3949, "##bu": 3950, "##oritei": 3951, "##oriteit": 3952, "##aarmee": 3953, "##tvoer": 3954, "##atiev": 3955, "zonder": 3956, "##iger": 3957, "##andp": 3958, "##deni": 3959, "alg": 3960, "##dens": 3961, "##paald": 3962, "##epaald": 3963, "##tsch": 3964, "werke": 3965, "vand": 3966, "##truc": 3967, "##ruct": 3968, "##truct": 3969, "##elfs": 3970, "##epas": 3971, "##kelijke": 3972, "interna": 3973, "zorgen": 3974, "##nrec": 3975, "leven": 3976, "##ndse": 3977, "##nrech": 3978, "##nrecht": 3979, "##echn": 3980, "alge": 3981, "##seerd": 3982, "##rnatio": 3983, "##ernatio": 3984, "##rnation": 3985, "##ernation": 3986, "##rnationa": 3987, "##ernationa": 3988, "##ow": 3989, "##iati": 3990, "##hie": 3991, "##aas": 3992, "##rijv": 3993, "##nternat": 3994, "##nternati": 3995, "##ternatio": 3996, "##nternatio": 3997, "##ternation": 3998, "##nternation": 3999, "##ternationa": 4000, "##nternationa": 4001, "vanda": 4002, "##hoo": 4003, "##ezegd": 4004, "##handeli": 4005, "internat": 4006, "vandaa": 4007, "##urli": 4008, "##uurli": 4009, "internati": 4010, "internatio": 4011, "internation": 4012, "internationa": 4013, "##derha": 4014, "##tga": 4015, "##genhei": 4016, "##genheid": 4017, "##tuurl": 4018, "##esolut": 4019, "bepaald": 4020, "##terne": 4021, "##urlij": 4022, "##uurlij": 4023, "##fin": 4024, "##urlijk": 4025, "##uurlijk": 4026, "##okken": 4027, "##tuurli": 4028, "samenwerki": 4029, "samenwerkin": 4030, "samenwerking": 4031, "actie": 4032, "spo": 4033, "##soluti": 4034, "aand": 4035, "##tuurlij": 4036, "##tuurlijk": 4037, "##oeke": 4038, "##esoluti": 4039, "##solutie": 4040, "##esolutie": 4041, "##prak": 4042, "##200": 4043, "##egenhei": 4044, "##egenheid": 4045, "##ndpu": 4046, "##ndpun": 4047, "##ndpunt": 4048, "##nderha": 4049, "##off": 4050, "##enre": 4051, "##legenhei": 4052, "##legenheid": 4053, "##tandp": 4054, "nationale": 4055, "##andpu": 4056, "##andpun": 4057, "##andpunt": 4058, "##ezin": 4059, "au": 4060, "##woordel": 4061, "##woordeli": 4062, "##woordelij": 4063, "##tandpu": 4064, "##tandpun": 4065, "##tandpunt": 4066, "##woordelijk": 4067, "##mig": 4068, "##eper": 4069, "##twoordel": 4070, "##ntwoordel": 4071, "##twoordeli": 4072, "##antwoordel": 4073, "##ntwoordeli": 4074, "##twoordelij": 4075, "##rantwoordel": 4076, "##antwoordeli": 4077, "##ntwoordelij": 4078, "##erantwoordel": 4079, "##rantwoordeli": 4080, "##antwoordelij": 4081, "##erantwoordeli": 4082, "##rantwoordelij": 4083, "##erantwoordelij": 4084, "##illende": 4085, "##keni": 4086, "##twoordelijk": 4087, "##ntwoordelijk": 4088, "##antwoordelijk": 4089, "##rantwoordelijk": 4090, "##erantwoordelijk": 4091, "##id,": 4092, "##elegenhei": 4093, "##elegenheid": 4094, "sle": 4095, "graa": 4096, "aanv": 4097, "##zam": 4098, "vis": 4099, "##ruit": 4100, "fo": 4101, "##handelin": 4102, "##handeling": 4103, "##en?": 4104, "##ivi": 4105, "##iend": 4106, "##tori": 4107, "##rika": 4108, "##trat": 4109, "##fte": 4110, "##hillende": 4111, "##chillende": 4112, "##schillende": 4113, "##rschillende": 4114, "##erschillende": 4115, "verschillende": 4116, "##ehande": 4117, "##ehandel": 4118, "##raf": 4119, "##oken": 4120, "##kinge": 4121, "##kingen": 4122, "##atieve": 4123, "##lv": 4124, "##er.": 4125, "##tik": 4126, "##jn,": 4127, "##ijn,": 4128, "##iere": 4129, "rek": 4130, "##lj": 4131, "probleme": 4132, "problemen": 4133, "##treff": 4134, "##treffe": 4135, "##oced": 4136, "##roced": 4137, "##anier": 4138, "##nkele": 4139, "##sum": 4140, "##rzie": 4141, "##offe": 4142, "##nist": 4143, "##ormen": 4144, "standp": 4145, "##atuurl": 4146, "manie": 4147, "##atuurli": 4148, "##rko": 4149, "manier": 4150, "##tie.": 4151, "##cedu": 4152, "##ocedu": 4153, "##cedur": 4154, "##rocedu": 4155, "##ocedur": 4156, "##cedure": 4157, "##rocedur": 4158, "##ocedure": 4159, "##rocedure": 4160, "standpu": 4161, "standpun": 4162, "standpunt": 4163, "##atuurlij": 4164, "##atuurlijk": 4165, "##atisc": 4166, "##atisch": 4167, "##rmati": 4168, "##a,": 4169, "3": 4170, "##ervoe": 4171, "##inst": 4172, "natuurl": 4173, "natuurli": 4174, "natuurlij": 4175, "natuurlijk": 4176, "##artij": 4177, "voorb": 4178, "reke": 4179, "##ndhe": 4180, "voorstell": 4181, "##itvoe": 4182, "##itvoer": 4183, "reken": 4184, "##n:": 4185, "onderh": 4186, "##sto": 4187, "##ekeni": 4188, "##arbi": 4189, "##akeli": 4190, "##aran": 4191, "##eers": 4192, "##aarbi": 4193, "##omp": 4194, "##spre": 4195, "##cties": 4196, "##ism": 4197, "##rijgen": 4198, "##dw": 4199, "zek": 4200, "zeke": 4201, "zeker": 4202, "uitb": 4203, "verantwoorde": 4204, "##rdigd": 4205, "sn": 4206, "##sli": 4207, "##proc": 4208, "##iatie": 4209, "##rbo": 4210, "is,": 4211, "##ror": 4212, "##tie,": 4213, "##old": 4214, "##oj": 4215, "##ntee": 4216, "enkele": 4217, "##ormat": 4218, "##tuig": 4219, "##ormati": 4220, "##tters": 4221, "##proce": 4222, "voorstelle": 4223, "voorstellen": 4224, "##ordi": 4225, "##zing": 4226, "##oces": 4227, "##roces": 4228, "##eid,": 4229, "verh": 4230, "##ingen.": 4231, "##daan": 4232, "##forma": 4233, "##nci\u00eb": 4234, "##jzi": 4235, "##anci\u00eb": 4236, "##nanci\u00eb": 4237, "##inanci\u00eb": 4238, "##rvoer": 4239, "##oda": 4240, "##rokke": 4241, "sche": 4242, "##ezon": 4243, "veren": 4244, "##hermi": 4245, "##alite": 4246, "vereni": 4247, "verenig": 4248, "##antie": 4249, "##tike": 4250, "##itters": 4251, "##zitters": 4252, "##ijzi": 4253, "ad": 4254, "voorge": 4255, "##format": 4256, "##lar": 4257, "##formati": 4258, "##chermi": 4259, "##hermin": 4260, "##erming": 4261, "##schermi": 4262, "##chermin": 4263, "##herming": 4264, "##schermin": 4265, "##cherming": 4266, "##scherming": 4267, "dis": 4268, "onders": 4269, "##rzitters": 4270, "##orzitters": 4271, "##oorzitters": 4272, "wetg": 4273, "wetge": 4274, "wetgev": 4275, "##edere": 4276, "##erla": 4277, "##fend": 4278, "##zame": 4279, "##nden.": 4280, "##alise": 4281, "ein": 4282, "##nforma": 4283, "##nformat": 4284, "##nformati": 4285, "##anz": 4286, "##rate": 4287, "##ndhei": 4288, "##ndheid": 4289, "##scho": 4290, "##rmatie": 4291, "##ormatie": 4292, "##eschermi": 4293, "##eschermin": 4294, "##escherming": 4295, "eind": 4296, "##tva": 4297, "##ngen,": 4298, "##tgevi": 4299, "##tgevin": 4300, "##tgeving": 4301, "##tbr": 4302, "uw": 4303, "##ante": 4304, "##ezond": 4305, "gezeg": 4306, "##eraa": 4307, "##tred": 4308, "##rake": 4309, "##mmig": 4310, "##lings": 4311, "##alitei": 4312, "##aliteit": 4313, "##rokken": 4314, "gezegd": 4315, "hoop": 4316, "##onsu": 4317, "##arva": 4318, "##uto": 4319, "##erend": 4320, "##sge": 4321, "##tur": 4322, "##aarva": 4323, "##etgevi": 4324, "##etgevin": 4325, "##etgeving": 4326, "##arvan": 4327, "##aarvan": 4328, "##a.": 4329, "rechte": 4330, "##formatie": 4331, "##nza": 4332, "tijden": 4333, "daarv": 4334, "##ilj": 4335, "##emaak": 4336, "graag": 4337, "##trok": 4338, "##rmo": 4339, "##emaakt": 4340, "##arbij": 4341, "##aarbij": 4342, "##nformatie": 4343, "##arden": 4344, "##aring": 4345, "##treffen": 4346, "##perk": 4347, "sne": 4348, "##nisa": 4349, "##iep": 4350, "##nisat": 4351, "perso": 4352, "verzoe": 4353, "##nnin": 4354, "##nning": 4355, "geda": 4356, "ene": 4357, "##achten": 4358, "##ormi": 4359, "verantwoordel": 4360, "verantwoordeli": 4361, "verantwoordelij": 4362, "verantwoordelijk": 4363, "snel": 4364, "jo": 4365, "##volgen": 4366, "##plic": 4367, "##unte": 4368, "woo": 4369, "##vent": 4370, "##daag": 4371, "alt": 4372, "zien": 4373, "##lote": 4374, "##jzen": 4375, "##ijzen": 4376, "##loten": 4377, "##lijv": 4378, "##lede": 4379, "##erme": 4380, "##las": 4381, "##ehou": 4382, "##onds": 4383, "##akelij": 4384, "##vee": 4385, "##eslo": 4386, "##aderi": 4387, "##mie": 4388, "##ehoud": 4389, "##nwo": 4390, "##elst": 4391, "##lijve": 4392, "##itga": 4393, "beter": 4394, "##luite": 4395, "##akelijk": 4396, "scha": 4397, "##chie": 4398, "informa": 4399, "informat": 4400, "informati": 4401, "##onge": 4402, "##oef": 4403, "voorzitters": 4404, "##lijven": 4405, "##get": 4406, "##rove": 4407, "consu": 4408, "##sk": 4409, "##pla": 4410, "rede": 4411, "##iel": 4412, "##digde": 4413, "##/2": 4414, "##nsum": 4415, "##onsum": 4416, "##isme": 4417, "commu": 4418, "commun": 4419, "##aderin": 4420, "##kee": 4421, "##dragen": 4422, "##rander": 4423, "##adering": 4424, "inza": 4425, "behan": 4426, "behand": 4427, "behande": 4428, "behandel": 4429, "##trokk": 4430, "##trokke": 4431, "##trokken": 4432, "krijge": 4433, "fa": 4434, "krijgen": 4435, "##rbet": 4436, "toc": 4437, "##reik": 4438, "toch": 4439, "##ervoer": 4440, "##leden": 4441, "##luiten": 4442, "financi\u00eb": 4443, "##is,": 4444, "##doen": 4445, "bijz": 4446, "zelfs": 4447, "##nisati": 4448, "##nisatie": 4449, "##aut": 4450, "##brei": 4451, "##nva": 4452, "##entr": 4453, "##breid": 4454, "##aarden": 4455, "##eral": 4456, "##ht.": 4457, "jui": 4458, "##cht.": 4459, "##nrechte": 4460, "informatie": 4461, "##iaa": 4462, "##st.": 4463, "##ndaag": 4464, "##jzo": 4465, "##ijzo": 4466, "##jzon": 4467, "##ijzon": 4468, "##emen.": 4469, "##rijve": 4470, "##keer": 4471, "want": 4472, "##an,": 4473, "##national": 4474, "##akke": 4475, "##enrec": 4476, "##gew": 4477, "##jdens": 4478, "##ijdens": 4479, "verm": 4480, "##enrech": 4481, "##enrecht": 4482, "##jzond": 4483, "##ijzond": 4484, "##jzonde": 4485, "##ijzonde": 4486, "##jzonder": 4487, "##ijzonder": 4488, "##alde": 4489, "handel": 4490, "##oerd": 4491, "##nt.": 4492, "##ereik": 4493, "slec": 4494, "slech": 4495, "slecht": 4496, "bijzo": 4497, "bijzon": 4498, "bijzond": 4499, "bijzonde": 4500, "bijzonder": 4501, "gep": 4502, "beste": 4503, "##pass": 4504, "kos": 4505, "vre": 4506, "mon": 4507, "voll": 4508, "volle": 4509, "##stige": 4510, "##aalde": 4511, "tijdens": 4512, "erva": 4513, "genoe": 4514, "##ingsp": 4515, "welk": 4516, "##andaag": 4517, "contro": 4518, "##rtr": 4519, "##bete": 4520, "vandaag": 4521, "##lgem": 4522, "##reden": 4523, "##htig": 4524, "##chtig": 4525, "##erbet": 4526, "##erec": 4527, "##lgeme": 4528, "##;": 4529, "##eming": 4530, "##keu": 4531, "verbe": 4532, "consum": 4533, "brenge": 4534, "brengen": 4535, "overeenk": 4536, "##ffend": 4537, "zod": 4538, "##lti": 4539, "##tscha": 4540, "##slote": 4541, "##sloten": 4542, "##tia": 4543, "##voeg": 4544, "komt": 4545, "overeenko": 4546, "overeenkom": 4547, "##denin": 4548, "##oordi": 4549, "##rev": 4550, "##gd.": 4551, "##eslot": 4552, "##eslote": 4553, "##esloten": 4554, "##unten": 4555, "##rhan": 4556, "##rhand": 4557, "##rbete": 4558, "##erbete": 4559, "bedri": 4560, "##ardigd": 4561, "##aardigd": 4562, "##lema": 4563, "##ecten": 4564, "##beter": 4565, "##effend": 4566, "##atte": 4567, "##rbeter": 4568, "##erbeter": 4569, "##erech": 4570, "##erecht": 4571, "##reffend": 4572, "##ave": 4573, "##gek": 4574, "##iene": 4575, "##olog": 4576, "##ukke": 4577, "gea": 4578, "##logi": 4579, "##rover": 4580, "##rdeni": 4581, "##rdenin": 4582, "##dening": 4583, "##rdening": 4584, "##natie": 4585, "##roke": 4586, "onderha": 4587, "ant": 4588, "verzoek": 4589, "##woordi": 4590, "##tione": 4591, "##digh": 4592, "##dighe": 4593, "##ture": 4594, "##nts": 4595, "algem": 4596, "algeme": 4597, "##keur": 4598, "##evoeg": 4599, "##vaardigd": 4600, "##rijven": 4601, "conf": 4602, "##edo": 4603, "##lste": 4604, "vrou": 4605, "vrouw": 4606, "##etrok": 4607, "##etrokk": 4608, "##etrokke": 4609, "##etrokken": 4610, "bedrij": 4611, "##tbre": 4612, "##ret": 4613, "##ginge": 4614, "##gingen": 4615, "##ormin": 4616, "##orming": 4617, "##dis": 4618, "##roken": 4619, "##enrechte": 4620, "##treffend": 4621, "stat": 4622, "##jds": 4623, "##ijds": 4624, "##rgi": 4625, "##llen.": 4626, "##nrechten": 4627, "##enrechten": 4628, "##nzak": 4629, "verbet": 4630, "verbete": 4631, "##tof": 4632, "##nzake": 4633, "##oeken": 4634, "##cc": 4635, "##ologi": 4636, "##gad": 4637, "verbeter": 4638, "##prake": 4639, "##reidi": 4640, "##reidin": 4641, "##reiding": 4642, "inzak": 4643, "inzake": 4644, "##rzien": 4645, "##kenin": 4646, "##kening": 4647, "##erlij": 4648, "disc": 4649, "##edie": 4650, "##epr": 4651, "##eperk": 4652, "##maat": 4653, "verga": 4654, "##lage": 4655, "##werke": 4656, "control": 4657, "##gade": 4658, "##mij": 4659, "##cat": 4660, "##ossi": 4661, "##reve": 4662, "woor": 4663, "woord": 4664, "controle": 4665, "##haa": 4666, "##ekken": 4667, "instel": 4668, "##lden": 4669, "##vormi": 4670, "##eden.": 4671, "##gader": 4672, "##etek": 4673, "##emer": 4674, "milj": 4675, "##tens": 4676, "##rgad": 4677, "##ergad": 4678, "##rgade": 4679, "##ergade": 4680, "##rgader": 4681, "##ergader": 4682, "##dank": 4683, "rechts": 4684, "##reven": 4685, "##erre": 4686, "beschi": 4687, "##edaa": 4688, "##pelijke": 4689, "##mmen": 4690, "##atst": 4691, "##ded": 4692, "overeenkoms": 4693, "overeenkomst": 4694, "##oorden": 4695, "ord": 4696, "##ikel": 4697, "##ledi": 4698, "##imi": 4699, "instell": 4700, "##kb": 4701, "beschik": 4702, "##aatst": 4703, "##senr": 4704, "##rkel": 4705, "##iken": 4706, "spre": 4707, "##tersc": 4708, "##senre": 4709, "##orl": 4710, "weer": 4711, "##tschap": 4712, "##eteke": 4713, "##eteken": 4714, "##-0": 4715, "##senrec": 4716, "##senrech": 4717, "##senrecht": 4718, "##nigd": 4719, "##ekenin": 4720, "##ekening": 4721, "##nci\u00ebl": 4722, "##anci\u00ebl": 4723, "##nci\u00eble": 4724, "##nanci\u00ebl": 4725, "##anci\u00eble": 4726, "##inanci\u00ebl": 4727, "##nanci\u00eble": 4728, "##inanci\u00eble": 4729, "##td": 4730, "##lfd": 4731, "##plos": 4732, "zijn,": 4733, "ca": 4734, "orde": 4735, "##uctu": 4736, "##sn": 4737, "gezi": 4738, "##bil": 4739, "##nsenr": 4740, "##ensenr": 4741, "##nsenre": 4742, "##ensenre": 4743, "##nsenrec": 4744, "##ensenrec": 4745, "##nsenrech": 4746, "##ensenrech": 4747, "##nsenrecht": 4748, "##ensenrecht": 4749, "##aanse": 4750, "##oudi": 4751, "volgens": 4752, "##lfde": 4753, "##tersch": 4754, "oor": 4755, "toen": 4756, "##ructu": 4757, "##tructu": 4758, "##iem": 4759, "##elste": 4760, "waarde": 4761, "##ewi": 4762, "##\u00f6": 4763, "##tiat": 4764, "##lande": 4765, "achte": 4766, "##terscha": 4767, "##s-": 4768, "##minge": 4769, "##mingen": 4770, "##itia": 4771, "##terschap": 4772, "##tiati": 4773, "uitv": 4774, "##ulp": 4775, "##rum": 4776, "##tiatie": 4777, "##lere": 4778, "##senrechte": 4779, "##nsenrechte": 4780, "##senrechten": 4781, "##ensenrechte": 4782, "##nsenrechten": 4783, "##ensenrechten": 4784, "lei": 4785, "##/20": 4786, "##erhan": 4787, "##erhand": 4788, "##net": 4789, "##ttersc": 4790, "##ittersc": 4791, "##ttersch": 4792, "##zittersc": 4793, "##ittersch": 4794, "##tterscha": 4795, "##rzittersc": 4796, "##zittersch": 4797, "##itterscha": 4798, "##tterschap": 4799, "##orzittersc": 4800, "##rzittersch": 4801, "##zitterscha": 4802, "##itterschap": 4803, "##oorzittersc": 4804, "##orzittersch": 4805, "##rzitterscha": 4806, "##zitterschap": 4807, "##oorzittersch": 4808, "##orzitterscha": 4809, "##rzitterschap": 4810, "##oorzitterscha": 4811, "##orzitterschap": 4812, "##oorzitterschap": 4813, "##en:": 4814, "##ezig": 4815, "##moe": 4816, "##tend": 4817, "##nisc": 4818, "##sume": 4819, "verba": 4820, "##nitia": 4821, "##tuk": 4822, "##itiat": 4823, "##nitiat": 4824, "##nsume": 4825, "##onsume": 4826, "##vormin": 4827, "##vorming": 4828, "##itiati": 4829, "##nitiati": 4830, "##une": 4831, "##rkla": 4832, "##erkla": 4833, "##itiatie": 4834, "##nitiatie": 4835, "##erkel": 4836, "##elen.": 4837, "##elfd": 4838, "##iez": 4839, "mensenr": 4840, "mensenre": 4841, "mensenrec": 4842, "mensenrech": 4843, "mensenrecht": 4844, "##nisch": 4845, "##vea": 4846, "##ppen": 4847, "##erug": 4848, "##elfde": 4849, "##veau": 4850, "##enigd": 4851, "##ivea": 4852, "##iveau": 4853, "##gelijkh": 4854, "##gelijkhe": 4855, "##beu": 4856, "##nstr": 4857, "##inis": 4858, "##beur": 4859, "##elg": 4860, "##oepe": 4861, "##nemi": 4862, "financi\u00ebl": 4863, "financi\u00eble": 4864, "teru": 4865, "terug": 4866, "##rlo": 4867, "voorzittersc": 4868, "voorzittersch": 4869, "voorzitterscha": 4870, "voorzitterschap": 4871, "mensenrechte": 4872, "mensenrechten": 4873, "som": 4874, "##osi": 4875, "##renigd": 4876, "##erenigd": 4877, "##eert": 4878, "##ledig": 4879, "##vu": 4880, "##nemin": 4881, "##neming": 4882, "bestaan": 4883, "##pen.": 4884, "##n-": 4885, "gebe": 4886, "verenigd": 4887, "aut": 4888, "##rmij": 4889, "##ermij": 4890, "##rkeli": 4891, "##erkeli": 4892, "##rkelij": 4893, "##erkelij": 4894, "##rkelijk": 4895, "##erkelijk": 4896, "##%": 4897, "##elings": 4898, "##oeri": 4899, "##ordeni": 4900, "##ordenin": 4901, "##ordening": 4902, "consume": 4903, "##loss": 4904, "##ooi": 4905, "tek": 4906, "indi": 4907, "toege": 4908, "##sumen": 4909, "##nsumen": 4910, "##sument": 4911, "##onsumen": 4912, "##nsument": 4913, "##onsument": 4914, "leid": 4915, "##dus": 4916, "##jker": 4917, "##ijker": 4918, "##mmers": 4919, "##ndern": 4920, "##rdige": 4921, "##rges": 4922, "leg": 4923, "##ustr": 4924, "##jen": 4925, "##ebo": 4926, "##atief": 4927, "##enwo": 4928, "##inist": 4929, "blijv": 4930, "blijve": 4931, "blijven": 4932, "voorbe": 4933, "##kg": 4934, "##rpl": 4935, "consumen": 4936, "consument": 4937, "##pan": 4938, "imme": 4939, "##zelfd": 4940, "##zelfde": 4941, "betek": 4942, "beteke": 4943, "beteken": 4944, "rechten": 4945, "##nkeli": 4946, "juis": 4947, "juist": 4948, "##angs": 4949, "sto": 4950, "##ebeu": 4951, "##ebeur": 4952, "kin": 4953, "gege": 4954, "##rd,": 4955, "##uta": 4956, "##erpl": 4957, "vergad": 4958, "vergade": 4959, "vergader": 4960, "##emme": 4961, "##ient": 4962, "##elke": 4963, "gebeu": 4964, "gebeur": 4965, "betro": 4966, "##ninge": 4967, "##chu": 4968, "##lope": 4969, "##kste": 4970, "##jl": 4971, "immer": 4972, "##ningen": 4973, "##ppelijke": 4974, "##appelijke": 4975, "##happelijke": 4976, "##chappelijke": 4977, "##schappelijke": 4978, "##legd": 4979, "derg": 4980, "derge": 4981, "dergel": 4982, "dergeli": 4983, "dergelij": 4984, "dergelijk": 4985, "##ubl": 4986, "##ffi": 4987, "##schri": 4988, "##ijl": 4989, "oplo": 4990, "##fere": 4991, "##amens": 4992, "##nationale": 4993, "##onen": 4994, "##ja": 4995, "##nkelij": 4996, "##nkelijk": 4997, "sec": 4998, "##lled": 4999, "##asse": 5000, "mag": 5001, "##preken": 5002, "##ploss": 5003, "instelli": 5004, "instellin": 5005, "instelling": 5006, "wetgevi": 5007, "wetgevin": 5008, "wetgeving": 5009, "immers": 5010, "##uni": 5011, "##/200": 5012, "bijv": 5013, "##digen": 5014, "partij": 5015, "##arte": 5016, "##dent": 5017, "gegev": 5018, "gegeve": 5019, "gegeven": 5020, "##ller": 5021, "##ubli": 5022, "##espro": 5023, "##voorb": 5024, "##voorbe": 5025, "##ucti": 5026, "##strij": 5027, "##schie": 5028, "sy": 5029, "##nd,": 5030, "##lein": 5031, "##voorbee": 5032, "##voorbeel": 5033, "##voorbeeld": 5034, "##lm": 5035, "##enta": 5036, "spec": 5037, "##bei": 5038, "##even.": 5039, "##sul": 5040, "##rdo": 5041, "##abi": 5042, "##stit": 5043, "##lopen": 5044, "##rneme": 5045, "##tings": 5046, "##assi": 5047, "##jne": 5048, "##ijne": 5049, "bas": 5050, "net": 5051, "##genw": 5052, "##uidi": 5053, "##eror": 5054, "ken": 5055, "##jvo": 5056, "mini": 5057, "##ags": 5058, "##ijvo": 5059, "hele": 5060, "##ars": 5061, "##ereid": 5062, "##anva": 5063, "art": 5064, "##rdee": 5065, "##efe": 5066, "prog": 5067, "##ertr": 5068, "##env": 5069, "comp": 5070, "##edaan": 5071, "##derne": 5072, "##oeve": 5073, "##jvoo": 5074, "##ijvoo": 5075, "##jvoor": 5076, "##ijvoor": 5077, "##lstel": 5078, "##elstel": 5079, "##lledi": 5080, "##oels": 5081, "##olled": 5082, "##mste": 5083, "##zett": 5084, "##xt": 5085, "##nt,": 5086, "##elegd": 5087, "##ezet": 5088, "##tsl": 5089, "##jvoorb": 5090, "##ijvoorb": 5091, "##jvoorbe": 5092, "##ijvoorbe": 5093, "##jvoorbee": 5094, "##ijvoorbee": 5095, "##jvoorbeel": 5096, "##ijvoorbeel": 5097, "##jvoorbeeld": 5098, "##ijvoorbeeld": 5099, "##uim": 5100, "bijvo": 5101, "##olledi": 5102, "##lledig": 5103, "##olledig": 5104, "bijvoo": 5105, "bijvoor": 5106, "bijvoorb": 5107, "bijvoorbe": 5108, "bijvoorbee": 5109, "bijvoorbeel": 5110, "bijvoorbeeld": 5111, "##egenw": 5112, "##cre": 5113, "##es.": 5114, "##ept": 5115, "##peci": 5116, "##nderi": 5117, "achter": 5118, "##lstell": 5119, "##elstell": 5120, "##lstelli": 5121, "##elstelli": 5122, "##lstellin": 5123, "##elstellin": 5124, "##lstelling": 5125, "##elstelling": 5126, "##dg": 5127, "##gevaa": 5128, "##oru": 5129, "##oelst": 5130, "##oelste": 5131, "##oelstel": 5132, "##oelstell": 5133, "##oelstelli": 5134, "##oelstellin": 5135, "##oelstelling": 5136, "##ondh": 5137, "##serin": 5138, "##sering": 5139, "##rhande": 5140, "cri": 5141, "##erbi": 5142, "ban": 5143, "##nderin": 5144, "stemmi": 5145, "stemmin": 5146, "stemming": 5147, "##ndering": 5148, "##bili": 5149, "##rwerp": 5150, "##ondhe": 5151, "##ondhei": 5152, "##ondheid": 5153, "uiter": 5154, "##erva": 5155, "##rord": 5156, "##erord": 5157, "##disc": 5158, "##gevaar": 5159, "##rorde": 5160, "##erorde": 5161, "##rorden": 5162, "##erorden": 5163, "##zondh": 5164, "##ezondh": 5165, "##zondhe": 5166, "##ezondhe": 5167, "##zondhei": 5168, "##ezondhei": 5169, "##zondheid": 5170, "##ezondheid": 5171, "##rordeni": 5172, "##erordeni": 5173, "##rordenin": 5174, "##erordenin": 5175, "##rordening": 5176, "##erordening": 5177, "##ovend": 5178, "##mde": 5179, "##cl": 5180, "bek": 5181, "##sid": 5182, "middele": 5183, "ree": 5184, "##anisa": 5185, "##anisat": 5186, "##edra": 5187, "##iseri": 5188, "##ganisa": 5189, "##rganisa": 5190, "##ganisat": 5191, "##rganisat": 5192, "##wijz": 5193, "##rein": 5194, "genom": 5195, "oplos": 5196, "kle": 5197, "##iserin": 5198, "##isering": 5199, "org": 5200, "orga": 5201, "##teerd": 5202, "genome": 5203, "##htv": 5204, "##chtv": 5205, "genomen": 5206, "##at.": 5207, "##egri": 5208, "##nspa": 5209, "##\u00e9n": 5210, "##nterne": 5211, "##ordig": 5212, "gemaa": 5213, "##fl": 5214, "namen": 5215, "##delijkh": 5216, "##delijkhe": 5217, "##siti": 5218, "gemaak": 5219, "gemaakt": 5220, "##nwoo": 5221, "##genwo": 5222, "##egenwo": 5223, "middelen": 5224, "##plich": 5225, "##plicht": 5226, "##idig": 5227, "##uidig": 5228, "interne": 5229, "##osit": 5230, "##leve": 5231, "##oegd": 5232, "##ogelijkh": 5233, "##ogelijkhe": 5234, "##nwoor": 5235, "##nwoord": 5236, "##fgev": 5237, "##voerd": 5238, "##urd": 5239, "##waarde": 5240, "##edse": 5241, "volled": 5242, "volledi": 5243, "volledig": 5244, "progr": 5245, "##liser": 5246, "##enwoo": 5247, "##genwoo": 5248, "##enwoor": 5249, "##oordig": 5250, "##egenwoo": 5251, "##genwoor": 5252, "##enwoord": 5253, "##nwoordi": 5254, "##woordig": 5255, "##egenwoor": 5256, "##genwoord": 5257, "##enwoordi": 5258, "##nwoordig": 5259, "##egenwoord": 5260, "##genwoordi": 5261, "##enwoordig": 5262, "##egenwoordi": 5263, "##genwoordig": 5264, "##egenwoordig": 5265, "##sitie": 5266, "oploss": 5267, "##erlijk": 5268, "##rto": 5269, "##ositi": 5270, "##eine": 5271, "##nnee": 5272, "##asi": 5273, "gehe": 5274, "##gevo": 5275, "hoog": 5276, "huid": 5277, "##jdi": 5278, "##ijdi": 5279, "##rdigde": 5280, "##ldo": 5281, "##fel": 5282, "##koo": 5283, "ini": 5284, "init": 5285, "initi": 5286, "##uld": 5287, "##ositie": 5288, "##uctie": 5289, "##oes": 5290, "##strijd": 5291, "##ntel": 5292, "bereik": 5293, "##ntra": 5294, "##redi": 5295, "##tinge": 5296, "##tingen": 5297, "##vl": 5298, "verte": 5299, "initia": 5300, "initiat": 5301, "##fende": 5302, "##rnational": 5303, "##ernational": 5304, "##jo": 5305, "##sve": 5306, "##rsp": 5307, "##rteg": 5308, "##ehoude": 5309, "mind": 5310, "initiati": 5311, "kind": 5312, "initiatie": 5313, "##rea": 5314, "mogen": 5315, "iet": 5316, "##erwerp": 5317, "bepe": 5318, "beper": 5319, "beperk": 5320, "##ternational": 5321, "##nternational": 5322, "##vendi": 5323, "##vert": 5324, "##gisc": 5325, "##gisch": 5326, "minde": 5327, "pos": 5328, "minder": 5329, "##endie": 5330, "##endien": 5331, "##each": 5332, "##beid": 5333, "##rc": 5334, "derd": 5335, "derde": 5336, "##ardigde": 5337, "##aardigde": 5338, "##owe": 5339, "international": 5340, "tec": 5341, "##ofd": 5342, "##eacht": 5343, "##vaardigde": 5344, "tech": 5345, "techn": 5346, "ener": 5347, "aanz": 5348, "##hal": 5349, "##ffende": 5350, "##oofd": 5351, "##anisati": 5352, "##evaard": 5353, "pas": 5354, "sla": 5355, "##ganisati": 5356, "##anisatie": 5357, "##rganisati": 5358, "##gevaard": 5359, "##evaardi": 5360, "##gevaardi": 5361, "##evaardig": 5362, "##gevaardig": 5363, "##evaardigd": 5364, "##gevaardigd": 5365, "##wijs": 5366, "##orga": 5367, "##jnen": 5368, "##ijnen": 5369, "##effende": 5370, "##ganisatie": 5371, "##rganisatie": 5372, "uitvo": 5373, "uitvoe": 5374, "uitvoer": 5375, "##vall": 5376, "##reffende": 5377, "##erhande": 5378, "##nct": 5379, "##gu": 5380, "##jdr": 5381, "##ijdr": 5382, "##ergi": 5383, "huidi": 5384, "huidig": 5385, "##tikel": 5386, "##rtik": 5387, "##rbei": 5388, "##et.": 5389, "##lac": 5390, "##treffende": 5391, "##rtike": 5392, "##rtikel": 5393, "##rbeid": 5394, "##rkg": 5395, "##erkg": 5396, "staan": 5397, "##paalde": 5398, "##epaalde": 5399, "herv": 5400, "##hoe": 5401, "##rve": 5402, "##nau": 5403, "##rze": 5404, "##emt": 5405, "##dge": 5406, "##una": 5407, "##itbr": 5408, "##sluite": 5409, "zoda": 5410, "kwa": 5411, "progra": 5412, "program": 5413, "##rende": 5414, "programm": 5415, "##ana": 5416, "##rtege": 5417, "##rtegen": 5418, "afgev": 5419, "##teem": 5420, "##idige": 5421, "##uidige": 5422, "##dzak": 5423, "##ystee": 5424, "##steem": 5425, "##ysteem": 5426, "##lta": 5427, "moei": 5428, "##anw": 5429, "##iee": 5430, "iets": 5431, "##inat": 5432, "##ateg": 5433, "kor": 5434, "##dzake": 5435, "##ots": 5436, "##pm": 5437, "##kw": 5438, "##erda": 5439, "##derhan": 5440, "##derhand": 5441, "##rhandel": 5442, "##erhandel": 5443, "##rdeel": 5444, "bepaalde": 5445, "##ecti": 5446, "##jdra": 5447, "##ijdra": 5448, "beschermi": 5449, "beschermin": 5450, "bescherming": 5451, "##sluiten": 5452, "##zakel": 5453, "##zakeli": 5454, "##zakelij": 5455, "##zakelijk": 5456, "##vendie": 5457, "##vendien": 5458, "verp": 5459, "uitbr": 5460, "verwe": 5461, "huidige": 5462, "##dzakel": 5463, "##dzakeli": 5464, "##dzakelij": 5465, "##dzakelijk": 5466, "##rnationale": 5467, "##ernationale": 5468, "##ternationale": 5469, "##nternationale": 5470, "##jec": 5471, "##band": 5472, "bovend": 5473, "##ovendi": 5474, "##ovendie": 5475, "##ovendien": 5476, "bovendi": 5477, "bovendie": 5478, "bovendien": 5479, "##rban": 5480, "##tati": 5481, "internationale": 5482, "eni": 5483, "enig": 5484, "namens": 5485, "##nderhan": 5486, "##nderhand": 5487, "ch": 5488, "##hul": 5489, "##esli": 5490, "##voegd": 5491, "speci": 5492, "##biede": 5493, "##evoegd": 5494, "werkg": 5495, "##ichten": 5496, "ef": 5497, "gesc": 5498, "##rus": 5499, "arti": 5500, "##el,": 5501, "ondern": 5502, "##ndus": 5503, "##dust": 5504, "##ndust": 5505, "##dustr": 5506, "##ustri": 5507, "##ndustr": 5508, "##ossin": 5509, "zaa": 5510, "gesch": 5511, "##gels": 5512, "##dustri": 5513, "##ndustri": 5514, "##anen": 5515, "##lemaa": 5516, "##ossing": 5517, "##fgeva": 5518, "##verg": 5519, "eff": 5520, "##ebra": 5521, "##had": 5522, "##arop": 5523, "##rim": 5524, "##ris,": 5525, "##auta": 5526, "##rse": 5527, "##feren": 5528, "##ijen": 5529, "auto": 5530, "##aarop": 5531, "##adi": 5532, "##aven": 5533, "##landen": 5534, "##rakt": 5535, "gere": 5536, "##annee": 5537, "##esu": 5538, "##emaal": 5539, "##erban": 5540, "##evaardigde": 5541, "##gevaardigde": 5542, "##ieren": 5543, "##naut": 5544, "##tap": 5545, "##brac": 5546, "##brach": 5547, "##bracht": 5548, "##entee": 5549, "##inati": 5550, "##sw": 5551, "##ienen": 5552, "##igt": 5553, "##gelo": 5554, "##bod": 5555, "##nmi": 5556, "##fgevaa": 5557, "##fgevaar": 5558, "##fgevaard": 5559, "##fgevaardi": 5560, "##fgevaardig": 5561, "##fgevaardigd": 5562, "##delinge": 5563, "##slis": 5564, "##eslis": 5565, "doels": 5566, "doelst": 5567, "doelste": 5568, "doelstel": 5569, "doelstell": 5570, "doelstelli": 5571, "doelstellin": 5572, "doelstelling": 5573, "##ndelij": 5574, "##ndelijk": 5575, "##jfe": 5576, "##ijfe": 5577, "vaa": 5578, "reden": 5579, "##derhande": 5580, "##nderhande": 5581, "##derhandel": 5582, "##nderhandel": 5583, "##fgevaardigde": 5584, "##5-": 5585, "##kge": 5586, "##gene": 5587, "##tn": 5588, "##lossi": 5589, "##lossin": 5590, "##lossing": 5591, "##ncti": 5592, "gezo": 5593, "##kere": 5594, "##erig": 5595, "##ork": 5596, "##aris,": 5597, "##owel": 5598, "zow": 5599, "##rband": 5600, "##erband": 5601, "artik": 5602, "artike": 5603, "artikel": 5604, "##ebrac": 5605, "##ebrach": 5606, "##ebracht": 5607, "bijd": 5608, "programma": 5609, "##rkee": 5610, "##rkeer": 5611, "bijdr": 5612, "##ibe": 5613, "##ratis": 5614, "verpl": 5615, "bijdra": 5616, "##nteg": 5617, "##edel": 5618, "vrouwe": 5619, "##toff": 5620, "##assen": 5621, "##oldo": 5622, "##gelege": 5623, "##gelegen": 5624, "##toffe": 5625, "##dend": 5626, "##dden": 5627, "dier": 5628, "zowe": 5629, "zowel": 5630, "##derst": 5631, "##jns": 5632, "##ijns": 5633, "##gaderi": 5634, "##rgaderi": 5635, "##gaderin": 5636, "##ergaderi": 5637, "##rgaderin": 5638, "##ergaderin": 5639, "##lagen": 5640, "vinde": 5641, "vinden": 5642, "##kende": 5643, "tran": 5644, "##gadering": 5645, "##rgadering": 5646, "##ergadering": 5647, "##oz": 5648, "##jdrag": 5649, "##ijdrag": 5650, "##jdrage": 5651, "##ijdrage": 5652, "##nderst": 5653, "##plossi": 5654, "##plossin": 5655, "##plossing": 5656, "organ": 5657, "##bieden": 5658, "##rden,": 5659, "##estem": 5660, "##erij": 5661, "##001": 5662, "##saris,": 5663, "##evolge": 5664, "##ndac": 5665, "##valle": 5666, "##ssaris,": 5667, "##issaris,": 5668, "##missaris,": 5669, "##mmissaris,": 5670, "##ommissaris,": 5671, "##ess": 5672, "geac": 5673, "##doo": 5674, "##eloo": 5675, "##rgest": 5676, "##icat": 5677, "##erkee": 5678, "##erkeer": 5679, "##ncie": 5680, "##ink": 5681, "commissaris,": 5682, "##ldoe": 5683, "##lemaal": 5684, "afgeva": 5685, "afgevaa": 5686, "afgevaar": 5687, "afgevaard": 5688, "afgevaardi": 5689, "afgevaardig": 5690, "afgevaardigd": 5691, "##muna": 5692, "##unau": 5693, "##mmuna": 5694, "##munau": 5695, "##unaut": 5696, "##nauta": 5697, "##ommuna": 5698, "##mmunau": 5699, "##munaut": 5700, "##unauta": 5701, "##ommunau": 5702, "##mmunaut": 5703, "##munauta": 5704, "##ommunaut": 5705, "##mmunauta": 5706, "##ommunauta": 5707, "##ingen,": 5708, "rol": 5709, "##andac": 5710, "##ndach": 5711, "##ndacht": 5712, "\u00e9": 5713, "##tera": 5714, "##oldoe": 5715, "##seli": 5716, "##naal": 5717, "##nneer": 5718, "afgevaardigde": 5719, "##verh": 5720, "##ehouden": 5721, "##anneer": 5722, "betrok": 5723, "betrokk": 5724, "betrokke": 5725, "betrokken": 5726, "##isti": 5727, "##ldi": 5728, "##andach": 5729, "##andacht": 5730, "##ttin": 5731, "##tting": 5732, "##rsta": 5733, "aanda": 5734, "aandac": 5735, "aandach": 5736, "aandacht": 5737, "##5-0": 5738, "nee": 5739, "##ject": 5740, "##stra": 5741, "##ussi": 5742, "##odzak": 5743, "##oodzak": 5744, "##odzake": 5745, "##oodzake": 5746, "diens": 5747, "##anken": 5748, "##odzakel": 5749, "##oodzakel": 5750, "##odzakeli": 5751, "##oodzakeli": 5752, "##odzakelij": 5753, "##oodzakelij": 5754, "##odzakelijk": 5755, "##oodzakelijk": 5756, "##nad": 5757, "trans": 5758, "gedaa": 5759, "##asis": 5760, "wann": 5761, "wanne": 5762, "wannee": 5763, "wanneer": 5764, "##trum": 5765, "##ukken": 5766, "##erteg": 5767, "##ertege": 5768, "##ertegen": 5769, "##kko": 5770, "verle": 5771, "##jzig": 5772, "##inse": 5773, "##alin": 5774, "geho": 5775, "##andse": 5776, "pra": 5777, "##ndr": 5778, "##tm": 5779, "##etreff": 5780, "##etreffe": 5781, "##etreffen": 5782, "##ijzig": 5783, "##stuk": 5784, "##itbre": 5785, "##rgeste": 5786, "noodzak": 5787, "noodzake": 5788, "weet": 5789, "##ansp": 5790, "noodzakel": 5791, "noodzakeli": 5792, "noodzakelij": 5793, "noodzakelijk": 5794, "##sprek": 5795, "##utai": 5796, "##utair": 5797, "##arn": 5798, "##landse": 5799, "##drijv": 5800, "##ida": 5801, "##vallen": 5802, "##rgestel": 5803, "##rgesteld": 5804, "##sult": 5805, "##erent": 5806, "##nschappelijke": 5807, "##enschappelijke": 5808, "tre": 5809, "laats": 5810, "laatst": 5811, "##rri": 5812, "##anzi": 5813, "##ilite": 5814, "##emmen": 5815, "##nderne": 5816, "##autai": 5817, "##nautai": 5818, "##autair": 5819, "##unautai": 5820, "##nautair": 5821, "##munautai": 5822, "##unautair": 5823, "##mmunautai": 5824, "##munautair": 5825, "##ommunautai": 5826, "##mmunautair": 5827, "##ommunautair": 5828, "##ria": 5829, "##nige": 5830, "##atste": 5831, "##veri": 5832, "##gspr": 5833, "##gelegenh": 5834, "##gelegenhe": 5835, "##lige": 5836, "##rpli": 5837, "##erpli": 5838, "##rplic": 5839, "##erplic": 5840, "##rplich": 5841, "##erplich": 5842, "##rplicht": 5843, "##erplicht": 5844, "reso": 5845, "uitbre": 5846, "##verd": 5847, "##rale": 5848, "welke": 5849, "##lgend": 5850, "##olgend": 5851, "##aatste": 5852, "##ilitei": 5853, "##iliteit": 5854, "##assin": 5855, "##ancie": 5856, "##dam": 5857, "##iaal": 5858, "##nha": 5859, "##rweg": 5860, "resol": 5861, "bijdrag": 5862, "bijdrage": 5863, "##isee": 5864, "##mit": 5865, "resolu": 5866, "##cratis": 5867, "##rwaa": 5868, "iedere": 5869, "##gee": 5870, "##tegenw": 5871, "##tegenwo": 5872, "##tegenwoo": 5873, "##tegenwoor": 5874, "##tegenwoord": 5875, "##tegenwoordi": 5876, "##tegenwoordig": 5877, "##iseer": 5878, "##rings": 5879, "dienst": 5880, "##pri": 5881, "##rtegenw": 5882, "##ertegenw": 5883, "##rtegenwo": 5884, "##ertegenwo": 5885, "##rtegenwoo": 5886, "##ertegenwoo": 5887, "##rtegenwoor": 5888, "##ertegenwoor": 5889, "##rtegenwoord": 5890, "##ertegenwoord": 5891, "##rtegenwoordi": 5892, "##ertegenwoordi": 5893, "##rtegenwoordig": 5894, "##ertegenwoordig": 5895, "##rwaar": 5896, "##rkom": 5897, "##tho": 5898, "##order": 5899, "##sver": 5900, "##erwa": 5901, "gec": 5902, "##assing": 5903, "##nged": 5904, "##estri": 5905, "##aars": 5906, "##\u00ef": 5907, "##steu": 5908, "##last": 5909, "verban": 5910, "##esul": 5911, "##esult": 5912, "##ulta": 5913, "opm": 5914, "veror": 5915, "verord": 5916, "communa": 5917, "communau": 5918, "communaut": 5919, "communauta": 5920, "verorde": 5921, "verorden": 5922, "tur": 5923, "##steun": 5924, "verordeni": 5925, "verordenin": 5926, "verordening": 5927, "##oepen": 5928, "vrouwen": 5929, "drie": 5930, "##ga's": 5931, "##ega's": 5932, "##lega's": 5933, "##llega's": 5934, "##ollega's": 5935, "rea": 5936, "##gre": 5937, "\u00e9\u00e9": 5938, "\u00e9\u00e9n": 5939, "##aling": 5940, "basi": 5941, "verband": 5942, "##anwe": 5943, "##auw": 5944, "##zijd": 5945, "##aliser": 5946, "sect": 5947, "basis": 5948, "oplossi": 5949, "oplossin": 5950, "oplossing": 5951, "##gebr": 5952, "##lari": 5953, "##orges": 5954, "gevolge": 5955, "##voeri": 5956, "##andig": 5957, "collega's": 5958, "arb": 5959, "##ngev": 5960, "##tges": 5961, "##erbo": 5962, "##stis": 5963, "##lach": 5964, "##anzie": 5965, "secto": 5966, "klei": 5967, "##stisc": 5968, "##stisch": 5969, "##anzien": 5970, "geli": 5971, "sector": 5972, "klein": 5973, "##drijve": 5974, "val": 5975, "##npa": 5976, "##nen,": 5977, "##oorges": 5978, "##drijven": 5979, "##ltij": 5980, "##ltijd": 5981, "##sio": 5982, "antw": 5983, "##cus": 5984, "##ectie": 5985, "vergaderi": 5986, "vergaderin": 5987, "vold": 5988, "verkl": 5989, "##edrag": 5990, "##temme": 5991, "antwo": 5992, "antwoo": 5993, "antwoor": 5994, "antwoord": 5995, "##g-": 5996, "vergadering": 5997, "##atsc": 5998, "##aatsc": 5999, "##verw": 6000, "##rpe": 6001, "##ngspr": 6002, "##gspro": 6003, "##jp": 6004, "##ijp": 6005, "##passi": 6006, "##nlands": 6007, "##enlands": 6008, "##dag": 6009, "mees": 6010, "aanzi": 6011, "##rkge": 6012, "##erkge": 6013, "##atsch": 6014, "##aatsch": 6015, "##atscha": 6016, "##aatscha": 6017, "##atschap": 6018, "##aatschap": 6019, "4": 6020, "##esi": 6021, "##sulta": 6022, "##indere": 6023, "##lichti": 6024, "##passin": 6025, "##passing": 6026, "aanzie": 6027, "##ekst": 6028, "##weze": 6029, "##wezen": 6030, "##gins": 6031, "aanzien": 6032, "resolut": 6033, "##temmen": 6034, "##ingspr": 6035, "communautai": 6036, "communautair": 6037, "##leer": 6038, "miss": 6039, "##bere": 6040, "##verl": 6041, "##nemer": 6042, "##nancie": 6043, "##inancie": 6044, "##dre": 6045, "##es,": 6046, "resoluti": 6047, "resolutie": 6048, "##evoer": 6049, "##nver": 6050, "##derwe": 6051, "##sma": 6052, "##dernem": 6053, "##ndernem": 6054, "##joe": 6055, "##kt,": 6056, "##aags": 6057, "##rgelijke": 6058, "##kent": 6059, "##egins": 6060, "##insel": 6061, "##ld,": 6062, "voorges": 6063, "##jst": 6064, "geach": 6065, "geacht": 6066, "vervoe": 6067, "##ijst": 6068, "##nstellinge": 6069, "##nstellingen": 6070, "kort": 6071, "niv": 6072, "nive": 6073, "##edige": 6074, "##mpe": 6075, "##tiv": 6076, "##ewel": 6077, "##ginse": 6078, "##eginse": 6079, "##ginsel": 6080, "##eginsel": 6081, "arbe": 6082, "##tschapp": 6083, "##pme": 6084, "##ocht": 6085, "laatste": 6086, "arbei": 6087, "arbeid": 6088, "werkge": 6089, "##rgie": 6090, "vertr": 6091, "##urk": 6092, "meest": 6093, "fran": 6094, "nivea": 6095, "niveau": 6096, "##ljo": 6097, "##onee": 6098, "##itst": 6099, "rekeni": 6100, "rekenin": 6101, "rekening": 6102, "##ergelijke": 6103, "##eheer": 6104, "##prok": 6105, "##nerg": 6106, "##aken.": 6107, "##esulta": 6108, "##cati": 6109, "##ngspro": 6110, "##sprok": 6111, "##proke": 6112, "##sproke": 6113, "##proken": 6114, "##sproken": 6115, "##pz": 6116, "##iljo": 6117, "##esprok": 6118, "##esproke": 6119, "##esproken": 6120, "hul": 6121, "##inderen": 6122, "vervoer": 6123, "##inatie": 6124, "##lijker": 6125, "##ljoe": 6126, "mogelijkh": 6127, "mogelijkhe": 6128, "##mijn": 6129, "##joen": 6130, "miljo": 6131, "##iljoe": 6132, "##ljoen": 6133, "##iljoen": 6134, "##kz": 6135, "##ingspro": 6136, "##nische": 6137, "##nsten": 6138, "##ergie": 6139, "##kti": 6140, "##catie": 6141, "gedaan": 6142, "##delijkhei": 6143, "##delijkheid": 6144, "##rvor": 6145, "##lek": 6146, "##ico": 6147, "miljoe": 6148, "miljoen": 6149, "##pmer": 6150, "##pmerk": 6151, "##ervor": 6152, "##rvorm": 6153, "##nle": 6154, "##ervorm": 6155, "dag": 6156, "plan": 6157, "##nstig": 6158, "##stg": 6159, "##wal": 6160, "##taal": 6161, "##ime": 6162, "##urt": 6163, "##ldoen": 6164, "##orui": 6165, "##oruit": 6166, "##amp": 6167, "##anni": 6168, "##oldoen": 6169, "##ooru": 6170, "##oorui": 6171, "##ooruit": 6172, "##eerd.": 6173, "##delingen": 6174, "reed": 6175, "##roj": 6176, "##venti": 6177, "opme": 6178, "opmer": 6179, "opmerk": 6180, "waarv": 6181, "vooru": 6182, "voorui": 6183, "vooruit": 6184, "nad": 6185, "th": 6186, "##oork": 6187, "##atische": 6188, "reeds": 6189, "##ndt": 6190, "lange": 6191, "onderhan": 6192, "onderhand": 6193, "##arvo": 6194, "alti": 6195, "get": 6196, "##achti": 6197, "##lve": 6198, "blijk": 6199, "altij": 6200, "altijd": 6201, "##rson": 6202, "##nvaa": 6203, "##nvaar": 6204, "##aarvo": 6205, "##estrij": 6206, "##erson": 6207, "##arvoo": 6208, "##arvoor": 6209, "##nergi": 6210, "##nergie": 6211, "##lichtin": 6212, "##lichting": 6213, "##etreffend": 6214, "##rnemen": 6215, "##issen": 6216, "##aarvoo": 6217, "##aarvoor": 6218, "##eune": 6219, "##scu": 6220, "##stge": 6221, "##erand": 6222, "##i\u00ebn": 6223, "##zaam": 6224, "##erande": 6225, "##erander": 6226, "##stemm": 6227, "##lka": 6228, "##agst": 6229, "gestel": 6230, "gesteld": 6231, "##prog": 6232, "##urr": 6233, "##etreffende": 6234, "##rlan": 6235, "##nlijke": 6236, "##oepa": 6237, "##oepas": 6238, "kinde": 6239, "kinder": 6240, "##anb": 6241, "##enni": 6242, "##rekke": 6243, "##klar": 6244, "##nomen.": 6245, "##volk": 6246, "hart": 6247, "##-l": 6248, "kost": 6249, "##anvaa": 6250, "##anvaar": 6251, "##evor": 6252, "##ent.": 6253, "##roei": 6254, "verkla": 6255, "##unen": 6256, "organi": 6257, "##eunen": 6258, "##tree": 6259, "##progr": 6260, "##progra": 6261, "##program": 6262, "##ankel": 6263, "##nstru": 6264, "##nvaard": 6265, "toep": 6266, "toepa": 6267, "toepas": 6268, "##programm": 6269, "##anvaard": 6270, "##tali": 6271, "##lacht": 6272, "##erings": 6273, "volgend": 6274, "##aagst": 6275, "##rklar": 6276, "##erklar": 6277, "##mul": 6278, "##msti": 6279, "##ece": 6280, "##dia": 6281, "##obe": 6282, "lig": 6283, "##oeil": 6284, "##reek": 6285, "##itai": 6286, "##rs.": 6287, "##itair": 6288, "##nderwe": 6289, "##lati": 6290, "##geren": 6291, "##tbrei": 6292, "##itbrei": 6293, "##tbreid": 6294, "##itbreid": 6295, "##ewer": 6296, "##kba": 6297, "gewo": 6298, "onderhande": 6299, "onderhandel": 6300, "organis": 6301, "##cce": 6302, "##jh": 6303, "##ijh": 6304, "##wali": 6305, "##ilij": 6306, "##oeili": 6307, "##eilij": 6308, "##ilijk": 6309, "##oeilij": 6310, "##eilijk": 6311, "##oeilijk": 6312, "##iseerd": 6313, "##lechts": 6314, "##teune": 6315, "##teunen": 6316, "##eachte": 6317, "geachte": 6318, "##at,": 6319, "##ebre": 6320, "##rmijn": 6321, "##ermijn": 6322, "verpli": 6323, "verplic": 6324, "verplich": 6325, "verplicht": 6326, "##erige": 6327, "##raan": 6328, "resu": 6329, "voer": 6330, "##omsti": 6331, "##komsti": 6332, "##kse": 6333, "resul": 6334, "result": 6335, "##ducti": 6336, "onderst": 6337, "slechts": 6338, "##nor": 6339, "##ratisc": 6340, "##cratisc": 6341, "##ratisch": 6342, "##cratisch": 6343, "##programma": 6344, "##jft": 6345, "##ijft": 6346, "onderne": 6347, "##enad": 6348, "ervan": 6349, "##mstig": 6350, "##omstig": 6351, "##komstig": 6352, "##lla": 6353, "ext": 6354, "##hol": 6355, "##rlijke": 6356, "##entel": 6357, "onderwe": 6358, "##doel": 6359, "##gelegenhei": 6360, "##gelegenheid": 6361, "zaak": 6362, "id": 6363, "uitbrei": 6364, "uitbreid": 6365, "term": 6366, "##orgest": 6367, "##estrijd": 6368, "##oorgest": 6369, "luc": 6370, "turk": 6371, "##rdin": 6372, "##vul": 6373, "##lles": 6374, "##el.": 6375, "##ngez": 6376, "##loof": 6377, "##ict": 6378, "##spra": 6379, "##uike": 6380, "##tab": 6381, "##epass": 6382, "gelij": 6383, "gelijk": 6384, "dient": 6385, "gre": 6386, "##sle": 6387, "##ssc": 6388, "##rpr": 6389, "##ankeli": 6390, "##ankelij": 6391, "##ankelijk": 6392, "##kri": 6393, "##sen.": 6394, "##derwer": 6395, "##erze": 6396, "##lki": 6397, "##atschapp": 6398, "##aatschapp": 6399, "##elu": 6400, "##ezing": 6401, "##egels": 6402, "##lkin": 6403, "##evoerd": 6404, "verge": 6405, "##ssch": 6406, "##q": 6407, "##etw": 6408, "##sproc": 6409, "##khed": 6410, "##khede": 6411, "##kheden": 6412, "geha": 6413, "##gebi": 6414, "##lange": 6415, "verteg": 6416, "vertege": 6417, "vertegen": 6418, "vertegenw": 6419, "vertegenwo": 6420, "vertegenwoo": 6421, "vertegenwoor": 6422, "vertegenwoord": 6423, "vertegenwoordi": 6424, "vertegenwoordig": 6425, "##sproce": 6426, "##evolk": 6427, "##sies": 6428, "##gebie": 6429, "##gebied": 6430, "##merki": 6431, "##merkin": 6432, "##merking": 6433, "##erden": 6434, "voork": 6435, "voorgest": 6436, "##elden": 6437, "##disch": 6438, "##olki": 6439, "##olkin": 6440, "##ucte": 6441, "##bilit": 6442, "slo": 6443, "##heid.": 6444, "##rdelijkh": 6445, "##rdelijkhe": 6446, "bie": 6447, "##nderwer": 6448, "gesl": 6449, "##edrijv": 6450, "##ducte": 6451, "##ehoe": 6452, "##oducte": 6453, "##roducte": 6454, "##evolgen": 6455, "##nieu": 6456, "##oedi": 6457, "##ordelijkh": 6458, "##oordelijkh": 6459, "##ordelijkhe": 6460, "##woordelijkh": 6461, "##oordelijkhe": 6462, "##twoordelijkh": 6463, "##woordelijkhe": 6464, "##ntwoordelijkh": 6465, "##twoordelijkhe": 6466, "##antwoordelijkh": 6467, "##ntwoordelijkhe": 6468, "##rantwoordelijkh": 6469, "##antwoordelijkhe": 6470, "##erantwoordelijkh": 6471, "##rantwoordelijkhe": 6472, "##erantwoordelijkhe": 6473, "##aarn": 6474, "##lking": 6475, "##oepass": 6476, "##derwerp": 6477, "##nderwerp": 6478, "##orgeste": 6479, "##oorgeste": 6480, "##rho": 6481, "ide": 6482, "##ucten": 6483, "##ducten": 6484, "##oducten": 6485, "##roducten": 6486, "stap": 6487, "voorgeste": 6488, "hervo": 6489, "hervor": 6490, "hervorm": 6491, "##mar": 6492, "##teel": 6493, "##jkhed": 6494, "##ijkhed": 6495, "##jkhede": 6496, "##lijkhed": 6497, "##ijkhede": 6498, "##jkheden": 6499, "##lijkhede": 6500, "##ijkheden": 6501, "##lijkheden": 6502, "##erenti": 6503, "##iscu": 6504, "jar": 6505, "##olking": 6506, "##niste": 6507, "duu": 6508, "duur": 6509, "##orgestel": 6510, "##oorgestel": 6511, "##orgesteld": 6512, "voorgestel": 6513, "##oorgesteld": 6514, "voorgesteld": 6515, "boe": 6516, "##ocratis": 6517, "##door": 6518, "##nere": 6519, "onderwer": 6520, "del": 6521, "##vange": 6522, "toepass": 6523, "##cuss": 6524, "##ute": 6525, "##rdere": 6526, "resulta": 6527, "##tandi": 6528, "##standi": 6529, "##enis": 6530, "##enomen.": 6531, "##asti": 6532, "##tele": 6533, "##legg": 6534, "onderwerp": 6535, "##eind": 6536, "##rschr": 6537, "##qu": 6538, "##raags": 6539, "##raagst": 6540, "##eti": 6541, "##enm": 6542, "betreff": 6543, "betreffe": 6544, "betreffen": 6545, "##cussi": 6546, "##rstr": 6547, "##rs,": 6548, "5": 6549, "##tandig": 6550, "##standig": 6551, "hulp": 6552, "##omen,": 6553, "##scus": 6554, "##iscus": 6555, "##ctiev": 6556, "##venw": 6557, "##bilite": 6558, "##imin": 6559, "dergelijke": 6560, "##vel": 6561, "##scuss": 6562, "##iscuss": 6563, "##scussi": 6564, "##iscussi": 6565, "##orwa": 6566, "##lgende": 6567, "##olgende": 6568, "##rijh": 6569, "##agi": 6570, "##volki": 6571, "##volkin": 6572, "##volking": 6573, "##gdh": 6574, "##gdhe": 6575, "##edrijve": 6576, "##edrijven": 6577, "##oorwa": 6578, "##ex": 6579, "##orwaa": 6580, "##oorwaa": 6581, "##orwaar": 6582, "##oorwaar": 6583, "##gezi": 6584, "##erneme": 6585, "##bilitei": 6586, "##biliteit": 6587, "##ven,": 6588, "##emers": 6589, "##nemers": 6590, "##erse": 6591, "##menl": 6592, "gevolgen": 6593, "##cur": 6594, "##oemd": 6595, "##amenl": 6596, "##odat": 6597, "zodat": 6598, "overh": 6599, "##mocratis": 6600, "##emocratis": 6601, "##nsio": 6602, "##rwaard": 6603, "##etere": 6604, "##xi": 6605, "##too": 6606, "##evolki": 6607, "##evolkin": 6608, "##evolking": 6609, "##eroe": 6610, "##nieuw": 6611, "##oducti": 6612, "##roducti": 6613, "##ventie": 6614, "##veel": 6615, "spra": 6616, "##lb": 6617, "##ific": 6618, "##ebiede": 6619, "##ebieden": 6620, "##noem": 6621, "geleg": 6622, "##sone": 6623, "##ngst": 6624, "##rsone": 6625, "##ersone": 6626, "##rwaarde": 6627, "##erpr": 6628, "##trate": 6629, "stri": 6630, "##vra": 6631, "##pak": 6632, "##roepe": 6633, "ondernem": 6634, "##tar": 6635, "##ensio": 6636, "##sser": 6637, "besli": 6638, "beslis": 6639, "sprak": 6640, "##gstu": 6641, "##tatie": 6642, "##lus": 6643, "##list": 6644, "##bev": 6645, "bied": 6646, "##erho": 6647, "##ft,": 6648, "##oest": 6649, "##derhe": 6650, "##erentie": 6651, "##o's": 6652, "##iniste": 6653, "verantwoordelijkh": 6654, "verantwoordelijkhe": 6655, "##rijp": 6656, "##trie": 6657, "##ngel": 6658, "##urre": 6659, "##erti": 6660, "##vangen": 6661, "##nister": 6662, "##inister": 6663, "##gstuk": 6664, "war": 6665, "##erstr": 6666, "posi": 6667, "posit": 6668, "positi": 6669, "##mentee": 6670, "tev": 6671, "##evall": 6672, "##liss": 6673, "##lte": 6674, "ster": 6675, "terr": 6676, "##aan,": 6677, "##enz": 6678, "##pij": 6679, "##gste": 6680, "kra": 6681, "positie": 6682, "##ductie": 6683, "##blie": 6684, "##anp": 6685, "##ase": 6686, "##avi": 6687, "##ieb": 6688, "##kij": 6689, "voldo": 6690, "sys": 6691, "syst": 6692, "syste": 6693, "##ester": 6694, "wen": 6695, "##aten.": 6696, "##alt": 6697, "##grat": 6698, "##!": 6699, "##ngeno": 6700, "bena": 6701, "##grati": 6702, "begri": 6703, "##rvormi": 6704, "##ervormi": 6705, "##rvormin": 6706, "##ervormin": 6707, "##rvorming": 6708, "##ervorming": 6709, "##spo": 6710, "##geg": 6711, "##gratie": 6712, "zwe": 6713, "##ezel": 6714, "##rtui": 6715, "##agstu": 6716, "##aagstu": 6717, "##agstuk": 6718, "##raagstu": 6719, "##aagstuk": 6720, "##raagstuk": 6721, "stre": 6722, "##eric": 6723, "##liek": 6724, "##edien": 6725, "viss": 6726, "##ewee": 6727, "def": 6728, "bestr": 6729, "##sre": 6730, "##reer": 6731, "##ublie": 6732, "alles": 6733, "luch": 6734, "lucht": 6735, "##adr": 6736, "##temd": 6737, "##bon": 6738, "##spar": 6739, "##pn": 6740, "##icati": 6741, "##oerin": 6742, "ero": 6743, "zet": 6744, "##cee": 6745, "je": 6746, "mac": 6747, "##indel": 6748, "##koor": 6749, "voldoe": 6750, "##erich": 6751, "##ericht": 6752, "##icatie": 6753, "##usi": 6754, "##ma'": 6755, "##ceer": 6756, "moeil": 6757, "moeili": 6758, "moeilij": 6759, "moeilijk": 6760, "##tsp": 6761, "##oorl": 6762, "##ncu": 6763, "##oering": 6764, "uitst": 6765, "##eded": 6766, "##kkoo": 6767, "##kkoor": 6768, "##koord": 6769, "##kkoord": 6770, "##rtuig": 6771, "##orden,": 6772, "##efi": 6773, "##kgel": 6774, "##elaa": 6775, "##zoeke": 6776, "##gelegd": 6777, "##edan": 6778, "##kgele": 6779, "##kgeleg": 6780, "##nba": 6781, "##sliss": 6782, "##esliss": 6783, "soo": 6784, "soor": 6785, "soort": 6786, "##strie": 6787, "##ustrie": 6788, "##dustrie": 6789, "##ndustrie": 6790, "gezon": 6791, "##nam": 6792, "##verig": 6793, "##rnemi": 6794, "##rnemin": 6795, "##rneming": 6796, "##enoem": 6797, "##tvaa": 6798, "##tvaar": 6799, "##istis": 6800, "##voerin": 6801, "##einde": 6802, "##oje": 6803, "##rateg": 6804, "##trateg": 6805, "##istisc": 6806, "##istisch": 6807, "##nui": 6808, "instellinge": 6809, "instellingen": 6810, "##organ": 6811, "##voering": 6812, "##oncu": 6813, "##roje": 6814, "##tegi": 6815, "##ategi": 6816, "##rategi": 6817, "##trategi": 6818, "##cip": 6819, "##breidi": 6820, "##breidin": 6821, "##breiding": 6822, "##rukk": 6823, "##ncur": 6824, "##curr": 6825, "##oncur": 6826, "##ncurr": 6827, "##curre": 6828, "##oncurr": 6829, "##ncurre": 6830, "##oncurre": 6831, "##ctieve": 6832, "gren": 6833, "##dt.": 6834, "ag": 6835, "##klari": 6836, "##larin": 6837, "##klarin": 6838, "##laring": 6839, "##klaring": 6840, "vel": 6841, "##ferent": 6842, "##rklari": 6843, "##erklari": 6844, "##rklarin": 6845, "##erklarin": 6846, "##rklaring": 6847, "##erklaring": 6848, "##et,": 6849, "##bera": 6850, "gezond": 6851, "##ent,": 6852, "##ferenti": 6853, "##wege": 6854, "meded": 6855, "##entra": 6856, "##rijdi": 6857, "##nuit": 6858, "##stin": 6859, "##ntwe": 6860, "##ojec": 6861, "##rojec": 6862, "##oject": 6863, "##roject": 6864, "minis": 6865, "minist": 6866, "ministe": 6867, "minister": 6868, "waarop": 6869, "##issc": 6870, "##issch": 6871, "##efin": 6872, "##anpa": 6873, "##verige": 6874, "##stemd": 6875, "jare": 6876, "jaren": 6877, "##zaak": 6878, "##eld,": 6879, "overi": 6880, "##oos": 6881, "##ertu": 6882, "##de,": 6883, "##meri": 6884, "##derl": 6885, "##ngere": 6886, "##rkgel": 6887, "##erkgel": 6888, "##rkgele": 6889, "##erkgele": 6890, "##rkgeleg": 6891, "##kgelege": 6892, "##erkgeleg": 6893, "##rkgelege": 6894, "##kgelegen": 6895, "##erkgelege": 6896, "##rkgelegen": 6897, "##erkgelegen": 6898, "kon": 6899, "##tbreidi": 6900, "##itbreidi": 6901, "##tbreidin": 6902, "##itbreidin": 6903, "##tbreiding": 6904, "##itbreiding": 6905, "##kgelegenh": 6906, "##rkgelegenh": 6907, "##kgelegenhe": 6908, "##erkgelegenh": 6909, "##rkgelegenhe": 6910, "##kgelegenhei": 6911, "##erkgelegenhe": 6912, "##rkgelegenhei": 6913, "##kgelegenheid": 6914, "##erkgelegenhei": 6915, "##rkgelegenheid": 6916, "##erkgelegenheid": 6917, "sti": 6918, "##otings": 6919, "##rotings": 6920, "##grotings": 6921, "aanp": 6922, "##ndv": 6923, "led": 6924, "##ntwer": 6925, "visse": 6926, "##egrotings": 6927, "##pecte": 6928, "##specte": 6929, "overig": 6930, "inzi": 6931, "##estemd": 6932, "lede": 6933, "overige": 6934, "##tivi": 6935, "##twerp": 6936, "##ntwerp": 6937, "##pal": 6938, "waarb": 6939, "begrotings": 6940, "##-e": 6941, "##slan": 6942, "##edeli": 6943, "##vit": 6944, "##estaat": 6945, "evenw": 6946, "verwa": 6947, "concu": 6948, "##oductie": 6949, "##roductie": 6950, "##ndelinge": 6951, "afs": 6952, "werkgel": 6953, "werkgele": 6954, "werkgeleg": 6955, "werkgelege": 6956, "werkgelegen": 6957, "concur": 6958, "concurr": 6959, "concurre": 6960, "##sst": 6961, "werkgelegenh": 6962, "werkgelegenhe": 6963, "werkgelegenhei": 6964, "werkgelegenheid": 6965, "##rect": 6966, "##isser": 6967, "dra": 6968, "discu": 6969, "leden": 6970, "##gelin": 6971, "##tenl": 6972, "##trou": 6973, "behoe": 6974, "aanb": 6975, "verand": 6976, "verande": 6977, "verander": 6978, "##e\u00ebn": 6979, "##geling": 6980, "##mak": 6981, "##ctiv": 6982, "uitbreidi": 6983, "uitbreidin": 6984, "uitbreiding": 6985, "##orwaard": 6986, "##oorwaard": 6987, "##orwaarde": 6988, "##oorwaarde": 6989, "##geze": 6990, "##omie": 6991, "##leidi": 6992, "##leidin": 6993, "##leiding": 6994, "##ekent": 6995, "##fie": 6996, "##lijf": 6997, "##eig": 6998, "##sschi": 6999, "##ndee": 7000, "##nomie": 7001, "##onomie": 7002, "##indeli": 7003, "aanva": 7004, "##hien": 7005, "##chien": 7006, "##isschi": 7007, "##sschie": 7008, "##schien": 7009, "##isschie": 7010, "##sschien": 7011, "##isschien": 7012, "##tgan": 7013, "##tgang": 7014, "##orig": 7015, "##aat.": 7016, "discus": 7017, "discuss": 7018, "discussi": 7019, "missc": 7020, "missch": 7021, "misschi": 7022, "misschie": 7023, "misschien": 7024, "aanpa": 7025, "##wor": 7026, "##rijf": 7027, "##rekken": 7028, "##rni": 7029, "##eelt": 7030, "##rhandeli": 7031, "##erhandeli": 7032, "##rhandelin": 7033, "##erhandelin": 7034, "##rhandeling": 7035, "##erhandeling": 7036, "##rdoo": 7037, "##eeg": 7038, "bevoe": 7039, "bevoeg": 7040, "bevoegd": 7041, "##jt": 7042, "##vind": 7043, "zwa": 7044, "einde": 7045, "##jhe": 7046, "##ijhe": 7047, "##enha": 7048, "##ienste": 7049, "##kken.": 7050, "geko": 7051, "##ijt": 7052, "##lse": 7053, "##adru": 7054, "benad": 7055, "oog": 7056, "##ncr": 7057, "opz": 7058, "ce": 7059, "##ivit": 7060, "##cri": 7061, "##dels": 7062, "##sie,": 7063, "##nele": 7064, "##trouw": 7065, "hervormi": 7066, "hervormin": 7067, "hervorming": 7068, "##verhe": 7069, "##adruk": 7070, "##nigde": 7071, "##ocratisc": 7072, "##ocratisch": 7073, "##ferentie": 7074, "##evalle": 7075, "##derhandeli": 7076, "##nderhandeli": 7077, "##derhandelin": 7078, "##nderhandelin": 7079, "##derhandeling": 7080, "##nderhandeling": 7081, "##oene": 7082, "##beids": 7083, "##rbeids": 7084, "opn": 7085, "betreffend": 7086, "betreffende": 7087, "##onis": 7088, "##rkte": 7089, "arbeids": 7090, "##hel": 7091, "gelo": 7092, "##rschri": 7093, "##nise": 7094, "##fec": 7095, "top": 7096, "##taand": 7097, "##evallen": 7098, "##fect": 7099, "##ngenom": 7100, "##ngenome": 7101, "##ngenomen": 7102, "##enigde": 7103, "##renigde": 7104, "##erenigde": 7105, "verenigde": 7106, "##nteel": 7107, "##enteel": 7108, "##deld": 7109, "volgende": 7110, "voed": 7111, "##rimi": 7112, "##ben.": 7113, "##bben.": 7114, "##ebben.": 7115, "##ieven": 7116, "##fw": 7117, "##uz": 7118, "##mule": 7119, "scho": 7120, "##bliek": 7121, "##ubliek": 7122, "##indelij": 7123, "##indelijk": 7124, "##rzij": 7125, "##rzijd": 7126, "##sere": 7127, "##ers.": 7128, "##erzij": 7129, "##erzijd": 7130, "##agd": 7131, "##elijker": 7132, "##rimin": 7133, "##fra": 7134, "##heid,": 7135, "hebben.": 7136, "##tore": 7137, "energ": 7138, "##zor": 7139, "##escho": 7140, "##akti": 7141, "##late": 7142, "##itz": 7143, "##egelin": 7144, "##egeling": 7145, "##gn": 7146, "##rakti": 7147, "##vite": 7148, "##vitei": 7149, "##viteit": 7150, "##econ": 7151, "##rdoor": 7152, "verke": 7153, "##oend": 7154, "##mige": 7155, "voord": 7156, "##egt": 7157, "##ivite": 7158, "##ivitei": 7159, "##iviteit": 7160, "##ocu": 7161, "##rijhe": 7162, "##eemt": 7163, "##ppi": 7164, "##mocratisc": 7165, "##emocratisc": 7166, "##mocratisch": 7167, "##emocratisch": 7168, "##fgel": 7169, "##atten": 7170, "##erlan": 7171, "##ussie": 7172, "##seren": 7173, "##ota": 7174, "jon": 7175, "##cussie": 7176, "##gedi": 7177, "##rali": 7178, "##tivit": 7179, "##trijdi": 7180, "gesp": 7181, "##offen": 7182, "##pens": 7183, "##riteite": 7184, "##oriteite": 7185, "##riteiten": 7186, "##oriteiten": 7187, "##zorg": 7188, "##ctivi": 7189, "leide": 7190, "##fh": 7191, "##rwijs": 7192, "##erwijs": 7193, "bestaat": 7194, "sprek": 7195, "spreke": 7196, "##war": 7197, "##scussie": 7198, "##iscussie": 7199, "person": 7200, "somm": 7201, "onv": 7202, "hoof": 7203, "hoofd": 7204, "afgel": 7205, "##eis": 7206, "##epro": 7207, "jur": 7208, "state": 7209, "##ag.": 7210, "##enba": 7211, "##ln": 7212, "##p.": 7213, "##oze": 7214, "##egan": 7215, "democratis": 7216, "overhe": 7217, "##ntele": 7218, "##diend": 7219, "ele": 7220, "energi": 7221, "energie": 7222, "##rt.": 7223, "##wac": 7224, "##itenl": 7225, "##doend": 7226, "##utaire": 7227, "##emb": 7228, "cu": 7229, "persone": 7230, "##astg": 7231, "juri": 7232, "##pte": 7233, "##eenschappelijke": 7234, "##meenschappelijke": 7235, "##emeenschappelijke": 7236, "vastg": 7237, "##astge": 7238, "##soo": 7239, "##dwe": 7240, "##cier": 7241, "vastge": 7242, "##aagd": 7243, "##utor": 7244, "jong": 7245, "##ghed": 7246, "##ghede": 7247, "##gheden": 7248, "##gedie": 7249, "##eloof": 7250, "##cit": 7251, "##tekent": 7252, "##indt": 7253, "##vord": 7254, "##vorde": 7255, "##vorder": 7256, "##rens": 7257, "##ighed": 7258, "##ighede": 7259, "##igheden": 7260, "koste": 7261, "##krij": 7262, "##autaire": 7263, "##nautaire": 7264, "##unautaire": 7265, "##munautaire": 7266, "##mmunautaire": 7267, "##ommunautaire": 7268, "##itsl": 7269, "##uden.": 7270, "##ouden.": 7271, "##menteel": 7272, "##gd,": 7273, "##cum": 7274, "gemeenschappelijke": 7275, "##utori": 7276, "##oende": 7277, "##tivite": 7278, "##tivitei": 7279, "##tiviteit": 7280, "diene": 7281, "dienen": 7282, "##ncre": 7283, "##hav": 7284, "ern": 7285, "##\u00ebr": 7286, "bevol": 7287, "daarb": 7288, "##tim": 7289, "##eure": 7290, "##ft.": 7291, "bevolk": 7292, "##mmige": 7293, "##oncr": 7294, "##oncre": 7295, "##arant": 7296, "##wet": 7297, "##onaa": 7298, "bevolki": 7299, "bevolkin": 7300, "bevolking": 7301, "##nga": 7302, "geco": 7303, "##wach": 7304, "##wacht": 7305, "##kers": 7306, "##sting": 7307, "slot": 7308, "##svo": 7309, "##htva": 7310, "##chtva": 7311, "##htvaa": 7312, "##chtvaa": 7313, "##htvaar": 7314, "##chtvaar": 7315, "##entele": 7316, "##win": 7317, "##gsc": 7318, "##etekent": 7319, "betekent": 7320, "##nden,": 7321, "##kkelij": 7322, "##kkelijk": 7323, "##doende": 7324, "des": 7325, "ware": 7326, "ona": 7327, "vraags": 7328, "vraagst": 7329, "##iets": 7330, "##cume": 7331, "##cumen": 7332, "##telijke": 7333, "##uitenl": 7334, "##rten": 7335, "##gemen": 7336, "##ocum": 7337, "##ocume": 7338, "##ocumen": 7339, "##cument": 7340, "##ocument": 7341, "##rland": 7342, "##comm": 7343, "##ieel": 7344, "##iatief": 7345, "concr": 7346, "concre": 7347, "##ertui": 7348, "##ncier": 7349, "##ancier": 7350, "##sco": 7351, "sommi": 7352, "##ommig": 7353, "sommig": 7354, "##ommige": 7355, "sommige": 7356, "waarom": 7357, "##eroep": 7358, "##pann": 7359, "##edoe": 7360, "##tenla": 7361, "##itenla": 7362, "##tenlan": 7363, "##uitenla": 7364, "##itenlan": 7365, "##tenland": 7366, "##uitenlan": 7367, "##itenland": 7368, "##uitenland": 7369, "##elas": 7370, "##eft,": 7371, "##tiatief": 7372, "##itiatief": 7373, "##nitiatief": 7374, "##ior": 7375, "##nce": 7376, "hog": 7377, "hoge": 7378, "##tic": 7379, "sprake": 7380, "##tant": 7381, "et": 7382, "##toren": 7383, "##torit": 7384, "##utorit": 7385, "buitenl": 7386, "##elast": 7387, "vij": 7388, "##ertuig": 7389, "##aci": 7390, "ontwe": 7391, "##ape": 7392, "enige": 7393, "##nsl": 7394, "##ernemen": 7395, "voldoen": 7396, "##roepen": 7397, "buitenla": 7398, "buitenlan": 7399, "buitenland": 7400, "##conomie": 7401, "##annin": 7402, "##anning": 7403, "##onaal": 7404, "##m,": 7405, "##sy": 7406, "##twerk": 7407, "visser": 7408, "##poo": 7409, "##eini": 7410, "##ionaa": 7411, "##ionaal": 7412, "##alv": 7413, "##ngt": 7414, "##gevoe": 7415, "##luk": 7416, "##rlen": 7417, "ontwer": 7418, "ontwerp": 7419, "kenn": 7420, "##tale": 7421, "##evord": 7422, "##evorde": 7423, "##evorder": 7424, "##ewerk": 7425, "voorw": 7426, "##erlen": 7427, "##sent": 7428, "##onst": 7429, "##taande": 7430, "dru": 7431, "##grijp": 7432, "##mbi": 7433, "##ctivit": 7434, "##mentel": 7435, "##mentele": 7436, "##iori": 7437, "##cret": 7438, "##isten": 7439, "##oeft": 7440, "##zek": 7441, "##zeke": 7442, "##zeker": 7443, "##oeli": 7444, "##epal": 7445, "##zette": 7446, "##itaire": 7447, "##tze": 7448, "##sic": 7449, "##u-": 7450, "##2000": 7451, "##kaar": 7452, "staten": 7453, "stemme": 7454, "##ondi": 7455, "##levi": 7456, "##ellen.": 7457, "stemmen": 7458, "##ekome": 7459, "##ekomen": 7460, "##euren": 7461, "##gden": 7462, "vele": 7463, "##inig": 7464, "##tije": 7465, "##tijen": 7466, "mat": 7467, "##ners": 7468, "##gezie": 7469, "##gezien": 7470, "##nie.": 7471, "##tsta": 7472, "##rtije": 7473, "##artije": 7474, "##rtijen": 7475, "##artijen": 7476, "##torite": 7477, "##utorite": 7478, "##toritei": 7479, "##utoritei": 7480, "##toriteit": 7481, "##utoriteit": 7482, "##selij": 7483, "##elic": 7484, "##rid": 7485, "##selijk": 7486, "##ewij": 7487, "##trede": 7488, "##rns": 7489, "##espe": 7490, "##rif": 7491, "##rijks": 7492, "##orko": 7493, "##orkom": 7494, "##gische": 7495, "##rior": 7496, "##riori": 7497, "##ediend": 7498, "##oorko": 7499, "##oorkom": 7500, "##nho": 7501, "pres": 7502, "##ltu": 7503, "##cratie": 7504, "##zijds": 7505, "##rzijds": 7506, "##erzijds": 7507, "##dk": 7508, "werken": 7509, "##eurd": 7510, "##elop": 7511, "##urs": 7512, "##rpen": 7513, "##rleg": 7514, "##hrij": 7515, "##chrij": 7516, "communautaire": 7517, "##ctivite": 7518, "##ctivitei": 7519, "##ctiviteit": 7520, "##anu": 7521, "gezie": 7522, "gezien": 7523, "##hen": 7524, "ervo": 7525, "ervoo": 7526, "ervoor": 7527, "##erd,": 7528, "##sland": 7529, "##kn": 7530, "##lstellinge": 7531, "##elstellinge": 7532, "##lstellingen": 7533, "##oelstellinge": 7534, "##elstellingen": 7535, "##oelstellingen": 7536, "##abil": 7537, "##iorit": 7538, "##riorit": 7539, "##ultu": 7540, "2000": 7541, "##emde": 7542, "vori": 7543, "vorig": 7544, "##strijdi": 7545, "##noemd": 7546, "##mark": 7547, "##iber": 7548, "##latie": 7549, "##lid": 7550, "##von": 7551, "##nstem": 7552, "##telde": 7553, "##struc": 7554, "##struct": 7555, "##st,": 7556, "vraagstu": 7557, "vraagstuk": 7558, "daarbi": 7559, "wens": 7560, "##pv": 7561, "##erve": 7562, "##iver": 7563, "##htel": 7564, "##chtel": 7565, "##isic": 7566, "voorko": 7567, "voorkom": 7568, "##ensten": 7569, "daarbij": 7570, "##drukk": 7571, "##rstan": 7572, "##epassi": 7573, "##eug": 7574, "##nties": 7575, "##elope": 7576, "##kelings": 7577, "##sico": 7578, "##isico": 7579, "##mog": 7580, "##digi": 7581, "##ieni": 7582, "besp": 7583, "##langen": 7584, "##nancier": 7585, "##inancier": 7586, "##rbr": 7587, "maan": 7588, "##loe": 7589, "##rdelijkhei": 7590, "##rdelijkheid": 7591, "##oepassi": 7592, "##epassin": 7593, "##oepassin": 7594, "##epassing": 7595, "##oepassing": 7596, "##iensten": 7597, "inzie": 7598, "teks": 7599, "tekst": 7600, "##nol": 7601, "sterk": 7602, "##elopen": 7603, "##annen": 7604, "##treden": 7605, "##nfl": 7606, "##rstand": 7607, "##oega": 7608, "vrijh": 7609, "##abili": 7610, "##ers,": 7611, "##ordelijkhei": 7612, "##oordelijkhei": 7613, "##ordelijkheid": 7614, "##woordelijkhei": 7615, "##oordelijkheid": 7616, "##twoordelijkhei": 7617, "##woordelijkheid": 7618, "##ntwoordelijkhei": 7619, "##twoordelijkheid": 7620, "##antwoordelijkhei": 7621, "##ntwoordelijkheid": 7622, "##rantwoordelijkhei": 7623, "##antwoordelijkheid": 7624, "##erantwoordelijkhei": 7625, "##rantwoordelijkheid": 7626, "##erantwoordelijkheid": 7627, "##fici": 7628, "##liseri": 7629, "##liserin": 7630, "##lisering": 7631, "##neren": 7632, "##ni\u00eb": 7633, "##it.": 7634, "##fha": 7635, "##rtoe": 7636, "##slage": 7637, "##slagen": 7638, "toepassi": 7639, "toepassin": 7640, "toepassing": 7641, "##digin": 7642, "##diging": 7643, "##veren": 7644, "##nfe": 7645, "ple": 7646, "maand": 7647, "##roor": 7648, "##uel": 7649, "##traf": 7650, "unie.": 7651, "##daad": 7652, "##o-": 7653, "##sov": 7654, "##nolo": 7655, "##ogie": 7656, "##edank": 7657, "discussie": 7658, "##kkelings": 7659, "##hno": 7660, "##itgan": 7661, "##itgang": 7662, "##appen": 7663, "##ikkelings": 7664, "##wikkelings": 7665, "mor": 7666, "##-p": 7667, "##nolog": 7668, "##tabi": 7669, "##twikkelings": 7670, "##ntwikkelings": 7671, "##chno": 7672, "##echno": 7673, "##poor": 7674, "lijk": 7675, "##atig": 7676, "age": 7677, "##ssie,": 7678, "inzien": 7679, "##fhan": 7680, "##itin": 7681, "##unc": 7682, "##naf": 7683, "##eging": 7684, "##staand": 7685, "overt": 7686, "rui": 7687, "##leine": 7688, "##nologi": 7689, "##eroo": 7690, "aller": 7691, "##logie": 7692, "waarm": 7693, "##leerd": 7694, "gi": 7695, "ontwikkelings": 7696, "prio": 7697, "##menta": 7698, "##ag-": 7699, "##gl": 7700, "##idis": 7701, "##enoemd": 7702, "##ton": 7703, "##derda": 7704, "insp": 7705, "##gsproc": 7706, "##ngsproc": 7707, "##idisc": 7708, "indu": 7709, "##iting": 7710, "gede": 7711, "##rof": 7712, "##gsproce": 7713, "##ngsproce": 7714, "##aast": 7715, "##oegan": 7716, "##tiep": 7717, "indus": 7718, "indust": 7719, "industr": 7720, "eis": 7721, "##ezelf": 7722, "agen": 7723, "##mh": 7724, "harte": 7725, "##enne": 7726, "##jkst": 7727, "##ijkst": 7728, "industri": 7729, "##rf": 7730, "termi": 7731, "##ingsproc": 7732, "##ima": 7733, "##ingsproce": 7734, "##ologie": 7735, "##elijkhed": 7736, "##elijkhede": 7737, "##elijkheden": 7738, "ops": 7739, "##rnst": 7740, "##gelop": 7741, "##gelope": 7742, "##gelopen": 7743, "##ndelingen": 7744, "##ruike": 7745, "##ego": 7746, "##bor": 7747, "##ktij": 7748, "##nderda": 7749, "##stemmi": 7750, "##m.": 7751, "##tstel": 7752, "##ransp": 7753, "##nkr": 7754, "inged": 7755, "##andelinge": 7756, "##andelingen": 7757, "aans": 7758, "##lijks": 7759, "beda": 7760, "democratisc": 7761, "democratisch": 7762, "##vie": 7763, "##hteli": 7764, "##chteli": 7765, "##rer": 7766, "bedrijv": 7767, "wei": 7768, "##telt": 7769, "##appi": 7770, "waarme": 7771, "prior": 7772, "priori": 7773, "##diger": 7774, "stu": 7775, "ak": 7776, "##efen": 7777, "##jfel": 7778, "##ijfel": 7779, "##ibera": 7780, "mate": 7781, "##eurt": 7782, "##ften": 7783, "groei": 7784, "waarmee": 7785, "##ffic": 7786, "##ffec": 7787, "##ffect": 7788, "##lag-": 7789, "##wijf": 7790, "##wijfe": 7791, "##wijfel": 7792, "priorit": 7793, "maak": 7794, "##slag-": 7795, "vaak": 7796, "##hnol": 7797, "##chnol": 7798, "##hnolo": 7799, "##echnol": 7800, "##chnolo": 7801, "##hnolog": 7802, "##echnolo": 7803, "##chnolog": 7804, "##echnolog": 7805, "doc": 7806, "##rslag-": 7807, "##erslag-": 7808, "verslag-": 7809, "gar": 7810, "##vond": 7811, "##ndin": 7812, "##ngew": 7813, "prak": 7814, "prakt": 7815, "prakti": 7816, "##orzie": 7817, "##oorzie": 7818, "##arov": 7819, "##rrei": 7820, "##des": 7821, "verkee": 7822, "verkeer": 7823, "##nstan": 7824, "verantwoordelijkhei": 7825, "verantwoordelijkheid": 7826, "##enlijke": 7827, "ris": 7828, "##hnologi": 7829, "##chnologi": 7830, "##echnologi": 7831, "bestri": 7832, "bestrij": 7833, "##organi": 7834, "##organis": 7835, "##cite": 7836, "##oit": 7837, "##igden": 7838, "##tellen.": 7839, "##unct": 7840, "##eike": 7841, "##para": 7842, "##gedien": 7843, "##gediend": 7844, "##eroor": 7845, "erns": 7846, "ernst": 7847, "##brek": 7848, "##vern": 7849, "##riti": 7850, "##urid": 7851, "##ridi": 7852, "##uridi": 7853, "##ralis": 7854, "##jk.": 7855, "##ijk.": 7856, "##\u00ebnt": 7857, "##issie,": 7858, "bevor": 7859, "bevord": 7860, "bevorde": 7861, "bevorder": 7862, "##edoel": 7863, "##ridis": 7864, "##uridis": 7865, "##ridisc": 7866, "##idisch": 7867, "##uridisc": 7868, "##ridisch": 7869, "##uridisch": 7870, "##ffici": 7871, "##gal": 7872, "##won": 7873, "##ezelfd": 7874, "##ezelfde": 7875, "##igr": 7876, "gebra": 7877, "verbo": 7878, "##missie,": 7879, "##tne": 7880, "##rren": 7881, "tel": 7882, "##pele": 7883, "##fv": 7884, "##eiken": 7885, "bedrijve": 7886, "bedrijven": 7887, "##hikk": 7888, "##chikk": 7889, "krac": 7890, "krach": 7891, "kracht": 7892, "lib": 7893, "onderhandeli": 7894, "onderhandelin": 7895, "onderhandeling": 7896, "##tve": 7897, "jurid": 7898, "juridi": 7899, "juridis": 7900, "juridisc": 7901, "juridisch": 7902, "##ment.": 7903, "vijf": 7904, "##mmissie,": 7905, "##ommissie,": 7906, "##eerder": 7907, "##rkome": 7908, "financie": 7909, "verste": 7910, "##ldig": 7911, "##stemmin": 7912, "##stemming": 7913, "opt": 7914, "##eerst": 7915, "##nwi": 7916, "amb": 7917, "##ngedi": 7918, "##ienin": 7919, "##iening": 7920, "##init": 7921, "##onfe": 7922, "##ceerd": 7923, "##bruike": 7924, "proced": 7925, "##wees": 7926, "##beg": 7927, "taa": 7928, "##rad": 7929, "overg": 7930, "bezi": 7931, "##pmerki": 7932, "##pmerkin": 7933, "##pmerking": 7934, "##aarov": 7935, "##arove": 7936, "##aarove": 7937, "##arover": 7938, "##aarover": 7939, "##eits": 7940, "##ngedie": 7941, "##inc": 7942, "##errei": 7943, "toega": 7944, "##lijkt": 7945, "##eden,": 7946, "procedu": 7947, "procedur": 7948, "procedure": 7949, "ingedi": 7950, "##ngedien": 7951, "##ngediend": 7952, "##gemee": 7953, "##norm": 7954, "##uler": 7955, "partije": 7956, "partijen": 7957, "dele": 7958, "ingedie": 7959, "ingedien": 7960, "ingediend": 7961, "##d-": 7962, "##jkste": 7963, "##ijkste": 7964, "##rkomen": 7965, "gevoe": 7966, "gebrac": 7967, "gebrach": 7968, "gebracht": 7969, "initiatief": 7970, "##epl": 7971, "organisa": 7972, "organisat": 7973, "##tekend": 7974, "##nkri": 7975, "voorwa": 7976, "voorwaa": 7977, "voorwaar": 7978, "##ciaa": 7979, "##ciaal": 7980, "##bur": 7981, "aanw": 7982, "##teits": 7983, "##iteits": 7984, "##\u00efn": 7985, "##dit": 7986, "##schikk": 7987, "##nstemm": 7988, "##beral": 7989, "##iberal": 7990, "##urz": 7991, "vorme": 7992, "##ctuu": 7993, "##ctuur": 7994, "##staande": 7995, "deg": 7996, "##issin": 7997, "##issing": 7998, "daarva": 7999, "##i\u00ebnt": 8000, "##jdin": 8001, "##ijdin": 8002, "##jding": 8003, "##ijding": 8004, "##dende": 8005, "bedan": 8006, "bedank": 8007, "opmerki": 8008, "opmerkin": 8009, "opmerking": 8010, "vormen": 8011, "daarvan": 8012, "daarm": 8013, "daarme": 8014, "##estu": 8015, "verze": 8016, "##uele": 8017, "daarmee": 8018, "##stische": 8019, "##alve": 8020, "##kan": 8021, "##iz": 8022, "toegan": 8023, "##uige": 8024, "##ift": 8025, "##wijl": 8026, "asp": 8027, "##sts": 8028, "##estig": 8029, "##enke": 8030, "##rrein": 8031, "##errein": 8032, "termij": 8033, "termijn": 8034, "##evel": 8035, "##isen": 8036, "voere": 8037, "voeren": 8038, "##prod": 8039, "##imu": 8040, "behe": 8041, "waren": 8042, "##teld.": 8043, "##usie": 8044, "##ngsc": 8045, "nau": 8046, "##erni": 8047, "nauw": 8048, "##risi": 8049, "##itste": 8050, "dege": 8051, "##e\u00ef": 8052, "##lks": 8053, "##inci": 8054, "bestrijd": 8055, "bedo": 8056, "kleine": 8057, "##mv": 8058, "ab": 8059, "##reike": 8060, "##reiken": 8061, "##uder": 8062, "strat": 8063, "strate": 8064, "##sterk": 8065, "##t:": 8066, "##ewoo": 8067, "##wic": 8068, "##oen.": 8069, "##chad": 8070, "##ctief": 8071, "##wich": 8072, "##wicht": 8073, "##robe": 8074, "##ardo": 8075, "##nes": 8076, "##dings": 8077, "##dert": 8078, "cul": 8079, "##handelinge": 8080, "##handelingen": 8081, "##haal": 8082, "##evee": 8083, "##ppij": 8084, "##deren.": 8085, "##nfer": 8086, "ruim": 8087, "##luc": 8088, "stru": 8089, "##tba": 8090, "##rigen": 8091, "zett": 8092, "zette": 8093, "##deree": 8094, "##idelijke": 8095, "##onfer": 8096, "##nfere": 8097, "##onfere": 8098, "##nferen": 8099, "##onferen": 8100, "##ubs": 8101, "kindere": 8102, "kinderen": 8103, "##ederee": 8104, "doelstellinge": 8105, "doelstellingen": 8106, "##unda": 8107, "##aliseri": 8108, "##aliserin": 8109, "##alisering": 8110, "##riek": 8111, "verklar": 8112, "##nding": 8113, "##produ": 8114, "##produc": 8115, "##rijdin": 8116, "##rijding": 8117, "##mbe": 8118, "##nali": 8119, "##strum": 8120, "##ht,": 8121, "zit": 8122, "regels": 8123, "##erende": 8124, "##verk": 8125, "risi": 8126, "risic": 8127, "##moge": 8128, "spel": 8129, "##igra": 8130, "##ereike": 8131, "##ereiken": 8132, "##dereen": 8133, "##edereen": 8134, "##mon": 8135, "strateg": 8136, "##hij": 8137, "##enda": 8138, "##ieri": 8139, "erg": 8140, "erk": 8141, "for": 8142, "##nstrum": 8143, "risico": 8144, "strategi": 8145, "##rster": 8146, "##clu": 8147, "cult": 8148, "erke": 8149, "erken": 8150, "##rtro": 8151, "##rume": 8152, "##trume": 8153, "##rumen": 8154, "##strume": 8155, "##trumen": 8156, "##rument": 8157, "##nstrume": 8158, "##strumen": 8159, "##trument": 8160, "##nstrumen": 8161, "##strument": 8162, "##nstrument": 8163, "##agin": 8164, "gehou": 8165, "##\u00f6r": 8166, "steune": 8167, "steunen": 8168, "##chul": 8169, "##nferent": 8170, "##onferent": 8171, "##nferenti": 8172, "##onferenti": 8173, "##nferentie": 8174, "##onferentie": 8175, "##uce": 8176, "##erland": 8177, "##dve": 8178, "##igens": 8179, "##itse": 8180, "gehoud": 8181, "gehoude": 8182, "gehouden": 8183, "##ssel": 8184, "##noeg": 8185, "##einig": 8186, "##cht,": 8187, "##stek": 8188, "##rije": 8189, "zetten": 8190, "##hten.": 8191, "##chten.": 8192, "##erster": 8193, "##chij": 8194, "##ordee": 8195, "##nkrij": 8196, "##ket": 8197, "##enoeg": 8198, "##geke": 8199, "cultu": 8200, "##ertro": 8201, "##gezet": 8202, "##evere": 8203, "##ingsc": 8204, "##-a": 8205, "besliss": 8206, "bedoe": 8207, "iederee": 8208, "iedereen": 8209, "##matig": 8210, "##gemeen": 8211, "##hijn": 8212, "##chijn": 8213, "##cif": 8214, "bedoel": 8215, "##onel": 8216, "akk": 8217, "##ldoend": 8218, "##ldoende": 8219, "##happi": 8220, "##appij": 8221, "##chappi": 8222, "##happij": 8223, "##schappi": 8224, "##chappij": 8225, "##schappij": 8226, "##mina": 8227, "##ewa": 8228, "##cifi": 8229, "##stant": 8230, "##chen": 8231, "##oldoend": 8232, "##oldoende": 8233, "##rrent": 8234, "##proces": 8235, "##urren": 8236, "##urrent": 8237, "##teraa": 8238, "##ersta": 8239, "arm": 8240, "##curren": 8241, "##ncurren": 8242, "##current": 8243, "##oncurren": 8244, "##ncurrent": 8245, "##oncurrent": 8246, "##else": 8247, "##uncti": 8248, "##ordeel": 8249, "uitste": 8250, "##krijk": 8251, "vred": 8252, "##sz": 8253, "##derhei": 8254, "##derheid": 8255, "vrede": 8256, "##uurz": 8257, "veroo": 8258, "veroor": 8259, "##nhan": 8260, "gewee": 8261, "##rsterk": 8262, "##ersterk": 8263, "##steld.": 8264, "##nkrijk": 8265, "##urza": 8266, "##uurza": 8267, "tere": 8268, "##huld": 8269, "##tegr": 8270, "##eln": 8271, "kant": 8272, "##drijf": 8273, "##egelij": 8274, "##egelijk": 8275, "via": 8276, "##luch": 8277, "##zoeken": 8278, "##ntegr": 8279, "##duce": 8280, "##tenlands": 8281, "##itenlands": 8282, "##uitenlands": 8283, "##enken": 8284, "##nhou": 8285, "##lucht": 8286, "##wens": 8287, "##ebruike": 8288, "##hni": 8289, "##gat": 8290, "terec": 8291, "terech": 8292, "terecht": 8293, "##sumente": 8294, "##nsumente": 8295, "##sumenten": 8296, "##onsumente": 8297, "##nsumenten": 8298, "##onsumenten": 8299, "##nhoud": 8300, "##ament": 8301, "punte": 8302, "punten": 8303, "##pres": 8304, "##rzoeke": 8305, "##iod": 8306, "##tschappi": 8307, "##atschappi": 8308, "##tschappij": 8309, "##aatschappi": 8310, "##atschappij": 8311, "##aatschappij": 8312, "strij": 8313, "##ident": 8314, "aspe": 8315, "##elp": 8316, "##erzoeke": 8317, "##ala": 8318, "erop": 8319, "##tver": 8320, "##astin": 8321, "##asting": 8322, "##ndam": 8323, "wijzi": 8324, "##span": 8325, "##sec": 8326, "##ment,": 8327, "##ratische": 8328, "##cratische": 8329, "organisati": 8330, "consumente": 8331, "consumenten": 8332, "belas": 8333, "belast": 8334, "##rete": 8335, "niets": 8336, "##elange": 8337, "##keren": 8338, "##chni": 8339, "##echni": 8340, "##999": 8341, "organisatie": 8342, "##digden": 8343, "##omit": 8344, "##ener": 8345, "##tk": 8346, "elka": 8347, "gara": 8348, "##erik": 8349, "##ziens": 8350, "##nziens": 8351, "inziens": 8352, "aangen": 8353, "buitenlands": 8354, "##uikt": 8355, "concurren": 8356, "concurrent": 8357, "##rwijl": 8358, "##erwijl": 8359, "##en-": 8360, "##ront": 8361, "##mma'": 8362, "##uut": 8363, "##onele": 8364, "##ocratie": 8365, "vrijhe": 8366, "strijd": 8367, "wijzig": 8368, "##dinge": 8369, "##dingen": 8370, "aspec": 8371, "aspect": 8372, "##lkaa": 8373, "##swa": 8374, "##ioe": 8375, "##lkaar": 8376, "gezondh": 8377, "gezondhe": 8378, "gezondhei": 8379, "gezondheid": 8380, "bero": 8381, "verster": 8382, "versterk": 8383, "##egie": 8384, "##sbel": 8385, "##kene": 8386, "##rwac": 8387, "##erwac": 8388, "##rwach": 8389, "##erwach": 8390, "##rwacht": 8391, "##erwacht": 8392, "##beh": 8393, "##zieni": 8394, "##rzieni": 8395, "##zienin": 8396, "##rzienin": 8397, "##ziening": 8398, "##rziening": 8399, "##ndele": 8400, "##elangen": 8401, "##ioen": 8402, "elkaa": 8403, "elkaar": 8404, "##amma'": 8405, "##ramma'": 8406, "##gramma'": 8407, "##ogramma'": 8408, "##rogramma'": 8409, "oms": 8410, "##ecif": 8411, "transp": 8412, "##tgest": 8413, "##rdigden": 8414, "duurz": 8415, "duurza": 8416, "##rstre": 8417, "##erstre": 8418, "##tten.": 8419, "##titu": 8420, "oos": 8421, "oost": 8422, "##pecif": 8423, "##ecifi": 8424, "##pecifi": 8425, "##mocratie": 8426, "##emocratie": 8427, "libe": 8428, "liber": 8429, "##deringe": 8430, "##deringen": 8431, "##ndelen": 8432, "##dame": 8433, "##undam": 8434, "##ndame": 8435, "##damen": 8436, "##undame": 8437, "##ndamen": 8438, "##dament": 8439, "##undamen": 8440, "##ndament": 8441, "##undament": 8442, "##mene": 8443, "##erika": 8444, "##dba": 8445, "##weest": 8446, "##etal": 8447, "##fgelo": 8448, "afgelo": 8449, "wie": 8450, "struc": 8451, "struct": 8452, "structu": 8453, "##ekr": 8454, "##uigen": 8455, "##ardigden": 8456, "##aardigden": 8457, "##vaardigden": 8458, "##ewees": 8459, "##fgelop": 8460, "afgelop": 8461, "##fgelope": 8462, "afgelope": 8463, "##fgelopen": 8464, "afgelopen": 8465, "##dighed": 8466, "##dighede": 8467, "##digheden": 8468, "##derste": 8469, "##proced": 8470, "##procedu": 8471, "##procedur": 8472, "##procedure": 8473, "##orkome": 8474, "##orkomen": 8475, "cen": 8476, "##eweest": 8477, "gelu": 8478, "##tieven": 8479, "##nderste": 8480, "##evaardigden": 8481, "##gevaardigden": 8482, "##fgevaardigden": 8483, "##oorkome": 8484, "##oorkomen": 8485, "##eled": 8486, "fund": 8487, "mu": 8488, "zin": 8489, "##atie.": 8490, "##eschikk": 8491, "proces": 8492, "gewees": 8493, "geweest": 8494, "kwal": 8495, "##iorite": 8496, "##riorite": 8497, "##end.": 8498, "##ruikt": 8499, "##bruikt": 8500, "##spreke": 8501, "##kne": 8502, "##kbaa": 8503, "##kbaar": 8504, "##ott": 8505, "##angeno": 8506, "##rkn": 8507, "##euz": 8508, "##ioritei": 8509, "##rioritei": 8510, "##ioriteit": 8511, "##rioriteit": 8512, "##stitu": 8513, "insta": 8514, "kwali": 8515, "##neel": 8516, "##merik": 8517, "##merika": 8518, "##hank": 8519, "##fhank": 8520, "##hanke": 8521, "##fhanke": 8522, "##hankel": 8523, "##fhankel": 8524, "##hankeli": 8525, "##fhankeli": 8526, "##hankelij": 8527, "##fhankelij": 8528, "##hankelijk": 8529, "##fhankelijk": 8530, "##olks": 8531, "##erkn": 8532, "##egaa": 8533, "##stere": 8534, "##rnsti": 8535, "##rnstig": 8536, "##esteld.": 8537, "aangeno": 8538, "##angenom": 8539, "aangenom": 8540, "##angenome": 8541, "aangenome": 8542, "##angenomen": 8543, "aangenomen": 8544, "##dische": 8545, "ou": 8546, "onts": 8547, "##erbr": 8548, "##eal": 8549, "voorkome": 8550, "voorkomen": 8551, "volks": 8552, "##reu": 8553, "##chuld": 8554, "##kenen": 8555, "garan": 8556, "##aden": 8557, "bezo": 8558, "commissie,": 8559, "##dell": 8560, "##uitg": 8561, "##nlandse": 8562, "##enlandse": 8563, "neem": 8564, "##derwi": 8565, "##nderwi": 8566, "##derwij": 8567, "##nderwij": 8568, "##tegie": 8569, "##ategie": 8570, "##rategie": 8571, "##trategie": 8572, "funda": 8573, "fundam": 8574, "fundame": 8575, "fundamen": 8576, "fundament": 8577, "##fini": 8578, "##rhandelinge": 8579, "##erhandelinge": 8580, "##rhandelingen": 8581, "##erhandelingen": 8582, "gebo": 8583, "##udin": 8584, "##derhandelinge": 8585, "##nderhandelinge": 8586, "##derhandelingen": 8587, "##nderhandelingen": 8588, "##rkne": 8589, "##uze": 8590, "##bin": 8591, "##oudin": 8592, "##gheids": 8593, "##penb": 8594, "ernsti": 8595, "ernstig": 8596, "komen.": 8597, "akko": 8598, "akkoo": 8599, "akkoor": 8600, "akkoord": 8601, "##oeds": 8602, "##lasti": 8603, "##erkne": 8604, "##tbe": 8605, "##leren": 8606, "proj": 8607, "proje": 8608, "projec": 8609, "project": 8610, "##uding": 8611, "##igheids": 8612, "##ernemi": 8613, "##ernemin": 8614, "##erneming": 8615, "##ncip": 8616, "##efini": 8617, "##raak": 8618, "##erigen": 8619, "##verigen": 8620, "overigen": 8621, "##ogis": 8622, "##uctuu": 8623, "##ructuu": 8624, "##uctuur": 8625, "##tructuu": 8626, "##ructuur": 8627, "##tructuur": 8628, "##woon": 8629, "docu": 8630, "docum": 8631, "docume": 8632, "documen": 8633, "document": 8634, "##eurs": 8635, "##sie.": 8636, "##ouding": 8637, "##walit": 8638, "##met": 8639, "##penba": 8640, "##spann": 8641, "##rigens": 8642, "##erigens": 8643, "##verigens": 8644, "overigens": 8645, "##erzie": 8646, "##isere": 8647, "##iseren": 8648, "worden,": 8649, "##trijdin": 8650, "##estrijdi": 8651, "##strijdin": 8652, "##trijding": 8653, "##estrijdin": 8654, "##strijding": 8655, "##estrijding": 8656, "beta": 8657, "werkel": 8658, "##onn": 8659, "##rinc": 8660, "##teren.": 8661, "uu": 8662, "##stelde": 8663, "democratie": 8664, "##dernemi": 8665, "##ndernemi": 8666, "##dernemin": 8667, "##ndernemin": 8668, "##derneming": 8669, "##nderneming": 8670, "##rukke": 8671, "##genen": 8672, "##grijks": 8673, "##ngrijks": 8674, "##angrijks": 8675, "openb": 8676, "pub": 8677, "##oduce": 8678, "##roduce": 8679, "uur": 8680, "voorwaard": 8681, "voorwaarde": 8682, "##ionel": 8683, "##oden": 8684, "cent": 8685, "##gep": 8686, "##ranti": 8687, "##pb": 8688, "##oter": 8689, "zui": 8690, "##gati": 8691, "##langrijks": 8692, "##elangrijks": 8693, "##derwijs": 8694, "##nderwijs": 8695, "##egens": 8696, "##rinci": 8697, "##incip": 8698, "##rincip": 8699, "openba": 8700, "##emene": 8701, "##rantie": 8702, "##lict": 8703, "##hem": 8704, "##ordige": 8705, "##ntere": 8706, "kosten": 8707, "##rrenti": 8708, "##urrenti": 8709, "##currenti": 8710, "##ncurrenti": 8711, "##oncurrenti": 8712, "##uidelijke": 8713, "##erie": 8714, "publ": 8715, "publi": 8716, "##rijkst": 8717, "##werken": 8718, "##sioe": 8719, "##sioen": 8720, "##terke": 8721, "##mal": 8722, "##'s,": 8723, "spa": 8724, "##dsel": 8725, "libera": 8726, "##tels": 8727, "##oordige": 8728, "##woordige": 8729, "##nwoordige": 8730, "##enwoordige": 8731, "##genwoordige": 8732, "##egenwoordige": 8733, "##raar": 8734, "##eraar": 8735, "gevaa": 8736, "gevaar": 8737, "##gatie": 8738, "##rrentie": 8739, "##urrentie": 8740, "##currentie": 8741, "##ncurrentie": 8742, "##oncurrentie": 8743, "werkn": 8744, "werkne": 8745, "##grijkst": 8746, "##ngrijkst": 8747, "##angrijkst": 8748, "uitga": 8749, "##tegenwoordige": 8750, "##nsioe": 8751, "##ensioe": 8752, "##nsioen": 8753, "##ensioen": 8754, "##ionele": 8755, "##rtegenwoordige": 8756, "##ertegenwoordige": 8757, "##ndige": 8758, "##daat": 8759, "##aging": 8760, "##tabil": 8761, "##tabili": 8762, "##eman": 8763, "afgevaardigden": 8764, "##langrijkst": 8765, "##elangrijkst": 8766, "##terd": 8767, "##ieg": 8768, "##cente": 8769, "werkeli": 8770, "werkelij": 8771, "werkelijk": 8772, "##wezi": 8773, "##wezig": 8774, "##ewoon": 8775, "##verle": 8776, "##rtrou": 8777, "##irec": 8778, "##envo": 8779, "##ierin": 8780, "##uitga": 8781, "bepal": 8782, "##kor": 8783, "##euze": 8784, "##sys": 8785, "##syst": 8786, "##syste": 8787, "##saties": 8788, "##kije": 8789, "##ertrou": 8790, "##rtrouw": 8791, "##ertrouw": 8792, "##steren": 8793, "##tral": 8794, "concurrenti": 8795, "oud": 8796, "##oneel": 8797, "geo": 8798, "ier": 8799, "##nges": 8800, "##msten": 8801, "##vis": 8802, "jonge": 8803, "##iema": 8804, "##add": 8805, "##fli": 8806, "##ldt": 8807, "##tsv": 8808, "dezel": 8809, "dezelf": 8810, "dezelfd": 8811, "dezelfde": 8812, "##vertu": 8813, "##vertui": 8814, "##vertuig": 8815, "##vatt": 8816, "##ngezi": 8817, "concurrentie": 8818, "##edrijf": 8819, "##knem": 8820, "dia": 8821, "##eteri": 8822, "##erpe": 8823, "##rtn": 8824, "##rtne": 8825, "##de.": 8826, "##eterin": 8827, "##bt": 8828, "##otst": 8829, "##lissi": 8830, "##slissi": 8831, "##lissin": 8832, "##eslissi": 8833, "##slissin": 8834, "##lissing": 8835, "##eslissin": 8836, "##slissing": 8837, "##eslissing": 8838, "##alo": 8839, "##angez": 8840, "geloo": 8841, "##name": 8842, "##xp": 8843, "##artn": 8844, "##tner": 8845, "##artne": 8846, "##rtner": 8847, "##artner": 8848, "##tanti": 8849, "##rijkste": 8850, "##ffer": 8851, "##waarden": 8852, "##uchte": 8853, "##grijkste": 8854, "##ngrijkste": 8855, "##angrijkste": 8856, "##rknem": 8857, "##kneme": 8858, "##erknem": 8859, "##rkneme": 8860, "##knemer": 8861, "##erkneme": 8862, "##rknemer": 8863, "##erknemer": 8864, "##zetten": 8865, "##lgemen": 8866, "##gemene": 8867, "##lgemene": 8868, "bewe": 8869, "wijzen": 8870, "##swaa": 8871, "##stanti": 8872, "##lastin": 8873, "##lasting": 8874, "##elev": 8875, "specif": 8876, "specifi": 8877, "##ck": 8878, "##zen.": 8879, "##singe": 8880, "##llen,": 8881, "kla": 8882, "vertro": 8883, "##langrijkste": 8884, "##elangrijkste": 8885, "##elasti": 8886, "##elastin": 8887, "##elasting": 8888, "##irect": 8889, "##ieze": 8890, "##ngezie": 8891, "##ngezien": 8892, "##elge": 8893, "##sseri": 8894, "##serij": 8895, "terw": 8896, "terwi": 8897, "terwij": 8898, "terwijl": 8899, "##eldt": 8900, "aangez": 8901, "priorite": 8902, "##isseri": 8903, "##sserij": 8904, "##isserij": 8905, "mod": 8906, "##aardo": 8907, "##rijs": 8908, "##mhe": 8909, "##swaar": 8910, "centr": 8911, "##gsb": 8912, "prioritei": 8913, "prioriteit": 8914, "##alist": 8915, "##tut": 8916, "##erio": 8917, "##panni": 8918, "##pannin": 8919, "##panning": 8920, "spoo": 8921, "##oto": 8922, "##o\u00f6": 8923, "##andele": 8924, "##andelen": 8925, "##singen": 8926, "##nov": 8927, "##eken.": 8928, "onm": 8929, "##aarl": 8930, "##tgeste": 8931, "##tgestel": 8932, "##tgesteld": 8933, "##ies.": 8934, "##llem": 8935, "##llema": 8936, "##vraa": 8937, "##vraag": 8938, "##sbele": 8939, "integ": 8940, "##kaan": 8941, "##tsb": 8942, "##ndigh": 8943, "##ndighe": 8944, "##ad,": 8945, "##ju": 8946, "pen": 8947, "geloof": 8948, "bereid": 8949, "anders": 8950, "##kenn": 8951, "belangrijks": 8952, "##ogisc": 8953, "##ogisch": 8954, "##heel": 8955, "##verwe": 8956, "##chei": 8957, "##enu": 8958, "liberal": 8959, "##sties": 8960, "##levin": 8961, "##leving": 8962, "##iever": 8963, "ople": 8964, "##ardoo": 8965, "##aardoo": 8966, "##ardoor": 8967, "##aardoor": 8968, "##istische": 8969, "##esties": 8970, "genoeg": 8971, "##riod": 8972, "aanvaa": 8973, "aanvaar": 8974, "##eluk": 8975, "##eza": 8976, "##hoef": 8977, "##ehoef": 8978, "genoem": 8979, "genoemd": 8980, "##llemaa": 8981, "##acht.": 8982, "##rts": 8983, "##cheid": 8984, "##ci\u00ebn": 8985, "##anbe": 8986, "##udt": 8987, "##pzi": 8988, "algemen": 8989, "algemene": 8990, "belange": 8991, "##etai": 8992, "##eriod": 8993, "##hoeft": 8994, "##ehoeft": 8995, "##oudt": 8996, "werknem": 8997, "werkneme": 8998, "werknemer": 8999, "allem": 9000, "allema": 9001, "##ici\u00eb": 9002, "##ndeld": 9003, "##omste": 9004, "##ider": 9005, "overtu": 9006, "overtui": 9007, "overtuig": 9008, "sub": 9009, "gebruike": 9010, "##komste": 9011, "##omsten": 9012, "##komsten": 9013, "##ras": 9014, "allemaa": 9015, "##llemaal": 9016, "allemaal": 9017, "##etred": 9018, "meerd": 9019, "##trouwe": 9020, "##eheel": 9021, "##ipe": 9022, "belangen": 9023, "##centr": 9024, "##moed": 9025, "meerde": 9026, "##estelde": 9027, "belangrijkst": 9028, "##gm": 9029, "verwac": 9030, "verwach": 9031, "verwacht": 9032, "maakt": 9033, "aanvaard": 9034, "##wijzi": 9035, "##ttel": 9036, "meerder": 9037, "##mpl": 9038, "systee": 9039, "systeem": 9040, "##rbod": 9041, "##isaties": 9042, "spoor": 9043, "geri": 9044, "##cep": 9045, "diere": 9046, "dieren": 9047, "##orlo": 9048, "##erzien": 9049, "##erleg": 9050, "aanwe": 9051, "##oots": 9052, "##genl": 9053, "##erbod": 9054, "##achtig": 9055, "##rspr": 9056, "##orr": 9057, "##ligheids": 9058, "##ersp": 9059, "nemen.": 9060, "##-b": 9061, "beschikk": 9062, "##egat": 9063, "##iligheids": 9064, "##eiligheids": 9065, "gespr": 9066, "##egdh": 9067, "##oegdh": 9068, "##egdhe": 9069, "##voegdh": 9070, "##oegdhe": 9071, "##evoegdh": 9072, "##voegdhe": 9073, "##evoegdhe": 9074, "##iebe": 9075, "##nsie": 9076, "##initi": 9077, "##var": 9078, "##up": 9079, "##itd": 9080, "##erri": 9081, "autor": 9082, "##nkomste": 9083, "##nkomsten": 9084, "mond": 9085, "##arit": 9086, "producte": 9087, "##rtel": 9088, "##nisaties": 9089, "autori": 9090, "##.0": 9091, "##anten": 9092, "##egati": 9093, "##egatie": 9094, "##ngi": 9095, "belangrijkste": 9096, "##spreken": 9097, "##erc": 9098, "##lma": 9099, "##lusi": 9100, "##ronde": 9101, "producten": 9102, "##iode": 9103, "##riode": 9104, "waarva": 9105, "waarvan": 9106, "opzi": 9107, "##eriode": 9108, "##zee": 9109, "economie": 9110, "##lgemee": 9111, "##lgemeen": 9112, "##veste": 9113, "eu-": 9114, "lijkt": 9115, "##anisaties": 9116, "##ganisaties": 9117, "##rganisaties": 9118, "beroe": 9119, "##itera": 9120, "effe": 9121, "##amente": 9122, "##itsp": 9123, "##eria": 9124, "herz": 9125, "##eft.": 9126, "##sbelei": 9127, "##sbeleid": 9128, "##itut": 9129, "##titut": 9130, "##stitut": 9131, "##rhal": 9132, "##erhal": 9133, "verklari": 9134, "verklarin": 9135, "verklaring": 9136, "##isis": 9137, "##rdele": 9138, "##gelijkhei": 9139, "##gelijkheid": 9140, "uitd": 9141, "##tionel": 9142, "##tionele": 9143, "##angezi": 9144, "##angezie": 9145, "##angezien": 9146, "##/2000": 9147, "instr": 9148, "gehee": 9149, "geheel": 9150, "##nves": 9151, "##nvest": 9152, "##clus": 9153, "##orn": 9154, "autorit": 9155, "##damente": 9156, "##ndamente": 9157, "##undamente": 9158, "##pti": 9159, "##anger": 9160, "##rzoeken": 9161, "leiden": 9162, "##cept": 9163, "schad": 9164, "daarvo": 9165, "daarvoo": 9166, "daarvoor": 9167, "##erzoeken": 9168, "##steri": 9169, "fundamente": 9170, "##abilit": 9171, "##andeld": 9172, "instru": 9173, "##teraar": 9174, "##egang": 9175, "lee": 9176, "##02": 9177, "aangezi": 9178, "aangezie": 9179, "aangezien": 9180, "##urki": 9181, "##o\u00f6r": 9182, "##\u00f6rd": 9183, "##o\u00f6rd": 9184, "##\u00f6rdi": 9185, "##o\u00f6rdi": 9186, "##\u00f6rdin": 9187, "##o\u00f6rdin": 9188, "gebiede": 9189, "gebieden": 9190, "##amh": 9191, "##aamh": 9192, "##risis": 9193, "##col": 9194, "techni": 9195, "##hade": 9196, "##genomen.": 9197, "##o,": 9198, "##lh": 9199, "##ncret": 9200, "##oncret": 9201, "waarbi": 9202, "##chade": 9203, "##p,": 9204, "##kaans": 9205, "visseri": 9206, "visserij": 9207, "##danke": 9208, "##danken": 9209, "##ocratische": 9210, "##.00": 9211, "##edanke": 9212, "bedanke": 9213, "##edanken": 9214, "bedanken": 9215, "##tijk": 9216, "algemee": 9217, "algemeen": 9218, "##espre": 9219, "##rdelen": 9220, "maken.": 9221, "##aranti": 9222, "##arantie": 9223, "bri": 9224, "##genda": 9225, "##raard": 9226, "##eraard": 9227, "##ifie": 9228, "effec": 9229, "effect": 9230, "##tande": 9231, "##elede": 9232, "##rheids": 9233, "onderwi": 9234, "onderwij": 9235, "##knemers": 9236, "##rknemers": 9237, "##erknemers": 9238, "##aktij": 9239, "##ktijk": 9240, "##raktij": 9241, "##aktijk": 9242, "##raktijk": 9243, "##ddell": 9244, "##iddell": 9245, "##tvoeri": 9246, "##enhan": 9247, "##engen.": 9248, "##tuige": 9249, "herzi": 9250, "herzie": 9251, "##oez": 9252, "6": 9253, "##rkij": 9254, "vertrou": 9255, "vertrouw": 9256, "##tsen": 9257, "##elen,": 9258, "##nveste": 9259, "##urkij": 9260, "##rkije": 9261, "##urkije": 9262, "##oedse": 9263, "##neerd": 9264, "##ami": 9265, "ker": 9266, "inh": 9267, "##iteraa": 9268, "##iteraar": 9269, "##teraard": 9270, "##iteraard": 9271, "##pni": 9272, "##stande": 9273, "##tionaa": 9274, "##ationaa": 9275, "##tionaal": 9276, "##ationaal": 9277, "##enwi": 9278, "verho": 9279, "vermi": 9280, "drin": 9281, "##edsel": 9282, "##oedsel": 9283, "##ensie": 9284, "##enen.": 9285, "concret": 9286, "uitera": 9287, "uiteraa": 9288, "uiteraar": 9289, "uiteraard": 9290, "##amhe": 9291, "##aamhe": 9292, "##ebruikt": 9293, "##iende": 9294, "##fers": 9295, "##mand": 9296, "herzien": 9297, "##nbev": 9298, "##aten,": 9299, "##rkinge": 9300, "##erkinge": 9301, "##rkingen": 9302, "##erkingen": 9303, "##andere": 9304, "##jpe": 9305, "##ijpe": 9306, "##genli": 9307, "##genlij": 9308, "##ssinge": 9309, "##mocratische": 9310, "##emocratische": 9311, "##alu": 9312, "##evend": 9313, "##uiste": 9314, "##\u00f3": 9315, "##ssingen": 9316, "##dic": 9317, "autorite": 9318, "autoritei": 9319, "autoriteit": 9320, "##elat": 9321, "geef": 9322, "##anderen": 9323, "##oegang": 9324, "##fiek": 9325, "##and,": 9326, "##espec": 9327, "##rgd": 9328, "nor": 9329, "##handeld": 9330, "##nks": 9331, "##apen": 9332, "terre": 9333, "##stst": 9334, "##egd.": 9335, "##eleden": 9336, "##nspan": 9337, "onderwijs": 9338, "werknemers": 9339, "##abilite": 9340, "##fici\u00eb": 9341, "##rele": 9342, "bespr": 9343, "##lusie": 9344, "##uv": 9345, "##dedi": 9346, "##lita": 9347, "##egene": 9348, "##ffici\u00eb": 9349, "##ifiek": 9350, "##hin": 9351, "func": 9352, "##orzien": 9353, "##oorzien": 9354, "slac": 9355, "slach": 9356, "slacht": 9357, "##zigi": 9358, "##jzigi": 9359, "##zigin": 9360, "##ijzigi": 9361, "##jzigin": 9362, "##ziging": 9363, "##ijzigin": 9364, "##jziging": 9365, "##ijziging": 9366, "##rift": 9367, "turki": 9368, "turkij": 9369, "turkije": 9370, "##verhei": 9371, "##verheid": 9372, "##abilitei": 9373, "##abiliteit": 9374, "##ncl": 9375, "woorde": 9376, "##mber": 9377, "abs": 9378, "##eron": 9379, "##fst": 9380, "##t\u00e9": 9381, "##abo": 9382, "funct": 9383, "functi": 9384, "##erko": 9385, "##plan": 9386, "pens": 9387, "pensi": 9388, "pensio": 9389, "##vlo": 9390, "##jk,": 9391, "##ijk,": 9392, "##cifie": 9393, "##ecifie": 9394, "##cifiek": 9395, "##pecifie": 9396, "##ecifiek": 9397, "##pecifiek": 9398, "behoef": 9399, "instrum": 9400, "instrume": 9401, "instrumen": 9402, "instrument": 9403, "hoev": 9404, "hoeve": 9405, "##tensc": 9406, "##orgd": 9407, "##strat": 9408, "##viteite": 9409, "##iviteite": 9410, "##viteiten": 9411, "##tiviteite": 9412, "##iviteiten": 9413, "##tiviteiten": 9414, "##enden": 9415, "##enze": 9416, "activ": 9417, "##ato": 9418, "woorden": 9419, "##tensch": 9420, "##andigh": 9421, "##andighe": 9422, "##rzam": 9423, "##rzame": 9424, "behoeft": 9425, "verr": 9426, "##ctiviteite": 9427, "##ctiviteiten": 9428, "##dene": 9429, "gelege": 9430, "##tuti": 9431, "medi": 9432, "##arli": 9433, "##dede": 9434, "##akt.": 9435, "##nget": 9436, "##ar.": 9437, "##enaa": 9438, "##ituti": 9439, "##tituti": 9440, "##stituti": 9441, "vertegenwoordige": 9442, "teve": 9443, "gelegen": 9444, "##imina": 9445, "##nwic": 9446, "##enwic": 9447, "##nwich": 9448, "##enwich": 9449, "##nwicht": 9450, "##enwicht": 9451, "##llig": 9452, "##it\u00e9": 9453, "##pzic": 9454, "##pzich": 9455, "##pzicht": 9456, "##omente": 9457, "##vull": 9458, "##bsi": 9459, "##ifte": 9460, "momente": 9461, "##stree": 9462, "##inds": 9463, "norm": 9464, "##mte": 9465, "##fri": 9466, "##efte": 9467, "##anden.": 9468, "##eto": 9469, "ser": 9470, "vie": 9471, "##uitv": 9472, "voorbee": 9473, "voorbeel": 9474, "voorbeeld": 9475, "##schu": 9476, "##edt": 9477, "##rber": 9478, "opzic": 9479, "opzich": 9480, "opzicht": 9481, "##cipe": 9482, "##rdiger": 9483, "nic": 9484, "##orza": 9485, "stab": 9486, "##crete": 9487, "specifie": 9488, "specifiek": 9489, "##arlij": 9490, "##onfl": 9491, "##nfli": 9492, "##flic": 9493, "##onfli": 9494, "##nflic": 9495, "##flict": 9496, "##onflic": 9497, "##nflict": 9498, "##onflict": 9499, "##oefte": 9500, "##hoefte": 9501, "##ehoefte": 9502, "##rimina": 9503, "pensioe": 9504, "pensioen": 9505, "##aarli": 9506, "##hrif": 9507, "##chrif": 9508, "##hrift": 9509, "##chrift": 9510, "##nspann": 9511, "defi": 9512, "geldt": 9513, "confe": 9514, "##boe": 9515, "mijns": 9516, "##gv": 9517, "mode": 9518, "##gepa": 9519, "indie": 9520, "indien": 9521, "##aarlij": 9522, "stabi": 9523, "##pnie": 9524, "##pnieu": 9525, "##pnieuw": 9526, "##dsl": 9527, "##arlijk": 9528, "##aarlijk": 9529, "##atse": 9530, "aanbe": 9531, "##randere": 9532, "##randeren": 9533, "opr": 9534, "##fa": 9535, "##etens": 9536, "##e\u00efn": 9537, "##venwi": 9538, "##venwic": 9539, "##venwich": 9540, "##venwicht": 9541, "##tein": 9542, "##the": 9543, "##tandigh": 9544, "##standigh": 9545, "##tandighe": 9546, "##standighe": 9547, "(a": 9548, "##rtrouwe": 9549, "##ertrouwe": 9550, "inde": 9551, "##otte": 9552, "##ncrete": 9553, "##oncrete": 9554, "concrete": 9555, "legg": 9556, "legge": 9557, "leggen": 9558, "opni": 9559, "opnie": 9560, "opnieu": 9561, "opnieuw": 9562, "##rderi": 9563, "##aatse": 9564, "overhei": 9565, "overheid": 9566, "##gevoer": 9567, "##gevoerd": 9568, "##i,": 9569, "producti": 9570, "##htinge": 9571, "##chtinge": 9572, "##htingen": 9573, "##chtingen": 9574, "gebruikt": 9575, "gene": 9576, "beroep": 9577, "prin": 9578, "defin": 9579, "defini": 9580, "##esprek": 9581, "##igenl": 9582, "##igenli": 9583, "##igenlij": 9584, "##genlijk": 9585, "##igenlijk": 9586, "##ien.": 9587, "##beurt": 9588, "overw": 9589, "gri": 9590, "##edede": 9591, "##mit\u00e9": 9592, "veiligheids": 9593, "##uiti": 9594, "##aat,": 9595, "##rust": 9596, "##kaanse": 9597, "##dedel": 9598, "##omit\u00e9": 9599, "##wb": 9600, "##lsel": 9601, "##uitin": 9602, "##uiting": 9603, "##reide": 9604, "##emen,": 9605, "exp": 9606, "##ndve": 9607, "##telse": 9608, "##iete": 9609, "##tvaard": 9610, "##tvaardi": 9611, "##tvaardig": 9612, "##rijpe": 9613, "##schrij": 9614, "const": 9615, "princ": 9616, "##nclu": 9617, "begins": 9618, "##-v": 9619, "##tspr": 9620, "##ededel": 9621, "ol": 9622, "adv": 9623, "##eali": 9624, "agend": 9625, "##zaamh": 9626, "##zaamhe": 9627, "voeds": 9628, "voedse": 9629, "voedsel": 9630, "##inen": 9631, "##pen,": 9632, "hen": 9633, "##elsel": 9634, "##telsel": 9635, "activi": 9636, "agenda": 9637, "##frik": 9638, "##frika": 9639, "##sect": 9640, "##pelen": 9641, "princi": 9642, "princip": 9643, "beginse": 9644, "beginsel": 9645, "##taan.": 9646, "##rvol": 9647, "##jhei": 9648, "##ijhei": 9649, "##jheid": 9650, "##ijheid": 9651, "##walite": 9652, "##walitei": 9653, "##waliteit": 9654, "##omend": 9655, "##rengen.": 9656, "##ebeurt": 9657, "##itvoeri": 9658, "ondernemi": 9659, "ondernemin": 9660, "onderneming": 9661, "zov": 9662, "zove": 9663, "##msta": 9664, "##rven": 9665, "##laatse": 9666, "##geh": 9667, "##wegi": 9668, "##wegin": 9669, "##npak": 9670, "gebeurt": 9671, "##uwb": 9672, "##secto": 9673, "##sector": 9674, "##arand": 9675, "toegang": 9676, "##ola": 9677, "medede": 9678, "##mstan": 9679, "##mstand": 9680, "##ervol": 9681, "zwee": 9682, "##arande": 9683, "##rken.": 9684, "##tuigen": 9685, "##toc": 9686, "##nctie": 9687, "##nologie": 9688, "##tma": 9689, "##sj": 9690, "##mstandi": 9691, "##mstandig": 9692, "##erma": 9693, "##erat": 9694, "##tstell": 9695, "##egrij": 9696, "sin": 9697, "mededel": 9698, "##uitvo": 9699, "##tantie": 9700, "##rsteu": 9701, "##ersteu": 9702, "##rsteun": 9703, "##dersteu": 9704, "##ersteun": 9705, "##dersteun": 9706, "##mstandigh": 9707, "##mstandighe": 9708, "##nninge": 9709, "##leid.": 9710, "##ctur": 9711, "##cture": 9712, "##ndersteu": 9713, "##ndersteun": 9714, "##nningen": 9715, "##westies": 9716, "##-f": 9717, "##ierv": 9718, "##nstant": 9719, "##stantie": 9720, "##eth": 9721, "##dighei": 9722, "##digheid": 9723, "##nwez": 9724, "##egrijp": 9725, "##omentee": 9726, "momentee": 9727, "##omenteel": 9728, "momenteel": 9729, "activit": 9730, "##bro": 9731, "##ement,": 9732, "behee": 9733, "beheer": 9734, "onderd": 9735, "##ssie.": 9736, "##elem": 9737, "##eleid.": 9738, "kwalit": 9739, "eigenl": 9740, "eigenli": 9741, "eigenlij": 9742, "eigenlijk": 9743, "##waardi": 9744, "##arh": 9745, "##eeln": 9746, "##anwez": 9747, "##nwezi": 9748, "##anwezi": 9749, "##nwezig": 9750, "##anwezig": 9751, "##clusi": 9752, "##rsi": 9753, "##igen.": 9754, "schr": 9755, "aanwez": 9756, "aanwezi": 9757, "aanwezig": 9758, "##oma": 9759, "##ement.": 9760, "##o.": 9761, "##ngin": 9762, "##and.": 9763, "##ndels": 9764, "##opt": 9765, "##embe": 9766, "##verne": 9767, "uitvoeri": 9768, "gestem": 9769, "gestemd": 9770, "industrie": 9771, "##agen.": 9772, "##rsoo": 9773, "confer": 9774, "confere": 9775, "conferen": 9776, "##waardig": 9777, "##pst": 9778, "##tj": 9779, "##ikaa": 9780, "##redin": 9781, "##reding": 9782, "##borg": 9783, "##ersoo": 9784, "##clusie": 9785, "##andels": 9786, "##versc": 9787, "##versch": 9788, "bei": 9789, "onderste": 9790, "##romi": 9791, "##markt": 9792, "##drukke": 9793, "##pgen": 9794, "opgen": 9795, "##pgeno": 9796, "opgeno": 9797, "##ruitg": 9798, "zweed": 9799, "##esluite": 9800, "probe": 9801, "##rep": 9802, "##atie,": 9803, "##ember": 9804, "##ogelijkhei": 9805, "##ogelijkheid": 9806, "oude": 9807, "##oegen": 9808, "##fon": 9809, "##tiem": 9810, "##hnis": 9811, "##chnis": 9812, "##hnisc": 9813, "##echnis": 9814, "##chnisc": 9815, "##hnisch": 9816, "##echnisc": 9817, "##chnisch": 9818, "##echnisch": 9819, "kans": 9820, "##beteri": 9821, "##rbeteri": 9822, "##beterin": 9823, "##etering": 9824, "##erbeteri": 9825, "##rbeterin": 9826, "##betering": 9827, "##erbeterin": 9828, "##rbetering": 9829, "##erbetering": 9830, "waarbij": 9831, "##adde": 9832, "##pgenom": 9833, "opgenom": 9834, "##pgenome": 9835, "opgenome": 9836, "##pgenomen": 9837, "opgenomen": 9838, "geslo": 9839, "##rijhei": 9840, "##rijheid": 9841, "beke": 9842, "##hnologie": 9843, "##chnologie": 9844, "##echnologie": 9845, "##anbev": 9846, "##eminge": 9847, "##emingen": 9848, "##gelijkhed": 9849, "##gelijkhede": 9850, "##gelijkheden": 9851, "inve": 9852, "feite": 9853, "##migr": 9854, "##ikaan": 9855, "##onne": 9856, "##tje": 9857, "##ndighed": 9858, "##andighed": 9859, "##ndighede": 9860, "##andighede": 9861, "##ndigheden": 9862, "##andigheden": 9863, "##weeds": 9864, "conferent": 9865, "conferenti": 9866, "conferentie": 9867, "##itee": 9868, "##lijken": 9869, "##nzet": 9870, "zweeds": 9871, "##int": 9872, "tro": 9873, "##tenscha": 9874, "##tenschap": 9875, "##xtr": 9876, "belasti": 9877, "belastin": 9878, "belasting": 9879, "##offer": 9880, "##nner": 9881, "##etensc": 9882, "##alinge": 9883, "##alingen": 9884, "##ngend": 9885, "prij": 9886, "##lever": 9887, "##ordiger": 9888, "##oordiger": 9889, "##woordiger": 9890, "##nwoordiger": 9891, "##enwoordiger": 9892, "##genwoordiger": 9893, "##egenwoordiger": 9894, "##tegenwoordiger": 9895, "##rtegenwoordiger": 9896, "##ertegenwoordiger": 9897, "##estaand": 9898, "##etensch": 9899, "##etenscha": 9900, "##etenschap": 9901, "##sen,": 9902, "##muni": 9903, "##mmuni": 9904, "onderhandelinge": 9905, "onderhandelingen": 9906, "##roter": 9907, "##tandighed": 9908, "##standighed": 9909, "##tandighede": 9910, "##mstandighed": 9911, "##standighede": 9912, "##tandigheden": 9913, "##mstandighede": 9914, "##standigheden": 9915, "##mstandigheden": 9916, "##tredi": 9917, "##tredin": 9918, "##treding": 9919, "afv": 9920, "ge\u00ef": 9921, "##verb": 9922, "schade": 9923, "##ikaans": 9924, "groter": 9925, "##verv": 9926, "##ncipe": 9927, "##weging": 9928, "##ntv": 9929, "##nseli": 9930, "activite": 9931, "activitei": 9932, "activiteit": 9933, "##incipe": 9934, "##rincipe": 9935, "##nitie": 9936, "vertrouwe": 9937, "##mings": 9938, "terrei": 9939, "terrein": 9940, "##icit": 9941, "ondersteu": 9942, "ondersteun": 9943, "##ekende": 9944, "##gion": 9945, "blijf": 9946, "##lpe": 9947, "##a's,": 9948, "##egion": 9949, "##esluiten": 9950, "##arhe": 9951, "##rikaa": 9952, "##rikaan": 9953, "inspa": 9954, "inspan": 9955, "##nmid": 9956, "##nmidd": 9957, "##aar.": 9958, "##best": 9959, "##erken.": 9960, "##\u00ebre": 9961, "##\u00ebren": 9962, "##lijft": 9963, "##pin": 9964, "##eikt": 9965, "##choo": 9966, "##taten.": 9967, "##ggen.": 9968, "##keld": 9969, "##rijde": 9970, "##-la": 9971, "the": 9972, "##kie": 9973, "##ngaa": 9974, "##ersi": 9975, "##teen": 9976, "##rikaans": 9977, "##usti": 9978, "##rgr": 9979, "##j,": 9980, "##ieken": 9981, "##laas": 9982, "##eor": 9983, "##rgo": 9984, "##dsc": 9985, "geslot": 9986, "geslote": 9987, "gesloten": 9988, "confl": 9989, "confli": 9990, "conflic": 9991, "conflict": 9992, "##aarh": 9993, "##aarhe": 9994, "bevoegdh": 9995, "bevoegdhe": 9996, "##trekke": 9997, "##trouwen": 9998, "behoefte": 9999, "##ij,": 10000, "toes": 10001, "##vloe": 10002, "##ruitga": 10003, "dring": 10004, "kee": 10005, "##nvoe": 10006, "subs": 10007, "##dm": 10008, "schu": 10009, "##groe": 10010, "##kten": 10011, "biede": 10012, "##ie\u00eb": 10013, "##f.": 10014, "##rzaa": 10015, "##vou": 10016, "##rifte": 10017, "##hrifte": 10018, "##chrifte": 10019, "##giona": 10020, "##egiona": 10021, "##resi": 10022, "##sidi": 10023, "blijkt": 10024, "##rdaa": 10025, "##ie\u00ebn": 10026, "##gent": 10027, "##migra": 10028, "##ubsi": 10029, "##bsid": 10030, "##ubsid": 10031, "##rkt.": 10032, "##rvolg": 10033, "##ervolg": 10034, "##har": 10035, "##ermo": 10036, "bieden": 10037, "wetens": 10038, "mogelijkhei": 10039, "mogelijkheid": 10040, "##bsidi": 10041, "##ubsidi": 10042, "##tstek": 10043, "##ementa": 10044, "##emand": 10045, "##elaas": 10046, "##kza": 10047, "##erlijke": 10048, "##burg": 10049, "##loog": 10050, "##edelin": 10051, "##edeling": 10052, "##spanni": 10053, "inspann": 10054, "##spannin": 10055, "##spanning": 10056, "##orwe": 10057, "##oorwe": 10058, "vlu": 10059, "##oten.": 10060, "aanbev": 10061, "eerd": 10062, "##eninge": 10063, "##eningen": 10064, "##hto": 10065, "extr": 10066, "##rwo": 10067, "##even,": 10068, "##rtijd": 10069, "##kort": 10070, "eerde": 10071, "eerder": 10072, "keer": 10073, "gevall": 10074, "gevalle": 10075, "gevallen": 10076, "##andv": 10077, "##rnaa": 10078, "##lementa": 10079, "##nging": 10080, "##kelen": 10081, "##-d": 10082, "##ngeren": 10083, "##dui": 10084, "##chou": 10085, "##voud": 10086, "##ivers": 10087, "##erwo": 10088, "##veli": 10089, "##2001": 10090, "##ialo": 10091, "##estaande": 10092, "geled": 10093, "##inste": 10094, "##ober": 10095, "##komen.": 10096, "##ortu": 10097, "##dzaa": 10098, "##wd": 10099, "##esla": 10100, "##laar": 10101, "bestaand": 10102, "##stste": 10103, "verbeteri": 10104, "verbeterin": 10105, "verbetering": 10106, "vindt": 10107, "##ststel": 10108, "##gestelde": 10109, "##rere": 10110, "deeln": 10111, "wein": 10112, "weini": 10113, "weinig": 10114, "##chto": 10115, "wetensc": 10116, "wetensch": 10117, "wetenscha": 10118, "wetenschap": 10119, "sol": 10120, "##-g": 10121, "##arna": 10122, "##uitgan": 10123, "##uitgang": 10124, "##did": 10125, "##esid": 10126, "hela": 10127, "helaa": 10128, "helaas": 10129, "##nstige": 10130, "##ur,": 10131, "##oeder": 10132, "##ndid": 10133, "##dida": 10134, "##andid": 10135, "##erheids": 10136, "gu": 10137, "##htvaard": 10138, "##chtvaard": 10139, "##htvaardi": 10140, "##chtvaardi": 10141, "##htvaardig": 10142, "##chtvaardig": 10143, "ligt": 10144, "##eveli": 10145, "##istr": 10146, "##nstemmi": 10147, "##ruitgan": 10148, "##ruitgang": 10149, "##ndida": 10150, "##andida": 10151, "##ensel": 10152, "##uits": 10153, "##espect": 10154, "##rra": 10155, "democratische": 10156, "##beve": 10157, "##echtv": 10158, "##hema": 10159, "inho": 10160, "inhou": 10161, "inhoud": 10162, "##lpen": 10163, "##fond": 10164, "doet": 10165, "##urea": 10166, "##reau": 10167, "uitz": 10168, "##erali": 10169, "##enseli": 10170, "##nselij": 10171, "##enselij": 10172, "##nselijk": 10173, "##enselijk": 10174, "##echtva": 10175, "##echtvaa": 10176, "##echtvaar": 10177, "##echtvaard": 10178, "##echtvaardi": 10179, "##echtvaardig": 10180, "##side": 10181, "dir": 10182, "##ureau": 10183, "##oh": 10184, "##reren": 10185, "##derli": 10186, "##uge": 10187, "##sele": 10188, "##arhei": 10189, "##arheid": 10190, "productie": 10191, "##eralis": 10192, "##aloo": 10193, "##lak": 10194, "##dstaa": 10195, "##vernem": 10196, "##tners": 10197, "##rtners": 10198, "##artners": 10199, "##nstanti": 10200, "bereike": 10201, "bereiken": 10202, "##ig.": 10203, "dial": 10204, "vla": 10205, "##omende": 10206, "dienste": 10207, "##ervan": 10208, "frans": 10209, "##euri": 10210, "##lom": 10211, "##isd": 10212, "nice": 10213, "noe": 10214, "##teria": 10215, "##nstit": 10216, "##nstitu": 10217, "##plichti": 10218, "##erschr": 10219, "##verneme": 10220, "hem": 10221, "##ctore": 10222, "##ctio": 10223, "##aloog": 10224, "##leven": 10225, "##uctur": 10226, "##ructur": 10227, "##ucture": 10228, "##tructur": 10229, "##ructure": 10230, "##tructure": 10231, "##anpak": 10232, "##vernemen": 10233, "partn": 10234, "partne": 10235, "partner": 10236, "##ctoren": 10237, "##reikt": 10238, "##schij": 10239, "##egenen": 10240, "##deeld": 10241, "##kzaa": 10242, "##rderin": 10243, "##rdering": 10244, "##aarhei": 10245, "##aarheid": 10246, "##zichte": 10247, "##udig": 10248, "##voudi": 10249, "##oudig": 10250, "##voudig": 10251, "##halv": 10252, "##halve": 10253, "##gss": 10254, "##ereikt": 10255, "##ogelijkhed": 10256, "##ogelijkhede": 10257, "##ogelijkheden": 10258, "##schijn": 10259, "##laten": 10260, "##rkie": 10261, "##erdi": 10262, "##kzaam": 10263, "##itstek": 10264, "##euro": 10265, "##nstantie": 10266, "##itiev": 10267, "##itieve": 10268, "##lko": 10269, "##ction": 10270, "##scr": 10271, "dire": 10272, "direc": 10273, "direct": 10274, "##erkie": 10275, "##sgr": 10276, "##itein": 10277, "uitstek": 10278, "gelede": 10279, "##ialoo": 10280, "##ialoog": 10281, "##aad,": 10282, "##ekeu": 10283, "##uwd": 10284, "##idstaa": 10285, "##dstaat": 10286, "vier": 10287, "##nspanni": 10288, "##nspannin": 10289, "##nspanning": 10290, "region": 10291, "noem": 10292, "##ngsb": 10293, "##ean": 10294, "getr": 10295, "##ekeur": 10296, "bestu": 10297, "evenwi": 10298, "evenwic": 10299, "evenwich": 10300, "evenwicht": 10301, "##nvoer": 10302, "technis": 10303, "technisc": 10304, "technisch": 10305, "##gron": 10306, "vluc": 10307, "vluch": 10308, "vlucht": 10309, "##igg": 10310, "##kkeld": 10311, "##resid": 10312, "##rt,": 10313, "wijzigi": 10314, "wijzigin": 10315, "wijziging": 10316, "##oner": 10317, "##osse": 10318, "##tue": 10319, "##stges": 10320, "##ikaanse": 10321, "##rwaarden": 10322, "##orwaarden": 10323, "##oorwaarden": 10324, "##rpre": 10325, "##erpre": 10326, "##grond": 10327, "bestaande": 10328, "##it,": 10329, "##bren": 10330, "##stgest": 10331, "##stgeste": 10332, "##stgestel": 10333, "##stgesteld": 10334, "inder": 10335, "##erati": 10336, "##amer": 10337, "##akte": 10338, "##idstaat": 10339, "##asts": 10340, "##astst": 10341, "##gevens": 10342, "##egevens": 10343, "##hre": 10344, "##vester": 10345, "##nvester": 10346, "##soon": 10347, "##rsoon": 10348, "##ersoon": 10349, "##iezi": 10350, "bezig": 10351, "##lement,": 10352, "aanpak": 10353, "##sno": 10354, "##gsl": 10355, "##edk": 10356, "tele": 10357, "##erdaa": 10358, "##ovo": 10359, "##kiez": 10360, "##breng": 10361, "##aarna": 10362, "##gdhei": 10363, "##gdheid": 10364, "regiona": 10365, "centra": 10366, "##vinde": 10367, "##achto": 10368, "##ekene": 10369, "##icee": 10370, "##iceer": 10371, "krit": 10372, "kriti": 10373, "##ndeel": 10374, "##rks": 10375, "voorzie": 10376, "##htof": 10377, "##chtof": 10378, "##htoff": 10379, "##lachto": 10380, "##achtof": 10381, "##chtoff": 10382, "##htoffe": 10383, "##toffer": 10384, "##lachtof": 10385, "##achtoff": 10386, "##chtoffe": 10387, "##htoffer": 10388, "##lachtoff": 10389, "##achtoffe": 10390, "##chtoffer": 10391, "##lachtoffe": 10392, "##achtoffer": 10393, "##lachtoffer": 10394, "##te,": 10395, "##pecten": 10396, "##specten": 10397, "##ekenen": 10398, "voorl": 10399, "##dersc": 10400, "##dersch": 10401, "##aken,": 10402, "beid": 10403, "geleden": 10404, "##uns": 10405, "##egaan": 10406, "##finit": 10407, "diensten": 10408, "morg": 10409, "##enee": 10410, "beide": 10411, "vervol": 10412, "bereikt": 10413, "##mg": 10414, "inves": 10415, "invest": 10416, "##iezin": 10417, "##iezing": 10418, "sind": 10419, "sinds": 10420, "##rikaanse": 10421, "##iu": 10422, "##gma": 10423, "##siden": 10424, "##sident": 10425, "##ntral": 10426, "##entral": 10427, "##ecen": 10428, "##issie.": 10429, "##ild": 10430, "##arsc": 10431, "voldoend": 10432, "voldoende": 10433, "besluite": 10434, "##ltat": 10435, "##ultat": 10436, "praktij": 10437, "praktijk": 10438, "##nteer": 10439, "##rkiez": 10440, "idee": 10441, "##rachte": 10442, "##astr": 10443, "##tec": 10444, "##neminge": 10445, "##nemingen": 10446, "##vinden": 10447, "##gege": 10448, "##erkiez": 10449, "##tgeb": 10450, "##arsch": 10451, "##elm": 10452, "##structu": 10453, "gelegenh": 10454, "gelegenhe": 10455, "##nclus": 10456, "##nclusi": 10457, "##pgel": 10458, "##lement.": 10459, "##missie.": 10460, "##nell": 10461, "##adden": 10462, "daad": 10463, "##nstemmin": 10464, "##nstemming": 10465, "##hod": 10466, "##efinit": 10467, "##finiti": 10468, "##initie": 10469, "##efiniti": 10470, "##finitie": 10471, "##efinitie": 10472, "##itspr": 10473, "vanu": 10474, "##houw": 10475, "vasts": 10476, "vastst": 10477, "tal": 10478, "##mmissie.": 10479, "##ommissie.": 10480, "##dves": 10481, "##dvest": 10482, "##astges": 10483, "vastges": 10484, "##astgest": 10485, "vastgest": 10486, "##astgeste": 10487, "vastgeste": 10488, "##astgestel": 10489, "vastgestel": 10490, "##astgesteld": 10491, "vastgesteld": 10492, "##imt": 10493, "##orda": 10494, "##(": 10495, "##ehandeli": 10496, "##ehandelin": 10497, "##ehandeling": 10498, "blijft": 10499, "##rneminge": 10500, "##rnemingen": 10501, "##ionee": 10502, "##rgaa": 10503, "##ntst": 10504, "##ingsb": 10505, "##kelijkh": 10506, "##kelijkhe": 10507, "##nclusie": 10508, "##anui": 10509, "vanui": 10510, "##anuit": 10511, "vanuit": 10512, "##ndves": 10513, "##ndvest": 10514, "toet": 10515, "kand": 10516, "##ergr": 10517, "geza": 10518, "spreken": 10519, "##schei": 10520, "##scheid": 10521, "##chouw": 10522, "##bevel": 10523, "##mmigr": 10524, "##thod": 10525, "9": 10526, "heri": 10527, "##eus": 10528, "##unst": 10529, "uitsl": 10530, "dialo": 10531, "##eside": 10532, "##kiezi": 10533, "##rkiezi": 10534, "##kiezin": 10535, "##erkiezi": 10536, "##rkiezin": 10537, "##kiezing": 10538, "##erkiezin": 10539, "##rkiezing": 10540, "##erkiezing": 10541, "##weld": 10542, "##oruitg": 10543, "##ooruitg": 10544, "##reside": 10545, "##esiden": 10546, "##esident": 10547, "definit": 10548, "definiti": 10549, "definitie": 10550, "##ucc": 10551, "##cces": 10552, "##aarsc": 10553, "vooruitg": 10554, "kandi": 10555, "##nnis": 10556, "##residen": 10557, "##resident": 10558, "##plei": 10559, "suc": 10560, "##ucce": 10561, "##ucces": 10562, "##dedeli": 10563, "##ngss": 10564, "neemt": 10565, "##kelijkhei": 10566, "##kelijkheid": 10567, "##rip": 10568, "##gt.": 10569, "herin": 10570, "##ies,": 10571, "##pend": 10572, "##aarsch": 10573, "##tsg": 10574, "vervolg": 10575, "kandid": 10576, "##igge": 10577, "##etho": 10578, "##erneminge": 10579, "##ernemingen": 10580, "##tstaa": 10581, "##gegev": 10582, "##gegeve": 10583, "##gegeven": 10584, "##-lan": 10585, "publie": 10586, "publiek": 10587, "##eider": 10588, "##uimt": 10589, "teven": 10590, "tevens": 10591, "kandida": 10592, "##derneminge": 10593, "##nderneminge": 10594, "##dernemingen": 10595, "##ndernemingen": 10596, "##bas": 10597, "##derdaa": 10598, "##nderdaa": 10599, "##past": 10600, "##ststell": 10601, "succ": 10602, "succe": 10603, "succes": 10604, "hadd": 10605, "hadde": 10606, "hadden": 10607, "##ededeli": 10608, "##dedelin": 10609, "##ededelin": 10610, "##dedeling": 10611, "##ededeling": 10612, "##anm": 10613, "##perkt": 10614, "besluiten": 10615, "##ertij": 10616, "investe": 10617, "##inner": 10618, "##schou": 10619, "##schouw": 10620, "##oew": 10621, "##out": 10622, "##mmigra": 10623, "##ertijd": 10624, "lever": 10625, "##roots": 10626, "##nvou": 10627, "##envou": 10628, "##nvoud": 10629, "##envoud": 10630, "##bso": 10631, "##grijpe": 10632, "##steke": 10633, "eise": 10634, "##kkinge": 10635, "##kkingen": 10636, "##atieven": 10637, "bem": 10638, "##nme": 10639, "##rtrouwen": 10640, "##ertrouwen": 10641, "##oedk": 10642, "##norme": 10643, "7": 10644, "begrij": 10645, "begrijp": 10646, "##steken": 10647, "##ties.": 10648, "##eperkt": 10649, "grens": 10650, "##dvi": 10651, "##nbeve": 10652, "##anbeve": 10653, "##anderi": 10654, "##ikkeld": 10655, "##sultat": 10656, "por": 10657, "slachto": 10658, "slachtof": 10659, "slachtoff": 10660, "slachtoffe": 10661, "slachtoffer": 10662, "##isb": 10663, "hop": 10664, "hope": 10665, "##lim": 10666, "twi": 10667, "##ehoo": 10668, "##onte": 10669, "##loos": 10670, "strategie": 10671, "##oedig": 10672, "##berei": 10673, "abso": 10674, "onve": 10675, "##ingss": 10676, "##nfr": 10677, "maats": 10678, "eno": 10679, "enor": 10680, "enorm": 10681, "##u,": 10682, "##terst": 10683, "##-land": 10684, "uitei": 10685, "##teind": 10686, "uitein": 10687, "##iteind": 10688, "##teinde": 10689, "uiteind": 10690, "##iteinde": 10691, "uiteinde": 10692, "##emid": 10693, "##ethod": 10694, "##randeri": 10695, "##anderin": 10696, "##eranderi": 10697, "##randerin": 10698, "##andering": 10699, "##eranderin": 10700, "##randering": 10701, "##erandering": 10702, "##wikkeld": 10703, "##gsbe": 10704, "##utio": 10705, "##ution": 10706, "##derde": 10707, "##ardige": 10708, "##emidd": 10709, "##rzek": 10710, "##rzeke": 10711, "##rzeker": 10712, "##idische": 10713, "##ridische": 10714, "##uridische": 10715, "##maats": 10716, "##hten,": 10717, "##chten,": 10718, "lidstaa": 10719, "lidstaat": 10720, "##htige": 10721, "##chtige": 10722, "comi": 10723, "##commi": 10724, "co\u00f6": 10725, "dialoo": 10726, "dialoog": 10727, "##scri": 10728, "financier": 10729, "##ga's,": 10730, "##ega's,": 10731, "##lega's,": 10732, "##llega's,": 10733, "##ollega's,": 10734, "##emidde": 10735, "##imte": 10736, "##uimte": 10737, "##oruitga": 10738, "##ooruitga": 10739, "##oris": 10740, "goedk": 10741, "##rem": 10742, "##rschij": 10743, "##eindel": 10744, "##teindel": 10745, "##eindeli": 10746, "##iteindel": 10747, "##teindeli": 10748, "##eindelij": 10749, "uiteindel": 10750, "##iteindeli": 10751, "##teindelij": 10752, "##eindelijk": 10753, "uiteindeli": 10754, "##iteindelij": 10755, "##teindelijk": 10756, "uiteindelij": 10757, "##iteindelijk": 10758, "uiteindelijk": 10759, "##geen": 10760, "collega's,": 10761, "##seerde": 10762, "mededeli": 10763, "mededelin": 10764, "mededeling": 10765, "##erzek": 10766, "##erzeke": 10767, "##erzeker": 10768, "vooruitga": 10769, "comit": 10770, "##commis": 10771, "immi": 10772, "immig": 10773, "immigr": 10774, "##ralise": 10775, "duidelijke": 10776, "##uldi": 10777, "##uldig": 10778, "##nvoudi": 10779, "##envoudi": 10780, "##nvoudig": 10781, "##envoudig": 10782, "##ito": 10783, "eisen": 10784, "##jecte": 10785, "##commiss": 10786, "##product": 10787, "##rdaad": 10788, "##erdaad": 10789, "##rschijn": 10790, "##tabilit": 10791, "##erweg": 10792, "##aanden": 10793, "##n\"": 10794, "##trati": 10795, "##omb": 10796, "doen.": 10797, "##pali": 10798, "##epali": 10799, "##palin": 10800, "##epalin": 10801, "##paling": 10802, "##epaling": 10803, "##/2001": 10804, "##raal": 10805, "##everen": 10806, "##tabilite": 10807, "##tabilitei": 10808, "##tabiliteit": 10809, "persoo": 10810, "persoon": 10811, "geric": 10812, "gerich": 10813, "gericht": 10814, "##rijden": 10815, "maande": 10816, "##ods": 10817, "amer": 10818, "ameri": 10819, "##raad": 10820, "##enkomste": 10821, "##enkomsten": 10822, "juridische": 10823, "prec": 10824, "##deer": 10825, "##verge": 10826, "##bsol": 10827, "##bsolu": 10828, "##aardige": 10829, "##oruitgan": 10830, "##ooruitgan": 10831, "##oruitgang": 10832, "##ooruitgang": 10833, "##ewez": 10834, "##eweze": 10835, "##ewezen": 10836, "##nderl": 10837, "##nstitut": 10838, "##epast": 10839, "absol": 10840, "absolu": 10841, "##ennen": 10842, "##lder": 10843, "##ngsl": 10844, "instan": 10845, "vooruitgan": 10846, "vooruitgang": 10847, "##anninge": 10848, "##anningen": 10849, "##eenkomste": 10850, "##eenkomsten": 10851, "immigra": 10852, "degen": 10853, "##rplichti": 10854, "##erplichti": 10855, "invo": 10856, "##andve": 10857, "##nbevel": 10858, "##anbevel": 10859, "##jecten": 10860, "##egre": 10861, "degene": 10862, "##emiddel": 10863, "##tratie": 10864, "##hoor": 10865, "##plichtin": 10866, "##plichting": 10867, "##ereer": 10868, "##strek": 10869, "##anspa": 10870, "amerik": 10871, "amerika": 10872, "bedrijf": 10873, "vertegenwoordiger": 10874, "##astste": 10875, "##aststel": 10876, "##rplichtin": 10877, "##erplichtin": 10878, "##rplichting": 10879, "##erplichting": 10880, "##nspar": 10881, "##urzam": 10882, "##uurzam": 10883, "##urzame": 10884, "##uurzame": 10885, "##omme": 10886, "morge": 10887, "morgen": 10888, "##ma's": 10889, "##ggi": 10890, "##loed": 10891, "##md.": 10892, "##ltate": 10893, "##ultate": 10894, "##ltaten": 10895, "##esultat": 10896, "##sultate": 10897, "##ultaten": 10898, "##esultate": 10899, "##sultaten": 10900, "##esultaten": 10901, "##erale": 10902, "##rkz": 10903, "##erkz": 10904, "##titi": 10905, "##kra": 10906, "##derdaad": 10907, "##nderdaad": 10908, "##etti": 10909, "##rbere": 10910, "zuid": 10911, "##rderh": 10912, "##erderh": 10913, "##rderhe": 10914, "##eerderh": 10915, "##erderhe": 10916, "##eerderhe": 10917, "##ociaa": 10918, "##ociaal": 10919, "ontst": 10920, "inderd": 10921, "inderda": 10922, "inderdaa": 10923, "inderdaad": 10924, "##she": 10925, "##oncl": 10926, "##onclu": 10927, "##orber": 10928, "##arite": 10929, "##sda": 10930, "##rdb": 10931, "##ehandeld": 10932, "behandeli": 10933, "behandelin": 10934, "behandeling": 10935, "##raat": 10936, "##rlement,": 10937, "##arlement,": 10938, "##orbere": 10939, "##iceerd": 10940, "ci": 10941, "toez": 10942, "##logis": 10943, "##ntre": 10944, "##ress": 10945, "parlement,": 10946, "##urel": 10947, "##spara": 10948, "##paran": 10949, "##ranspa": 10950, "##anspar": 10951, "##nspara": 10952, "##ranspar": 10953, "##anspara": 10954, "##ranspara": 10955, "##ggin": 10956, "##gging": 10957, "meerderh": 10958, "meerderhe": 10959, "##lso": 10960, "##crim": 10961, "groots": 10962, "##rkza": 10963, "##erkza": 10964, "##urele": 10965, "##gezo": 10966, "##sparan": 10967, "##parant": 10968, "##nsparan": 10969, "##sparant": 10970, "##ansparan": 10971, "##nsparant": 10972, "##ransparan": 10973, "##ansparant": 10974, "##ransparant": 10975, "opst": 10976, "lez": 10977, "##jui": 10978, "##oetr": 10979, "levens": 10980, "##oorber": 10981, "##oorbere": 10982, "##aritei": 10983, "##ariteit": 10984, "##leide": 10985, "es": 10986, "##ardb": 10987, "##tp": 10988, "stabil": 10989, "stabili": 10990, "##rnie": 10991, "brengen.": 10992, "##tsteke": 10993, "##itsteke": 10994, "##tsteken": 10995, "##itsteken": 10996, "##ingsl": 10997, "inspanni": 10998, "inspannin": 10999, "inspanning": 11000, "aanbeve": 11001, "##nderli": 11002, "##io'": 11003, "invoe": 11004, "##ginn": 11005, "uitsteke": 11006, "uitsteken": 11007, "##ag,": 11008, "##uchtv": 11009, "##oetre": 11010, "duurzam": 11011, "duurzame": 11012, "##crimi": 11013, "##crimin": 11014, "##ring.": 11015, "transpa": 11016, "transpar": 11017, "transpara": 11018, "##stekend": 11019, "##tstekend": 11020, "##itstekend": 11021, "verwi": 11022, "##europ": 11023, "##onnen": 11024, "##part": 11025, "##u.": 11026, "##lemente": 11027, "##rinn": 11028, "vastste": 11029, "vaststel": 11030, "##tgee": 11031, "transparan": 11032, "transparant": 11033, "##ezor": 11034, "##ezorg": 11035, "uitstekend": 11036, "##rderhei": 11037, "##erderhei": 11038, "##rderheid": 11039, "##eerderhei": 11040, "##erderheid": 11041, "##eerderheid": 11042, "##luchte": 11043, "##enle": 11044, "##erinn": 11045, "##rinne": 11046, "##erinne": 11047, "##gewe": 11048, "##derzi": 11049, "activiteite": 11050, "activiteiten": 11051, "##panninge": 11052, "##panningen": 11053, "para": 11054, "opgel": 11055, "integr": 11056, "##agt": 11057, "invoer": 11058, "verlen": 11059, "##logisc": 11060, "##logisch": 11061, "##dsm": 11062, "##maatsc": 11063, "##rinner": 11064, "##erinner": 11065, "##bereid": 11066, "##lici": 11067, "##icite": 11068, "##ginne": 11069, "cris": 11070, "meerderhei": 11071, "meerderheid": 11072, "##ures": 11073, "##ikb": 11074, "##maatsch": 11075, "##maatscha": 11076, "##maatschap": 11077, "port": 11078, "##egeno": 11079, "herinn": 11080, "herinne": 11081, "herinner": 11082, "##fonds": 11083, "##aagt": 11084, "##eginn": 11085, "beginn": 11086, "##ginnen": 11087, "##sgez": 11088, "##eweld": 11089, "##commissi": 11090, "##commissie": 11091, "sociaa": 11092, "sociaal": 11093, "co\u00f6r": 11094, "co\u00f6rd": 11095, "co\u00f6rdi": 11096, "co\u00f6rdin": 11097, "##stuu": 11098, "##gsv": 11099, "##eginne": 11100, "beginne": 11101, "zei": 11102, "wate": 11103, "water": 11104, "##rsche": 11105, "##hep": 11106, "##aste": 11107, "##eginnen": 11108, "beginnen": 11109, "##tes": 11110, "##lott": 11111, "spele": 11112, "ontv": 11113, "##stuur": 11114, "##rkzaa": 11115, "##erkzaa": 11116, "##rkzaam": 11117, "##erkzaam": 11118, "og": 11119, "##boek": 11120, "##delen.": 11121, "##fti": 11122, "##oorda": 11123, "##eedse": 11124, "##weedse": 11125, "##toffen": 11126, "##dha": 11127, "##eoo": 11128, "##sprak": 11129, "maanden": 11130, "##nic": 11131, "##ierd": 11132, "##mva": 11133, "##mpr": 11134, "zweedse": 11135, "##ti\u00eb": 11136, "##epu": 11137, "vertrouwen": 11138, "##f,": 11139, "##itw": 11140, "##fice": 11141, "##iepr": 11142, "oge": 11143, "ogen": 11144, "aanbevel": 11145, "##zinge": 11146, "##zingen": 11147, "##ager": 11148, "##ologis": 11149, "##nadr": 11150, "##enadr": 11151, "##nadru": 11152, "##enadru": 11153, "##nadruk": 11154, "##enadruk": 11155, "##iali": 11156, "##etwe": 11157, "##cer": 11158, "geschi": 11159, "##rmu": 11160, "benadr": 11161, "benadru": 11162, "benadruk": 11163, "##nlev": 11164, "groep": 11165, "##tif": 11166, "##ssen.": 11167, "##nie,": 11168, "##tent": 11169, "##eschou": 11170, "##eschouw": 11171, "##chep": 11172, "##etgee": 11173, "##tgeen": 11174, "##etgeen": 11175, "##ichtig": 11176, "##andves": 11177, "##andvest": 11178, "##ezam": 11179, "##ezame": 11180, "##ikba": 11181, "##evan": 11182, "kwalite": 11183, "kwalitei": 11184, "kwaliteit": 11185, "bedra": 11186, "kwesties": 11187, "hetg": 11188, "hetge": 11189, "##derzij": 11190, "##derzijd": 11191, "##derzijds": 11192, "##werkt": 11193, "##at-": 11194, "##zamen": 11195, "##ologisc": 11196, "##ologisch": 11197, "##hode": 11198, "tegel": 11199, "tegeli": 11200, "tegelij": 11201, "tegelijk": 11202, "##erstan": 11203, "hierv": 11204, "elke": 11205, "hetgee": 11206, "hetgeen": 11207, "##erlo": 11208, "##ium": 11209, "##thode": 11210, "##ethode": 11211, "##traa": 11212, "fl": 11213, "gelegenhei": 11214, "gelegenheid": 11215, "##muler": 11216, "##ersche": 11217, "##gio'": 11218, "##egio'": 11219, "##nar": 11220, "##fva": 11221, "##0%": 11222, "##ifice": 11223, "##troo": 11224, "##sproces": 11225, "##dt,": 11226, "##edene": 11227, "##peri": 11228, "##orige": 11229, "##-pr": 11230, "##eggi": 11231, "##oetred": 11232, "##tien": 11233, "##rberei": 11234, "##rbereid": 11235, "aar": 11236, "##grip": 11237, "##egrip": 11238, "##ehoor": 11239, "##nstituti": 11240, "##gezon": 11241, "##gezond": 11242, "##aakt.": 11243, "##eggin": 11244, "##egging": 11245, "##ekte": 11246, "##sters": 11247, "##erstand": 11248, "##orberei": 11249, "##oorberei": 11250, "##orbereid": 11251, "##oorbereid": 11252, "##ronds": 11253, "beslissi": 11254, "beslissin": 11255, "beslissing": 11256, "##ojecte": 11257, "##rojecte": 11258, "##uli": 11259, "##ennis": 11260, "##atsv": 11261, "##aatsv": 11262, "##l-": 11263, "##estan": 11264, "principe": 11265, "verki": 11266, "##legge": 11267, "voorber": 11268, "voorbere": 11269, "voorberei": 11270, "voorbereid": 11271, "1999": 11272, "##api": 11273, "##lotte": 11274, "##naam": 11275, "concl": 11276, "conclu": 11277, "##ialis": 11278, "verkie": 11279, "##enbe": 11280, "##wijze": 11281, "##pste": 11282, "##valu": 11283, "##fval": 11284, "##aststell": 11285, "##fieke": 11286, "commissie.": 11287, "gewel": 11288, "geweld": 11289, "##elma": 11290, "daarn": 11291, "##tvoerin": 11292, "##tvoering": 11293, "##ojecten": 11294, "##rojecten": 11295, "##ogt": 11296, "##ekkinge": 11297, "##ekkingen": 11298, "##ezamen": 11299, "##dina": 11300, "invester": 11301, "##estuu": 11302, "##estuur": 11303, "##llere": 11304, "stelt": 11305, "##ad.": 11306, "##once": 11307, "##etwer": 11308, "##ifieke": 11309, "gegevens": 11310, "##velin": 11311, "##ormu": 11312, "##rmul": 11313, "##ormul": 11314, "##cul": 11315, "##98": 11316, "10": 11317, ".": 11318, "##ici\u00ebn": 11319, "##veling": 11320, "8": 11321, "onver": 11322, "##wu": 11323, "advi": 11324, "##rgro": 11325, "##elh": 11326, "##plaa": 11327, "resultat": 11328, "resultate": 11329, "resultaten": 11330, "##stij": 11331, "##eeks": 11332, "##dsla": 11333, "##etwerk": 11334, "##cifieke": 11335, "##ecifieke": 11336, "##pecifieke": 11337, "##nelle": 11338, "noor": 11339, "##mpro": 11340, "bescho": 11341, "##zorgd": 11342, "##vende": 11343, "rel": 11344, "##ri\u00eb": 11345, "##tutio": 11346, "##itutio": 11347, "##tution": 11348, "##titutio": 11349, "##itution": 11350, "##stitutio": 11351, "##titution": 11352, "##nstitutio": 11353, "##stitution": 11354, "##nstitution": 11355, "##aat-": 11356, "##kre": 11357, "##telin": 11358, "##eteren": 11359, "beken": 11360, "##rgaan": 11361, "##reft,": 11362, "##ie-": 11363, "##dzaak": 11364, "##evelin": 11365, "##eveling": 11366, "rij": 11367, "##teling": 11368, "##uiken": 11369, "##vera": 11370, "##rekkinge": 11371, "##trekkinge": 11372, "##rekkingen": 11373, "##trekkingen": 11374, "afr": 11375, "##fsc": 11376, "##dwer": 11377, "##dwerk": 11378, "##ecom": 11379, "##oogt": 11380, "##ents": 11381, "##verweg": 11382, "##ommuni": 11383, "##senti": 11384, "##rmel": 11385, "##gsm": 11386, "##oco": 11387, "verwer": 11388, "##nten.": 11389, "##mes": 11390, "##iginge": 11391, "##igingen": 11392, "overl": 11393, "##enlev": 11394, "##lijk.": 11395, "vaststell": 11396, "##zenl": 11397, "werde": 11398, "werden": 11399, "druk": 11400, "##araa": 11401, "##tslu": 11402, "##tslui": 11403, "##tsluit": 11404, "pass": 11405, "verkiez": 11406, "##ci\u00ebnt": 11407, "##turel": 11408, "##turele": 11409, "##ezenl": 11410, "##zenli": 11411, "##ezenli": 11412, "##zenlij": 11413, "##ezenlij": 11414, "##zenlijk": 11415, "##ezenlijk": 11416, "handv": 11417, "ap": 11418, "##vig": 11419, "##edg": 11420, "san": 11421, "straf": 11422, "##lz": 11423, "geba": 11424, "mach": 11425, "##mt.": 11426, "specifieke": 11427, "##avo": 11428, "subsi": 11429, "subsid": 11430, "##adw": 11431, "##treft,": 11432, "##etreft,": 11433, "betreft,": 11434, "##oedg": 11435, "##fici\u00ebn": 11436, "##ici\u00ebnt": 11437, "##ffici\u00ebn": 11438, "##fici\u00ebnt": 11439, "##ffici\u00ebnt": 11440, "subsidi": 11441, "##ezorgd": 11442, "##ilita": 11443, "##idaa": 11444, "##etrekkinge": 11445, "##etrekkingen": 11446, "em": 11447, "##ebrek": 11448, "##reis": 11449, "verhe": 11450, "werkz": 11451, "##didaa": 11452, "##idaat": 11453, "##ndidaa": 11454, "##didaat": 11455, "##andidaa": 11456, "##ndidaat": 11457, "##andidaat": 11458, "##rslage": 11459, "##erslage": 11460, "##rslagen": 11461, "##erslagen": 11462, "##terg": 11463, "zitt": 11464, "##middele": 11465, "##middelen": 11466, "##wijt": 11467, "##berali": 11468, "##iberali": 11469, "##beralis": 11470, "##iberalis": 11471, "##ukt": 11472, "##fsch": 11473, "verkiezi": 11474, "verkiezin": 11475, "verkiezing": 11476, "##erpen": 11477, "##hor": 11478, "dringe": 11479, "dringen": 11480, "##tug": 11481, "##edge": 11482, "##nove": 11483, "##egd,": 11484, "##iering": 11485, "luchtv": 11486, "##ebel": 11487, "##anks": 11488, "##eie": 11489, "##keurd": 11490, "##iscr": 11491, "##lon": 11492, "##beveli": 11493, "##nbeveli": 11494, "##bevelin": 11495, "##anbeveli": 11496, "##nbevelin": 11497, "##beveling": 11498, "##anbevelin": 11499, "##nbeveling": 11500, "##anbeveling": 11501, "##lijne": 11502, "##a5": 11503, "(a5": 11504, "##geko": 11505, "jus": 11506, "geeft": 11507, "techno": 11508, "komend": 11509, "##oedge": 11510, "##nover": 11511, "##edee": 11512, "werkza": 11513, "##lijnen": 11514, "##lgev": 11515, "just": 11516, "##orweg": 11517, "##oorweg": 11518, "real": 11519, "##punte": 11520, "##punten": 11521, "beschou": 11522, "beschouw": 11523, "##-lande": 11524, "##-landen": 11525, "##igrat": 11526, "handve": 11527, "handves": 11528, "handvest": 11529, "beperkt": 11530, "grie": 11531, "##rtug": 11532, "##ortug": 11533, "goedg": 11534, "goedge": 11535, "##rdie": 11536, "##voorz": 11537, "##igrati": 11538, "partners": 11539, "##elgev": 11540, "##ndan": 11541, "##-c": 11542, "##aals": 11543, "##tud": 11544, "##havi": 11545, "##pges": 11546, "ge\u00efn": 11547, "##voorzi": 11548, "##igratie": 11549, "##vaart": 11550, "##duren": 11551, "##exi": 11552, "##plaat": 11553, "##iggen": 11554, "##ntsta": 11555, "ontsta": 11556, "##gekeu": 11557, "##gekeur": 11558, "##ekeurd": 11559, "##gekeurd": 11560, "##erdere": 11561, "##ngaan": 11562, "##sonen": 11563, "##rsonen": 11564, "##ersonen": 11565, "##erschri": 11566, "vree": 11567, "verwij": 11568, "##schrif": 11569, "##schrift": 11570, "##prom": 11571, "maatsc": 11572, "maatsch": 11573, "maatscha": 11574, "maatschap": 11575, "##edigen": 11576, "##tzi": 11577, "##niet": 11578, "bestrijdi": 11579, "bestrijdin": 11580, "bestrijding": 11581, "##jpen": 11582, "##ijpen": 11583, "##rank": 11584, "##lmat": 11585, "##elmat": 11586, "##lmati": 11587, "##elmati": 11588, "##lmatig": 11589, "##elmatig": 11590, "##toriteite": 11591, "##utoriteite": 11592, "##toriteiten": 11593, "##utoriteiten": 11594, "##laatsv": 11595, "##teringe": 11596, "##teringen": 11597, "##epla": 11598, "##leid,": 11599, "##tenschapp": 11600, "##etenschapp": 11601, "##tenschappe": 11602, "##etenschappe": 11603, "##aardb": 11604, "kandidaa": 11605, "kandidaat": 11606, "##chre": 11607, "##ritie": 11608, "justi": 11609, "maatschapp": 11610, "##itslu": 11611, "##itslui": 11612, "##itsluit": 11613, "unie,": 11614, "plaatsv": 11615, "beo": 11616, "##oers": 11617, "aspecte": 11618, "aspecten": 11619, "##eorg": 11620, "##ogin": 11621, "##oging": 11622, "##rker": 11623, "##rmule": 11624, "##ormule": 11625, "##anden,": 11626, "vorige": 11627, "##dgek": 11628, "##eleid,": 11629, "##egra": 11630, "regio'": 11631, "waars": 11632, "##ranse": 11633, "##rdba": 11634, "##ardba": 11635, "##vaardb": 11636, "##aardba": 11637, "##nvaardb": 11638, "##vaardba": 11639, "##anvaardb": 11640, "##nvaardba": 11641, "##anvaardba": 11642, "##onin": 11643, "##ustit": 11644, "##stiti": 11645, "##ustiti": 11646, "##ktr": 11647, "##tigd": 11648, "raad,": 11649, "verva": 11650, "degenen": 11651, "##edeel": 11652, "ooste": 11653, "##het": 11654, "##overe": 11655, "##denen": 11656, "##oemde": 11657, "##igers": 11658, "##i\u00ebr": 11659, "waarsc": 11660, "waarsch": 11661, "##keuri": 11662, "griek": 11663, "##sab": 11664, "##ed.": 11665, "##ootst": 11666, "werkzaa": 11667, "werkzaam": 11668, "verbod": 11669, "##ling.": 11670, "##pree": 11671, "##preek": 11672, "##promi": 11673, "##rap": 11674, "regeli": 11675, "regelin": 11676, "regeling": 11677, "##acties": 11678, "justit": 11679, "justiti": 11680, "reali": 11681, "uitslu": 11682, "uitslui": 11683, "uitsluit": 11684, "##reig": 11685, "##sterin": 11686, "##stering": 11687, "##eres": 11688, "##aff": 11689, "##nth": 11690, "##illi": 11691, "schen": 11692, "portu": 11693, "portug": 11694, "##dslag": 11695, "##eland": 11696, "##nderde": 11697, "##eekt": 11698, "##ateri": 11699, "##ntai": 11700, "##nmidde": 11701, "##nmiddel": 11702, "##plaats": 11703, "##edenen": 11704, "opges": 11705, "nade": 11706, "##werkel": 11707, "##0)": 11708, "##odzaa": 11709, "##oodzaa": 11710, "##odzaak": 11711, "##oodzaak": 11712, "##ssent": 11713, "##enstem": 11714, "##lekt": 11715, "kenni": 11716, "kennis": 11717, "##epte": 11718, "##idt": 11719, "##jee": 11720, "##jeen": 11721, "##aadw": 11722, "##werkeli": 11723, "##werkelij": 11724, "##werkelijk": 11725, "##gelg": 11726, "##egelg": 11727, "##gelge": 11728, "##egelge": 11729, "##gelgev": 11730, "##egelgev": 11731, "redene": 11732, "##edgek": 11733, "##oedgek": 11734, "##evat": 11735, "franse": 11736, "##ssenti": 11737, "##gle": 11738, "##gte": 11739, "##eeft.": 11740, "##lkom": 11741, "##esteri": 11742, "##dgeke": 11743, "##edgeke": 11744, "##dgekeu": 11745, "goedgek": 11746, "##oedgeke": 11747, "##edgekeu": 11748, "##dgekeur": 11749, "##oedgekeu": 11750, "##edgekeur": 11751, "##dgekeurd": 11752, "##oedgekeur": 11753, "##edgekeurd": 11754, "##oedgekeurd": 11755, "##erdie": 11756, "##dwerke": 11757, "##kwa": 11758, "##nctio": 11759, "##nction": 11760, "##ntstaa": 11761, "ontstaa": 11762, "presi": 11763, "presid": 11764, "goedgeke": 11765, "goedgekeu": 11766, "goedgekeur": 11767, "goedgekeurd": 11768, "##oele": 11769, "##gb": 11770, "##rlement.": 11771, "##arlement.": 11772, "##nade": 11773, "##iders": 11774, "toetr": 11775, "lis": 11776, "##leids": 11777, "hal": 11778, "taak": 11779, "##edrage": 11780, "parlement.": 11781, "##mind": 11782, "vluchte": 11783, "##eleids": 11784, "##egelijke": 11785, "lic": 11786, "preside": 11787, "presiden": 11788, "president": 11789, "##utione": 11790, "##tutione": 11791, "##itutione": 11792, "##titutione": 11793, "##stitutione": 11794, "##nstitutione": 11795, "##odige": 11796, "##ompr": 11797, "##tgel": 11798, "toetre": 11799, "spor": 11800, "rep": 11801, "##siev": 11802, "##andh": 11803, "##ila": 11804, "##ompro": 11805, "##nvu": 11806, "##nvul": 11807, "cre": 11808, "##-fr": 11809, "win": 11810, "aanbeveli": 11811, "aanbevelin": 11812, "aanbeveling": 11813, "##00)": 11814, "##mprom": 11815, "##romis": 11816, "##mpromi": 11817, "##eves": 11818, "##ndank": 11819, "komende": 11820, "##nteerd": 11821, "##uve": 11822, "##adwe": 11823, "##aadwe": 11824, "##adwer": 11825, "##aadwer": 11826, "##adwerk": 11827, "##aadwerk": 11828, "##a5-": 11829, "(a5-": 11830, "##omprom": 11831, "##ompromi": 11832, "##nvull": 11833, "##betere": 11834, "##rbetere": 11835, "##beteren": 11836, "##erbetere": 11837, "##rbeteren": 11838, "verbetere": 11839, "##erbeteren": 11840, "verbeteren": 11841, "##hui": 11842, "tota": 11843, "technol": 11844, "technolo": 11845, "technolog": 11846, "##orsp": 11847, "##smi": 11848, "daadw": 11849, "daadwe": 11850, "daadwer": 11851, "##adwerke": 11852, "##dwerkel": 11853, "daadwerk": 11854, "##aadwerke": 11855, "##adwerkel": 11856, "##dwerkeli": 11857, "daadwerke": 11858, "##aadwerkel": 11859, "##adwerkeli": 11860, "##dwerkelij": 11861, "daadwerkel": 11862, "##aadwerkeli": 11863, "##adwerkelij": 11864, "##dwerkelijk": 11865, "daadwerkeli": 11866, "##aadwerkelij": 11867, "##adwerkelijk": 11868, "daadwerkelij": 11869, "##aadwerkelijk": 11870, "daadwerkelijk": 11871, "##itvoerin": 11872, "##itvoering": 11873, "##reso": 11874, "gespro": 11875, "##-fra": 11876, "##rmoe": 11877, "##kzaamh": 11878, "##kzaamhe": 11879, "##ku": 11880, "##-i": 11881, "##resol": 11882, "##resolu": 11883, "##resolut": 11884, "##resoluti": 11885, "##resolutie": 11886, "compr": 11887, "compro": 11888, "##promis": 11889, "comprom": 11890, "##mpromis": 11891, "compromi": 11892, "##ompromis": 11893, "##ektr": 11894, "##kert": 11895, "##gelijker": 11896, "##gaand": 11897, "##diens": 11898, "##dienst": 11899, "##iscri": 11900, "##scrim": 11901, "##listi": 11902, "##elijks": 11903, "##rric": 11904, "12": 11905, "##ngsv": 11906, "daarna": 11907, "##gsco": 11908, "##eggen.": 11909, "compromis": 11910, "##lag.": 11911, "##ergro": 11912, "##danks": 11913, "##ndanks": 11914, "##lektr": 11915, "##imen": 11916, "##ndert": 11917, "##onclus": 11918, "##onclusi": 11919,
[...]
