{"byte_pairs": {"__eow": 5, "__sow": 6, "e": 7, "n": 8, "i": 9, "a": 10, "t": 11, "r": 12, "o": 13, "d": 14, "en": 15, "l": 16, "s": 17, "g": 18, "v": 19, "de": 20, "**<vz><init>**": 21, "m": 22, "er": 23, "h": 24, "k": 25, "u": 26, "**<n><soort><ev><basis><zijd><stan>**": 27, "an": 28, "b": 29, "**<let>**": 30, "j": 31, "ij": 32, "z": 33, "te": 34, "p": 35, "in": 36, "**<lid><bep><stan><rest>**": 37, "w": 38, "c": 39, "et": 40, "aa": 41, "ie": 42, "el": 43, "he": 44, "ee": 45, "**<bw>**": 46, "or": 47, "**<n><soort><mv><basis>**": 48, "ge": 49, "**<n><soort><ev><basis><onz><stan>**": 50, "ve": 51, "va": 52, "at": 53, "oo": 54, "re": 55, "be": 56, "**<ww><inf><vrij><zonder>**": 57, "st": 58, "me": 59, "ng": 60, ".": 61, "le": 62, "van": 63, "**<adj><prenom><basis><met-e><stan>**": 64, "zi": 65, "nd": 66, "li": 67, "ar": 68, "it": 69, "vo": 70, "da": 71, "ch": 72, ",": 73, "het": 74, "on": 75, "ing": 76, "oe": 77, "ti": 78, "ver": 79, "jn": 80, "ijn": 81, "oor": 82, "f": 83, "di": 84, "**<ww><pv><tgw><ev>**": 85, "al": 86, "**<vg><neven>**": 87, "een": 88, "ro": 89, "ri": 90, "op": 91, "zij": 92, "om": 93, "**<lid><bep><stan><evon>**": 94, "nt": 95, "ke": 96, "zijn": 97, "we": 98, "**<ww><vd><vrij><zonder>**": 99, "aar": 100, "ni": 101, "mi": 102, "is": 103, "**<adj><vrij><basis><zonder>**": 104, "ra": 105, "**<ww><pv><tgw><mv>**": 106, "ei": 107, "den": 108, "voo": 109, "voor": 110, "ne": 111, "rd": 112, "**<vg><onder>**": 113, "**<spec><deeleigen>**": 114, "ll": 115, "gen": 116, "men": 117, "ns": 118, "**<ww><pv><tgw><met-t>**": 119, "dat": 120, "id": 121, "la": 122, "aan": 123, "es": 124, "eg": 125, "em": 126, "len": 127, "lle": 128, "ten": 129, "**<lid><onbep><stan><agr>**": 130, "nde": 131, "wi": 132, "jk": 133, "ijk": 134, "ed": 135, "lij": 136, "ui": 137, "ze": 138, "ig": 139, "der": 140, "ur": 141, "pe": 142, "ta": 143, "ma": 144, "eu": 145, "and": 146, "eb": 147, "un": 148, "na": 149, "ren": 150, "tie": 151, "sc": 152, "ken": 153, "ik": 154, "co": 155, "se": 156, "ord": 157, "rde": 158, "ter": 159, "ste": 160, "ere": 161, "llen": 162, "eli": 163, "ht": 164, "cht": 165, "lijk": 166, "sch": 167, "mo": 168, "to": 169, "ek": 170, "ev": 171, "tr": 172, "nie": 173, "wo": 174, "rs": 175, "orde": 176, "ss": 177, "die": 178, "eid": 179, "ec": 180, "si": 181, "wa": 182, "nen": 183, "pr": 184, "ben": 185, "ent": 186, "ol": 187, "rden": 188, "eel": 189, "ha": 190, "uit": 191, "orden": 192, "bb": 193, "bbe": 194, "eme": 195, "ag": 196, "nder": 197, "ebb": 198, "ebbe": 199, "heb": 200, "hebb": 201, "hebbe": 202, "bben": 203, "ebben": 204, "hebben": 205, "pa": 206, "elij": 207, "elijk": 208, "ov": 209, "eren": 210, "ens": 211, "wij": 212, "wor": 213, "bi": 214, "nn": 215, "word": 216, "worde": 217, "worden": 218, "ove": 219, "gr": 220, "rk": 221, "mm": 222, "ete": 223, "il": 224, "**<vnw><pers><pron><nomin><vol><1><ev>**": 225, "eur": 226, "ez": 227, "lan": 228, "zo": 229, "ond": 230, "ul": 231, "sta": 232, "ers": 233, "am": 234, "**<adj><prenom><basis><zonder>**": 235, "ic": 236, "eer": 237, "do": 238, "og": 239, "no": 240, "ak": 241, "iet": 242, "met": 243, "nne": 244, "over": 245, "ati": 246, "ot": 247, "eten": 248, "ls": 249, "ho": 250, "rt": 251, "emen": 252, "-": 253, "tel": 254, "erk": 255, "niet": 256, "ven": 257, "moe": 258, "sl": 259, "mis": 260, "ege": 261, "ga": 262, "rop": 263, "gel": 264, "ope": 265, "oet": 266, "ts": 267, "rij": 268, "ds": 269, "aat": 270, "del": 271, "ko": 272, "nnen": 273, "iss": 274, "uro": 275, "com": 276, "euro": 277, "hei": 278, "ct": 279, "ac": 280, "heid": 281, "ad": 282, "tt": 283, "rl": 284, "moet": 285, "sp": 286, "ment": 287, "mmi": 288, "ou": 289, "oete": 290, "rz": 291, "oeten": 292, "rin": 293, "eri": 294, "rg": 295, "moete": 296, "moeten": 297, "ele": 298, "onde": 299, "omm": 300, "als": 301, "**<vnw><pers><pron><nomin><vol><1><mv>**": 302, "zu": 303, "maa": 304, "urop": 305, "europ": 306, "ull": 307, "**<vnw><pers><pron><stan><red><3><ev><onz>**": 308, "rm": 309, "eve": 310, "eze": 311, "ang": 312, "ssi": 313, "ulle": 314, "ullen": 315, "**<vz><fin>**": 316, "tu": 317, "**<vnw><betr><pron><stan><vol><persoon><getal>**": 318, "ech": 319, "stel": 320, "ich": 321, "raa": 322, "taa": 323, "aal": 324, "onder": 325, "ien": 326, "wer": 327, "comm": 328, "ok": 329, "zul": 330, "uw": 331, "end": 332, "tre": 333, "sie": 334, "zull": 335, "zulle": 336, "zullen": 337, "lo": 338, "waa": 339, "tte": 340, "ite": 341, "miss": 342, "0": 343, "gi": 344, "ef": 345, "ru": 346, "dit": 347, "pro": 348, "hee": 349, "hi": 350, "vr": 351, "waar": 352, "daa": 353, "ommi": 354, "lin": 355, "as": 356, "mij": 357, "atie": 358, "vi": 359, "echt": 360, "kk": 361, "ku": 362, "dr": 363, "bel": 364, "us": 365, "nk": 366, "du": 367, "**<ww><pv><verl><ev>**": 368, "kun": 369, "ook": 370, "commi": 371, "mmis": 372, "ommis": 373, "commis": 374, "mmiss": 375, "ommiss": 376, "commiss": 377, "ede": 378, "ling": 379, "unn": 380, "ind": 381, "unne": 382, "dig": 383, "bij": 384, "**<vnw><aanw><pron><stan><vol><3o><ev>**": 385, "unnen": 386, "ba": 387, "bes": 388, "kunn": 389, "kunne": 390, "kunnen": 391, "ons": 392, "naa": 393, "dez": 394, "deze": 395, "est": 396, "ande": 397, "tw": 398, "ring": 399, "ell": 400, "ap": 401, "ame": 402, "con": 403, "**<vnw><aanw><adv-pron><stan><red><3><getal>**": 404, "rope": 405, "ki": 406, "ssie": 407, "urope": 408, "europe": 409, "eke": 410, "gev": 411, "staa": 412, "fe": 413, "ld": 414, "ill": 415, "br": 416, "issi": 417, "isc": 418, "vers": 419, "od": 420, "even": 421, "toe": 422, "pl": 423, "af": 424, "land": 425, "**<vnw><aanw><det><stan><prenom><zonder><evon>**": 426, "**<vnw><aanw><det><stan><prenom><met-e><rest>**": 427, "nge": 428, "so": 429, "rb": 430, "ement": 431, "kom": 432, "kel": 433, "missi": 434, "issie": 435, "missie": 436, "ep": 437, "ille": 438, "jd": 439, "ijd": 440, "tell": 441, "oc": 442, "mijn": 443, "par": 444, "rst": 445, "vol": 446, "**<tw><hoofd><vrij>**": 447, "ant": 448, "pen": 449, "mmissi": 450, "ommissi": 451, "commissi": 452, "str": 453, "mmissie": 454, "ommissie": 455, "commissie": 456, "gro": 457, "sa": 458, "po": 459, "lu": 460, "stell": 461, "erin": 462, "rzi": 463, "heer": 464, "ci": 465, "min": 466, "ont": 467, "rv": 468, "illen": 469, "werk": 470, "isch": 471, "daar": 472, "ese": 473, "of": 474, "ier": 475, "ene": 476, "**<tw><hoofd><prenom><stan>**": 477, "bet": 478, "icht": 479, "nh": 480, "hte": 481, "chte": 482, "oed": 483, "io": 484, "**<vnw><pers><pron><nomin><red><1><mv>**": 485, "vee": 486, "kke": 487, "gs": 488, "rek": 489, "orz": 490, "oorz": 491, "rec": 492, "rle": 493, "sti": 494, "wil": 495, "lem": 496, "ering": 497, "deli": 498, "sla": 499, "doo": 500, "sen": 501, "eken": 502, "ake": 503, "nem": 504, "tot": 505, "eni": 506, "ce": 507, "veel": 508, "itt": 509, "egen": 510, "ige": 511, "will": 512, "cha": 513, "ela": 514, "nte": 515, "dan": 516, "reg": 517, "nst": 518, "pes": 519, "doe": 520, "voorz": 521, "door": 522, "gg": 523, "orzi": 524, "oorzi": 525, "maar": 526, "zit": 527, "ka": 528, "pese": 529, "wille": 530, "opes": 531, "ropes": 532, "uropes": 533, "europes": 534, "opese": 535, "ropese": 536, "uropese": 537, "europese": 538, "rn": 539, "lang": 540, "zitt": 541, "voorzi": 542, "willen": 543, "kin": 544, "mee": 545, "ide": 546, "itte": 547, "bl": 548, "ach": 549, "go": 550, "za": 551, "bo": 552, "ome": 553, "zitte": 554, "lei": 555, "tter": 556, "scha": 557, "acht": 558, "iti": 559, "amen": 560, "ard": 561, "oord": 562, "leg": 563, "oen": 564, "omen": 565, "hu": 566, "han": 567, "gge": 568, "eld": 569, "wel": 570, "2": 571, "neme": 572, "nhe": 573, "ids": 574, "itter": 575, "rzit": 576, "orzit": 577, "oorzit": 578, "rzitt": 579, "orzitt": 580, "oorzitt": 581, "voorzit": 582, "rzitte": 583, "voorzitt": 584, "orzitte": 585, "oorzitte": 586, "voorzitte": 587, "ouw": 588, "elin": 589, "eit": 590, "zitter": 591, "rzitter": 592, "orzitter": 593, "oorzitter": 594, "voorzitter": 595, "voe": 596, "eling": 597, "gaa": 598, "leme": 599, "lemen": 600, "lement": 601, "king": 602, "ia": 603, "ngs": 604, "ari": 605, "igen": 606, "os": 607, "teg": 608, "inde": 609, "1": 610, "ger": 611, "rech": 612, "recht": 613, "ggen": 614, "ud": 615, "arl": 616, "ort": 617, "tij": 618, "erv": 619, "ree": 620, "gin": 621, "rge": 622, "elle": 623, "sse": 624, "erd": 625, "aard": 626, "cti": 627, "aad": 628, "lag": 629, "ellen": 630, "din": 631, "lg": 632, "geb": 633, "tin": 634, "telle": 635, "rw": 636, "gaan": 637, "ern": 638, "uni": 639, "bela": 640, "geli": 641, "nemen": 642, "all": 643, "nc": 644, "tellen": 645, "egg": 646, "ili": 647, "etr": 648, "ander": 649, "nin": 650, "keli": 651, "ff": 652, "im": 653, "arle": 654, "pp": 655, "parl": 656, "rlem": 657, "arlem": 658, "orm": 659, "parle": 660, "rleme": 661, "parlem": 662, "arleme": 663, "rlemen": 664, "parleme": 665, "arlemen": 666, "rlement": 667, "parlemen": 668, "arlement": 669, "parlement": 670, "leid": 671, "zie": 672, "taat": 673, "rste": 674, "stelle": 675, "ran": 676, "ntw": 677, "elan": 678, "nke": 679, "stellen": 680, "ied": 681, "rke": 682, "ut": 683, "age": 684, "lee": 685, "oge": 686, "ate": 687, "slag": 688, "goe": 689, "goed": 690, "erg": 691, "enk": 692, "ins": 693, "ning": 694, "rag": 695, "etre": 696, "rh": 697, "kome": 698, "oek": 699, "komen": 700, "ngen": 701, "fi": 702, "ting": 703, "egge": 704, "lid": 705, "spr": 706, "ding": 707, "tei": 708, "bu": 709, "uc": 710, "eggen": 711, "ings": 712, "alle": 713, "hap": 714, "chap": 715, "schap": 716, "gelij": 717, "gelijk": 718, "art": 719, "nti": 720, "laa": 721, "elang": 722, "belan": 723, "erke": 724, "zic": 725, "zich": 726, "rege": 727, "rei": 728, "ieu": 729, "ors": 730, "oud": 731, "itei": 732, "belang": 733, "vin": 734, "ber": 735, "ist": 736, "ndi": 737, "zien": 738, "delij": 739, "delijk": 740, "nat": 741, "iek": 742, "nv": 743, "pre": 744, "tra": 745, "era": 746, "betr": 747, "uite": 748, "oors": 749, "nu": 750, "bre": 751, "hie": 752, "oer": 753, "her": 754, "eden": 755, "chi": 756, "uu": 757, "nis": 758, "ctie": 759, "eens": 760, "au": 761, "lk": 762, "mer": 763, "erh": 764, "staat": 765, "aag": 766, "nl": 767, "tege": 768, "lit": 769, "egi": 770, "teit": 771, "ris": 772, "aken": 773, "itie": 774, "elen": 775, "betre": 776, "ali": 777, "ffe": 778, "erw": 779, "iteit": 780, "hand": 781, "ion": 782, "nog": 783, "taan": 784, "ect": 785, "00": 786, "raad": 787, "ming": 788, "rsc": 789, "hou": 790, "tan": 791, "gri": 792, "org": 793, "unie": 794, "rsch": 795, "ja": 796, "vere": 797, "**<ww><vd><prenom><met-e>**": 798, "nhee": 799, "voors": 800, "int": 801, "jnh": 802, "ijnh": 803, "jnhe": 804, "ijnhe": 805, "staan": 806, "gee": 807, "nheer": 808, "mijnh": 809, "mijnhe": 810, "jnhee": 811, "ijnhee": 812, "jnheer": 813, "mijnhee": 814, "ijnheer": 815, "mijnheer": 816, "eh": 817, "rsl": 818, "erb": 819, "enen": 820, "erz": 821, "ief": 822, "mog": 823, "ir": 824, "roo": 825, "erl": 826, "act": 827, "nw": 828, "tig": 829, "moge": 830, "wat": 831, "jz": 832, "ijz": 833, "per": 834, "aro": 835, "ersl": 836, "rstel": 837, "dien": 838, "woo": 839, "app": 840, "rsla": 841, "egel": 842, "aak": 843, "ms": 844, "cr": 845, "teu": 846, "evo": 847, "rat": 848, "versl": 849, "geen": 850, "wee": 851, "nse": 852, "eff": 853, "ersla": 854, "res": 855, "schi": 856, "orst": 857, "rslag": 858, "che": 859, "mak": 860, "versla": 861, "nden": 862, "ssen": 863, "dst": 864, "erm": 865, "ndel": 866, "oorst": 867, "naar": 868, "wet": 869, "stan": 870, "erslag": 871, "ea": 872, "ew": 873, "fen": 874, "doen": 875, "ure": 876, "vor": 877, "voorst": 878, "ging": 879, "tegen": 880, "verslag": 881, "ende": 882, "aaro": 883, "rie": 884, "edi": 885, "beg": 886, "rui": 887, "lli": 888, "ona": 889, "pu": 890, "ric": 891, "rijk": 892, "pla": 893, "um": 894, "tijd": 895, "rou": 896, "houd": 897, "oms": 898, "erst": 899, "gra": 900, "bie": 901, "inte": 902, "tere": 903, "ans": 904, "kr": 905, "ank": 906, "geve": 907, "rouw": 908, "kt": 909, "lig": 910, "ade": 911, "orste": 912, "uur": 913, "dem": 914, "open": 915, "orstel": 916, "ser": 917, "rdi": 918, "oorste": 919, "voorste": 920, "mens": 921, "**<vnw><aanw><adv-pron><obl><vol><3o><getal>**": 922, "tio": 923, "oorstel": 924, "voorstel": 925, "ersc": 926, "tion": 927, "y": 928, "lge": 929, "tee": 930, "oot": 931, "enin": 932, "ast": 933, "nz": 934, "ron": 935, "**<vnw><bez><det><stan><vol><3><ev><prenom><zonder><agr>**": 936, "make": 937, "dra": 938, "vra": 939, "ersch": 940, "**<vz><versm>**": 941, "zen": 942, "rich": 943, "ein": 944, "nter": 945, "hier": 946, "ob": 947, "tem": 948, "richt": 949, "rr": 950, "bied": 951, "nati": 952, "bli": 953, "maken": 954, "gem": 955, "ert": 956, "rvo": 957, "**<adj><vrij><comp><zonder>**": 958, "olg": 959, "lf": 960, "ening": 961, "ai": 962, "**<vnw><onbep><det><stan><prenom><zonder><agr>**": 963, "ntie": 964, "volg": 965, "mst": 966, "twe": 967, "grij": 968, "agen": 969, "vaa": 970, "woor": 971, "woord": 972, "elei": 973, "ks": 974, "effe": 975, "voer": 976, "uid": 977, "**<ww><pv><verl><mv>**": 978, "ude": 979, "hter": 980, "chter": 981, "best": 982, "rbe": 983, "kken": 984, "regel": 985, "tief": 986, "ker": 987, "**<ww><inf><nom><zonder><zonder-n>**": 988, "oel": 989, "gh": 990, "zaa": 991, "**<ww><od><prenom><met-e>**": 992, "dd": 993, "ats": 994, "sche": 995, "eleid": 996, "zon": 997, "idi": 998, "red": 999, "su": 1000, "tten": 1001, "rte": 1002, "**<vnw><bez><det><stan><vol><1><mv><prenom><met-e><rest>**": 1003, "lui": 1004, "bele": 1005, "dri": 1006, "rki": 1007, "ekk": 1008, "nda": 1009, "geven": 1010, "omst": 1011, "idst": 1012, "iten": 1013, "reke": 1014, "**<vnw><refl><pron><obl><red><3><getal>**": 1015, "ikk": 1016, "dee": 1017, "laat": 1018, "lt": 1019, "aats": 1020, "ster": 1021, "lie": 1022, "twi": 1023, "eng": 1024, "dsta": 1025, "eem": 1026, "esc": 1027, "kkel": 1028, "ffen": 1029, "rom": 1030, "pel": 1031, "idsta": 1032, "zeg": 1033, "zel": 1034, "\u00eb": 1035, "dstaa": 1036, "rken": 1037, "lids": 1038, "lidst": 1039, "lidsta": 1040, "tand": 1041, "idstaa": 1042, "dstaat": 1043, "lidstaa": 1044, "idstaat": 1045, "lidstaat": 1046, "fr": 1047, "bev": 1048, "ini": 1049, "acti": 1050, "stand": 1051, "ero": 1052, "esch": 1053, "vro": 1054, "tal": 1055, "ngr": 1056, "baa": 1057, "ees": 1058, "elf": 1059, "echte": 1060, "rme": 1061, "lis": 1062, "zegg": 1063, "val": 1064, "zond": 1065, "reken": 1066, "**<vnw><vb><pron><stan><vol><3o><ev>**": 1067, "elli": 1068, "ontw": 1069, "rp": 1070, "roe": 1071, "rmi": 1072, "kelij": 1073, "ikke": 1074, "kelijk": 1075, "tv": 1076, "spe": 1077, "ori": 1078, "oli": 1079, "hten": 1080, "chten": 1081, "zegge": 1082, "belei": 1083, "beleid": 1084, "omi": 1085, "ani": 1086, "geme": 1087, "zeggen": 1088, "inn": 1089, "erken": 1090, "euw": 1091, "uk": 1092, "uiten": 1093, "wijz": 1094, "eva": 1095, "tg": 1096, "raag": 1097, "oude": 1098, "root": 1099, "trek": 1100, "groo": 1101, "groot": 1102, "iona": 1103, "andel": 1104, "sm": 1105, "enl": 1106, "teren": 1107, "zelf": 1108, "stem": 1109, "nig": 1110, "slu": 1111, "ner": 1112, "ett": 1113, "tis": 1114, "hande": 1115, "meen": 1116, "igh": 1117, "verb": 1118, "je": 1119, "lat": 1120, "emee": 1121, "jaa": 1122, "**<tw><rang><prenom><stan>**": 1123, "hoe": 1124, "9": 1125, "erp": 1126, "fo": 1127, "vrou": 1128, "vrouw": 1129, "beh": 1130, "erki": 1131, "jaar": 1132, "inst": 1133, "mid": 1134, "dde": 1135, "rati": 1136, "rac": 1137, "20": 1138, "koms": 1139, "komst": 1140, "ega": 1141, "enw": 1142, "rekk": 1143, "handel": 1144, "naal": 1145, "uss": 1146, "slui": 1147, "aam": 1148, "ghe": 1149, "unt": 1150, "effen": 1151, "kl": 1152, "gemee": 1153, "**<vnw><pers><pron><nomin><vol><2b><getal>**": 1154, "emeen": 1155, "ngri": 1156, "ngrij": 1157, "houde": 1158, "ref": 1159, "luit": 1160, "onaa": 1161, "gemeen": 1162, "kw": 1163, "vaar": 1164, "ieuw": 1165, "sluit": 1166, "ezi": 1167, "rli": 1168, "nieu": 1169, "trekk": 1170, "jv": 1171, "ijv": 1172, "nieuw": 1173, "idd": 1174, "tro": 1175, "lev": 1176, "lic": 1177, "**<vnw><pr><pron><obl><vol><1><mv>**": 1178, "enti": 1179, "midd": 1180, "nta": 1181, "ina": 1182, "rage": 1183, "drag": 1184, "inden": 1185, "ike": 1186, "ghei": 1187, "gheid": 1188, "ighe": 1189, "sin": 1190, "cu": 1191, ":": 1192, "inter": 1193, "ighei": 1194, "igheid": 1195, "**<vnw><aanw><det><stan><prenom><zonder><rest>**": 1196, "angr": 1197, "nken": 1198, "gan": 1199, "angri": 1200, "angrij": 1201, "enke": 1202, "uden": 1203, "ervo": 1204, "one": 1205, "nsc": 1206, "hun": 1207, "egr": 1208, "tor": 1209, "idde": 1210, "midde": 1211, "ppe": 1212, "iv": 1213, "gd": 1214, "bed": 1215, "grijk": 1216, "ngrijk": 1217, "jke": 1218, "ijke": 1219, "angrijk": 1220, "nsch": 1221, "sel": 1222, "zoe": 1223, "baar": 1224, "pun": 1225, "punt": 1226, "oa": 1227, "deel": 1228, "**<n><soort><ev><basis><dat>**": 1229, "mil": 1230, "tri": 1231, "reff": 1232, "reffe": 1233, "tref": 1234, "besc": 1235, "besch": 1236, "treff": 1237, "treffe": 1238, "langr": 1239, "elangr": 1240, "langri": 1241, "belangr": 1242, "elangri": 1243, "langrij": 1244, "belangri": 1245, "elangrij": 1246, "belangrij": 1247, "langrijk": 1248, "elangrijk": 1249, "belangrijk": 1250, "ouden": 1251, "nee": 1252, "houden": 1253, "**<vnw><bez><det><stan><vol><3><mv><prenom><zonder><agr>**": 1254, "inne": 1255, "ikkel": 1256, "enge": 1257, "its": 1258, "llin": 1259, "onaal": 1260, "reffen": 1261, "treffen": 1262, "dui": 1263, "atio": 1264, "maat": 1265, "rit": 1266, "ation": 1267, "lling": 1268, "eide": 1269, "hoo": 1270, "ionaa": 1271, "ionaal": 1272, "rob": 1273, "actie": 1274, "telli": 1275, "blij": 1276, "zoek": 1277, "oll": 1278, "man": 1279, "eed": 1280, "iden": 1281, "rdig": 1282, "rti": 1283, "ssa": 1284, "**<vnw><onbep><det><stan><prenom><met-e><agr>**": 1285, "oog": 1286, "ann": 1287, "tb": 1288, "**<vnw><bez><det><stan><vol><1><ev><prenom><zonder><agr>**": 1289, "ale": 1290, "prob": 1291, "wik": 1292, "tl": 1293, "wikk": 1294, "wikke": 1295, "oal": 1296, "rkin": 1297, "tiona": 1298, "wikkel": 1299, "aten": 1300, "?": 1301, "verd": 1302, "oep": 1303, "rking": 1304, "5": 1305, "doel": 1306, "erkin": 1307, "eil": 1308, "**<vnw><betr><pron><stan><vol><3><ev>**": 1309, "erking": 1310, "eun": 1311, "echter": 1312, "nds": 1313, "ju": 1314, "tek": 1315, "stelli": 1316, "tisc": 1317, "tisch": 1318, "steu": 1319, "teun": 1320, "ensc": 1321, "steun": 1322, "zoa": 1323, "zoal": 1324, "oals": 1325, "zoals": 1326, "air": 1327, "nwe": 1328, "nscha": 1329, "ette": 1330, "ca": 1331, "200": 1332, "ono": 1333, "kkeli": 1334, "rga": 1335, "por": 1336, "sam": 1337, "ogen": 1338, "ensch": 1339, "verw": 1340, "rva": 1341, "vind": 1342, "same": 1343, "eree": 1344, "mme": 1345, "mu": 1346, "ntwi": 1347, "samen": 1348, "entie": 1349, "ationa": 1350, "epa": 1351, "eids": 1352, "dere": 1353, "ellin": 1354, "pol": 1355, "natio": 1356, "nation": 1357, "elling": 1358, "ler": 1359, "nationa": 1360, "zet": 1361, "ise": 1362, "mp": 1363, "vinde": 1364, "ab": 1365, "vinden": 1366, "ntr": 1367, "nschap": 1368, "ontwi": 1369, "emm": 1370, "ader": 1371, "enscha": 1372, "twik": 1373, "ntwik": 1374, "twikk": 1375, "ntwikk": 1376, "ontwik": 1377, "twikke": 1378, "ontwikk": 1379, "ntwikke": 1380, "twikkel": 1381, "ntwikkel": 1382, "ontwikke": 1383, "ontwikkel": 1384, "enschap": 1385, "tuu": 1386, "eds": 1387, "gez": 1388, "olle": 1389, "bur": 1390, "esti": 1391, "tiek": 1392, "tellin": 1393, "telling": 1394, "iaa": 1395, "stellin": 1396, "stelling": 1397, "nf": 1398, "arom": 1399, "nb": 1400, "aarom": 1401, "ddel": 1402, "opa": 1403, "mat": 1404, "**<vnw><onbep><grad><stan><vrij><zonder><comp>**": 1405, "eco": 1406, "fin": 1407, "jf": 1408, "ijf": 1409, "jde": 1410, "ijde": 1411, "sit": 1412, "kri": 1413, "evr": 1414, "ropa": 1415, "iddel": 1416, "kh": 1417, "oorde": 1418, "middel": 1419, "wen": 1420, "iede": 1421, "esl": 1422, "spre": 1423, "twee": 1424, "jze": 1425, "ijze": 1426, "ebr": 1427, "vorm": 1428, "els": 1429, "uropa": 1430, "europa": 1431, "fs": 1432, "heel": 1433, "rond": 1434, "eili": 1435, "oeg": 1436, "stri": 1437, "arin": 1438, "rzo": 1439, "weg": 1440, "ua": 1441, "rede": 1442, "i\u00eb": 1443, "haa": 1444, "bru": 1445, "tern": 1446, "elk": 1447, "plaa": 1448, "laats": 1449, "tst": 1450, "ema": 1451, "port": 1452, "verk": 1453, "uide": 1454, "nam": 1455, "ebi": 1456, "jken": 1457, "ijken": 1458, "dus": 1459, "ogel": 1460, "waard": 1461, "mar": 1462, "temm": 1463, "bep": 1464, "stemm": 1465, "ebie": 1466, "ebied": 1467, "gebi": 1468, "gebie": 1469, "gebied": 1470, "plaat": 1471, "llee": 1472, "verg": 1473, "roc": 1474, "ass": 1475, "enh": 1476, "oce": 1477, "uct": 1478, "plaats": 1479, "olge": 1480, "reng": 1481, "pee": 1482, "leen": 1483, "ogeli": 1484, "ogelij": 1485, "ogelijk": 1486, "tionaa": 1487, "ationaa": 1488, "tionaal": 1489, "ationaal": 1490, "th": 1491, "nationaa": 1492, "nationaal": 1493, "mogel": 1494, "mogeli": 1495, "mogelij": 1496, "mogelijk": 1497, "evi": 1498, "x": 1499, "volge": 1500, "lleen": 1501, "allee": 1502, "alleen": 1503, "cia": 1504, "zee": 1505, "besl": 1506, "sb": 1507, "poli": 1508, "**<vnw><onbep><pron><stan><vol><3o><ev>**": 1509, "esta": 1510, "pri": 1511, "leve": 1512, "lgen": 1513, "daaro": 1514, "proc": 1515, "tuur": 1516, "erzo": 1517, "engen": 1518, "zonde": 1519, "usse": 1520, "olgen": 1521, "volgen": 1522, "reen": 1523, "iaal": 1524, "tus": 1525, "zonder": 1526, "roce": 1527, "proce": 1528, "3": 1529, "fra": 1530, "bere": 1531, "hti": 1532, "ereen": 1533, "chti": 1534, "dh": 1535, "tai": 1536, "opee": 1537, "ange": 1538, "geva": 1539, "liti": 1540, "khe": 1541, "rzoe": 1542, "wijze": 1543, "erzoe": 1544, "nste": 1545, "rmin": 1546, "ragen": 1547, "rhe": 1548, "khei": 1549, "kheid": 1550, "rlij": 1551, "jkh": 1552, "ijkh": 1553, "jkhe": 1554, "ijkhe": 1555, "rwe": 1556, "lijkh": 1557, "lijkhe": 1558, "innen": 1559, "jkhei": 1560, "ijkhei": 1561, "jkheid": 1562, "ijkheid": 1563, "lijkhei": 1564, "lijkheid": 1565, "pees": 1566, "ropee": 1567, "uropee": 1568, "europee": 1569, "opees": 1570, "ropees": 1571, "uropees": 1572, "europees": 1573, "vert": 1574, "ble": 1575, "olit": 1576, "polit": 1577, "verl": 1578, "urg": 1579, "idel": 1580, "stee": 1581, "rna": 1582, "nom": 1583, "cie": 1584, "nko": 1585, "zaak": 1586, "eder": 1587, "name": 1588, "md": 1589, "obl": 1590, "oliti": 1591, "politi": 1592, "ideli": 1593, "rzoek": 1594, "idelij": 1595, "idelijk": 1596, "begr": 1597, "oble": 1598, "erzoek": 1599, "robl": 1600, "roble": 1601, "rbi": 1602, "ara": 1603, "reid": 1604, "err": 1605, "probl": 1606, "proble": 1607, "versc": 1608, "versch": 1609, "delin": 1610, "arm": 1611, "dele": 1612, "kki": 1613, "nli": 1614, "deling": 1615, "werke": 1616, "**<adj><prenom><sup><met-e><stan>**": 1617, "bren": 1618, "pi": 1619, "happ": 1620, "'": 1621, "nci": 1622, "chapp": 1623, "schapp": 1624, "lega": 1625, "gebr": 1626, "ug": 1627, "onom": 1628, "arb": 1629, "prek": 1630, "breng": 1631, "sprek": 1632, "gele": 1633, "econ": 1634, "erei": 1635, "bin": 1636, "deri": 1637, "noo": 1638, "etref": 1639, "betref": 1640, "ermi": 1641, "etreff": 1642, "betreff": 1643, "etreffe": 1644, "betreffe": 1645, "etreffen": 1646, "betreffen": 1647, "lijn": 1648, "rlijk": 1649, "sing": 1650, "duid": 1651, "mend": 1652, "vraa": 1653, "vraag": 1654, "anc": 1655, "deme": 1656, "ong": 1657, "litie": 1658, "nomi": 1659, "anda": 1660, "demen": 1661, "achte": 1662, "ust": 1663, "ving": 1664, "aris": 1665, "ndem": 1666, "erde": 1667, "onomi": 1668, "uik": 1669, "gens": 1670, "veren": 1671, "mende": 1672, "dement": 1673, "issa": 1674, "burg": 1675, "nlij": 1676, "dige": 1677, "uidel": 1678, "vri": 1679, "uideli": 1680, "uidelij": 1681, "uidelijk": 1682, "ikkeli": 1683, "egin": 1684, "itiek": 1685, "amend": 1686, "amende": 1687, "ente": 1688, "endem": 1689, "jve": 1690, "ijve": 1691, "late": 1692, "duide": 1693, "enst": 1694, "kelin": 1695, "keling": 1696, "ndeme": 1697, "endeme": 1698, "ndemen": 1699, "endemen": 1700, "ndement": 1701, "endement": 1702, "meens": 1703, "cono": 1704, "econo": 1705, "mev": 1706, "derin": 1707, "evro": 1708, "eig": 1709, "emeens": 1710, "mevr": 1711, "dering": 1712, "evrou": 1713, "evrouw": 1714, "mevro": 1715, "mevrou": 1716, "mevrouw": 1717, "conom": 1718, "econom": 1719, "zin": 1720, "leem": 1721, "ussen": 1722, "elijkh": 1723, "elijkhe": 1724, "nlijk": 1725, "olitie": 1726, "politie": 1727, "conomi": 1728, "economi": 1729, "nkel": 1730, "enig": 1731, "mendem": 1732, "amendem": 1733, "mendeme": 1734, "amendeme": 1735, "mendemen": 1736, "amendemen": 1737, "mendement": 1738, "amendement": 1739, "elijkhei": 1740, "elijkheid": 1741, "eensc": 1742, "eensch": 1743, "eenscha": 1744, "meensc": 1745, "meensch": 1746, "meenscha": 1747, "eenschap": 1748, "meenschap": 1749, "gemeens": 1750, "emeensc": 1751, "gemeensc": 1752, "emeensch": 1753, "gemeensch": 1754, "emeenscha": 1755, "gemeenscha": 1756, "emeenschap": 1757, "gemeenschap": 1758, "col": 1759, "zak": 1760, "renge": 1761, "lijke": 1762, "blee": 1763, "appe": 1764, "bleem": 1765, "oblee": 1766, "roblee": 1767, "obleem": 1768, "problee": 1769, "robleem": 1770, "probleem": 1771, "eeds": 1772, "\"": 1773, "zett": 1774, "uren": 1775, "pec": 1776, "rot": 1777, "brenge": 1778, "rengen": 1779, "brengen": 1780, "rgen": 1781, "duidel": 1782, "duideli": 1783, "duidelij": 1784, "duidelijk": 1785, "derh": 1786, ")": 1787, "etrek": 1788, "etrekk": 1789, "**<vnw><pers><pron><nomin><vol><3p><mv>**": 1790, "tuss": 1791, "kkelin": 1792, "kkeling": 1793, "tusse": 1794, "tussen": 1795, "betrek": 1796, "betrekk": 1797, "spec": 1798, "wikkeli": 1799, "ikkelin": 1800, "ikkeling": 1801, "wikkelin": 1802, "wikkeling": 1803, "rak": 1804, "hts": 1805, "legg": 1806, "zake": 1807, "tge": 1808, "chts": 1809, "jven": 1810, "ijven": 1811, "ardi": 1812, "iee": 1813, "peli": 1814, "twikkeli": 1815, "ntwikkeli": 1816, "twikkelin": 1817, "ntwikkelin": 1818, "twikkeling": 1819, "ntwikkeling": 1820, "ontwikkeli": 1821, "ontwikkelin": 1822, "ontwikkeling": 1823, "inz": 1824, "sv": 1825, "pas": 1826, "(": 1827, "rder": 1828, "etten": 1829, "krij": 1830, "deren": 1831, "ruik": 1832, "loo": 1833, "brui": 1834, "ieel": 1835, "kan": 1836, "aand": 1837, "bruik": 1838, "iene": 1839, "evin": 1840, "rne": 1841, "tat": 1842, "zor": 1843, "jden": 1844, "ijden": 1845, "rant": 1846, "kkin": 1847, "kking": 1848, "aardi": 1849, "for": 1850, "stig": 1851, "stra": 1852, "arti": 1853, "mb": 1854, "vaard": 1855, "wete": 1856, "weten": 1857, "ram": 1858, "zorg": 1859, "ntern": 1860, "intern": 1861, "uis": 1862, "tair": 1863, "vera": 1864, "js": 1865, "ijs": 1866, "daarom": 1867, "tru": 1868, "erwe": 1869, "diene": 1870, "ub": 1871, "ndeli": 1872, "two": 1873, "rel": 1874, "pra": 1875, "ardig": 1876, "aardig": 1877, "emi": 1878, "oort": 1879, "ratie": 1880, "jg": 1881, "ijg": 1882, "ssin": 1883, "ssing": 1884, "rol": 1885, "anke": 1886, "dank": 1887, "pelij": 1888, "pelijk": 1889, "ciaa": 1890, "ciaal": 1891, "rvan": 1892, "omis": 1893, "sar": 1894, "ienen": 1895, "ena": 1896, "dienen": 1897, "rha": 1898, "twoo": 1899, "ntwo": 1900, "verv": 1901, "hij": 1902, "wan": 1903, "rming": 1904, "antw": 1905, "twoor": 1906, "twoord": 1907, "ume": 1908, "ntwoo": 1909, "ntwoor": 1910, "ntwoord": 1911, "antwo": 1912, "antwoo": 1913, "antwoor": 1914, "antwoord": 1915, "cen": 1916, "eige": 1917, "ppel": 1918, "preke": 1919, "sol": 1920, "spreke": 1921, "ral": 1922, "aant": 1923, "bevo": 1924, "evol": 1925, "ark": 1926, "rod": 1927, "ekke": 1928, "igi": 1929, "urge": 1930, "nkom": 1931, "rdel": 1932, "eval": 1933, "ebru": 1934, "erha": 1935, "eiden": 1936, "erge": 1937, "aans": 1938, "delen": 1939, "orb": 1940, "stu": 1941, "nan": 1942, "uwe": 1943, "litiek": 1944, "olitiek": 1945, "politiek": 1946, "edr": 1947, "umen": 1948, "laten": 1949, "ument": 1950, "spa": 1951, "epe": 1952, "mati": 1953, "lich": 1954, "if": 1955, "soc": 1956, "erhe": 1957, "bou": 1958, "odi": 1959, "iser": 1960, "este": 1961, "lleg": 1962, "itu": 1963, "verz": 1964, "zeer": 1965, "mili": 1966, "rger": 1967, "vl": 1968, "sari": 1969, "ssar": 1970, "missa": 1971, "ssari": 1972, "issar": 1973, "mmissa": 1974, "missar": 1975, "issari": 1976, "ommissa": 1977, "mmissar": 1978, "missari": 1979, "ommissar": 1980, "mmissari": 1981, "ommissari": 1982, "commissa": 1983, "commissar": 1984, "commissari": 1985, "saris": 1986, "mogen": 1987, "atr": 1988, "ssaris": 1989, "issaris": 1990, "missaris": 1991, "mmissaris": 1992, "ommissaris": 1993, "commissaris": 1994, "oci": 1995, "teri": 1996, "eran": 1997, "edig": 1998, "uits": 1999, "av": 2000, "onc": 2001, "anne": 2002, "rre": 2003, "mark": 2004, "ood": 2005, "oorb": 2006, "vrij": 2007, "deb": 2008, "fd": 2009, "jge": 2010, "soci": 2011, "ijge": 2012, "zette": 2013, "cent": 2014, "sten": 2015, "llega": 2016, "conc": 2017, "burge": 2018, "eker": 2019, "mel": 2020, "ilig": 2021, "olk": 2022, "emo": 2023, "eilig": 2024, "dhe": 2025, "eving": 2026, "gebru": 2027, "ebrui": 2028, "gebrui": 2029, "ebruik": 2030, "gebruik": 2031, "iken": 2032, "orge": 2033, "vei": 2034, "**<vnw><pr><pron><obl><vol><1><ev>**": 2035, "ekken": 2036, "treg": 2037, "ocia": 2038, "ex": 2039, "socia": 2040, "arde": 2041, "veil": 2042, "urger": 2043, "burger": 2044, "rma": 2045, "ple": 2046, "iter": 2047, "enko": 2048, "trege": 2049, "ets": 2050, "teke": 2051, "zetten": 2052, "gie": 2053, "licht": 2054, "rhei": 2055, "tregel": 2056, "rheid": 2057, "dhei": 2058, "dheid": 2059, "veili": 2060, "ppeli": 2061, "duc": 2062, "enwe": 2063, "idin": 2064, "happe": 2065, "teken": 2066, "iding": 2067, "chappe": 2068, "schappe": 2069, "**<spec><vreemd>**": 2070, "ense": 2071, "prod": 2072, "inge": 2073, "pt": 2074, "rschi": 2075, "ban": 2076, "veree": 2077, "aatr": 2078, "vereen": 2079, "atre": 2080, "veran": 2081, "anta": 2082, "aatre": 2083, "rijd": 2084, "veilig": 2085, "atreg": 2086, "atrege": 2087, "aatreg": 2088, "aatrege": 2089, "atregel": 2090, "aatregel": 2091, "nr": 2092, "maatr": 2093, "maatre": 2094, "maatreg": 2095, "maatrege": 2096, "maatregel": 2097, "eidi": 2098, "eidin": 2099, "eiding": 2100, "rkt": 2101, "rite": 2102, "oon": 2103, "med": 2104, "hr": 2105, "4": 2106, "jgen": 2107, "ijgen": 2108, "kwe": 2109, "bouw": 2110, "legge": 2111, "bete": 2112, "haar": 2113, "**<vnw><onbep><det><stan><prenom><met-e><rest>**": 2114, "voorb": 2115, "aarde": 2116, "cont": 2117, "eigen": 2118, "noe": 2119, "oere": 2120, "misc": 2121, "cons": 2122, "misch": 2123, "odu": 2124, "appel": 2125, "opl": 2126, "naam": 2127, "sme": 2128, "dru": 2129, "tli": 2130, "igin": 2131, "ost": 2132, "orte": 2133, "leggen": 2134, "ppelij": 2135, "ppelijk": 2136, "happel": 2137, "appeli": 2138, "chappel": 2139, "happeli": 2140, "chappeli": 2141, "appelij": 2142, "schappel": 2143, "happelij": 2144, "appelijk": 2145, "schappeli": 2146, "chappelij": 2147, "happelijk": 2148, "chappelijk": 2149, "schappelij": 2150, "schappelijk": 2151, "volk": 2152, "denk": 2153, "nhei": 2154, "sn": 2155, "orgen": 2156, "enn": 2157, "db": 2158, "htl": 2159, "chtl": 2160, "rap": 2161, "**<vnw><pers><pron><stan><red><3><mv>**": 2162, "rodu": 2163, "iging": 2164, "part": 2165, "oduc": 2166, "roduc": 2167, "preken": 2168, "gew": 2169, "ichtl": 2170, "spreken": 2171, "tlij": 2172, "tlijn": 2173, "vas": 2174, "htli": 2175, "chtli": 2176, "htlij": 2177, "chtlij": 2178, "enhe": 2179, "htlijn": 2180, "chtlijn": 2181, "nheid": 2182, "richtl": 2183, "ichtli": 2184, "richtli": 2185, "ichtlij": 2186, "richtlij": 2187, "ichtlijn": 2188, "richtlijn": 2189, "arv": 2190, "aut": 2191, "verh": 2192, "atief": 2193, "overe": 2194, "vast": 2195, "enhei": 2196, "enheid": 2197, "form": 2198, "derz": 2199, "chr": 2200, "aarv": 2201, "ita": 2202, "coll": 2203, "roep": 2204, "hel": 2205, "inder": 2206, "dis": 2207, "nm": 2208, "rig": 2209, "alis": 2210, "reden": 2211, "werki": 2212, "werkin": 2213, "berei": 2214, "anci": 2215, "omd": 2216, "stre": 2217, "werking": 2218, "echts": 2219, "nanc": 2220, "led": 2221, "oven": 2222, "oei": 2223, "gron": 2224, "luite": 2225, "ore": 2226, "heids": 2227, "grond": 2228, "ip": 2229, "eno": 2230, "enkom": 2231, "sluite": 2232, "colle": 2233, "digen": 2234, "werp": 2235, "estaa": 2236, "nni": 2237, "ndie": 2238, "luiten": 2239, "inan": 2240, "waaro": 2241, "sluiten": 2242, "arkt": 2243, "markt": 2244, "ndien": 2245, "alen": 2246, "mda": 2247, "omda": 2248, "mdat": 2249, "omdat": 2250, "enken": 2251, "lijken": 2252, "fina": 2253, "ntal": 2254, "stie": 2255, "overee": 2256, "overeen": 2257, "besta": 2258, "vis": 2259, "wes": 2260, "bat": 2261, "oeren": 2262, "ewe": 2263, "oti": 2264, "finan": 2265, "west": 2266, "orbe": 2267, "inanc": 2268, "nanci": 2269, "financ": 2270, "inanci": 2271, "financi": 2272, "produ": 2273, "ever": 2274, "lite": 2275, "produc": 2276, "nve": 2277, "estaan": 2278, "eba": 2279, "nit": 2280, "aanta": 2281, "erva": 2282, "maal": 2283, "bedr": 2284, "rijg": 2285, "pass": 2286, "uat": 2287, "ive": 2288, "eind": 2289, "erle": 2290, "uti": 2291, "rnem": 2292, "rmee": 2293, "eers": 2294, "erne": 2295, "were": 2296, "eenk": 2297, "eenko": 2298, "/": 2299, "amm": 2300, "grot": 2301, "seri": 2302, "sere": 2303, "ogr": 2304, "seren": 2305, "krijg": 2306, "ekki": 2307, "fl": 2308, "etg": 2309, "eenkom": 2310, "erna": 2311, "nschapp": 2312, "enschapp": 2313, "rwi": 2314, "ft": 2315, "nschappe": 2316, "enschappe": 2317, "itb": 2318, "ichte": 2319, "oorbe": 2320, "erwi": 2321, "ordel": 2322, "litei": 2323, "liteit": 2324, "begi": 2325, "begin": 2326, "rijge": 2327, "**<ww><vd><prenom><zonder>**": 2328, "omisc": 2329, "nomis": 2330, "eko": 2331, "deba": 2332, "onomis": 2333, "omisch": 2334, "nomisc": 2335, "nomisch": 2336, "onomisc": 2337, "onomisch": 2338, "etge": 2339, "atu": 2340, "ebat": 2341, "debat": 2342, "conomis": 2343, "economis": 2344, "ders": 2345, "stru": 2346, "denke": 2347, "bee": 2348, "voorbe": 2349, "conomisc": 2350, "economisc": 2351, "conomisch": 2352, "economisch": 2353, "gang": 2354, "oordel": 2355, "olleg": 2356, "colleg": 2357, "har": 2358, "uati": 2359, "nzi": 2360, "uatie": 2361, "rapp": 2362, "itv": 2363, "ehe": 2364, "ogra": 2365, "lde": 2366, "**<spec><symb>**": 2367, "denken": 2368, "ncie": 2369, "krijge": 2370, "rijgen": 2371, "krijgen": 2372, "nkoms": 2373, "nkomst": 2374, "ult": 2375, "akk": 2376, "ppo": 2377, "uitv": 2378, "voere": 2379, "voeren": 2380, "ligh": 2381, "dur": 2382, "bepa": 2383, "lighe": 2384, "lighei": 2385, "ligheid": 2386, "schr": 2387, "ancie": 2388, "geri": 2389, "ollega": 2390, "collega": 2391, "odig": 2392, "jo": 2393, "nsp": 2394, "bui": 2395, "ode": 2396, "rog": 2397, "estie": 2398, "nschappel": 2399, "enschappel": 2400, "nschappeli": 2401, "enschappeli": 2402, "nschappelij": 2403, "enschappelij": 2404, "nschappelijk": 2405, "enschappelijk": 2406, "ekkin": 2407, "ekking": 2408, "indi": 2409, "enli": 2410, "rekki": 2411, "hil": 2412, "ebe": 2413, "ezen": 2414, "antal": 2415, "eks": 2416, "aantal": 2417, "ichten": 2418, "enlij": 2419, "ingen": 2420, "ps": 2421, "**<adj><prenom><comp><met-e><stan>**": 2422, "nancie": 2423, "inancie": 2424, "financie": 2425, "erschi": 2426, "rdr": 2427, "eslu": 2428, "eslui": 2429, "beslu": 2430, "beslui": 2431, "esluit": 2432, "besluit": 2433, "nderz": 2434, "cher": 2435, "eleg": 2436, "regi": 2437, "igd": 2438, "teli": 2439, "cra": 2440, "rekke": 2441, "oeke": 2442, "nod": 2443, "enlijk": 2444, "trekke": 2445, "geval": 2446, "tvo": 2447, "**<vnw><pers><pron><nomin><red><3p><ev><masc>**": 2448, "ociaa": 2449, "sociaa": 2450, "ociaal": 2451, "sociaal": 2452, "verschi": 2453, "chil": 2454, "lege": 2455, "sbe": 2456, "trekki": 2457, "rekkin": 2458, "trekkin": 2459, "rekking": 2460, "trekking": 2461, "disc": 2462, "leven": 2463, "net": 2464, "ract": 2465, "nodi": 2466, "nodig": 2467, "zig": 2468, "ichti": 2469, "sto": 2470, "ces": 2471, "teur": 2472, "esp": 2473, "erel": 2474, "jzen": 2475, "ijzen": 2476, "anis": 2477, "att": 2478, "iligh": 2479, "ilighe": 2480, "ilighei": 2481, "iligheid": 2482, "eiligh": 2483, "eilighe": 2484, "eilighei": 2485, "eiligheid": 2486, "trij": 2487, "enkoms": 2488, "enkomst": 2489, "rvoo": 2490, "rvoor": 2491, "scher": 2492, "rwij": 2493, "ilie": 2494, "kenn": 2495, "drie": 2496, "erwij": 2497, "vrag": 2498, "veiligh": 2499, "veilighe": 2500, "veilighei": 2501, "veiligheid": 2502, "vrage": 2503, "**<vnw><vb><adv-pron><obl><vol><3o><getal>**": 2504, "gevo": 2505, "binn": 2506, "binne": 2507, "binnen": 2508, "ppor": 2509, "pport": 2510, "strij": 2511, "nwer": 2512, "rea": 2513, "bestaa": 2514, "bestaan": 2515, "uitb": 2516, "sle": 2517, "ruk": 2518, "lijv": 2519, "erdr": 2520, "milie": 2521, "lijve": 2522, "lijven": 2523, "orga": 2524, "eenkoms": 2525, "eenkomst": 2526, "reld": 2527, "werel": 2528, "ereld": 2529, "wereld": 2530, "druk": 2531, "vragen": 2532, "los": 2533, "kla": 2534, "blijv": 2535, "blijve": 2536, "blijven": 2537, "terr": 2538, "ouwe": 2539, "schil": 2540, "sis": 2541, "prog": 2542, "vero": 2543, "groe": 2544, "lere": 2545, "plo": 2546, "nsen": 2547, "**<vnw><pers><pron><nomin><vol><3><ev><masc>**": 2548, "rogr": 2549, "demo": 2550, "zek": 2551, "zeke": 2552, "zeker": 2553, "eger": 2554, "log": 2555, "tbr": 2556, "inste": 2557, "erli": 2558, "gram": 2559, "olu": 2560, "egro": 2561, "progr": 2562, "soo": 2563, "rbij": 2564, "ritei": 2565, "riteit": 2566, "iste": 2567, "rekken": 2568, "hal": 2569, "appo": 2570, "rappo": 2571, "appor": 2572, "rappor": 2573, "apport": 2574, "rapport": 2575, "terna": 2576, "lp": 2577, "tur": 2578, "uwen": 2579, "nwerk": 2580, "mma": 2581, "lop": 2582, "porte": 2583, "trekken": 2584, "itvo": 2585, "uitvo": 2586, "kwes": 2587, "kwest": 2588, "tz": 2589, "westi": 2590, "erhei": 2591, "erheid": 2592, "kwesti": 2593, "westie": 2594, "kwestie": 2595, "aari": 2596, "ramm": 2597, "aarin": 2598, "ogram": 2599, "mente": 2600, "geld": 2601, "eraa": 2602, "rogra": 2603, "elo": 2604, "hri": 2605, "rogram": 2606, "ontr": 2607, "gramm": 2608, "progra": 2609, "program": 2610, "ogramm": 2611, "rogramm": 2612, "programm": 2613, "chri": 2614, "rnat": 2615, "ernat": 2616, "andi": 2617, "rnati": 2618, "ernati": 2619, "ocr": 2620, "buit": 2621, "ternat": 2622, "ternati": 2623, "toek": 2624, "eta": 2625, "ezo": 2626, "rent": 2627, "cho": 2628, "rdeli": 2629, "kaa": 2630, "hui": 2631, "cto": 2632, "rand": 2633, "wijzen": 2634, "6": 2635, "verdr": 2636, "anti": 2637, "tua": 2638, "fu": 2639, "tbre": 2640, "leide": 2641, "nders": 2642, "enwer": 2643, "htin": 2644, "chtin": 2645, "trijd": 2646, "hting": 2647, "chting": 2648, "ys": 2649, "onge": 2650, "dure": 2651, "strijd": 2652, "eeld": 2653, "eure": 2654, "fer": 2655, "isse": 2656, "etrekki": 2657, "betrekki": 2658, "etrekkin": 2659, "betrekkin": 2660, "etrekking": 2661, "betrekking": 2662, "amma": 2663, "eho": 2664, "derha": 2665, "racti": 2666, "bew": 2667, "ters": 2668, "och": 2669, "ies": 2670, "vaardi": 2671, "nla": 2672, "rwa": 2673, "nal": 2674, "ramma": 2675, "gramma": 2676, "ogramma": 2677, "rogramma": 2678, "programma": 2679, "ocra": 2680, "begro": 2681, "**<vnw><aanw><pron><stan><vol><3><getal>**": 2682, "oeken": 2683, "tste": 2684, "rschil": 2685, "erschil": 2686, "nad": 2687, "verschil": 2688, "drage": 2689, "ractie": 2690, "enwerk": 2691, "rstell": 2692, "nstel": 2693, "oss": 2694, "ora": 2695, "rscha": 2696, "stat": 2697, "euren": 2698, "8": 2699, "dp": 2700, "uist": 2701, "duct": 2702, "vaardig": 2703, "menw": 2704, "crat": 2705, "ndig": 2706, "aarb": 2707, "fa": 2708, "otin": 2709, "roti": 2710, "groti": 2711, "amenw": 2712, "menwe": 2713, "samenw": 2714, "buite": 2715, "menwer": 2716, "mon": 2717, "oting": 2718, "frac": 2719, "fract": 2720, "fracti": 2721, "buiten": 2722, "rotin": 2723, "grotin": 2724, "roting": 2725, "groting": 2726, "erscha": 2727, "amenwe": 2728, "samenwe": 2729, "amenwer": 2730, "menwerk": 2731, "samenwer": 2732, "amenwerk": 2733, "samenwerk": 2734, "fractie": 2735, "beel": 2736, "beeld": 2737, "situ": 2738, "ror": 2739, "oren": 2740, "anv": 2741, "lec": 2742, "ruc": 2743, "tuat": 2744, "tuati": 2745, "tuatie": 2746, "ism": 2747, "itua": 2748, "sy": 2749, "situa": 2750, "ituat": 2751, "situat": 2752, "ituati": 2753, "situati": 2754, "ituatie": 2755, "situatie": 2756, "gevi": 2757, "aanv": 2758, "kad": 2759, "moc": 2760, "spo": 2761, "waarde": 2762, "egrot": 2763, "begrot": 2764, "solu": 2765, "eerd": 2766, "ernem": 2767, "7": 2768, "nzie": 2769, "esche": 2770, "mocr": 2771, "emoc": 2772, "democ": 2773, "nlan": 2774, "dag": 2775, "emocr": 2776, "democr": 2777, "mocra": 2778, "legen": 2779, "emocra": 2780, "democra": 2781, "oduct": 2782, "roduct": 2783, "lieu": 2784, "ilieu": 2785, "milieu": 2786, "nderh": 2787, "gst": 2788, "gerin": 2789, "egroti": 2790, "begroti": 2791, "egrotin": 2792, "begrotin": 2793, "egroting": 2794, "begroting": 2795, "kade": 2796, "gering": 2797, "dz": 2798, "gevin": 2799, "geving": 2800, "inf": 2801, "besche": 2802, "inv": 2803, "crati": 2804, "herm": 2805, "rgan": 2806, "paa": 2807, "ndh": 2808, "ole": 2809, "iets": 2810, "nzien": 2811, "gde": 2812, "erste": 2813, "kader": 2814, "atis": 2815, "rik": 2816, "rach": 2817, "amel": 2818, "racht": 2819, "elde": 2820, "oos": 2821, "rdra": 2822, "eenschapp": 2823, "meenschapp": 2824, "rstelle": 2825, "emeenschapp": 2826, "gemeenschapp": 2827, "eenschappe": 2828, "meenschappe": 2829, "hul": 2830, "emeenschappe": 2831, "gemeenschappe": 2832, "eenschappel": 2833, "meenschappel": 2834, "eenschappeli": 2835, "meenschappeli": 2836, "eenschappelij": 2837, "meenschappelij": 2838, "eenschappelijk": 2839, "meenschappelijk": 2840, "emeenschappel": 2841, "gemeenschappel": 2842, "emeenschappeli": 2843, "gemeenschappeli": 2844, "emeenschappelij": 2845, "gemeenschappelij": 2846, "emeenschappelijk": 2847, "gemeenschappelijk": 2848, "rstellen": 2849, "schri": 2850, "ensen": 2851, "isme": 2852, "cherm": 2853, "scherm": 2854, "imm": 2855, "nvo": 2856, "jui": 2857, "product": 2858, "t-": 2859, "erdra": 2860, "fun": 2861, "nstell": 2862, "pporte": 2863, "verdra": 2864, "rteu": 2865, "rteur": 2866, "meli": 2867, "orteu": 2868, "porteu": 2869, "orteur": 2870, "porteur": 2871, "ctor": 2872, "eschi": 2873, "reni": 2874, "ereni": 2875, "apporte": 2876, "rapporte": 2877, "**<vnw><onbep><grad><stan><prenom><zonder><agr><comp>**": 2878, "renig": 2879, "erenig": 2880, "tred": 2881, "ieden": 2882, "tgev": 2883, "ands": 2884, "mmen": 2885, "escher": 2886, "werken": 2887, "mun": 2888, "bescher": 2889, "mmin": 2890, "mming": 2891, "ib": 2892, "ndaa": 2893, "reenk": 2894, "ereenk": 2895, "reenko": 2896, "vereenk": 2897, "ereenko": 2898, "reenkom": 2899, "overeenk": 2900, "vereenko": 2901, "ereenkom": 2902, "overeenko": 2903, "vereenkom": 2904, "overeenkom": 2905, "escherm": 2906, "atuu": 2907, "bescherm": 2908, "pporteu": 2909, "pporteur": 2910, "woorde": 2911, "apporteu": 2912, "rapporteu": 2913, "apporteur": 2914, "rapporteur": 2915, "verst": 2916, "emme": 2917, "rmen": 2918, "hoog": 2919, "evoe": 2920, "rus": 2921, "aang": 2922, "ekom": 2923, "andaa": 2924, "eru": 2925, "emmi": 2926, "ouwen": 2927, "sat": 2928, "enkel": 2929, "ue": 2930, "ici": 2931, "onderz": 2932, "ermin": 2933, "beho": 2934, "temmi": 2935, "stemmi": 2936, "emmin": 2937, "emming": 2938, "tvoe": 2939, "**<spec><afgebr>**": 2940, "itbr": 2941, "uitbr": 2942, "zw": 2943, "tvoer": 2944, "gre": 2945, "lst": 2946, "mmer": 2947, "sr": 2948, "temmin": 2949, "stemmin": 2950, "temming": 2951, "stemming": 2952, "pal": 2953, "derzo": 2954, "nderzo": 2955, "onderzo": 2956, "derzoe": 2957, "nderzoe": 2958, "derzoek": 2959, "onderzoe": 2960, "nderzoek": 2961, "onderzoek": 2962, "isi": 2963, "nau": 2964, "vre": 2965, "sec": 2966, "cri": 2967, "kene": 2968, "pect": 2969, "spect": 2970, "brei": 2971, "ehee": 2972, "merk": 2973, "pli": 2974, "breid": 2975, "scho": 2976, "ciee": 2977, "cieel": 2978, "lope": 2979, "ameli": 2980, "pers": 2981, "melij": 2982, "melijk": 2983, "igde": 2984, "gis": 2985, "reger": 2986, "genh": 2987, "oeko": 2988, "toeko": 2989, "oekom": 2990, "toekom": 2991, "contr": 2992, "zicht": 2993, "ogi": 2994, "mense": 2995, "nwerki": 2996, "nwerkin": 2997, "nwerking": 2998, "dw": 2999, "spro": 3000, "lopen": 3001, "eha": 3002, "dza": 3003, "ndelin": 3004, "ndeling": 3005, "init": 3006, "edin": 3007, "ves": 3008, "egeri": 3009, "kenen": 3010, "nood": 3011, "ocrat": 3012, "orma": 3013, "orl": 3014, "itvoe": 3015, "itvoer": 3016, "uitvoe": 3017, "uitvoer": 3018, "eau": 3019, "twoorde": 3020, "ntwoorde": 3021, "antwoorde": 3022, "uch": 3023, "egerin": 3024, "egering": 3025, "bez": 3026, "nterna": 3027, "interna": 3028, "bas": 3029, "fei": 3030, "ordeli": 3031, "regeri": 3032, "regerin": 3033, "regering": 3034, "rnatio": 3035, "ernatio": 3036, "rnation": 3037, "ernation": 3038, "rnationa": 3039, "ernationa": 3040, "amelij": 3041, "amelijk": 3042, "gio": 3043, "oordeli": 3044, "nternat": 3045, "internat": 3046, "nternati": 3047, "ternatio": 3048, "internati": 3049, "nternatio": 3050, "ternation": 3051, "internatio": 3052, "nternation": 3053, "ternationa": 3054, "internation": 3055, "nternationa": 3056, "internationa": 3057, "itbre": 3058, "uitbre": 3059, "rtij": 3060, "mani": 3061, "meni": 3062, "kor": 3063, "edu": 3064, "oev": 3065, "vereni": 3066, "verenig": 3067, "egio": 3068, "vervo": 3069, "nel": 3070, "ucht": 3071, "regio": 3072, "eding": 3073, "voort": 3074, "ntro": 3075, "einde": 3076, "oorl": 3077, "drij": 3078, "rdrag": 3079, "verwe": 3080, "toc": 3081, "telij": 3082, "telijk": 3083, "derw": 3084, "graa": 3085, "reed": 3086, "ocrati": 3087, "mocrat": 3088, "emocrat": 3089, "democrat": 3090, "ener": 3091, "rwer": 3092, "erdrag": 3093, "verdrag": 3094, "ekoms": 3095, "ekomst": 3096, "oekoms": 3097, "toekoms": 3098, "oekomst": 3099, "toekomst": 3100, "vest": 3101, "ekene": 3102, "ekenen": 3103, "mede": 3104, "bei": 3105, "**<vnw><onbep><grad><stan><prenom><zonder><agr><basis>**": 3106, "rba": 3107, "rschap": 3108, "niti": 3109, "np": 3110, "verle": 3111, "mocrati": 3112, "keu": 3113, "emocrati": 3114, "democrati": 3115, "rnationaa": 3116, "ernationaa": 3117, "rnationaal": 3118, "ternationaa": 3119, "ernationaal": 3120, "nternationaa": 3121, "ternationaal": 3122, "internationaa": 3123, "nternationaal": 3124, "internationaal": 3125, "are": 3126, "sg": 3127, "enwerki": 3128, "enwerkin": 3129, "enwerking": 3130, "atte": 3131, "arme": 3132, "ieder": 3133, "ukk": 3134, "erschap": 3135, "**<vnw><onbep><grad><stan><vrij><zonder><basis>**": 3136, "menwerki": 3137, "amenwerki": 3138, "menwerkin": 3139, "samenwerki": 3140, "amenwerkin": 3141, "menwerking": 3142, "samenwerkin": 3143, "amenwerking": 3144, "samenwerking": 3145, "rbee": 3146, "nderw": 3147, "iez": 3148, "rbeel": 3149, "rbeeld": 3150, "enr": 3151, "reenkoms": 3152, "ereenkoms": 3153, "reenkomst": 3154, "vereenkoms": 3155, "ereenkomst": 3156, "overeenkoms": 3157, "vereenkomst": 3158, "overeenkomst": 3159, "feit": 3160, "etgev": 3161, "wetg": 3162, "wetge": 3163, "wetgev": 3164, "elege": 3165, "erwer": 3166, "onderw": 3167, "oni": 3168, "rug": 3169, "orbee": 3170, "oorbee": 3171, "orbeel": 3172, "voorbee": 3173, "oorbeel": 3174, "orbeeld": 3175, "voorbeel": 3176, "oorbeeld": 3177, "voorbeeld": 3178, "gend": 3179, "namel": 3180, "nbe": 3181, "nameli": 3182, "namelij": 3183, "namelijk": 3184, "nsel": 3185, "erbe": 3186, "egenh": 3187, "initi": 3188, "zaam": 3189, "anken": 3190, "hop": 3191, "vat": 3192, "enb": 3193, "eter": 3194, "ine": 3195, "nre": 3196, "loss": 3197, "tit": 3198, "lar": 3199, "prak": 3200, "geleg": 3201, "nfo": 3202, "danke": 3203, "danken": 3204, "emmen": 3205, "eci": 3206, "juis": 3207, "juist": 3208, "gelege": 3209, "elegen": 3210, "gelegen": 3211, "organ": 3212, "gene": 3213, "ichtin": 3214, "ichting": 3215, "sh": 3216, "iens": 3217, "spra": 3218, "erga": 3219, "teel": 3220, "nsti": 3221, "mom": 3222, "mig": 3223, "gevol": 3224, "ndb": 3225, "evolg": 3226, "gevolg": 3227, "oora": 3228, "gere": 3229, "nsi": 3230, "andeli": 3231, "vent": 3232, "bs": 3233, "vend": 3234, "voora": 3235, "oi": 3236, "eso": 3237, "isa": 3238, "vang": 3239, "beid": 3240, "genhe": 3241, "genhei": 3242, "genheid": 3243, "aart": 3244, "temme": 3245, "diens": 3246, "stemme": 3247, "ienst": 3248, "dienst": 3249, "erant": 3250, "aarm": 3251, "waari": 3252, "waarin": 3253, "verm": 3254, "itg": 3255, "egenhe": 3256, "kend": 3257, "ika": 3258, "twer": 3259, "egenhei": 3260, "egenheid": 3261, "leren": 3262, "hope": 3263, "temmen": 3264, "legenh": 3265, "legenhe": 3266, "eis": 3267, "erzi": 3268, "stemmen": 3269, "legenhei": 3270, "legenheid": 3271, "rkl": 3272, "uitg": 3273, "dern": 3274, "ilit": 3275, "elegenh": 3276, "gelegenh": 3277, "elegenhe": 3278, "gelegenhe": 3279, "elegenhei": 3280, "gelegenhei": 3281, "elegenheid": 3282, "gelegenheid": 3283, "onderh": 3284, "une": 3285, "orme": 3286, "erkl": 3287, "01": 3288, "99": 3289, "teed": 3290, "steed": 3291, "ione": 3292, "ecto": 3293, "les": 3294, "teeds": 3295, "steeds": 3296, "oem": 3297, "menin": 3298, "mening": 3299, "asi": 3300, "achten": 3301, "nist": 3302, "onv": 3303, "sli": 3304, "sati": 3305, "atuur": 3306, "eerst": 3307, "ced": 3308, "ector": 3309, "19": 3310, "tbrei": 3311, "itbrei": 3312, "tbreid": 3313, "uitbrei": 3314, "itbreid": 3315, "uitbreid": 3316, "mome": 3317, "ater": 3318, "oment": 3319, "momen": 3320, "moment": 3321, "enla": 3322, "kee": 3323, "natie": 3324, "orit": 3325, "satie": 3326, "fv": 3327, "terk": 3328, "ister": 3329, "handeli": 3330, "lands": 3331, "fic": 3332, "parti": 3333, "reidi": 3334, "reidin": 3335, "reiding": 3336, "rio": 3337, "matie": 3338, "utie": 3339, "nor": 3340, "gu": 3341, "derd": 3342, "eik": 3343, "e-": 3344, "andelin": 3345, "andeling": 3346, "hill": 3347, "gani": 3348, "cre": 3349, "gsp": 3350, "alt": 3351, "ontro": 3352, "handelin": 3353, "handeling": 3354, "tijde": 3355, "biede": 3356, "verant": 3357, "terin": 3358, "contro": 3359, "armee": 3360, "sterk": 3361, "rgani": 3362, "onf": 3363, "pres": 3364, "isere": 3365, "iseren": 3366, "nstelli": 3367, "nstellin": 3368, "nstelling": 3369, "rda": 3370, "organi": 3371, "zorge": 3372, "rantw": 3373, "ganis": 3374, "aarme": 3375, "erantw": 3376, "rantwo": 3377, "verantw": 3378, "erantwo": 3379, "rantwoo": 3380, "verantwo": 3381, "erantwoo": 3382, "rantwoor": 3383, "verantwoo": 3384, "erantwoor": 3385, "rantwoord": 3386, "verantwoor": 3387, "erantwoord": 3388, "verantwoord": 3389, "nfor": 3390, "ctu": 3391, "udi": 3392, "mmu": 3393, "aarmee": 3394, "dia": 3395, "keer": 3396, "rganis": 3397, "organis": 3398, "conf": 3399, "angen": 3400, "oplo": 3401, "ges": 3402, "orstell": 3403, "oorstell": 3404, "voorstell": 3405, "nform": 3406, "yst": 3407, "chill": 3408, "tva": 3409, "mmun": 3410, "gezi": 3411, "enlan": 3412, "ntee": 3413, "schill": 3414, "yste": 3415, "edur": 3416, "rgel": 3417, "eo": 3418, "zorgen": 3419, "uri": 3420, "edure": 3421, "andb": 3422, "uike": 3423, "anse": 3424, "orstelle": 3425, "oorstelle": 3426, "orstellen": 3427, "voorstelle": 3428, "oorstellen": 3429, "voorstellen": 3430, "ngsp": 3431, "erte": 3432, "rijf": 3433, "bieden": 3434, "erba": 3435, "beha": 3436, "sys": 3437, "syst": 3438, "syste": 3439, "trat": 3440, "pos": 3441, "isat": 3442, "entee": 3443, "nland": 3444, "trol": 3445, "drijf": 3446, "rso": 3447, "verzo": 3448, "ica": 3449, "rschill": 3450, "erschill": 3451, "verschill": 3452, "daad": 3453, "hen": 3454, "lend": 3455, "uig": 3456, "ntrol": 3457, "ontrol": 3458, "tga": 3459, "control": 3460, "lgens": 3461, "olgens": 3462, "volgens": 3463, "nteel": 3464, "tsc": 3465, "enteel": 3466, "akel": 3467, "zoeke": 3468, "ctief": 3469, "verga": 3470, "taal": 3471, "dam": 3472, "sect": 3473, "hille": 3474, "chille": 3475, "odz": 3476, "tori": 3477, "rande": 3478, "alg": 3479, "rdelij": 3480, "hillen": 3481, "schille": 3482, "chillen": 3483, "schillen": 3484, "renti": 3485, "mentee": 3486, "rdelijk": 3487, "info": 3488, "endi": 3489, "reik": 3490, "lech": 3491, "richte": 3492, "geh": 3493, "nere": 3494, "plos": 3495, "erso": 3496, "secto": 3497, "lecht": 3498, "dens": 3499, "sector": 3500, "ensi": 3501, "arbi": 3502, "erbi": 3503, "fel": 3504, "infor": 3505, "edri": 3506, "ergel": 3507, "boe": 3508, "inform": 3509, "oodz": 3510, "ormi": 3511, "menteel": 3512, "role": 3513, "mini": 3514, "tti": 3515, "rgeli": 3516, "rgelij": 3517, "rgelijk": 3518, "trole": 3519, "ntrole": 3520, "ontrole": 3521, "controle": 3522, "noodz": 3523, "odza": 3524, "oodza": 3525, "noodza": 3526, "afv": 3527, "ndere": 3528, "nderd": 3529, "kort": 3530, "ule": 3531, "alge": 3532, "erder": 3533, "asse": 3534, "rza": 3535, "isati": 3536, "hik": 3537, "rika": 3538, "ergeli": 3539, "ergelij": 3540, "ergelijk": 3541, "ndp": 3542, "chik": 3543, "schik": 3544, "rschille": 3545, "erschille": 3546, "rschillen": 3547, "verschille": 3548, "erschillen": 3549, "verschillen": 3550, "plic": 3551, "rmat": 3552, "anie": 3553, "isatie": 3554, "kij": 3555, "eek": 3556, "nderha": 3557, "ommu": 3558, "commu": 3559, "ommun": 3560, "commun": 3561, "onee": 3562, "rla": 3563, "rdige": 3564, "richten": 3565, "win": 3566, "llend": 3567, "orite": 3568, "aarbi": 3569, "oritei": 3570, "oriteit": 3571, "slo": 3572, "lise": 3573, "bedri": 3574, "rans": 3575, "verzoe": 3576, "nderen": 3577, "mind": 3578, "lut": 3579, "luc": 3580, "truc": 3581, "atisc": 3582, "atisch": 3583, "und": 3584, "lden": 3585, "emin": 3586, "oplos": 3587, "vand": 3588, "dpu": 3589, "dpun": 3590, "dpunt": 3591, "tsch": 3592, "instel": 3593, "dbo": 3594, "pn": 3595, "edrij": 3596, "tui": 3597, "instell": 3598, "ije": 3599, "rneme": 3600, "minde": 3601, "minder": 3602, "enne": 3603, "cl": 3604, "bedrij": 3605, "plan": 3606, "ruct": 3607, "struc": 3608, "bil": 3609, "truct": 3610, "struct": 3611, "ploss": 3612, "oploss": 3613, "alit": 3614, "tens": 3615, "pz": 3616, "ow": 3617, "neel": 3618, "opn": 3619, "andp": 3620, "slec": 3621, "slech": 3622, "slecht": 3623, "vanda": 3624, "liser": 3625, "neren": 3626, "lings": 3627, "voeg": 3628, "url": 3629, "**<vnw><bez><det><stan><vol><1><mv><prenom><zonder><evon>**": 3630, "rko": 3631, "ifi": 3632, "vandaa": 3633, "eschik": 3634, "vormi": 3635, "rander": 3636, "rentie": 3637, "las": 3638, "ndpu": 3639, "ndpun": 3640, "ndpunt": 3641, "welk": 3642, "tgevi": 3643, "tgevin": 3644, "tgeving": 3645, "tandp": 3646, "oces": 3647, "roces": 3648, "proces": 3649, "standp": 3650, "hopen": 3651, "lv": 3652, "andpu": 3653, "andpun": 3654, "andpunt": 3655, "lot": 3656, "dbou": 3657, "tandpu": 3658, "standpu": 3659, "tandpun": 3660, "standpun": 3661, "tandpunt": 3662, "standpunt": 3663, "ndbo": 3664, "andbo": 3665, "nnin": 3666, "landb": 3667, "nning": 3668, "ordelij": 3669, "rov": 3670, "ordelijk": 3671, "raal": 3672, "anz": 3673, "etgevi": 3674, "wetgevi": 3675, "etgevin": 3676, "wetgevin": 3677, "etgeving": 3678, "wetgeving": 3679, "bov": 3680, "leiden": 3681, "ruit": 3682, "arbij": 3683, "aarbij": 3684, "sne": 3685, "niv": 3686, "bove": 3687, "boven": 3688, "eerde": 3689, "ndbou": 3690, "dbouw": 3691, "landbo": 3692, "andbou": 3693, "ndbouw": 3694, "landbou": 3695, "andbouw": 3696, "landbouw": 3697, "oordelij": 3698, "luch": 3699, "nciee": 3700, "anciee": 3701, "ncieel": 3702, "nanciee": 3703, "ancieel": 3704, "inanciee": 3705, "nancieel": 3706, "financiee": 3707, "inancieel": 3708, "financieel": 3709, "oordelijk": 3710, "luti": 3711, "eune": 3712, "nive": 3713, "lucht": 3714, "ormin": 3715, "onderha": 3716, "orming": 3717, "neer": 3718, "ndhe": 3719, "strat": 3720, "olut": 3721, "vormin": 3722, "oluti": 3723, "vorming": 3724, "uurl": 3725, "oral": 3726, "raf": 3727, "oof": 3728, "unen": 3729, "eunen": 3730, "rantwoorde": 3731, "erantwoorde": 3732, "verantwoorde": 3733, "wens": 3734, "natu": 3735, "nsta": 3736, "kra": 3737, "ndu": 3738, "enland": 3739, "ervan": 3740, "iat": 3741, "onders": 3742, "ooral": 3743, "vooral": 3744, "ruike": 3745, "ndhei": 3746, "ndheid": 3747, "teune": 3748, "steune": 3749, "egeli": 3750, "teunen": 3751, "steunen": 3752, "aring": 3753, "noem": 3754, "verhe": 3755, "aas": 3756, "rechts": 3757, "nva": 3758, "aren": 3759, "aran": 3760, "aange": 3761, "edrijf": 3762, "bedrijf": 3763, "tekene": 3764, "tekenen": 3765, "rtu": 3766, "eike": 3767, "lutie": 3768, "olutie": 3769, "old": 3770, "natuu": 3771, "natuur": 3772, "dac": 3773, "bruike": 3774, "keni": 3775, "pan": 3776, "nze": 3777, "eiken": 3778, "verzoek": 3779, "reike": 3780, "reiken": 3781, "tse": 3782, "lfs": 3783, "nza": 3784, "antie": 3785, "ivi": 3786, "gelijkh": 3787, "gelijkhe": 3788, "geno": 3789, "iati": 3790, "tec": 3791, "lj": 3792, "elden": 3793, "ereik": 3794, "nrec": 3795, "tijden": 3796, "arva": 3797, "nsu": 3798, "pak": 3799, "nrech": 3800, "nrecht": 3801, "arvan": 3802, "aarva": 3803, "tering": 3804, "aarvan": 3805, "jdens": 3806, "ijdens": 3807, "gelijkhei": 3808, "gelijkheid": 3809, "elfs": 3810, "ehan": 3811, "ehand": 3812, "ezin": 3813, "zelfs": 3814, "rzie": 3815, "tijdens": 3816, "rvoe": 3817, "beu": 3818, "dv": 3819, "omp": 3820, "mmig": 3821, "nier": 3822, "illend": 3823, "risi": 3824, "ordi": 3825, "reso": 3826, "oced": 3827, "roced": 3828, "proced": 3829, "esol": 3830, "erme": 3831, "resol": 3832, "tione": 3833, "esolu": 3834, "resolu": 3835, "cedu": 3836, "ocedu": 3837, "cedur": 3838, "rocedu": 3839, "ocedur": 3840, "cedure": 3841, "procedu": 3842, "rocedur": 3843, "ocedure": 3844, "procedur": 3845, "rocedure": 3846, "procedure": 3847, "teem": 3848, "ekeni": 3849, "tstel": 3850, "rwerp": 3851, "ystee": 3852, "steem": 3853, "systee": 3854, "ysteem": 3855, "systeem": 3856, "fde": 3857, "n-": 3858, "inza": 3859, "opz": 3860, "rmo": 3861, "orw": 3862, "perso": 3863, "oj": 3864, "iem": 3865, "**<vnw><pr><pron><obl><vol><2><getal>**": 3866, "tuig": 3867, "itga": 3868, "uitga": 3869, "keur": 3870, "oorw": 3871, "assen": 3872, "akke": 3873, "wez": 3874, "rlo": 3875, "uto": 3876, "beur": 3877, "oeme": 3878, "norm": 3879, "woordel": 3880, "woordeli": 3881, "woordelij": 3882, "jds": 3883, "ijds": 3884, "nnem": 3885, "woordelijk": 3886, "rzien": 3887, "ged": 3888, "twoordel": 3889, "ntwoordel": 3890, "twoordeli": 3891, "antwoordel": 3892, "ntwoordeli": 3893, "twoordelij": 3894, "rantwoordel": 3895, "antwoordeli": 3896, "ntwoordelij": 3897, "erantwoordel": 3898, "rantwoordeli": 3899, "antwoordelij": 3900, "verantwoordel": 3901, "erantwoordeli": 3902, "rantwoordelij": 3903, "verantwoordeli": 3904, "erantwoordelij": 3905, "verantwoordelij": 3906, "twoordelijk": 3907, "ntwoordelijk": 3908, "antwoordelijk": 3909, "rantwoordelijk": 3910, "erantwoordelijk": 3911, "verantwoordelijk": 3912, "hillend": 3913, "chillend": 3914, "schillend": 3915, "rschillend": 3916, "erschillend": 3917, "verschillend": 3918, "redi": 3919, "ana": 3920, "olo": 3921, "eac": 3922, "erwerp": 3923, "hor": 3924, "kie": 3925, "som": 3926, "ezon": 3927, "solut": 3928, "soluti": 3929, "mensen": 3930, "kenne": 3931, "esolut": 3932, "resolut": 3933, "esoluti": 3934, "resoluti": 3935, "ess": 3936, "solutie": 3937, "esolutie": 3938, "resolutie": 3939, "**<vnw><bez><det><stan><vol><2><getal><prenom><zonder><agr>**": 3940, "gezo": 3941, "ereike": 3942, "ereiken": 3943, "afs": 3944, "akeli": 3945, "ezond": 3946, "enre": 3947, "iatie": 3948, "snel": 3949, "fva": 3950, "weer": 3951, "afva": 3952, "gezon": 3953, "gezond": 3954, "rhan": 3955, "rhand": 3956, "dach": 3957, "dacht": 3958, "zoeken": 3959, "verbe": 3960, "ldo": 3961, "zing": 3962, "liss": 3963, "band": 3964, "forma": 3965, "hermi": 3966, "oneel": 3967, "toch": 3968, "hn": 3969, "elst": 3970, "ebruike": 3971, "gebruike": 3972, "chermi": 3973, "hermin": 3974, "schermi": 3975, "chermin": 3976, "schermin": 3977, "erming": 3978, "herming": 3979, "cherming": 3980, "scherming": 3981, "ald": 3982, "alise": 3983, "daarv": 3984, "want": 3985, "eschermi": 3986, "beschermi": 3987, "eschermin": 3988, "beschermin": 3989, "escherming": 3990, "bescherming": 3991, "ooi": 3992, "nwo": 3993, "sd": 3994, "nstr": 3995, "daag": 3996, "verkl": 3997, "rmati": 3998, "kwa": 3999, "s-": 4000, "td": 4001, "anier": 4002, "herv": 4003, "manie": 4004, "manier": 4005, "tik": 4006, "verba": 4007, "sk": 4008, "derg": 4009, "erla": 4010, "nzak": 4011, "aliser": 4012, "ndern": 4013, "oemen": 4014, "tscha": 4015, "nzake": 4016, "kos": 4017, "oeve": 4018, "inzak": 4019, "ormat": 4020, "epas": 4021, "tuurl": 4022, "ndaag": 4023, "inzake": 4024, "urli": 4025, "ormati": 4026, "ida": 4027, "elings": 4028, "uurli": 4029, "deni": 4030, "chie": 4031, "**<vnw><onbep><pron><stan><vol><3p><ev>**": 4032, "iep": 4033, "rbet": 4034, "oef": 4035, "urlij": 4036, "lgem": 4037, "uurlij": 4038, "lgeme": 4039, "urlijk": 4040, "uurlijk": 4041, "osi": 4042, "tuurli": 4043, "tuurlij": 4044, "tuurlijk": 4045, "rkel": 4046, "ewo": 4047, "instelli": 4048, "instellin": 4049, "instelling": 4050, "jzi": 4051, "ijzi": 4052, "uiter": 4053, "ilj": 4054, "ossi": 4055, "rkla": 4056, "**<vnw><onbep><det><stan><prenom><zonder><evon>**": 4057, "erkla": 4058, "htig": 4059, "chtig": 4060, "teru": 4061, "erlij": 4062, "epal": 4063, "format": 4064, "nisa": 4065, "formati": 4066, "**<tw><rang><nom><zonder-n>**": 4067, "nisat": 4068, "algem": 4069, "algeme": 4070, "onds": 4071, "andaag": 4072, "vandaag": 4073, "estr": 4074, "kle": 4075, "rove": 4076, "rmatie": 4077, "ormatie": 4078, "ndele": 4079, "ndelen": 4080, "lema": 4081, "000": 4082, "ton": 4083, "auto": 4084, "mie": 4085, "digh": 4086, "dighe": 4087, "indie": 4088, "nforma": 4089, "lste": 4090, "indien": 4091, "rate": 4092, "informa": 4093, "vie": 4094, "erhan": 4095, "erhand": 4096, "ingsp": 4097, "formatie": 4098, "nformat": 4099, "nformati": 4100, "evoeg": 4101, "comp": 4102, "informat": 4103, "informati": 4104, "ops": 4105, "erkel": 4106, "jl": 4107, "tstell": 4108, "verkla": 4109, "elste": 4110, "akelij": 4111, "oris": 4112, "klar": 4113, "alite": 4114, "ledi": 4115, "sum": 4116, "achter": 4117, "akelijk": 4118, "tike": 4119, "eper": 4120, "dighei": 4121, "digheid": 4122, "plich": 4123, "plicht": 4124, "aderi": 4125, "ink": 4126, "vu": 4127, "venti": 4128, "rvoer": 4129, "nts": 4130, "rnemen": 4131, "rum": 4132, "ezie": 4133, "lti": 4134, "rens": 4135, "perk": 4136, "eda": 4137, "onve": 4138, "ijl": 4139, "derne": 4140, "nderne": 4141, "rklar": 4142, "erklar": 4143, "verklar": 4144, "ehande": 4145, "ehandel": 4146, "q": 4147, "eerder": 4148, "ondern": 4149, "onderne": 4150, "koo": 4151, "ennen": 4152, "dernem": 4153, "ndernem": 4154, "ondernem": 4155, "aderin": 4156, "adering": 4157, "nisati": 4158, "toep": 4159, "dk": 4160, "rkeli": 4161, "oepa": 4162, "erkeli": 4163, "rkelij": 4164, "erkelij": 4165, "rkelijk": 4166, "erkelijk": 4167, "mul": 4168, "epen": 4169, "una": 4170, "toepa": 4171, "oepas": 4172, "toepas": 4173, "nisatie": 4174, "lstel": 4175, "nformatie": 4176, "informatie": 4177, "elstel": 4178, "atten": 4179, "zod": 4180, "vall": 4181, "bepal": 4182, "ukke": 4183, "atuurl": 4184, "natuurl": 4185, "atuurli": 4186, "natuurli": 4187, ";": 4188, "atuurlij": 4189, "natuurlij": 4190, "atuurlijk": 4191, "natuurlijk": 4192, "emaa": 4193, "erbet": 4194, "oels": 4195, "tof": 4196, "alitei": 4197, "aliteit": 4198, "nspa": 4199, "schie": 4200, "oordi": 4201, "rover": 4202, "igg": 4203, "graag": 4204, "rc": 4205, "doels": 4206, "lstell": 4207, "elstell": 4208, "lstelli": 4209, "elstelli": 4210, "lstellin": 4211, "elstellin": 4212, "lstelling": 4213, "elstelling": 4214, "oelst": 4215, "doelst": 4216, "oelste": 4217, "doelste": 4218, "oelstel": 4219, "doelstel": 4220, "oelstell": 4221, "doelstell": 4222, "oelstelli": 4223, "doelstelli": 4224, "oelstellin": 4225, "doelstellin": 4226, "oelstelling": 4227, "doelstelling": 4228, "rdo": 4229, "etek": 4230, "logi": 4231, "ligg": 4232, "beschi": 4233, "beter": 4234, "ice": 4235, "lfd": 4236, "tschap": 4237, "beschik": 4238, "wijzi": 4239, "elfd": 4240, "zelfd": 4241, "npa": 4242, "kg": 4243, "epass": 4244, "woordi": 4245, "lfde": 4246, "elfde": 4247, "zelfde": 4248, "rbete": 4249, "verbet": 4250, "erbete": 4251, "verbete": 4252, "cat": 4253, "amer": 4254, "oepass": 4255, "toepass": 4256, "toen": 4257, "eteke": 4258, "eteken": 4259, "bereik": 4260, "hem": 4261, "ledig": 4262, "rbeter": 4263, "erbeter": 4264, "verbeter": 4265, "blijk": 4266, "betek": 4267, "beteke": 4268, "beteken": 4269, "oudi": 4270, "behan": 4271, "behand": 4272, "behande": 4273, "behandel": 4274, "stit": 4275, "ntere": 4276, "rer": 4277, "igge": 4278, "oda": 4279, "egri": 4280, "gehe": 4281, "cc": 4282, "milj": 4283, "ligge": 4284, "angs": 4285, "vold": 4286, "lgemee": 4287, "lgemeen": 4288, "slot": 4289, "son": 4290, "ervoe": 4291, "akt": 4292, "uidi": 4293, "oldo": 4294, "dre": 4295, "voldo": 4296, "pm": 4297, "uctu": 4298, "algemee": 4299, "algemeen": 4300, "isti": 4301, "andele": 4302, "andelen": 4303, "enrec": 4304, "eming": 4305, "des": 4306, "kennen": 4307, "enrech": 4308, "enrecht": 4309, "iggen": 4310, "liggen": 4311, "ructu": 4312, "tructu": 4313, "structu": 4314, "**<vnw><pers><pron><nomin><vol><3v><ev><fem>**": 4315, "osit": 4316, "siti": 4317, "ldoe": 4318, "rhande": 4319, "posi": 4320, "erug": 4321, "terug": 4322, "qu": 4323, "verte": 4324, "kenin": 4325, "kening": 4326, "anva": 4327, "aanva": 4328, "ldoen": 4329, "oldoe": 4330, "voldoe": 4331, "oldoen": 4332, "voldoen": 4333, "noeme": 4334, "posit": 4335, "iel": 4336, "ositi": 4337, "positi": 4338, "para": 4339, "sitie": 4340, "sul": 4341, "enta": 4342, "nneme": 4343, "vens": 4344, "kb": 4345, "ormen": 4346, "top": 4347, "chn": 4348, "ositie": 4349, "positie": 4350, "artij": 4351, "partij": 4352, "lled": 4353, "tech": 4354, "tuk": 4355, "stuk": 4356, "kiez": 4357, "entr": 4358, "tab": 4359, "tersc": 4360, "mers": 4361, "vea": 4362, "tsl": 4363, "veau": 4364, "ivea": 4365, "nivea": 4366, "iveau": 4367, "niveau": 4368, "jdr": 4369, "ijdr": 4370, "aanz": 4371, "tings": 4372, "rmij": 4373, "ermij": 4374, "nnemen": 4375, "breidi": 4376, "breidin": 4377, "breiding": 4378, "inis": 4379, "dse": 4380, "tters": 4381, "moei": 4382, "voll": 4383, "volle": 4384, "echn": 4385, "bijz": 4386, "idig": 4387, "uidig": 4388, "ekenin": 4389, "ekening": 4390, "tersch": 4391, "rgi": 4392, "techn": 4393, "noemen": 4394, "vern": 4395, "ikel": 4396, "anw": 4397, "tbreidi": 4398, "itbreidi": 4399, "tbreidin": 4400, "uitbreidi": 4401, "itbreidin": 4402, "tbreiding": 4403, "uitbreidin": 4404, "itbreiding": 4405, "uitbreiding": 4406, "bereike": 4407, "bereiken": 4408, "spel": 4409, "ffi": 4410, "viss": 4411, "itters": 4412, "zitters": 4413, "rzitters": 4414, "orzitters": 4415, "oorzitters": 4416, "voorzitters": 4417, "derge": 4418, "ventie": 4419, "terscha": 4420, "werkel": 4421, "terschap": 4422, "slan": 4423, "sser": 4424, "lever": 4425, "uiken": 4426, "valle": 4427, "oeri": 4428, "assi": 4429, "emb": 4430, "olled": 4431, "bijd": 4432, "lledi": 4433, "bijdr": 4434, "ttersc": 4435, "ittersc": 4436, "ttersch": 4437, "zittersc": 4438, "ittersch": 4439, "tterscha": 4440, "rzittersc": 4441, "zittersch": 4442, "itterscha": 4443, "tterschap": 4444, "orzittersc": 4445, "rzittersch": 4446, "zitterscha": 4447, "itterschap": 4448, "oorzittersc": 4449, "orzittersch": 4450, "rzitterscha": 4451, "zitterschap": 4452, "voorzittersc": 4453, "oorzittersch": 4454, "orzitterscha": 4455, "rzitterschap": 4456, "voorzittersch": 4457, "oorzitterscha": 4458, "orzitterschap": 4459, "voorzitterscha": 4460, "oorzitterschap": 4461, "voorzitterschap": 4462, "jdra": 4463, "ijdra": 4464, "bijdra": 4465, "jdrag": 4466, "ijdrag": 4467, "jdrage": 4468, "bijdrag": 4469, "ijdrage": 4470, "bijdrage": 4471, "volled": 4472, "olledi": 4473, "lledig": 4474, "volledi": 4475, "olledig": 4476, "volledig": 4477, "cul": 4478, "evere": 4479, "tn": 4480, "ekend": 4481, "centr": 4482, "ateg": 4483, "werkeli": 4484, "werkelij": 4485, "werkelijk": 4486, "onsu": 4487, "hav": 4488, "consu": 4489, "abi": 4490, "rkg": 4491, "erkg": 4492, "gl": 4493, "jzo": 4494, "ijzo": 4495, "jzon": 4496, "ijzon": 4497, "erhande": 4498, "tia": 4499, "cer": 4500, "begri": 4501, "werkg": 4502, "ringe": 4503, "env": 4504, "huid": 4505, "ervoo": 4506, "ervoor": 4507, "bili": 4508, "bijzo": 4509, "jzond": 4510, "bijzon": 4511, "ijzond": 4512, "jzonde": 4513, "bijzond": 4514, "ijzonde": 4515, "jzonder": 4516, "bijzonde": 4517, "ijzonder": 4518, "bijzonder": 4519, "erre": 4520, "ondh": 4521, "verp": 4522, "rtr": 4523, "ezien": 4524, "\u00ebr": 4525, "inist": 4526, "allen": 4527, "ringen": 4528, "erneme": 4529, "ndr": 4530, "ondhe": 4531, "ondhei": 4532, "ondheid": 4533, "last": 4534, "handele": 4535, "handelen": 4536, "ded": 4537, "rake": 4538, "eet": 4539, "zondh": 4540, "ezondh": 4541, "zondhe": 4542, "gezondh": 4543, "ezondhe": 4544, "zondhei": 4545, "gezondhe": 4546, "ezondhei": 4547, "zondheid": 4548, "gezondhei": 4549, "ezondheid": 4550, "gezondheid": 4551, "tran": 4552, "gar": 4553, "passe": 4554, "vatt": 4555, "sw": 4556, "derhan": 4557, "derhand": 4558, "enwo": 4559, "minis": 4560, "huidi": 4561, "huidig": 4562, "efe": 4563, "rhandel": 4564, "rban": 4565, "espr": 4566, "erhandel": 4567, "opm": 4568, "uim": 4569, "uta": 4570, "span": 4571, "nemi": 4572, "minist": 4573, "aanse": 4574, "bek": 4575, "sts": 4576, "wac": 4577, "rukk": 4578, "02": 4579, "ork": 4580, "hrij": 4581, "chrij": 4582, "schrij": 4583, "nemin": 4584, "neming": 4585, "ial": 4586, "ereid": 4587, "get": 4588, "ave": 4589, "kst": 4590, "bereid": 4591, "vallen": 4592, "rto": 4593, "nderhan": 4594, "nderhand": 4595, "gad": 4596, "erop": 4597, "oru": 4598, "ogelijkh": 4599, "mogelijkh": 4600, "ogelijkhe": 4601, "mogelijkhe": 4602, "stis": 4603, "erec": 4604, "drukk": 4605, "gewo": 4606, "evens": 4607, "stisc": 4608, "stisch": 4609, "wach": 4610, "wacht": 4611, "genw": 4612, "jp": 4613, "oes": 4614, "ijp": 4615, "iger": 4616, "nkeli": 4617, "krac": 4618, "eti": 4619, "gren": 4620, "krach": 4621, "erech": 4622, "erecht": 4623, "kracht": 4624, "erlijk": 4625, "nsum": 4626, "onsum": 4627, "consum": 4628, "ruiken": 4629, "sve": 4630, "ogelijkhei": 4631, "mogelijkhei": 4632, "ogelijkheid": 4633, "mogelijkheid": 4634, "imme": 4635, "onderhan": 4636, "onderhand": 4637, "bruiken": 4638, "erij": 4639, "egenw": 4640, "pale": 4641, "rvor": 4642, "ervor": 4643, "rvorm": 4644, "ervorm": 4645, "senr": 4646, "lta": 4647, "sid": 4648, "senre": 4649, "chu": 4650, "zijd": 4651, "tati": 4652, "senrec": 4653, "senrech": 4654, "senrecht": 4655, "tegenw": 4656, "derhande": 4657, "nderhande": 4658, "nkelij": 4659, "nkelijk": 4660, "derhandel": 4661, "nderhandel": 4662, "hervo": 4663, "hervor": 4664, "hervorm": 4665, "geren": 4666, "ulp": 4667, "gade": 4668, "vorme": 4669, "tho": 4670, "ezig": 4671, "nsenr": 4672, "ensenr": 4673, "nsenre": 4674, "mensenr": 4675, "ensenre": 4676, "nsenrec": 4677, "mensenre": 4678, "ensenrec": 4679, "nsenrech": 4680, "mensenrec": 4681, "ensenrech": 4682, "nsenrecht": 4683, "mensenrech": 4684, "ensenrecht": 4685, "mensenrecht": 4686, "tiat": 4687, "gisc": 4688, "hulp": 4689, "tiati": 4690, "tiatie": 4691, "rev": 4692, "stst": 4693, "-l": 4694, "vred": 4695, "\u00e9": 4696, "erban": 4697, "bepe": 4698, "beper": 4699, "eperk": 4700, "beperk": 4701, "jdi": 4702, "ijdi": 4703, "dergel": 4704, "dergeli": 4705, "dergelij": 4706, "dergelijk": 4707, "onderhande": 4708, "anp": 4709, "onderhandel": 4710, "ratis": 4711, "itia": 4712, "199": 4713, "ieze": 4714, "vervoe": 4715, "ossin": 4716, "ossing": 4717, "verge": 4718, "visse": 4719, "htv": 4720, "chtv": 4721, "oop": 4722, "aanp": 4723, "nitia": 4724, "lein": 4725, "immer": 4726, "itiat": 4727, "initia": 4728, "nitiat": 4729, "initiat": 4730, "dame": 4731, "gader": 4732, "term": 4733, "vormen": 4734, "rgad": 4735, "ergad": 4736, "rgade": 4737, "vergad": 4738, "ergade": 4739, "rgader": 4740, "vergade": 4741, "ergader": 4742, "vergader": 4743, "brek": 4744, "peci": 4745, "itiati": 4746, "nitiati": 4747, "initiati": 4748, "speci": 4749, "ervoer": 4750, "tera": 4751, "itiatie": 4752, "nitiatie": 4753, "initiatie": 4754, "amens": 4755, "edo": 4756, "verban": 4757, "vervoer": 4758, "rve": 4759, "schu": 4760, "lossi": 4761, "lossin": 4762, "lossing": 4763, "rleg": 4764, "onen": 4765, "alin": 4766, "aald": 4767, "ture": 4768, "ecti": 4769, "rband": 4770, "erband": 4771, "rteg": 4772, "rpl": 4773, "ordig": 4774, "verband": 4775, "nwoo": 4776, "arop": 4777, "genwo": 4778, "egenwo": 4779, "plossi": 4780, "oplossi": 4781, "plossin": 4782, "oplossin": 4783, "plossing": 4784, "oplossing": 4785, "nwoor": 4786, "nwoord": 4787, "sge": 4788, "gisch": 4789, "erpl": 4790, "bijv": 4791, "zakel": 4792, "zakeli": 4793, "zakelij": 4794, "zakelijk": 4795, "enwoo": 4796, "genwoo": 4797, "enwoor": 4798, "tegenwo": 4799, "egenwoo": 4800, "genwoor": 4801, "enwoord": 4802, "nwoordi": 4803, "tegenwoo": 4804, "egenwoor": 4805, "genwoord": 4806, "enwoordi": 4807, "tegenwoor": 4808, "egenwoord": 4809, "genwoordi": 4810, "tegenwoord": 4811, "egenwoordi": 4812, "tegenwoordi": 4813, "oordig": 4814, "woordig": 4815, "nwoordig": 4816, "enwoordig": 4817, "genwoordig": 4818, "egenwoordig": 4819, "tegenwoordig": 4820, "oste": 4821, "passen": 4822, "anpa": 4823, "aanpa": 4824, "ruim": 4825, "iatief": 4826, "sland": 4827, "serin": 4828, "sering": 4829, "aarop": 4830, "tiatief": 4831, "itiatief": 4832, "nitiatief": 4833, "initiatief": 4834, "dragen": 4835, "fend": 4836, "trans": 4837, "reeds": 4838, "kge": 4839, "mmers": 4840, "ffend": 4841, "paal": 4842, "effend": 4843, "dzak": 4844, "enste": 4845, "reffend": 4846, "treffend": 4847, "hore": 4848, "drin": 4849, "dzake": 4850, "immers": 4851, "vel": 4852, "kost": 4853, "cus": 4854, "tev": 4855, "lede": 4856, "nteg": 4857, "pme": 4858, "lari": 4859, "\u00f6": 4860, "oede": 4861, "mac": 4862, "opme": 4863, "uler": 4864, "lemaa": 4865, "rtege": 4866, "owe": 4867, "iseri": 4868, "grens": 4869, "rtegen": 4870, "iserin": 4871, "isering": 4872, "tm": 4873, "emaal": 4874, "anisa": 4875, "anisat": 4876, "tate": 4877, "order": 4878, "emer": 4879, "ganisa": 4880, "rganisa": 4881, "ganisat": 4882, "organisa": 4883, "rganisat": 4884, "organisat": 4885, "leden": 4886, "rijp": 4887, "horen": 4888, "jvo": 4889, "ijvo": 4890, "stste": 4891, "zwa": 4892, "001": 4893, "lac": 4894, "pmer": 4895, "opmer": 4896, "pmerk": 4897, "opmerk": 4898, "ststel": 4899, "ststell": 4900, "verpl": 4901, "aanda": 4902, "meri": 4903, "bijvo": 4904, "ucti": 4905, "jec": 4906, "ags": 4907, "hoev": 4908, "**<adj><nom><basis><zonder><zonder-n>**": 4909, "hoeve": 4910, "ote": 4911, "jvoo": 4912, "ijvoo": 4913, "jvoor": 4914, "ijvoor": 4915, "aann": 4916, "isser": 4917, "ebruiken": 4918, "gebruiken": 4919, "pele": 4920, "bijvoo": 4921, "bijvoor": 4922, "jvoorb": 4923, "ijvoorb": 4924, "jvoorbe": 4925, "bijvoorb": 4926, "ijvoorbe": 4927, "jvoorbee": 4928, "bijvoorbe": 4929, "ijvoorbee": 4930, "jvoorbeel": 4931, "bijvoorbee": 4932, "ijvoorbeel": 4933, "jvoorbeeld": 4934, "bijvoorbeel": 4935, "ijvoorbeeld": 4936, "bijvoorbeeld": 4937, "ubl": 4938, "endie": 4939, "ustr": 4940, "seli": 4941, "rtik": 4942, "tikel": 4943, "artik": 4944, "rtike": 4945, "artike": 4946, "rtikel": 4947, "artikel": 4948, "vendi": 4949, "endien": 4950, "imi": 4951, "dzakel": 4952, "dzakeli": 4953, "dzakelij": 4954, "dzakelijk": 4955, "bestr": 4956, "wijs": 4957, "denin": 4958, "cratis": 4959, "annem": 4960, "aanne": 4961, "aannem": 4962, "asis": 4963, "derwe": 4964, "rakt": 4965, "ernemen": 4966, "rwaa": 4967, "ubli": 4968, "basi": 4969, "hart": 4970, "visser": 4971, "\u00ebn": 4972, "auta": 4973, "basis": 4974, "rdeni": 4975, "ordeni": 4976, "rdenin": 4977, "dening": 4978, "ordenin": 4979, "rdening": 4980, "ordening": 4981, "etekene": 4982, "betekene": 4983, "etekenen": 4984, "betekenen": 4985, "rwaar": 4986, "def": 4987, "lemaal": 4988, "vord": 4989, "vorde": 4990, "vorder": 4991, "rbo": 4992, "state": 4993, "rbei": 4994, "rbeid": 4995, "tze": 4996, "zoda": 4997, "naut": 4998, "anisati": 4999, "arbe": 5000, "estri": 5001, "anisatie": 5002, "ganisati": 5003, "rganisati": 5004, "organisati": 5005, "ganisatie": 5006, "rganisatie": 5007, "organisatie": 5008, "olog": 5009, "rkge": 5010, "erkge": 5011, "sma": 5012, "werkge": 5013, "ertr": 5014, "the": 5015, "trum": 5016, "ekt": 5017, "raan": 5018, "arbei": 5019, "asts": 5020, "arbeid": 5021, "vasts": 5022, "edel": 5023, "nigd": 5024, "astst": 5025, "vastst": 5026, "venw": 5027, "rkom": 5028, "trou": 5029, "enigd": 5030, "renigd": 5031, "erenigd": 5032, "verenigd": 5033, "grat": 5034, "wal": 5035, "anzi": 5036, "moed": 5037, "nnee": 5038, "odzak": 5039, "oodzak": 5040, "odzake": 5041, "noodzak": 5042, "oodzake": 5043, "noodzake": 5044, "sume": 5045, "aanzi": 5046, "2001": 5047, "grati": 5048, "ttin": 5049, "nsume": 5050, "onsume": 5051, "consume": 5052, "wei": 5053, "tting": 5054, "delijkh": 5055, "delijkhe": 5056, "waarb": 5057, "insp": 5058, "delijkhei": 5059, "delijkheid": 5060, "ndelij": 5061, "ndelijk": 5062, "fere": 5063, "evenw": 5064, "pij": 5065, "ira": 5066, "ane": 5067, "sult": 5068, "dent": 5069, "jpe": 5070, "ijpe": 5071, "rvormi": 5072, "ervormi": 5073, "rvormin": 5074, "ervormin": 5075, "trouw": 5076, "rvorming": 5077, "ervorming": 5078, "joe": 5079, "hervormi": 5080, "hervormin": 5081, "hervorming": 5082, "ovend": 5083, "ologi": 5084, "rekeni": 5085, "rekenin": 5086, "rekening": 5087, "nct": 5088, "tap": 5089, "**<ww><od><vrij><zonder>**": 5090, "vertr": 5091, "everen": 5092, "rsp": 5093, "erteg": 5094, "ertege": 5095, "ertegen": 5096, "iev": 5097, "levere": 5098, "leveren": 5099, "rdee": 5100, "rere": 5101, "ergi": 5102, "grijp": 5103, "itai": 5104, "xt": 5105, "itair": 5106, "voorw": 5107, "oork": 5108, "esu": 5109, "nderwe": 5110, "unau": 5111, "unaut": 5112, "rend": 5113, "muna": 5114, "mmuna": 5115, "munau": 5116, "ommuna": 5117, "mmunau": 5118, "munaut": 5119, "communa": 5120, "ommunau": 5121, "mmunaut": 5122, "communau": 5123, "ommunaut": 5124, "communaut": 5125, "wann": 5126, "wanne": 5127, "nneer": 5128, "ewi": 5129, "nauta": 5130, "unauta": 5131, "annee": 5132, "wannee": 5133, "anneer": 5134, "wanneer": 5135, "munauta": 5136, "mmunauta": 5137, "ommunauta": 5138, "communauta": 5139, "ext": 5140, "astste": 5141, "vastste": 5142, "aststel": 5143, "vaststel": 5144, "aststell": 5145, "vaststell": 5146, "dring": 5147, "ilite": 5148, "sver": 5149, "rdeel": 5150, "onderwe": 5151, "uut": 5152, "nemer": 5153, "ewel": 5154, "vendie": 5155, "vendien": 5156, "nderi": 5157, "tstelle": 5158, "tstellen": 5159, "istis": 5160, "anzie": 5161, "aanzie": 5162, "anzien": 5163, "aanzien": 5164, "nderin": 5165, "istisc": 5166, "istisch": 5167, "anni": 5168, "reren": 5169, "ilitei": 5170, "iliteit": 5171, "trede": 5172, "anwe": 5173, "ndering": 5174, "resu": 5175, "rijpe": 5176, "sumen": 5177, "nsumen": 5178, "sument": 5179, "onsumen": 5180, "nsument": 5181, "consumen": 5182, "onsument": 5183, "consument": 5184, "adr": 5185, "anb": 5186, "odzakel": 5187, "oodzakel": 5188, "odzakeli": 5189, "noodzakel": 5190, "oodzakeli": 5191, "odzakelij": 5192, "noodzakeli": 5193, "oodzakelij": 5194, "odzakelijk": 5195, "noodzakelij": 5196, "oodzakelijk": 5197, "noodzakelijk": 5198, "grijpe": 5199, "jfe": 5200, "ijfe": 5201, "owel": 5202, "passi": 5203, "rijv": 5204, "nlands": 5205, "esul": 5206, "enlands": 5207, "resul": 5208, "esult": 5209, "result": 5210, "gea": 5211, "uctie": 5212, "ulta": 5213, "vit": 5214, "dringe": 5215, "nha": 5216, "nstru": 5217, "gezie": 5218, "gezien": 5219, "egd": 5220, "derwer": 5221, "voork": 5222, "ndac": 5223, "cere": 5224, "tali": 5225, "blijke": 5226, "namen": 5227, "ndach": 5228, "ndacht": 5229, "nderwer": 5230, "onderwer": 5231, "vange": 5232, "gelde": 5233, "esli": 5234, "treden": 5235, "dringen": 5236, "andac": 5237, "rsta": 5238, "ceren": 5239, "derwerp": 5240, "nderwerp": 5241, "onderwerp": 5242, "sst": 5243, "zow": 5244, "ester": 5245, "ibe": 5246, "utai": 5247, "utair": 5248, "**<ww><vd><nom><met-e><mv-n>**": 5249, "aandac": 5250, "andach": 5251, "aandach": 5252, "andacht": 5253, "aandacht": 5254, "rings": 5255, "sulta": 5256, "vrede": 5257, "namens": 5258, "beve": 5259, "reve": 5260, "gelo": 5261, "rze": 5262, "zowe": 5263, "zowel": 5264, "daat": 5265, "autai": 5266, "nautai": 5267, "autair": 5268, "unautai": 5269, "nautair": 5270, "unautair": 5271, "munautai": 5272, "mmunautai": 5273, "munautair": 5274, "ommunautai": 5275, "mmunautair": 5276, "communautai": 5277, "ommunautair": 5278, "communautair": 5279, "raak": 5280, "gelden": 5281, "voed": 5282, "pelen": 5283, "bovend": 5284, "ectie": 5285, "rzoeke": 5286, "estrij": 5287, "ovendi": 5288, "bovendi": 5289, "ovendie": 5290, "bovendie": 5291, "ovendien": 5292, "bovendien": 5293, "**<vnw><onbep><det><stan><prenom><met-e><evz>**": 5294, "fte": 5295, "stap": 5296, "erzoeke": 5297, "ntra": 5298, "osten": 5299, "assin": 5300, "jh": 5301, "ijh": 5302, "waarv": 5303, "gratie": 5304, "ppen": 5305, "ltaa": 5306, "reven": 5307, "verteg": 5308, "vertege": 5309, "rtegenw": 5310, "vertegen": 5311, "ertegenw": 5312, "rtegenwo": 5313, "vertegenw": 5314, "ertegenwo": 5315, "rtegenwoo": 5316, "vertegenwo": 5317, "ertegenwoo": 5318, "rtegenwoor": 5319, "vertegenwoo": 5320, "ertegenwoor": 5321, "rtegenwoord": 5322, "vertegenwoor": 5323, "ertegenwoord": 5324, "rtegenwoordi": 5325, "vertegenwoord": 5326, "ertegenwoordi": 5327, "rtegenwoordig": 5328, "vertegenwoordi": 5329, "ertegenwoordig": 5330, "vertegenwoordig": 5331, "fvaa": 5332, "fvaar": 5333, "fvaard": 5334, "fvaardi": 5335, "fvaardig": 5336, "afvaa": 5337, "afvaar": 5338, "afvaard": 5339, "afvaardi": 5340, "afvaardig": 5341, "gspr": 5342, "ase": 5343, "rsoo": 5344, "blijken": 5345, "assing": 5346, "derst": 5347, "ersoo": 5348, "veri": 5349, "feren": 5350, "ller": 5351, "slis": 5352, "besli": 5353, "eslis": 5354, "beslis": 5355, "gebe": 5356, "elg": 5357, "**<spec><afk>**": 5358, "digd": 5359, "rro": 5360, "nten": 5361, "nmi": 5362, "rouwe": 5363, "ussi": 5364, "bestri": 5365, "esulta": 5366, "resulta": 5367, "bestrij": 5368, "ultaa": 5369, "ofd": 5370, "ltaat": 5371, "sultaa": 5372, "ultaat": 5373, "esultaa": 5374, "sultaat": 5375, "resultaa": 5376, "esultaat": 5377, "resultaat": 5378, "gehee": 5379, "eheel": 5380, "geheel": 5381, "ebeu": 5382, "ebeur": 5383, "aling": 5384, "nderst": 5385, "oedi": 5386, "tvaa": 5387, "tvaar": 5388, "trate": 5389, "ldi": 5390, "ratisc": 5391, "cratisc": 5392, "ratisch": 5393, "cratisch": 5394, "bri": 5395, "oofd": 5396, "ionee": 5397, "erik": 5398, "itief": 5399, "lve": 5400, "klei": 5401, "lati": 5402, "klein": 5403, "gebeu": 5404, "gebeur": 5405, "ncti": 5406, "soor": 5407, "nle": 5408, "tige": 5409, "rri": 5410, "kz": 5411, "arn": 5412, "strate": 5413, "passin": 5414, "passing": 5415, "mit": 5416, "onderst": 5417, "eror": 5418, "**<adj><nom><basis><met-e><mv-n>**": 5419, "rzaa": 5420, "ansp": 5421, "ukken": 5422, "ept": 5423, "inse": 5424, "rateg": 5425, "trateg": 5426, "strateg": 5427, "andig": 5428, "obe": 5429, "vangen": 5430, "tegi": 5431, "ategi": 5432, "rategi": 5433, "trategi": 5434, "erika": 5435, "strategi": 5436, "aanb": 5437, "epaa": 5438, "ngspr": 5439, "gins": 5440, "each": 5441, "ject": 5442, "pub": 5443, "edk": 5444, "rijh": 5445, "ngev": 5446, "stere": 5447, "gspro": 5448, "tsp": 5449, "ocratis": 5450, "tiv": 5451, "estrijd": 5452, "publ": 5453, "publi": 5454, "rein": 5455, "nisc": 5456, "bepaa": 5457, "epaal": 5458, "paald": 5459, "bepaal": 5460, "epaald": 5461, "bepaald": 5462, "erwa": 5463, "pens": 5464, "auw": 5465, "vrijh": 5466, "eacht": 5467, "rep": 5468, "uige": 5469, "enis": 5470, "etrekke": 5471, "lechts": 5472, "slechts": 5473, "trie": 5474, "teraa": 5475, "nerg": 5476, "soon": 5477, "rsoon": 5478, "persoo": 5479, "ersoon": 5480, "persoon": 5481, "egins": 5482, "begins": 5483, "ingspr": 5484, "insel": 5485, "dic": 5486, "hoof": 5487, "hoofd": 5488, "bilit": 5489, "rord": 5490, "erord": 5491, "nisch": 5492, "steren": 5493, "geac": 5494, "ginse": 5495, "veror": 5496, "rorde": 5497, "erorde": 5498, "eginse": 5499, "ginsel": 5500, "beginse": 5501, "eginsel": 5502, "beginsel": 5503, "verord": 5504, "nger": 5505, "rorden": 5506, "erorden": 5507, "betrekke": 5508, "rukke": 5509, "kti": 5510, "oedk": 5511, "verorde": 5512, "geach": 5513, "geacht": 5514, "eini": 5515, "mor": 5516, "nga": 5517, "behe": 5518, "verorden": 5519, "kn": 5520, "tien": 5521, "**<ww><od><prenom><zonder>**": 5522, "rordeni": 5523, "erordeni": 5524, "rordenin": 5525, "erordenin": 5526, "rordening": 5527, "erordening": 5528, "verordeni": 5529, "verordenin": 5530, "verordening": 5531, "overh": 5532, "amp": 5533, "verke": 5534, "maats": 5535, "oegd": 5536, "goedk": 5537, "orwa": 5538, "oepe": 5539, "bevoe": 5540, "bevoeg": 5541, "opt": 5542, "oorwa": 5543, "orwaa": 5544, "oorwaa": 5545, "orwaar": 5546, "oorwaar": 5547, "inzi": 5548, "mocratis": 5549, "emocratis": 5550, "democratis": 5551, "voorwa": 5552, "voorwaa": 5553, "voorwaar": 5554, "msti": 5555, "nigde": 5556, "enigde": 5557, "renigde": 5558, "erenigde": 5559, "verenigde": 5560, "bestrijd": 5561, "orui": 5562, "oruit": 5563, "ngspro": 5564, "i\u00ebn": 5565, "erro": 5566, "ooru": 5567, "vooru": 5568, "oorui": 5569, "voorui": 5570, "ooruit": 5571, "vooruit": 5572, "inat": 5573, "drukke": 5574, "soort": 5575, "voegd": 5576, "evoegd": 5577, "omsti": 5578, "bevoegd": 5579, "loe": 5580, "komsti": 5581, "erent": 5582, "achti": 5583, "rad": 5584, "**<adj><nom><basis><met-e><zonder-n><stan>**": 5585, "rschr": 5586, "gaderi": 5587, "rgaderi": 5588, "gaderin": 5589, "ergaderi": 5590, "rgaderin": 5591, "vergaderi": 5592, "ergaderin": 5593, "vergaderin": 5594, "mstig": 5595, "omstig": 5596, "komstig": 5597, "gadering": 5598, "rgadering": 5599, "ergadering": 5600, "vergadering": 5601, "rijs": 5602, "lka": 5603, "orlo": 5604, "\u00ebre": 5605, "\u00ebren": 5606, "oorlo": 5607, "iu": 5608, "eus": 5609, "adi": 5610, "bilite": 5611, "ingspro": 5612, "ndus": 5613, "nstig": 5614, "bilitei": 5615, "biliteit": 5616, "rschri": 5617, "iezen": 5618, "erig": 5619, "lach": 5620, "afl": 5621, "andere": 5622, "anderen": 5623, "rzoeken": 5624, "rwaard": 5625, "tend": 5626, "erzoeken": 5627, "jzig": 5628, "ijzig": 5629, "reide": 5630, "indu": 5631, "gdh": 5632, "gdhe": 5633, "wijzig": 5634, "oost": 5635, "dust": 5636, "ndust": 5637, "dustr": 5638, "ndustr": 5639, "itst": 5640, "indus": 5641, "indust": 5642, "industr": 5643, "arvo": 5644, "aarvo": 5645, "ustri": 5646, "dustri": 5647, "ndustri": 5648, "mbe": 5649, "rwaarde": 5650, "onderd": 5651, "arvoo": 5652, "arvoor": 5653, "industri": 5654, "aarvoo": 5655, "aarvoor": 5656, "uee": 5657, "inig": 5658, "esi": 5659, "rpli": 5660, "rplic": 5661, "rplich": 5662, "rplicht": 5663, "erings": 5664, "voord": 5665, "erpli": 5666, "erplic": 5667, "erplich": 5668, "erplicht": 5669, "kaar": 5670, "boek": 5671, "ece": 5672, "off": 5673, "etrekken": 5674, "nsl": 5675, "tatie": 5676, "peri": 5677, "enad": 5678, "verpli": 5679, "verplic": 5680, "verplich": 5681, "verplicht": 5682, "ict": 5683, "lles": 5684, "fh": 5685, "randere": 5686, "randeren": 5687, "rori": 5688, "anneme": 5689, "aanneme": 5690, "lib": 5691, "betrekken": 5692, "iver": 5693, "ueel": 5694, "gdhei": 5695, "gdheid": 5696, "klari": 5697, "larin": 5698, "klarin": 5699, "laring": 5700, "klaring": 5701, "rklari": 5702, "erklari": 5703, "rklarin": 5704, "erklarin": 5705, "rklaring": 5706, "erklaring": 5707, "verklari": 5708, "verklarin": 5709, "verklaring": 5710, "ltij": 5711, "ltijd": 5712, "rhandeli": 5713, "erhandeli": 5714, "rhandelin": 5715, "erhandelin": 5716, "rhandeling": 5717, "erhandeling": 5718, "**<vnw><vb><det><stan><prenom><met-e><rest>**": 5719, "voeri": 5720, "ioneel": 5721, "erda": 5722, "lov": 5723, "g-": 5724, "kba": 5725, "rror": 5726, "tar": 5727, "lm": 5728, "uitst": 5729, "duu": 5730, "fw": 5731, "duur": 5732, "terro": 5733, "error": 5734, "terror": 5735, "derhandeli": 5736, "nderhandeli": 5737, "derhandelin": 5738, "onderhandeli": 5739, "nderhandelin": 5740, "derhandeling": 5741, "onderhandelin": 5742, "nderhandeling": 5743, "onderhandeling": 5744, "rrori": 5745, "roris": 5746, "errori": 5747, "rroris": 5748, "terrori": 5749, "erroris": 5750, "terroris": 5751, "roj": 5752, "alti": 5753, "tim": 5754, "pst": 5755, "rhal": 5756, "menl": 5757, "erhal": 5758, "rho": 5759, "vul": 5760, "ehoe": 5761, "rlen": 5762, "annemen": 5763, "aannemen": 5764, "kbaa": 5765, "kbaar": 5766, "erlen": 5767, "amenl": 5768, "elem": 5769, "ime": 5770, "verlen": 5771, "love": 5772, "inati": 5773, "meer": 5774, "evaa": 5775, "evaar": 5776, "indel": 5777, "ium": 5778, "bera": 5779, "reiden": 5780, "rdigen": 5781, "aags": 5782, "bena": 5783, "ankel": 5784, "ljo": 5785, "kte": 5786, "strie": 5787, "alles": 5788, "kgel": 5789, "rgie": 5790, "nvaa": 5791, "nvaar": 5792, "ustrie": 5793, "dustrie": 5794, "ndustrie": 5795, "industrie": 5796, "iljo": 5797, "spar": 5798, "agi": 5799, "kgele": 5800, "kgeleg": 5801, "otings": 5802, "ljoe": 5803, "rotings": 5804, "grotings": 5805, "joen": 5806, "miljo": 5807, "iljoe": 5808, "ljoen": 5809, "iljoen": 5810, "egrotings": 5811, "begrotings": 5812, "evor": 5813, "miljoe": 5814, "miljoen": 5815, "verde": 5816, "uld": 5817, "sliss": 5818, "esliss": 5819, "besliss": 5820, "kko": 5821, "sproc": 5822, "rkgel": 5823, "erkgel": 5824, "rkgele": 5825, "werkgel": 5826, "erkgele": 5827, "rkgeleg": 5828, "kgelege": 5829, "werkgele": 5830, "erkgeleg": 5831, "rkgelege": 5832, "kgelegen": 5833, "werkgeleg": 5834, "erkgelege": 5835, "rkgelegen": 5836, "werkgelege": 5837, "erkgelegen": 5838, "werkgelegen": 5839, "kgelegenh": 5840, "rkgelegenh": 5841, "kgelegenhe": 5842, "erkgelegenh": 5843, "rkgelegenhe": 5844, "kgelegenhei": 5845, "werkgelegenh": 5846, "erkgelegenhe": 5847, "rkgelegenhei": 5848, "kgelegenheid": 5849, "werkgelegenhe": 5850, "erkgelegenhei": 5851, "rkgelegenheid": 5852, "werkgelegenhei": 5853, "erkgelegenheid": 5854, "werkgelegenheid": 5855, "ergie": 5856, "sproce": 5857, "behoe": 5858, "asti": 5859, "2000": 5860, "afh": 5861, "nade": 5862, "rlan": 5863, "jhe": 5864, "ijhe": 5865, "jpen": 5866, "ijpen": 5867, "atsc": 5868, "aatsc": 5869, "ople": 5870, "altij": 5871, "altijd": 5872, "atsch": 5873, "aatsch": 5874, "fg": 5875, "verwa": 5876, "atscha": 5877, "aatscha": 5878, "atschap": 5879, "aatschap": 5880, "maatsc": 5881, "maatsch": 5882, "maatscha": 5883, "anvaa": 5884, "aanvaa": 5885, "anvaar": 5886, "aanvaar": 5887, "maatschap": 5888, "uigen": 5889, "beure": 5890, "beuren": 5891, "roei": 5892, "nvaard": 5893, "lus": 5894, "lichti": 5895, "anvaard": 5896, "aanvaard": 5897, "mod": 5898, "beta": 5899, "ameri": 5900, "pann": 5901, "opst": 5902, "jhei": 5903, "ijhei": 5904, "jheid": 5905, "ijheid": 5906, "ankeli": 5907, "ieb": 5908, "nteren": 5909, "ankelij": 5910, "ankelijk": 5911, "vatte": 5912, "ape": 5913, "ocratisc": 5914, "ocratisch": 5915, "vatten": 5916, "waarop": 5917, "toeg": 5918, "erand": 5919, "cce": 5920, "!": 5921, "alv": 5922, "rim": 5923, "cit": 5924, "htva": 5925, "chtva": 5926, "pv": 5927, "gt": 5928, "orwaard": 5929, "oorwaard": 5930, "orwaarde": 5931, "oorwaarde": 5932, "erande": 5933, "rouwen": 5934, "voorwaard": 5935, "voorwaarde": 5936, "verand": 5937, "verande": 5938, "erander": 5939, "verander": 5940, "rijpen": 5941, "htvaa": 5942, "chtvaa": 5943, "htvaar": 5944, "chtvaar": 5945, "rijhe": 5946, "kant": 5947, "elijke": 5948, "itz": 5949, "urr": 5950, "spann": 5951, "ober": 5952, "tic": 5953, "grijpen": 5954, "vrijhe": 5955, "nergi": 5956, "nergie": 5957, "ezing": 5958, "ln": 5959, "erho": 5960, "chen": 5961, "merik": 5962, "amerik": 5963, "merika": 5964, "amerika": 5965, "ststelle": 5966, "ststellen": 5967, "rkome": 5968, "nver": 5969, "tionee": 5970, "agst": 5971, "itsl": 5972, "luk": 5973, "tioneel": 5974, "tigen": 5975, "gstu": 5976, "mocratisc": 5977, "emocratisc": 5978, "mocratisch": 5979, "democratisc": 5980, "emocratisch": 5981, "democratisch": 5982, "rijhei": 5983, "vrijhei": 5984, "rijheid": 5985, "vrijheid": 5986, "rdin": 5987, "rstr": 5988, "uitsl": 5989, "traf": 5990, "kelings": 5991, "overhe": 5992, "bevol": 5993, "evolk": 5994, "bevolk": 5995, "ische": 5996, "ctuu": 5997, "ctuur": 5998, "energ": 5999, "nstem": 6000, "enni": 6001, "rkomen": 6002, "loven": 6003, "aagst": 6004, "nba": 6005, "e\u00eb": 6006, "lki": 6007, "rmijn": 6008, "ermijn": 6009, "sent": 6010, "**<vnw><aanw><det><stan><nom><met-e><zonder-n>**": 6011, "straf": 6012, "lkin": 6013, "vij": 6014, "raags": 6015, "annin": 6016, "raagst": 6017, "gara": 6018, "scu": 6019, "vraags": 6020, "vraagst": 6021, "anning": 6022, "merki": 6023, "merkin": 6024, "merking": 6025, "kkelings": 6026, "wali": 6027, "ikkelings": 6028, "wikkelings": 6029, "toet": 6030, "fon": 6031, "tandi": 6032, "leidi": 6033, "leidin": 6034, "leiding": 6035, "integ": 6036, "rzij": 6037, "rzijd": 6038, "olki": 6039, "olkin": 6040, "ginn": 6041, "erzij": 6042, "erzijd": 6043, "standi": 6044, "enoe": 6045, "niste": 6046, "cur": 6047, "mber": 6048, "twikkelings": 6049, "ntwikkelings": 6050, "ontwikkelings": 6051, "benad": 6052, "lking": 6053, "nce": 6054, "iniste": 6055, "nister": 6056, "inister": 6057, "lla": 6058, "digi": 6059, "indeli": 6060, "nstemm": 6061, "kwal": 6062, "groep": 6063, "olking": 6064, "kwali": 6065, "ginne": 6066, "stin": 6067, "ginnen": 6068, "tandig": 6069, "standig": 6070, "rijve": 6071, "energi": 6072, "energie": 6073, "espre": 6074, "eginn": 6075, "beginn": 6076, "eginne": 6077, "beginne": 6078, "garan": 6079, "eginnen": 6080, "beginnen": 6081, "ars": 6082, "lage": 6083, "lacht": 6084, "erti": 6085, "ministe": 6086, "minister": 6087, "etw": 6088, "ekst": 6089, "asp": 6090, "dwe": 6091, "aarn": 6092, "deg": 6093, "erstr": 6094, "tgan": 6095, "tgang": 6096, "oeil": 6097, "einig": 6098, "mt": 6099, "esprek": 6100, "wege": 6101, "volki": 6102, "volkin": 6103, "volking": 6104, "erze": 6105, "ilij": 6106, "oeili": 6107, "eilij": 6108, "ilijk": 6109, "oeilij": 6110, "eilijk": 6111, "oeilijk": 6112, "dier": 6113, "afr": 6114, "eindel": 6115, "lichtin": 6116, "lichting": 6117, "opr": 6118, "uitz": 6119, "rweg": 6120, "adru": 6121, "rtui": 6122, "gstuk": 6123, "nadr": 6124, "erenti": 6125, "nadru": 6126, "adruk": 6127, "nadruk": 6128, "moeil": 6129, "moeili": 6130, "moeilij": 6131, "moeilijk": 6132, "odat": 6133, "inzie": 6134, "evolki": 6135, "bevolki": 6136, "evolkin": 6137, "bevolkin": 6138, "evolking": 6139, "bevolking": 6140, "zodat": 6141, "hikk": 6142, "chikk": 6143, "schikk": 6144, "daarb": 6145, "ctiv": 6146, "enm": 6147, "rpr": 6148, "rdigd": 6149, "sprak": 6150, "etal": 6151, "inzien": 6152, "agstu": 6153, "aagstu": 6154, "agstuk": 6155, "aagstuk": 6156, "raagstu": 6157, "vraagstu": 6158, "raagstuk": 6159, "vraagstuk": 6160, "rkee": 6161, "rkeer": 6162, "ordige": 6163, "oordige": 6164, "woordige": 6165, "nwoordige": 6166, "enwoordige": 6167, "genwoordige": 6168, "egenwoordige": 6169, "tegenwoordige": 6170, "rtegenwoordige": 6171, "ertegenwoordige": 6172, "vertegenwoordige": 6173, "hale": 6174, "halen": 6175, "rtuig": 6176, "terre": 6177, "tivi": 6178, "besp": 6179, "beste": 6180, "rdelijkh": 6181, "rdelijkhe": 6182, "eraal": 6183, "erkee": 6184, "verkee": 6185, "erkeer": 6186, "verkeer": 6187, "rdelijkhei": 6188, "rdelijkheid": 6189, "fec": 6190, "edere": 6191, "ordelijkh": 6192, "oordelijkh": 6193, "ordelijkhe": 6194, "woordelijkh": 6195, "oordelijkhe": 6196, "twoordelijkh": 6197, "woordelijkhe": 6198, "ntwoordelijkh": 6199, "twoordelijkhe": 6200, "antwoordelijkh": 6201, "ntwoordelijkhe": 6202, "rantwoordelijkh": 6203, "antwoordelijkhe": 6204, "erantwoordelijkh": 6205, "rantwoordelijkhe": 6206, "verantwoordelijkh": 6207, "erantwoordelijkhe": 6208, "verantwoordelijkhe": 6209, "disch": 6210, "mpe": 6211, "ezel": 6212, "ordelijkhei": 6213, "oordelijkhei": 6214, "ordelijkheid": 6215, "woordelijkhei": 6216, "oordelijkheid": 6217, "twoordelijkhei": 6218, "woordelijkheid": 6219, "ntwoordelijkhei": 6220, "twoordelijkheid": 6221, "antwoordelijkhei": 6222, "ntwoordelijkheid": 6223, "rantwoordelijkhei": 6224, "antwoordelijkheid": 6225, "erantwoordelijkhei": 6226, "rantwoordelijkheid": 6227, "verantwoordelijkhei": 6228, "erantwoordelijkheid": 6229, "verantwoordelijkheid": 6230, "ntwe": 6231, "ndiene": 6232, "elaa": 6233, "vlo": 6234, "gevaa": 6235, "gevaar": 6236, "aststelle": 6237, "vaststelle": 6238, "aststellen": 6239, "vaststellen": 6240, "rnemi": 6241, "rnemin": 6242, "rneming": 6243, "fect": 6244, "mule": 6245, "trouwe": 6246, "ardigd": 6247, "aardigd": 6248, "nzet": 6249, "ico": 6250, "inc": 6251, "ni\u00eb": 6252, "ntwer": 6253, "twerp": 6254, "nbaa": 6255, "embe": 6256, "vaardigd": 6257, "derhe": 6258, "dege": 6259, "ntwerp": 6260, "ontwe": 6261, "stek": 6262, "ivit": 6263, "arant": 6264, "urk": 6265, "iscu": 6266, "rpe": 6267, "igr": 6268, "ontwer": 6269, "ontwerp": 6270, "nbaar": 6271, "ducti": 6272, "dels": 6273, "ember": 6274, "orko": 6275, "indiene": 6276, "onst": 6277, "tle": 6278, "oorko": 6279, "derl": 6280, "icat": 6281, "ssc": 6282, "discu": 6283, "orkom": 6284, "oorkom": 6285, "rijven": 6286, "vite": 6287, "enba": 6288, "menta": 6289, "vitei": 6290, "viteit": 6291, "beids": 6292, "rbeids": 6293, "arbeids": 6294, "tne": 6295, "cuss": 6296, "akti": 6297, "voorko": 6298, "waarm": 6299, "rdoo": 6300, "prakt": 6301, "rakti": 6302, "prakti": 6303, "pakk": 6304, "voorkom": 6305, "eindeli": 6306, "indelij": 6307, "eindelij": 6308, "indelijk": 6309, "eindelijk": 6310, "ssch": 6311, "tenl": 6312, "elu": 6313, "rni": 6314, "kop": 6315, "rijdi": 6316, "tk": 6317, "ivite": 6318, "ivitei": 6319, "iviteit": 6320, "urre": 6321, "wachte": 6322, "cussi": 6323, "scus": 6324, "inatie": 6325, "usi": 6326, "uctuu": 6327, "uctuur": 6328, "iscus": 6329, "ructuu": 6330, "tructuu": 6331, "ructuur": 6332, "structuu": 6333, "tructuur": 6334, "structuur": 6335, "efen": 6336, "elt": 6337, "scuss": 6338, "discus": 6339, "iscuss": 6340, "scussi": 6341, "discuss": 6342, "iscussi": 6343, "discussi": 6344, "mate": 6345, "rism": 6346, "verwi": 6347, "wachten": 6348, "instr": 6349, "svo": 6350, "edra": 6351, "erpr": 6352, "nov": 6353, "eded": 6354, "bor": 6355, "oerin": 6356, "risme": 6357, "cier": 6358, "meded": 6359, "loos": 6360, "tuige": 6361, "zijds": 6362, "rzijds": 6363, "erzijds": 6364, "utor": 6365, "migr": 6366, "fie": 6367, "ctivi": 6368, "tivit": 6369, "aven": 6370, "ncu": 6371, "derhei": 6372, "derheid": 6373, "redin": 6374, "reding": 6375, "ngst": 6376, "lte": 6377, "evord": 6378, "evorde": 6379, "evorder": 6380, "gat": 6381, "ior": 6382, "dke": 6383, "autor": 6384, "utori": 6385, "oering": 6386, "sre": 6387, "fond": 6388, "cratie": 6389, "cati": 6390, "autori": 6391, "curr": 6392, "rdoor": 6393, "ertu": 6394, "eft": 6395, "roepe": 6396, "ferent": 6397, "kind": 6398, "isen": 6399, "enha": 6400, "elov": 6401, "nwi": 6402, "daarbi": 6403, "ferenti": 6404, "dkeu": 6405, "serij": 6406, "aanw": 6407, "rijde": 6408, "sseri": 6409, "edse": 6410, "sserij": 6411, "nho": 6412, "isseri": 6413, "visseri": 6414, "isserij": 6415, "visserij": 6416, "eth": 6417, "torit": 6418, "tivite": 6419, "tivitei": 6420, "tiviteit": 6421, "voerin": 6422, "curre": 6423, "oege": 6424, "igra": 6425, "voering": 6426, "oncu": 6427, "concu": 6428, "daarbij": 6429, "list": 6430, "kijk": 6431, "**<n><soort><ev><basis><gen>**": 6432, "ncur": 6433, "oncur": 6434, "ncurr": 6435, "concur": 6436, "oncurr": 6437, "ncurre": 6438, "concurr": 6439, "oncurre": 6440, "concurre": 6441, "prake": 6442, "bevor": 6443, "bevord": 6444, "bevorde": 6445, "bevorder": 6446, "waarme": 6447, "eschikk": 6448, "beschikk": 6449, "catie": 6450, "ndienen": 6451, "edke": 6452, "oedke": 6453, "edkeu": 6454, "dkeur": 6455, "goedke": 6456, "oedkeu": 6457, "edkeur": 6458, "goedkeu": 6459, "oedkeur": 6460, "goedkeur": 6461, "utorit": 6462, "autorit": 6463, "oje": 6464, "blie": 6465, "spele": 6466, "turk": 6467, "waarmee": 6468, "elove": 6469, "ident": 6470, "sprake": 6471, "pste": 6472, "tschapp": 6473, "tsv": 6474, "erentie": 6475, "opp": 6476, "kkelij": 6477, "kkelijk": 6478, "rali": 6479, "rlegg": 6480, "erpe": 6481, "atschapp": 6482, "aatschapp": 6483, "maatschapp": 6484, "rect": 6485, "ublie": 6486, "gheids": 6487, "iori": 6488, "egan": 6489, "selij": 6490, "taten": 6491, "selijk": 6492, "igheids": 6493, "gelu": 6494, "opste": 6495, "gn": 6496, "migra": 6497, "anden": 6498, "prio": 6499, "rest": 6500, "ire": 6501, "dings": 6502, "verhei": 6503, "verheid": 6504, "indienen": 6505, "oducti": 6506, "roducti": 6507, "itenl": 6508, "lb": 6509, "roje": 6510, "hrijv": 6511, "chrijv": 6512, "schrijv": 6513, "termi": 6514, "enbaa": 6515, "erve": 6516, "enbaar": 6517, "cite": 6518, "sco": 6519, "gden": 6520, "jst": 6521, "ijst": 6522, "oega": 6523, "toes": 6524, "ctivit": 6525, "invo": 6526, "proj": 6527, "ojec": 6528, "proje": 6529, "rojec": 6530, "oject": 6531, "projec": 6532, "roject": 6533, "project": 6534, "xi": 6535, "tsta": 6536, "edoe": 6537, "digde": 6538, "orkome": 6539, "orkomen": 6540, "oorkome": 6541, "oorkomen": 6542, "tenla": 6543, "trijdi": 6544, "strijdi": 6545, "liek": 6546, "iema": 6547, "etred": 6548, "too": 6549, "overhei": 6550, "overheid": 6551, "tenlan": 6552, "voorkome": 6553, "voorkomen": 6554, "ima": 6555, "uitenl": 6556, "buitenl": 6557, "tenland": 6558, "sting": 6559, "kijke": 6560, "rdigde": 6561, "itenla": 6562, "uitenla": 6563, "itenlan": 6564, "buitenla": 6565, "uitenlan": 6566, "itenland": 6567, "buitenlan": 6568, "uitenland": 6569, "buitenland": 6570, "bar": 6571, "zov": 6572, "praa": 6573, "ardigde": 6574, "aardigde": 6575, "vaardigde": 6576, "betal": 6577, "koor": 6578, "fund": 6579, "armo": 6580, "traa": 6581, "oele": 6582, "ctivite": 6583, "ctivitei": 6584, "ctiviteit": 6585, "edan": 6586, "lez": 6587, "kele": 6588, "kere": 6589, "trouwen": 6590, "tredi": 6591, "tredin": 6592, "treding": 6593, "cip": 6594, "digin": 6595, "diging": 6596, "instru": 6597, "rtoe": 6598, "ific": 6599, "ncier": 6600, "ancier": 6601, "behee": 6602, "eheer": 6603, "beheer": 6604, "cult": 6605, "kijken": 6606, "torite": 6607, "utorite": 6608, "toritei": 6609, "autorite": 6610, "utoritei": 6611, "toriteit": 6612, "autoritei": 6613, "utoriteit": 6614, "autoriteit": 6615, "avi": 6616, "reu": 6617, "kelen": 6618, "mand": 6619, "ltu": 6620, "omie": 6621, "vijf": 6622, "stij": 6623, "levi": 6624, "ewoo": 6625, "nomie": 6626, "onomie": 6627, "igden": 6628, "verste": 6629, "pstel": 6630, "etreffend": 6631, "betreffend": 6632, "u-": 6633, "afg": 6634, "via": 6635, "oegan": 6636, "opstel": 6637, "oetr": 6638, "twij": 6639, "tabi": 6640, "fici": 6641, "oetre": 6642, "pstell": 6643, "opstell": 6644, "lande": 6645, "toetr": 6646, "toetre": 6647, "staten": 6648, "002": 6649, "edeli": 6650, "ductie": 6651, "verze": 6652, "keren": 6653, "overt": 6654, "waardi": 6655, "oetred": 6656, "koord": 6657, "toetred": 6658, "akko": 6659, "waardig": 6660, "eloven": 6661, "kkoo": 6662, "akkoo": 6663, "kkoor": 6664, "akkoor": 6665, "kkoord": 6666, "akkoord": 6667, "muler": 6668, "pb": 6669, "digden": 6670, "rdigden": 6671, "ardigden": 6672, "aardigden": 6673, "vaardigden": 6674, "eral": 6675, "kand": 6676, "strum": 6677, "amb": 6678, "egie": 6679, "somm": 6680, "-e": 6681, "edrag": 6682, "rid": 6683, "groei": 6684, "stab": 6685, "elas": 6686, "ultu": 6687, "did": 6688, "toega": 6689, "fha": 6690, "eug": 6691, "cultu": 6692, "nstrum": 6693, "epassi": 6694, "rume": 6695, "trume": 6696, "rumen": 6697, "strume": 6698, "trumen": 6699, "rument": 6700, "nstrume": 6701, "strumen": 6702, "trument": 6703, "nstrumen": 6704, "strument": 6705, "nstrument": 6706, "nise": 6707, "oepassi": 6708, "epassin": 6709, "toepassi": 6710, "oepassin": 6711, "epassing": 6712, "toepassin": 6713, "oepassing": 6714, "toepassing": 6715, "afha": 6716, "instrum": 6717, "instrume": 6718, "instrumen": 6719, "instrument": 6720, "elast": 6721, "dida": 6722, "ria": 6723, "%": 6724, "woon": 6725, "epr": 6726, "ndid": 6727, "kandi": 6728, "andid": 6729, "toegan": 6730, "ndida": 6731, "andida": 6732, "kandid": 6733, "teks": 6734, "tekst": 6735, "kandida": 6736, "pte": 6737, "termij": 6738, "termijn": 6739, "unda": 6740, "oest": 6741, "reet": 6742, "spraa": 6743, "en-": 6744, "rior": 6745, "ferentie": 6746, "riori": 6747, "maan": 6748, "praak": 6749, "spraak": 6750, "kne": 6751, "oez": 6752, "pakke": 6753, "tegie": 6754, "ategie": 6755, "rategie": 6756, "trategie": 6757, "aspe": 6758, "strategie": 6759, "cree": 6760, "ulere": 6761, "uleren": 6762, "jur": 6763, "bon": 6764, "stabi": 6765, "bod": 6766, "vaak": 6767, "issc": 6768, "issch": 6769, "sschi": 6770, "enaa": 6771, "nic": 6772, "fhan": 6773, "afhan": 6774, "prior": 6775, "ertui": 6776, "elka": 6777, "priori": 6778, "ligheids": 6779, "belas": 6780, "belast": 6781, "iligheids": 6782, "eiligheids": 6783, "veiligheids": 6784, "aller": 6785, "rlog": 6786, "vermi": 6787, "orlog": 6788, "entra": 6789, "oorlog": 6790, "ertuig": 6791, "verig": 6792, "iorit": 6793, "riorit": 6794, "evel": 6795, "flo": 6796, "aspec": 6797, "ffic": 6798, "abil": 6799, "estig": 6800, "ncr": 6801, "aspect": 6802, "juri": 6803, "alo": 6804, "fran": 6805, "ament": 6806, "gsproc": 6807, "ngsproc": 6808, "spor": 6809, "egev": 6810, "gsproce": 6811, "ngsproce": 6812, "bliek": 6813, "publie": 6814, "ubliek": 6815, "publiek": 6816, "twerk": 6817, "overi": 6818, "priorit": 6819, "ffec": 6820, "rkenn": 6821, "vull": 6822, "eu-": 6823, "ffect": 6824, "arov": 6825, "nancier": 6826, "inancier": 6827, "financier": 6828, "oeli": 6829, "effec": 6830, "effect": 6831, "rijden": 6832, "tuigen": 6833, "var": 6834, "itsp": 6835, "abili": 6836, "ndam": 6837, "lkaa": 6838, "oit": 6839, "\u00f3": 6840, "ldig": 6841, "prij": 6842, "jks": 6843, "ijks": 6844, "ots": 6845, "ffici": 6846, "insta": 6847, "centra": 6848, "ondi": 6849, "waarom": 6850, "lkaar": 6851, "wijl": 6852, "ingsproc": 6853, "wein": 6854, "weini": 6855, "weinig": 6856, "ingsproce": 6857, "elp": 6858, "elkaa": 6859, "elkaar": 6860, "producti": 6861, "hien": 6862, "chien": 6863, "sschie": 6864, "iber": 6865, "tegr": 6866, "had": 6867, "ngeve": 6868, "genoe": 6869, "activ": 6870, "riek": 6871, "missc": 6872, "missch": 6873, "isschi": 6874, "schien": 6875, "misschi": 6876, "isschie": 6877, "sschien": 6878, "misschie": 6879, "isschien": 6880, "misschien": 6881, "overig": 6882, "kenni": 6883, "eging": 6884, "unc": 6885, "rstan": 6886, "orzie": 6887, "oorzie": 6888, "orzien": 6889, "oorzien": 6890, "onl": 6891, "plei": 6892, "oductie": 6893, "roductie": 6894, "rstand": 6895, "ntegr": 6896, "2002": 6897, "orig": 6898, "erleg": 6899, "sic": 6900, "voorzie": 6901, "voorzien": 6902, "erkenn": 6903, "tiep": 6904, "dwi": 6905, "ngaa": 6906, "creet": 6907, "oh": 6908, "rns": 6909, "ngez": 6910, "ci\u00eb": 6911, "sio": 6912, "ktij": 6913, "itgan": 6914, "uitgan": 6915, "itgang": 6916, "uitgang": 6917, "richti": 6918, "richtin": 6919, "richting": 6920, "damen": 6921, "ezelf": 6922, "funda": 6923, "ndame": 6924, "spelen": 6925, "undam": 6926, "fundam": 6927, "undame": 6928, "ndamen": 6929, "dament": 6930, "fundame": 6931, "undamen": 6932, "ndament": 6933, "fundamen": 6934, "undament": 6935, "fundament": 6936, "alve": 6937, "eln": 6938, "clu": 6939, "voorl": 6940, "etere": 6941, "erns": 6942, "\u00ebnt": 6943, "eteren": 6944, "enz": 6945, "mach": 6946, "lasti": 6947, "perke": 6948, "perken": 6949, "fonds": 6950, "eits": 6951, "libe": 6952, "roor": 6953, "sommi": 6954, "ncre": 6955, "rnst": 6956, "ernst": 6957, "rster": 6958, "oncr": 6959, "concr": 6960, "oncre": 6961, "concre": 6962, "stof": 6963, "pne": 6964, "liber": 6965, "ieus": 6966, "erlan": 6967, "gelin": 6968, "integr": 6969, "rland": 6970, "geling": 6971, "beren": 6972, "ernemi": 6973, "ernemin": 6974, "erneming": 6975, "arte": 6976, "teits": 6977, "**<vnw><recip><pron><obl><vol><persoon><mv>**": 6978, "erster": 6979, "lisere": 6980, "liseren": 6981, "iteits": 6982, "naf": 6983, "daarm": 6984, "daarme": 6985, "daarmee": 6986, "tiee": 6987, "sbel": 6988, "opne": 6989, "dernemi": 6990, "ndernemi": 6991, "dernemin": 6992, "ondernemi": 6993, "ndernemin": 6994, "derneming": 6995, "ondernemin": 6996, "nderneming": 6997, "onderneming": 6998, "**<vnw><onbep><det><stan><vrij><zonder>**": 6999, "i\u00ebnt": 7000, "pnem": 7001, "opnem": 7002, "ngel": 7003, "rechte": 7004, "sz": 7005, "lak": 7006, "ocratie": 7007, "div": 7008, "npak": 7009, "conomie": 7010, "economie": 7011, "idaa": 7012, "edige": 7013, "aarov": 7014, "arove": 7015, "aarove": 7016, "arover": 7017, "aarover": 7018, "panni": 7019, "spanni": 7020, "sj": 7021, "pannin": 7022, "spannin": 7023, "panning": 7024, "spanning": 7025, "didaa": 7026, "idaat": 7027, "ndidaa": 7028, "didaat": 7029, "andidaa": 7030, "ndidaat": 7031, "kandidaa": 7032, "andidaat": 7033, "kandidaat": 7034, "unct": 7035, "verr": 7036, "tant": 7037, "nvoe": 7038, "epale": 7039, "jfel": 7040, "ijfel": 7041, "eise": 7042, "ewoon": 7043, "mocratie": 7044, "rkn": 7045, "ezelfd": 7046, "ezelfde": 7047, "tieel": 7048, "rsterk": 7049, "ersterk": 7050, "emocratie": 7051, "democratie": 7052, "taak": 7053, "wijf": 7054, "twijf": 7055, "wijfe": 7056, "twijfe": 7057, "wijfel": 7058, "twijfel": 7059, "icati": 7060, "erkn": 7061, "doc": 7062, "ngaan": 7063, "isic": 7064, "risic": 7065, "niser": 7066, "ommig": 7067, "sommig": 7068, "activi": 7069, "rtn": 7070, "beda": 7071, "san": 7072, "sico": 7073, "isico": 7074, "risico": 7075, "nsie": 7076, "verster": 7077, "versterk": 7078, "palen": 7079, "bepale": 7080, "aast": 7081, "epalen": 7082, "bepalen": 7083, "gewoo": 7084, "gewoon": 7085, "icatie": 7086, "rwijl": 7087, "erwijl": 7088, "artn": 7089, "eite": 7090, "imu": 7091, "egeve": 7092, "rkne": 7093, "ibera": 7094, "libera": 7095, "nspan": 7096, "terec": 7097, "terech": 7098, "terecht": 7099, "werkn": 7100, "erkne": 7101, "edank": 7102, "oepen": 7103, "werkne": 7104, "ala": 7105, "roepen": 7106, "erni": 7107, "rzaam": 7108, "daarva": 7109, "mh": 7110, "eest": 7111, "daarvan": 7112, "jdin": 7113, "ijdin": 7114, "egeven": 7115, "jding": 7116, "ijding": 7117, "maand": 7118, "rif": 7119, "nspann": 7120, "deree": 7121, "eroo": 7122, "nfe": 7123, "rtne": 7124, "ederee": 7125, "onis": 7126, "bedan": 7127, "bedank": 7128, "weli": 7129, "wie": 7130, "iedere": 7131, "robe": 7132, "itin": 7133, "wic": 7134, "dereen": 7135, "iederee": 7136, "edereen": 7137, "iedereen": 7138, "ronde": 7139, "urz": 7140, "edanke": 7141, "bedanke": 7142, "edanken": 7143, "bedanken": 7144, "chad": 7145, "derda": 7146, "egelin": 7147, "egeling": 7148, "artne": 7149, "tner": 7150, "partn": 7151, "rtner": 7152, "partne": 7153, "artner": 7154, "partner": 7155, "schad": 7156, "gewe": 7157, "onts": 7158, "edigen": 7159, "aflo": 7160, "-p": 7161, "nhou": 7162, "eroor": 7163, "wich": 7164, "iting": 7165, "nhoud": 7166, "nderda": 7167, "htel": 7168, "chtel": 7169, "terw": 7170, "wicht": 7171, "uurz": 7172, "knem": 7173, "ncree": 7174, "oncree": 7175, "ncreet": 7176, "concree": 7177, "oncreet": 7178, "concreet": 7179, "uiti": 7180, "ardo": 7181, "/2": 7182, "urza": 7183, "uurza": 7184, "uitin": 7185, "uiting": 7186, "duurz": 7187, "duurza": 7188, "zam": 7189, "nauw": 7190, "rknem": 7191, "kneme": 7192, "erknem": 7193, "rkneme": 7194, "knemer": 7195, "werknem": 7196, "erkneme": 7197, "rknemer": 7198, "werkneme": 7199, "erknemer": 7200, "werknemer": 7201, "ieni": 7202, "conv": 7203, "jt": 7204, "rober": 7205, "conve": 7206, "tone": 7207, "verbi": 7208, "ijt": 7209, "zui": 7210, "vaart": 7211, "urzaa": 7212, "uurzaa": 7213, "urzaam": 7214, "duurzaa": 7215, "uurzaam": 7216, "duurzaam": 7217, "lita": 7218, "inspa": 7219, "ensie": 7220, "medi": 7221, "inspan": 7222, "inspann": 7223, "raar": 7224, "pmerki": 7225, "opmerki": 7226, "pmerkin": 7227, "opmerkin": 7228, "pmerking": 7229, "opmerking": 7230, "aars": 7231, "imp": 7232, "sub": 7233, "oner": 7234, "niets": 7235, "erie": 7236, "titu": 7237, "effi": 7238, "efi": 7239, "iz": 7240, "swa": 7241, "lse": 7242, "egdh": 7243, "oegdh": 7244, "egdhe": 7245, "voegdh": 7246, "oegdhe": 7247, "evoegdh": 7248, "voegdhe": 7249, "bevoegdh": 7250, "evoegdhe": 7251, "bevoegdhe": 7252, "eisen": 7253, "rren": 7254, "hin": 7255, "itste": 7256, "ngezi": 7257, "tenlands": 7258, "itenlands": 7259, "uitenlands": 7260, "buitenlands": 7261, "liseri": 7262, "liserin": 7263, "lisering": 7264, "egrij": 7265, "kkele": 7266, "activit": 7267, "bra": 7268, "edoel": 7269, "stitu": 7270, "rtel": 7271, "ssel": 7272, "begrij": 7273, "egrijp": 7274, "begrijp": 7275, "kkelen": 7276, "anpak": 7277, "aanpak": 7278, "egrijpe": 7279, "begrijpe": 7280, "reek": 7281, "iebe": 7282, "ag-": 7283, "eraar": 7284, "ransp": 7285, "transp": 7286, "ralis": 7287, "pti": 7288, "productie": 7289, "rijdin": 7290, "rijding": 7291, "eperke": 7292, "beperke": 7293, "eperken": 7294, "beperken": 7295, "weze": 7296, "wezen": 7297, "ussie": 7298, "**<vnw><onbep><grad><stan><vrij><zonder><sup>**": 7299, "ngezie": 7300, "ngezien": 7301, "cussie": 7302, "angez": 7303, "aangez": 7304, "gm": 7305, "have": 7306, "reel": 7307, "angezi": 7308, "aangezi": 7309, "ranti": 7310, "angezie": 7311, "aangezie": 7312, "angezien": 7313, "aangezien": 7314, "apen": 7315, "scussie": 7316, "iscussie": 7317, "discussie": 7318, "enu": 7319, "merke": 7320, "activite": 7321, "activitei": 7322, "activiteit": 7323, "nvoer": 7324, "bedo": 7325, "probe": 7326, "penb": 7327, "imin": 7328, "hrijve": 7329, "chrijve": 7330, "schrijve": 7331, "verwij": 7332, "pze": 7333, "obere": 7334, "idis": 7335, "lag-": 7336, "slag-": 7337, "defi": 7338, "rten": 7339, "inci": 7340, "ewer": 7341, "oberen": 7342, "rslag-": 7343, "erslag-": 7344, "verslag-": 7345, "prober": 7346, "robere": 7347, "probere": 7348, "roberen": 7349, "proberen": 7350, "pneme": 7351, "opneme": 7352, "verne": 7353, "idisc": 7354, "geg": 7355, "egdhei": 7356, "oegdhei": 7357, "egdheid": 7358, "voegdhei": 7359, "oegdheid": 7360, "evoegdhei": 7361, "voegdheid": 7362, "bevoegdhei": 7363, "evoegdheid": 7364, "bevoegdheid": 7365, "dial": 7366, "pnemen": 7367, "opnemen": 7368, "iod": 7369, "uitste": 7370, "rantie": 7371, "efin": 7372, "gsl": 7373, "rukken": 7374, "ito": 7375, "bedoe": 7376, "bedoel": 7377, "oegen": 7378, "ota": 7379, "prijs": 7380, "openb": 7381, "rpen": 7382, "ehandele": 7383, "behandele": 7384, "ehandelen": 7385, "behandelen": 7386, "rse": 7387, "itd": 7388, "rwijs": 7389, "erwijs": 7390, "sra": 7391, "terwi": 7392, "ectief": 7393, "sitief": 7394, "regeli": 7395, "regelin": 7396, "regeling": 7397, "raat": 7398, "ositief": 7399, "positief": 7400, "terwij": 7401, "terwijl": 7402, "fli": 7403, "const": 7404, "okk": 7405, "uitd": 7406, "penba": 7407, "haven": 7408, "openba": 7409, "bezi": 7410, "elic": 7411, "ieri": 7412, "drukken": 7413, "defin": 7414, "ridi": 7415, "rok": 7416, "at-": 7417, "usie": 7418, "gsc": 7419, "onfe": 7420, "veroo": 7421, "veroor": 7422, "opze": 7423, "ebeure": 7424, "gebeure": 7425, "ebeuren": 7426, "gebeuren": 7427, "ami": 7428, "astin": 7429, "asting": 7430, "rwac": 7431, "erwac": 7432, "rwach": 7433, "erwach": 7434, "rwacht": 7435, "erwacht": 7436, "confe": 7437, "verwac": 7438, "verwach": 7439, "verwacht": 7440, "mv": 7441, "latie": 7442, "event": 7443, "ridis": 7444, "fende": 7445, "urid": 7446, "uridi": 7447, "tabil": 7448, "tabili": 7449, "uridis": 7450, "ridisc": 7451, "idisch": 7452, "uridisc": 7453, "ikkele": 7454, "ikkelen": 7455, "jurid": 7456, "juridi": 7457, "juridis": 7458, "ridisch": 7459, "juridisc": 7460, "uridisch": 7461, "juridisch": 7462, "egelij": 7463, "egelijk": 7464, "fvaardigd": 7465, "afvaardigd": 7466, "fvaardigde": 7467, "afvaardigde": 7468, "fvaardigden": 7469, "afvaardigden": 7470, "erpen": 7471, "zame": 7472, "ppi": 7473, "macht": 7474, "uncti": 7475, "func": 7476, "chij": 7477, "schij": 7478, "ffende": 7479, "effende": 7480, "lichte": 7481, "vori": 7482, "reffende": 7483, "treffende": 7484, "sov": 7485, "funct": 7486, "functi": 7487, "gsb": 7488, "enee": 7489, "llem": 7490, "slac": 7491, "slach": 7492, "slacht": 7493, "hijn": 7494, "chijn": 7495, "schijn": 7496, "sbele": 7497, "rdele": 7498, "llema": 7499, "penbaa": 7500, "openbaa": 7501, "penbaar": 7502, "openbaar": 7503, "lon": 7504, "etreffende": 7505, "betreffende": 7506, "fini": 7507, "iorite": 7508, "riorite": 7509, "nstan": 7510, "dba": 7511, "aat-": 7512, "wikkele": 7513, "wikkelen": 7514, "betere": 7515, "ienin": 7516, "iening": 7517, "hteli": 7518, "chteli": 7519, "beteren": 7520, "llemaa": 7521, "allem": 7522, "ioritei": 7523, "rioritei": 7524, "ioriteit": 7525, "rioriteit": 7526, "rnsti": 7527, "ernsti": 7528, "rnstig": 7529, "ernstig": 7530, "dg": 7531, "agin": 7532, "allema": 7533, "rbetere": 7534, "erbetere": 7535, "rbeteren": 7536, "verbetere": 7537, "erbeteren": 7538, "verbeteren": 7539, "rdelen": 7540, "vesti": 7541, "allemaa": 7542, "llemaal": 7543, "allemaal": 7544, "aardo": 7545, "bro": 7546, "hrijven": 7547, "chrijven": 7548, "schrijven": 7549, "nfl": 7550, "steke": 7551, "priorite": 7552, "halv": 7553, "halve": 7554, "uge": 7555, "anen": 7556, "kaan": 7557, "dden": 7558, "toez": 7559, "prioritei": 7560, "prioriteit": 7561, "itera": 7562, "d-": 7563, "vorig": 7564, "i\u00ebr": 7565, "noeg": 7566, "tba": 7567, "ngsl": 7568, "efini": 7569, "defini": 7570, "keure": 7571, "keuren": 7572, "pzet": 7573, "opzet": 7574, "enoeg": 7575, "genoeg": 7576, "bespr": 7577, "tspr": 7578, "steken": 7579, "nige": 7580, "rdere": 7581, "nkr": 7582, "mbi": 7583, "issin": 7584, "issing": 7585, "rige": 7586, "stige": 7587, "tvaard": 7588, "tvaardi": 7589, "tvaardig": 7590, "o-": 7591, "rdaa": 7592, "eal": 7593, "vla": 7594, "llig": 7595, "az": 7596, "bezo": 7597, "verho": 7598, "rust": 7599, "o\u00f6": 7600, "itten": 7601, "stabil": 7602, "stabili": 7603, "trijdin": 7604, "estrijdi": 7605, "strijdin": 7606, "trijding": 7607, "bestrijdi": 7608, "estrijdin": 7609, "strijding": 7610, "bestrijdin": 7611, "estrijding": 7612, "bestrijding": 7613, "envo": 7614, "walit": 7615, "kwalit": 7616, "ivers": 7617, "teraar": 7618, "meerd": 7619, "dzaa": 7620, "kieze": 7621, "cum": 7622, "rderen": 7623, "oorden": 7624, "flop": 7625, "landen": 7626, "erri": 7627, "10": 7628, "alist": 7629, "ingsl": 7630, "wed": 7631, "ket": 7632, "gent": 7633, "aflop": 7634, "flope": 7635, "aflope": 7636, "flopen": 7637, "aflopen": 7638, "cif": 7639, "inve": 7640, "aanwe": 7641, "raard": 7642, "eraard": 7643, "03": 7644, "aliseri": 7645, "aliserin": 7646, "alisering": 7647, "sbelei": 7648, "sbeleid": 7649, "tbe": 7650, "cifi": 7651, "bewe": 7652, "rf": 7653, "uitera": 7654, "iteraa": 7655, "uiteraa": 7656, "iteraar": 7657, "teraard": 7658, "uiteraar": 7659, "iteraard": 7660, "uiteraard": 7661, "rbr": 7662, "atig": 7663, "ooste": 7664, "nfer": 7665, "meerde": 7666, "oelen": 7667, "jon": 7668, "nsio": 7669, "lichten": 7670, "riti": 7671, "mte": 7672, "lijks": 7673, "onfer": 7674, "nfere": 7675, "confer": 7676, "onfere": 7677, "nferen": 7678, "confere": 7679, "onferen": 7680, "conferen": 7681, "overs": 7682, "nven": 7683, "mode": 7684, "overw": 7685, "gati": 7686, "nferent": 7687, "onferent": 7688, "nferenti": 7689, "conferent": 7690, "onferenti": 7691, "conferenti": 7692, "ersta": 7693, "nferentie": 7694, "onferentie": 7695, "conferentie": 7696, "udin": 7697, "co\u00f6": 7698, "rgaa": 7699, "jns": 7700, "ijns": 7701, "bespre": 7702, "meerder": 7703, "houdi": 7704, "oudin": 7705, "uding": 7706, "houdin": 7707, "\u00f6r": 7708, "gatie": 7709, "mond": 7710, "ensio": 7711, "onm": 7712, "lks": 7713, "twikkele": 7714, "ntwikkele": 7715, "twikkelen": 7716, "ontwikkele": 7717, "ntwikkelen": 7718, "ontwikkelen": 7719, "vertu": 7720, "overtu": 7721, "vertui": 7722, "overtui": 7723, "vertuig": 7724, "overtuig": 7725, "aci": 7726, "ouding": 7727, "houding": 7728, "ebre": 7729, "pzi": 7730, "ocu": 7731, "rrent": 7732, "lagen": 7733, "ties": 7734, "veste": 7735, "tut": 7736, "kaans": 7737, "dezel": 7738, "dezelf": 7739, "mpl": 7740, "rgaan": 7741, "dezelfd": 7742, "dezelfde": 7743, "cte": 7744, "tonen": 7745, "urren": 7746, "curren": 7747, "urrent": 7748, "current": 7749, "tele": 7750, "prin": 7751, "ncurren": 7752, "oncurren": 7753, "ncurrent": 7754, "concurren": 7755, "oncurrent": 7756, "concurrent": 7757, "bank": 7758, "pleg": 7759, "besprek": 7760, "kans": 7761, "egang": 7762, "waarbi": 7763, "-a": 7764, "eluk": 7765, "verwer": 7766, "elasti": 7767, "geluk": 7768, "vernem": 7769, "levin": 7770, "leving": 7771, "wap": 7772, "waarva": 7773, "waarvan": 7774, "nvent": 7775, "lastin": 7776, "lasting": 7777, "tale": 7778, "voel": 7779, "vestig": 7780, "olks": 7781, "ttel": 7782, "zitten": 7783, "elastin": 7784, "elasting": 7785, "egene": 7786, "pensi": 7787, "abs": 7788, "volks": 7789, "verneme": 7790, "belasti": 7791, "belastin": 7792, "belasting": 7793, "pensio": 7794, "vernemen": 7795, "derste": 7796, "oto": 7797, "rrei": 7798, "ierin": 7799, "ecif": 7800, "hank": 7801, "jong": 7802, "pecif": 7803, "ecifi": 7804, "specif": 7805, "pecifi": 7806, "specifi": 7807, "aranti": 7808, "arantie": 7809, "invoe": 7810, "fhank": 7811, "hanke": 7812, "afhank": 7813, "fhanke": 7814, "hankel": 7815, "afhanke": 7816, "fhankel": 7817, "hankeli": 7818, "afhankel": 7819, "fhankeli": 7820, "hankelij": 7821, "afhankeli": 7822, "fhankelij": 7823, "hankelijk": 7824, "afhankelij": 7825, "fhankelijk": 7826, "afhankelijk": 7827, "war": 7828, "nkri": 7829, "eeln": 7830, "deeln": 7831, "wape": 7832, "wapen": 7833, "schen": 7834, "pstelle": 7835, "opstelle": 7836, "beide": 7837, "wense": 7838, "opzi": 7839, "achtig": 7840, "resp": 7841, "huld": 7842, "ardoo": 7843, "aardoo": 7844, "ardoor": 7845, "aardoor": 7846, "etredi": 7847, "etredin": 7848, "etreding": 7849, "**<vnw><pers><pron><obl><vol><3p><mv>**": 7850, "loed": 7851, "oetredi": 7852, "oetredin": 7853, "oetreding": 7854, "nderste": 7855, "ider": 7856, "**<n><soort><ev><dim><onz><stan>**": 7857, "wezi": 7858, "toetredi": 7859, "toetredin": 7860, "toetreding": 7861, "wezig": 7862, "ift": 7863, "steri": 7864, "itut": 7865, "titut": 7866, "stitut": 7867, "gege": 7868, "ewij": 7869, "cris": 7870, "week": 7871, "zieni": 7872, "rzieni": 7873, "bal": 7874, "pni": 7875, "eled": 7876, "zienin": 7877, "rzienin": 7878, "ziening": 7879, "rziening": 7880, "opni": 7881, "breke": 7882, "onderste": 7883, "verla": 7884, "beo": 7885, "invoer": 7886, "aging": 7887, "jar": 7888, "oegang": 7889, "toegang": 7890, "rese": 7891, "ront": 7892, "gesc": 7893, "ubs": 7894, "derwi": 7895, "nderwi": 7896, "derwij": 7897, "nderwij": 7898, "gesch": 7899, "subs": 7900, "tuti": 7901, "adrukk": 7902, "nadrukk": 7903, "ituti": 7904, "tituti": 7905, "icer": 7906, "nspanni": 7907, "nspannin": 7908, "nspanning": 7909, "eerl": 7910, "stituti": 7911, "adrukke": 7912, "nadrukke": 7913, "kon": 7914, "onderwi": 7915, "onderwij": 7916, "atsv": 7917, "aatsv": 7918, "lusi": 7919, "inspanni": 7920, "inspannin": 7921, "inspanning": 7922, "arit": 7923, "nove": 7924, "overl": 7925, "ras": 7926, "eman": 7927, "teve": 7928, "errei": 7929, "crisi": 7930, "alisere": 7931, "aliseren": 7932, "abilit": 7933, "crim": 7934, "itse": 7935, "verzoeke": 7936, "pstellen": 7937, "opstellen": 7938, "verzoeken": 7939, "orr": 7940, "-la": 7941, "**<vnw><pr><pron><obl><red><1><ev>**": 7942, "breken": 7943, "ooit": 7944, "rimi": 7945, "gelov": 7946, "up": 7947, "bevel": 7948, "onven": 7949, "conven": 7950, "ieg": 7951, "ndigh": 7952, "ndighe": 7953, "tein": 7954, "docu": 7955, "cume": 7956, "cumen": 7957, "ikaa": 7958, "ocum": 7959, "docum": 7960, "ocume": 7961, "docume": 7962, "ocumen": 7963, "cument": 7964, "documen": 7965, "ocument": 7966, "document": 7967, "clus": 7968, "crimi": 7969, "rimin": 7970, "crimin": 7971, "ci\u00ebn": 7972, "kije": 7973, "pnie": 7974, "opnie": 7975, "pnieu": 7976, "opnieu": 7977, "pnieuw": 7978, "opnieuw": 7979, "t-l": 7980, "erio": 7981, "dsel": 7982, "zove": 7983, "esse": 7984, "ogis": 7985, "tijk": 7986, "aktij": 7987, "dir": 7988, "raktij": 7989, "praktij": 7990, "ktijk": 7991, "aktijk": 7992, "raktijk": 7993, "praktijk": 7994, "bero": 7995, "tma": 7996, "echten": 7997, "mhe": 7998, "eza": 7999, "prec": 8000, "duren": 8001, "terrei": 8002, "enda": 8003, "matig": 8004, "rrein": 8005, "gelove": 8006, "ret": 8007, "opv": 8008, "errein": 8009, "terrein": 8010, "irec": 8011, "inh": 8012, "aff": 8013, "evee": 8014, "geloven": 8015, "immi": 8016, "lict": 8017, "nves": 8018, "inves": 8019, "nvest": 8020, "invest": 8021, "enwi": 8022, "gv": 8023, "vier": 8024, "erse": 8025, "immig": 8026, "rrenti": 8027, "urrenti": 8028, "currenti": 8029, "ncurrenti": 8030, "oncurrenti": 8031, "concurrenti": 8032, "derwijs": 8033, "nderwijs": 8034, "perio": 8035, "ikaan": 8036, "loog": 8037, "amente": 8038, "ndighei": 8039, "ndigheid": 8040, "merken": 8041, "chul": 8042, "schul": 8043, "tve": 8044, "onderwijs": 8045, "damente": 8046, "ndamente": 8047, "undamente": 8048, "fundamente": 8049, "ikken": 8050, "stant": 8051, "werpe": 8052, "oten": 8053, "acc": 8054, "amentee": 8055, "damentee": 8056, "amenteel": 8057, "ndamentee": 8058, "damenteel": 8059, "undamentee": 8060, "ndamenteel": 8061, "fundamentee": 8062, "undamenteel": 8063, "fundamenteel": 8064, "vloe": 8065, "morg": 8066, "rrentie": 8067, "urrentie": 8068, "currentie": 8069, "ncurrentie": 8070, "oncurrentie": 8071, "concurrentie": 8072, "rikaa": 8073, "ndin": 8074, "nstit": 8075, "xp": 8076, "ardige": 8077, "aardige": 8078, "onvent": 8079, "convent": 8080, "abilite": 8081, "rikaan": 8082, "nstitu": 8083, "riod": 8084, "igens": 8085, "ikaans": 8086, "eriod": 8087, "period": 8088, "hade": 8089, "espe": 8090, "mmigr": 8091, "immigr": 8092, "orism": 8093, "abilitei": 8094, "abiliteit": 8095, "offe": 8096, "orisme": 8097, "oosten": 8098, "/20": 8099, "rorism": 8100, "rrorism": 8101, "errorism": 8102, "terrorism": 8103, "idee": 8104, "eenv": 8105, "rorisme": 8106, "rrorisme": 8107, "errorisme": 8108, "terrorisme": 8109, "egens": 8110, "dire": 8111, "genl": 8112, "poo": 8113, "svi": 8114, "direc": 8115, "irect": 8116, "direct": 8117, "rikaans": 8118, "exp": 8119, "akken": 8120, "**<vnw><bez><det><gen><vol><1><ev><prenom><zonder><evmo>**": 8121, "nventi": 8122, "lpe": 8123, "nveste": 8124, "investe": 8125, "itspr": 8126, "rnaa": 8127, "rvol": 8128, "**<vnw><onbep><grad><stan><prenom><met-e><agr><basis>**": 8129, "isis": 8130, "laatsv": 8131, "plaatsv": 8132, "lek": 8133, "dedi": 8134, "ardigen": 8135, "aardigen": 8136, "real": 8137, "nkrij": 8138, "ted": 8139, "iere": 8140, "ervol": 8141, "aaf": 8142, "ods": 8143, "mmigra": 8144, "immigra": 8145, "eroe": 8146, "-v": 8147, "gelijke": 8148, "onventi": 8149, "conventi": 8150, "hni": 8151, "daat-": 8152, "idaat-": 8153, "didaat-": 8154, "ndidaat-": 8155, "andidaat-": 8156, "kandidaat-": 8157, "re\u00eb": 8158, "bind": 8159, "erzie": 8160, "krijk": 8161, "lusie": 8162, "risis": 8163, "crisis": 8164, "nwic": 8165, "enwic": 8166, "nwich": 8167, "enwich": 8168, "nwicht": 8169, "enwicht": 8170, "terst": 8171, "ncl": 8172, "chni": 8173, "ndels": 8174, "pzic": 8175, "opzic": 8176, "pzich": 8177, "opzich": 8178, "pzicht": 8179, "opzicht": 8180, "nkrijk": 8181, "echni": 8182, "techni": 8183, "ieve": 8184, "andels": 8185, "handels": 8186, "diger": 8187, "at-l": 8188, "aat-l": 8189, "appi": 8190, "eteri": 8191, "sno": 8192, "daat-l": 8193, "idaat-l": 8194, "didaat-l": 8195, "ndidaat-l": 8196, "andidaat-l": 8197, "kandidaat-l": 8198, "eterin": 8199, "ifie": 8200, "**<vnw><aanw><det><stan><nom><met-e><mv-n>**": 8201, "romi": 8202, "logis": 8203, "ordee": 8204, "ordeel": 8205, "vaardige": 8206, "oordee": 8207, "oordeel": 8208, "rderi": 8209, "vaardigen": 8210, "swaa": 8211, "erdaa": 8212, "smi": 8213, "rbie": 8214, "erbie": 8215, "herz": 8216, "waarbij": 8217, "estige": 8218, "ato": 8219, "mulere": 8220, "muleren": 8221, "chuld": 8222, "schuld": 8223, "pzett": 8224, "opzett": 8225, "swaar": 8226, "lissi": 8227, "lissin": 8228, "lissing": 8229, "egaa": 8230, "icere": 8231, "iceren": 8232, "klo": 8233, "bsi": 8234, "rsi": 8235, "erland": 8236, "slissi": 8237, "eslissi": 8238, "slissin": 8239, "beslissi": 8240, "eslissin": 8241, "slissing": 8242, "beslissin": 8243, "eslissing": 8244, "beslissing": 8245, "vervol": 8246, "gion": 8247, "ffer": 8248, "lpen": 8249, "rbied": 8250, "erbied": 8251, "chade": 8252, "schade": 8253, "else": 8254, "svin": 8255, "ersp": 8256, "eenvo": 8257, "tsvi": 8258, "amh": 8259, "oeds": 8260, "eali": 8261, "egion": 8262, "atsvi": 8263, "aatsvi": 8264, "aamh": 8265, "rheids": 8266, "svind": 8267, "nks": 8268, "tsvin": 8269, "atsvin": 8270, "tsvind": 8271, "svinde": 8272, "laatsvi": 8273, "aatsvin": 8274, "atsvind": 8275, "tsvinde": 8276, "svinden": 8277, "plaatsvi": 8278, "laatsvin": 8279, "aatsvind": 8280, "atsvinde": 8281, "tsvinden": 8282, "plaatsvin": 8283, "laatsvind": 8284, "aatsvinde": 8285, "atsvinden": 8286, "plaatsvind": 8287, "laatsvinde": 8288, "aatsvinden": 8289, "plaatsvinde": 8290, "laatsvinden": 8291, "plaatsvinden": 8292, "ogisc": 8293, "ogisch": 8294, "ndv": 8295, "lh": 8296, "aloo": 8297, "fiek": 8298, "erschr": 8299, "arna": 8300, "egat": 8301, "fle": 8302, "iode": 8303, "riode": 8304, "eriode": 8305, "periode": 8306, "venwi": 8307, "evenwi": 8308, "venwic": 8309, "evenwic": 8310, "venwich": 8311, "evenwich": 8312, "venwicht": 8313, "evenwicht": 8314, "agend": 8315, "enor": 8316, "eie": 8317, "-b": 8318, "vulle": 8319, "sted": 8320, "rstre": 8321, "erbo": 8322, "osse": 8323, "ifiek": 8324, "stl": 8325, "erstre": 8326, "region": 8327, "vullen": 8328, "esluite": 8329, "besluite": 8330, "oeft": 8331, "aloog": 8332, "giona": 8333, "egiona": 8334, "regiona": 8335, "epte": 8336, "ialo": 8337, "cifie": 8338, "ecifie": 8339, "cifiek": 8340, "pecifie": 8341, "ecifiek": 8342, "specifie": 8343, "pecifiek": 8344, "specifiek": 8345, "etai": 8346, "egati": 8347, "hoef": 8348, "rtro": 8349, "won": 8350, "morge": 8351, "morgen": 8352, "gal": 8353, "egatie": 8354, "ehoef": 8355, "hoeft": 8356, "behoef": 8357, "ehoeft": 8358, "behoeft": 8359, "o\u00f6r": 8360, "\u00f6rd": 8361, "co\u00f6r": 8362, "o\u00f6rd": 8363, "\u00f6rdi": 8364, "co\u00f6rd": 8365, "o\u00f6rdi": 8366, "\u00f6rdin": 8367, "co\u00f6rdi": 8368, "o\u00f6rdin": 8369, "co\u00f6rdin": 8370, "rber": 8371, "weld": 8372, "derdaa": 8373, "nderdaa": 8374, "amhe": 8375, "aamhe": 8376, "erschri": 8377, "aarl": 8378, "onte": 8379, "ertro": 8380, "vertro": 8381, "efte": 8382, "ialoo": 8383, "ialoog": 8384, "noc": 8385, "oefte": 8386, "dsc": 8387, "cor": 8388, "stigen": 8389, "hoefte": 8390, "ehoefte": 8391, "behoefte": 8392, "estu": 8393, "rigen": 8394, "nding": 8395, "abo": 8396, "reali": 8397, "esluiten": 8398, "besluiten": 8399, "rven": 8400, "usti": 8401, "nseli": 8402, "mhei": 8403, "erige": 8404, "wede": 8405, "rvolg": 8406, "ervolg": 8407, "oew": 8408, "mheid": 8409, "dell": 8410, "ngsc": 8411, "uree": 8412, "ierv": 8413, "andigh": 8414, "andighe": 8415, "nol": 8416, "itw": 8417, "ersi": 8418, "verige": 8419, "nstemmi": 8420, "ngi": 8421, "oend": 8422, "-lan": 8423, "erigen": 8424, "rigens": 8425, "verigen": 8426, "dge": 8427, "tsb": 8428, "prom": 8429, "overige": 8430, "erigens": 8431, "overigen": 8432, "verigens": 8433, "overigens": 8434, "tver": 8435, "erc": 8436, "geschi": 8437, "ogie": 8438, "jee": 8439, "vou": 8440, "cep": 8441, "erma": 8442, "genli": 8443, "nclu": 8444, "genlij": 8445, "anbe": 8446, "moede": 8447, "pzette": 8448, "opzette": 8449, "jeen": 8450, "amhei": 8451, "aamhei": 8452, "amheid": 8453, "aamheid": 8454, "tvoeri": 8455, "werpen": 8456, "rgr": 8457, "ncip": 8458, "pac": 8459, "doend": 8460, "gegev": 8461, "gegeve": 8462, "gegeven": 8463, "vervolg": 8464, "eien": 8465, "dm": 8466, "daarvo": 8467, "daarvoo": 8468, "daarvoor": 8469, "omb": 8470, "opb": 8471, "rtrou": 8472, "**<vnw><onbep><det><stan><nom><met-e><mv-n>**": 8473, "ntv": 8474, "nali": 8475, "htvaard": 8476, "chtvaard": 8477, "htvaardi": 8478, "chtvaardi": 8479, "htvaardig": 8480, "chtvaardig": 8481, "mal": 8482, "omente": 8483, "momente": 8484, "omentee": 8485, "momentee": 8486, "omenteel": 8487, "momenteel": 8488, "aarna": 8489, "ertrou": 8490, "rtrouw": 8491, "vertrou": 8492, "ertrouw": 8493, "vertrouw": 8494, "jus": 8495, "toest": 8496, "ureel": 8497, "trev": 8498, "dialo": 8499, "andighei": 8500, "andigheid": 8501, "echtv": 8502, "dert": 8503, "ntiee": 8504, "erzien": 8505, "degen": 8506, "logisc": 8507, "logisch": 8508, "rechtv": 8509, "onver": 8510, "fst": 8511, "geled": 8512, "echtva": 8513, "chei": 8514, "voud": 8515, "treve": 8516, "echtvaa": 8517, "echtvaar": 8518, "echtvaard": 8519, "echtvaardi": 8520, "echtvaardig": 8521, "ngsb": 8522, "schei": 8523, "strev": 8524, "streve": 8525, "ppij": 8526, "rechtva": 8527, "rechtvaa": 8528, "rechtvaar": 8529, "rechtvaard": 8530, "rechtvaardi": 8531, "rechtvaardig": 8532, "orn": 8533, "just": 8534, "utio": 8535, "jne": 8536, "dbaa": 8537, "treven": 8538, "streven": 8539, "dialoo": 8540, "dialoog": 8541, "ingsc": 8542, "ution": 8543, "nisere": 8544, "niseren": 8545, "-land": 8546, "tandigh": 8547, "standigh": 8548, "tandighe": 8549, "standighe": 8550, "vester": 8551, "cheid": 8552, "scheid": 8553, "enem": 8554, "nvester": 8555, "invester": 8556, "rinc": 8557, "princ": 8558, "ruitg": 8559, "ipe": 8560, "inds": 8561, "logie": 8562, "ijne": 8563, "rts": 8564, "choo": 8565, "schoo": 8566, "wate": 8567, "water": 8568, "urki": 8569, "laas": 8570, "sidi": 8571, "elaas": 8572, "uce": 8573, "inze": 8574, "nstemmin": 8575, "nstemming": 8576, "hela": 8577, "luu": 8578, "hang": 8579, "teen": 8580, "nventie": 8581, "clusi": 8582, "luut": 8583, "kaanse": 8584, "ikaanse": 8585, "rikaanse": 8586, "walite": 8587, "kwalite": 8588, "walitei": 8589, "kwalitei": 8590, "waliteit": 8591, "kwaliteit": 8592, "pat": 8593, "itere": 8594, "iteren": 8595, "rkij": 8596, "ensel": 8597, "oluu": 8598, "soluu": 8599, "oluut": 8600, "soluut": 8601, "dbaar": 8602, "rtijd": 8603, "uitsp": 8604, "cept": 8605, "ologie": 8606, "ntieel": 8607, "oedig": 8608, "elede": 8609, "nolo": 8610, "enseli": 8611, "nselij": 8612, "enselij": 8613, "nselijk": 8614, "enselijk": 8615, "rinci": 8616, "incip": 8617, "princi": 8618, "igenl": 8619, "eigenl": 8620, "igenli": 8621, "eigenli": 8622, "igenlij": 8623, "genlijk": 8624, "eigenlij": 8625, "igenlijk": 8626, "eigenlijk": 8627, "anm": 8628, "onventie": 8629, "conventie": 8630, "hno": 8631, "rincip": 8632, "princip": 8633, "ici\u00eb": 8634, "rderin": 8635, "rdering": 8636, "eleden": 8637, "beroe": 8638, "oeie": 8639, "istere": 8640, "isteren": 8641, "ruitga": 8642, "turki": 8643, "duce": 8644, "urkij": 8645, "rkije": 8646, "turkij": 8647, "urkije": 8648, "turkije": 8649, "chno": 8650, "echno": 8651, "techno": 8652, "helaa": 8653, "tandighei": 8654, "standighei": 8655, "tandigheid": 8656, "standigheid": 8657, "oeien": 8658, "gelede": 8659, "espec": 8660, "nitie": 8661, "helaas": 8662, "geleden": 8663, "nolog": 8664, "naas": 8665, "happi": 8666, "zenl": 8667, "nhan": 8668, "msta": 8669, "uder": 8670, "appij": 8671, "chappi": 8672, "happij": 8673, "schappi": 8674, "chappij": 8675, "schappij": 8676, "tgee": 8677, "chou": 8678, "hetg": 8679, "hetge": 8680, "etgee": 8681, "tgeen": 8682, "hetgee": 8683, "etgeen": 8684, "hetgeen": 8685, "ementa": 8686, "schou": 8687, "ezenl": 8688, "zenli": 8689, "wezenl": 8690, "tslu": 8691, "clusie": 8692, "ezenli": 8693, "zenlij": 8694, "wezenli": 8695, "ezenlij": 8696, "zenlijk": 8697, "wezenlij": 8698, "ezenlijk": 8699, "wezenlijk": 8700, "dsm": 8701, "tslui": 8702, "tsluit": 8703, "mstan": 8704, "mstand": 8705, "rkie": 8706, "udig": 8707, "voudi": 8708, "oudig": 8709, "voudig": 8710, "ola": 8711, "naast": 8712, "oedse": 8713, "jker": 8714, "ijker": 8715, "erko": 8716, "omsta": 8717, "nologi": 8718, "dec": 8719, "idden": 8720, "omstan": 8721, "omstand": 8722, "sje": 8723, "erkie": 8724, "mstandi": 8725, "omstandi": 8726, "mstandig": 8727, "omstandig": 8728, "egrijpen": 8729, "begrijpen": 8730, "voeds": 8731, "edsel": 8732, "voedse": 8733, "oedsel": 8734, "voedsel": 8735, "nwez": 8736, "zaamh": 8737, "zaamhe": 8738, "tanti": 8739, "vlu": 8740, "bestu": 8741, "11": 8742, "/200": 8743, "ordere": 8744, "orderen": 8745, "mina": 8746, "rist": 8747, "verki": 8748, "hod": 8749, "vordere": 8750, "vorderen": 8751, "mstandigh": 8752, "omstandigh": 8753, "mstandighe": 8754, "omstandighe": 8755, "anwez": 8756, "nwezi": 8757, "aanwez": 8758, "anwezi": 8759, "nwezig": 8760, "aanwezi": 8761, "anwezig": 8762, "aanwezig": 8763, "espect": 8764, "gb": 8765, "erto": 8766, "igrat": 8767, "migrat": 8768, "respe": 8769, "stanti": 8770, "respec": 8771, "respect": 8772, "ingsb": 8773, "tvoere": 8774, "tvoeren": 8775, "jnen": 8776, "ijnen": 8777, "igrati": 8778, "migrati": 8779, "lementa": 8780, "yp": 8781, "nstitut": 8782, "igratie": 8783, "migratie": 8784, "itvoeri": 8785, "uitvoeri": 8786, "rtrouwe": 8787, "ertrouwe": 8788, "vertrouwe": 8789, "verkie": 8790, "enter": 8791, "rkiez": 8792, "erkiez": 8793, "sind": 8794, "thod": 8795, "midden": 8796, "tschappi": 8797, "atschappi": 8798, "tschappij": 8799, "aatschappi": 8800, "atschappij": 8801, "maatschappi": 8802, "aatschappij": 8803, "maatschappij": 8804, "tstaa": 8805, "nigen": 8806, "aanbe": 8807, "genda": 8808, "rsteu": 8809, "rsteun": 8810, "itslu": 8811, "uitslu": 8812, "itslui": 8813, "uitslui": 8814, "itsluit": 8815, "uitsluit": 8816, "bije": 8817, "ersteu": 8818, "dersteu": 8819, "ersteun": 8820, "dersteun": 8821, "nstituti": 8822, "kiezen": 8823, "ndersteu": 8824, "ondersteu": 8825, "ndersteun": 8826, "ondersteun": 8827, "herzi": 8828, "herzie": 8829, "herzien": 8830, "wb": 8831, "eroep": 8832, "onfl": 8833, "etho": 8834, "gma": 8835, "nzett": 8836, "mstandighei": 8837, "omstandighei": 8838, "mstandigheid": 8839, "omstandigheid": 8840, "verkiez": 8841, "bso": 8842, "ggi": 8843, "pzetten": 8844, "opzetten": 8845, "zigi": 8846, "jzigi": 8847, "zigin": 8848, "ijzigi": 8849, "jzigin": 8850, "ziging": 8851, "wijzigi": 8852, "ijzigin": 8853, "jziging": 8854, "wijzigin": 8855, "ijziging": 8856, "wijziging": 8857, "nfli": 8858, "flic": 8859, "confl": 8860, "onfli": 8861, "nflic": 8862, "flict": 8863, "confli": 8864, "onflic": 8865, "nflict": 8866, "conflic": 8867, "onflict": 8868, "conflict": 8869, "meth": 8870, "zaamhei": 8871, "zaamheid": 8872, "inzet": 8873, "erbr": 8874, "imt": 8875, "abso": 8876, "arli": 8877, "ntre": 8878, "uitspr": 8879, "imte": 8880, "gionaa": 8881, "egionaa": 8882, "gionaal": 8883, "regionaa": 8884, "egionaal": 8885, "regionaal": 8886, "etens": 8887, "gsv": 8888, "zwaa": 8889, "dkeure": 8890, "edkeure": 8891, "dkeuren": 8892, "oedkeure": 8893, "edkeuren": 8894, "goedkeure": 8895, "oedkeuren": 8896, "goedkeuren": 8897, "agenda": 8898, "hnol": 8899, "chnol": 8900, "echnol": 8901, "technol": 8902, "rschrij": 8903, "ggin": 8904, "geza": 8905, "hnolo": 8906, "chnolo": 8907, "echnolo": 8908, "technolo": 8909, "eerli": 8910, "don": 8911, "eloo": 8912, "gging": 8913, "tabilit": 8914, "resi": 8915, "vluc": 8916, "vluch": 8917, "vlucht": 8918, "ngew": 8919, "hnolog": 8920, "chnolog": 8921, "echnolog": 8922, "technolog": 8923, "iner": 8924, "tabilite": 8925, "tabilitei": 8926, "tabiliteit": 8927, "uimt": 8928, "ruimt": 8929, "uimte": 8930, "ruimte": 8931, "ruitgan": 8932, "ruitgang": 8933, "epro": 8934, "titi": 8935, "afw": 8936, "orda": 8937, "huis": 8938, "ubsi": 8939, "subsi": 8940, "hol": 8941, "bouwe": 8942, "bsid": 8943, "ubsid": 8944, "subsid": 8945, "bsidi": 8946, "ubsidi": 8947, "subsidi": 8948, "itein": 8949, "nmid": 8950, "nmidd": 8951, "hnologi": 8952, "chnologi": 8953, "echnologi": 8954, "technologi": 8955, "uwb": 8956, "wegi": 8957, "wegin": 8958, "verli": 8959, "rspr": 8960, "metho": 8961, "ethod": 8962, "method": 8963, "-d": 8964, "tutio": 8965, "itutio": 8966, "tution": 8967, "titutio": 8968, "itution": 8969, "titution": 8970, "stitutio": 8971, "nstitutio": 8972, "stitution": 8973, "nstitution": 8974, "ilita": 8975, "-o": 8976, "rdiger": 8977, "nto": 8978, "help": 8979, "aarli": 8980, "ergr": 8981, "radi": 8982, "ontv": 8983, "ijee": 8984, "turee": 8985, "bijee": 8986, "ijeen": 8987, "bijeen": 8988, "nvou": 8989, "envou": 8990, "nvoud": 8991, "envoud": 8992, "arlij": 8993, "ctio": 8994, "l-": 8995, "offer": 8996, "elpe": 8997, "erweg": 8998, "aarlij": 8999, "lici": 9000, "hon": 9001, "ecte": 9002, "ddell": 9003, "iddell": 9004, "middell": 9005, "milit": 9006, "ction": 9007, "arlijk": 9008, "aarlijk": 9009, "itvoere": 9010, "uitvoere": 9011, "itvoeren": 9012, "uitvoeren": 9013, "ordiger": 9014, "oordiger": 9015, "woordiger": 9016, "nwoordiger": 9017, "enwoordiger": 9018, "genwoordiger": 9019, "egenwoordiger": 9020, "tegenwoordiger": 9021, "rtegenwoordiger": 9022, "ertegenwoordiger": 9023, "vertegenwoordiger": 9024, "eenvou": 9025, "eenvoud": 9026, "oma": 9027, "bsol": 9028, "absol": 9029, "bsolu": 9030, "absolu": 9031, "rift": 9032, "ngin": 9033, "etering": 9034, "beteri": 9035, "rbeteri": 9036, "beterin": 9037, "erbeteri": 9038, "rbeterin": 9039, "betering": 9040, "verbeteri": 9041, "erbeterin": 9042, "rbetering": 9043, "verbeterin": 9044, "erbetering": 9045, "verbetering": 9046, "derli": 9047, "neen": 9048, "tensc": 9049, "tensch": 9050, "reis": 9051, "lim": 9052, "ziek": 9053, "fsc": 9054, "bsoluu": 9055, "absoluu": 9056, "bsoluut": 9057, "absoluut": 9058, "adv": 9059, "lene": 9060, "krit": 9061, "arr": 9062, ".0": 9063, "titie": 9064, "lma": 9065, "uitei": 9066, "kriti": 9067, "tureel": 9068, "degene": 9069, "blo": 9070, "istr": 9071, "erat": 9072, "erheids": 9073, "houw": 9074, "arand": 9075, "iezi": 9076, "garand": 9077, "arande": 9078, "garande": 9079, "tstek": 9080, "nvoudi": 9081, "envoudi": 9082, "nvoudig": 9083, "envoudig": 9084, "weging": 9085, "**<vnw><pers><pron><nomin><red><2v><ev>**": 9086, "suc": 9087, "stor": 9088, "elpen": 9089, "ieman": 9090, "llere": 9091, "chouw": 9092, "schouw": 9093, "spi": 9094, "derzi": 9095, "dve": 9096, "teind": 9097, "uitein": 9098, "iteind": 9099, "teinde": 9100, "uiteind": 9101, "iteinde": 9102, "uiteinde": 9103, "arh": 9104, "rote": 9105, "cces": 9106, "eenvoudi": 9107, "eenvoudig": 9108, "helpe": 9109, "gewel": 9110, "eweld": 9111, "tantie": 9112, "geweld": 9113, "milita": 9114, "ucc": 9115, "hrif": 9116, "chrif": 9117, "hrift": 9118, "schrif": 9119, "chrift": 9120, "schrift": 9121, "gist": 9122, "stabilit": 9123, "teindel": 9124, "iteindel": 9125, "teindeli": 9126, "uiteindel": 9127, "iteindeli": 9128, "teindelij": 9129, "uiteindeli": 9130, "iteindelij": 9131, "teindelijk": 9132, "uiteindelij": 9133, "iteindelijk": 9134, "uiteindelijk": 9135, "stabilite": 9136, "stabilitei": 9137, "stabiliteit": 9138, "fsch": 9139, "uldi": 9140, "uldig": 9141, "succ": 9142, "ucce": 9143, "succe": 9144, "ucces": 9145, "succes": 9146, "anders": 9147, "verei": 9148, "helpen": 9149, "stantie": 9150, "tha": 9151, "enige": 9152, "initie": 9153, "eggi": 9154, "tleg": 9155, "aarh": 9156, "araa": 9157, "arander": 9158, "garander": 9159, "arandere": 9160, "garandere": 9161, "aranderen": 9162, "garanderen": 9163, "kza": 9164, "eggin": 9165, "egging": 9166, "esid": 9167, "arg": 9168, "iezin": 9169, "iezing": 9170, "derzij": 9171, "derzijd": 9172, "wetens": 9173, "derzijds": 9174, "muni": 9175, "instan": 9176, "resid": 9177, "wijd": 9178, "teven": 9179, "beroep": 9180, "tstaan": 9181, "kzaa": 9182, "strek": 9183, "mpr": 9184, "escho": 9185, "imen": 9186, "oruitg": 9187, "terke": 9188, "wing": 9189, "dede": 9190, "ooruitg": 9191, "vooruitg": 9192, "ntst": 9193, "sterke": 9194, "ested": 9195, "bested": 9196, "oduce": 9197, "roduce": 9198, "tue": 9199, "finit": 9200, "inho": 9201, "kzaam": 9202, "dedel": 9203, "promi": 9204, "edede": 9205, "medede": 9206, "emand": 9207, "nader": 9208, "terken": 9209, "sterken": 9210, "ededel": 9211, "mededel": 9212, "tels": 9213, ".00": 9214, "iemand": 9215, "utione": 9216, "vestige": 9217, "estigen": 9218, "vestigen": 9219, "tutione": 9220, "itutione": 9221, "titutione": 9222, "stitutione": 9223, "nstitutione": 9224, "enorm": 9225, "efinit": 9226, "side": 9227, "finiti": 9228, "definit": 9229, "efiniti": 9230, "hode": 9231, "vlak": 9232, "finitie": 9233, "definiti": 9234, "efinitie": 9235, "definitie": 9236, "zwe": 9237, "rtuige": 9238, "rtuigen": 9239, "arite": 9240, "thode": 9241, "sport": 9242, "ioner": 9243, "dsl": 9244, "astr": 9245, "oruitga": 9246, "aritei": 9247, "ariteit": 9248, "ooruitga": 9249, "vooruitga": 9250, "ethode": 9251, "methode": 9252, "oppe": 9253, "avo": 9254, "omit": 9255, "lijker": 9256, "dwer": 9257, "ocen": 9258, "ocent": 9259, "talen": 9260, "hani": 9261, "alu": 9262, "comi": 9263, "mpro": 9264, "orza": 9265, "gsbe": 9266, "hikke": 9267, "chikke": 9268, "schikke": 9269, "ehandeli": 9270, "ehandelin": 9271, "ehandeling": 9272, "hanis": 9273, "ila": 9274, "pd": 9275, "ermee": 9276, "ermen": 9277, "breide": 9278, "ossen": 9279, "behandeli": 9280, "behandelin": 9281, "behandeling": 9282, "nbev": 9283, "ertij": 9284, "etale": 9285, "itstek": 9286, "fsp": 9287, "icit": 9288, "comit": 9289, "uitstek": 9290, "rschij": 9291, "nclus": 9292, "nclusi": 9293, "derhal": 9294, "trati": 9295, "-lande": 9296, "-landen": 9297, "nging": 9298, "borg": 9299, "rschijn": 9300, "kiezi": 9301, "rkiezi": 9302, "kiezin": 9303, "erkiezi": 9304, "rkiezin": 9305, "kiezing": 9306, "verkiezi": 9307, "erkiezin": 9308, "rkiezing": 9309, "verkiezin": 9310, "erkiezing": 9311, "verkiezing": 9312, "noor": 9313, "ertijd": 9314, "nclusie": 9315, "oorza": 9316, "losse": 9317, "rderh": 9318, "erderh": 9319, "rderhe": 9320, "erderhe": 9321, "lossen": 9322, "eerderh": 9323, "meerderh": 9324, "eerderhe": 9325, "meerderhe": 9326, "lsel": 9327, "elijker": 9328, "dwerk": 9329, "rderhei": 9330, "erderhei": 9331, "rderheid": 9332, "eerderhei": 9333, "erderheid": 9334, "meerderhei": 9335, "eerderheid": 9336, "meerderheid": 9337, "riu": 9338, "plichti": 9339, "doele": 9340, "entiee": 9341, "euri": 9342, "nme": 9343, "telse": 9344, "ontst": 9345, "she": 9346, "etti": 9347, "zwaar": 9348, "stels": 9349, "drei": 9350, "litai": 9351, "litair": 9352, "oorda": 9353, "bure": 9354, "**<n><soort><ev><basis><genus><stan>**": 9355, "gebre": 9356, "reau": 9357, "hikken": 9358, "chikken": 9359, "schikken": 9360, "imaa": 9361, "vene": 9362, "tenscha": 9363, "tenschap": 9364, "nner": 9365, "urea": 9366, "rium": 9367, "rip": 9368, "ureau": 9369, "tratie": 9370, "oruitgan": 9371, "ooruitgan": 9372, "oruitgang": 9373, "vooruitgan": 9374, "ooruitgang": 9375, "vooruitgang": 9376, "elsel": 9377, "verbo": 9378, "burea": 9379, "bureau": 9380, "arhe": 9381, "stelse": 9382, "telsel": 9383, "stelsel": 9384, "**<vnw><vb><pron><stan><vol><3p><getal>**": 9385, "gun": 9386, "daarn": 9387, "wak": 9388, "ermo": 9389, "etensc": 9390, "wetensc": 9391, "zamen": 9392, "ertuige": 9393, "ertuigen": 9394, "etensch": 9395, "wetensch": 9396, "etenscha": 9397, "wetenscha": 9398, "etenschap": 9399, "wetenschap": 9400, "anspa": 9401, "evend": 9402, "levens": 9403, "lko": 9404, "rdaad": 9405, "**<adj><prenom><comp><zonder>**": 9406, "eerlij": 9407, "eerlijk": 9408, "reig": 9409, "cipe": 9410, "ecen": 9411, "sinds": 9412, "dha": 9413, "**<vnw><pers><pron><stan><red><3><ev><fem>**": 9414, "presi": 9415, "presid": 9416, "wit": 9417, "gss": 9418, "ebel": 9419, "bedra": 9420, "eeks": 9421, "**<adj><vrij><sup><zonder>**": 9422, "pali": 9423, "bedrag": 9424, "rdb": 9425, "epali": 9426, "palin": 9427, "bepali": 9428, "epalin": 9429, "paling": 9430, "bepalin": 9431, "epaling": 9432, "bepaling": 9433, "ndee": 9434, "aarhe": 9435, "nderl": 9436, "erdi": 9437, "**<vnw><betr><det><stan><nom><zonder><zonder-n>**": 9438, "**<vnw><pers><pron><obl><vol><3><ev><masc>**": 9439, "once": 9440, "tevens": 9441, "dreig": 9442, "betale": 9443, "evordere": 9444, "bevordere": 9445, "evorderen": 9446, "bevorderen": 9447, "entieel": 9448, "nut": 9449, "inhou": 9450, "inhoud": 9451, "erali": 9452, "onere": 9453, "ardb": 9454, "laan": 9455, "rkenne": 9456, "erkenne": 9457, "rkennen": 9458, "erkennen": 9459, "aardb": 9460, "eralis": 9461, "oneren": 9462, "tgaa": 9463, "conce": 9464, "base": 9465, "heri": 9466, "**<vnw><onbep><grad><stan><prenom><met-e><mv><basis>**": 9467, "eki": 9468, "rsterke": 9469, "ersterke": 9470, "versterke": 9471, "wu": 9472, "rsterken": 9473, "ersterken": 9474, "versterken": 9475, "rmoe": 9476, "adw": 9477, "ngsv": 9478, "lz": 9479, "inderd": 9480, "arhei": 9481, "arheid": 9482, "enigen": 9483, "xtr": 9484, "extr": 9485, "rnie": 9486, "nspar": 9487, "overwe": 9488, "reeks": 9489, "lok": 9490, "rem": 9491, "rbere": 9492, "paran": 9493, "spara": 9494, "elat": 9495, "uitw": 9496, "siden": 9497, "sident": 9498, "vertuige": 9499, "overtuige": 9500, "vertuigen": 9501, "overtuigen": 9502, "orber": 9503, "rtrouwen": 9504, "ertrouwen": 9505, "vertrouwen": 9506, "irak": 9507, "fti": 9508, "orbere": 9509, "gsm": 9510, "nctie": 9511, "derneme": 9512, "nderneme": 9513, "onderneme": 9514, "nderli": 9515, "herme": 9516, "eschou": 9517, "eschouw": 9518, "-r": 9519, "tiem": 9520, "illi": 9521, "justi": 9522, "mings": 9523, "ranspa": 9524, "anspar": 9525, "transpa": 9526, "ranspar": 9527, "transpar": 9528, "aarhei": 9529, "aarheid": 9530, "nspara": 9531, "parant": 9532, "anspara": 9533, "ranspara": 9534, "transpara": 9535, "stiti": 9536, "sparan": 9537, "nsparan": 9538, "sparant": 9539, "ansparan": 9540, "nsparant": 9541, "ransparan": 9542, "ansparant": 9543, "transparan": 9544, "ransparant": 9545, "transparant": 9546, "ompr": 9547, "toff": 9548, "ustit": 9549, "justit": 9550, "ustiti": 9551, "justiti": 9552, "herin": 9553, "tuee": 9554, "verweg": 9555, "hnis": 9556, "hnisc": 9557, "hnisch": 9558, "nstant": 9559, "oom": 9560, "chnis": 9561, "echnis": 9562, "chnisc": 9563, "technis": 9564, "echnisc": 9565, "chnisch": 9566, "technisc": 9567, "echnisch": 9568, "technisch": 9569, "soli": 9570, "okke": 9571, "rlene": 9572, "compr": 9573, "sief": 9574, "nlev": 9575, "ompro": 9576, "nzette": 9577, "nzetten": 9578, "ngeven": 9579, "eider": 9580, "dersc": 9581, "12": 9582, "erlene": 9583, "verlene": 9584, "dersch": 9585, "tatu": 9586, "mprom": 9587, "toffe": 9588, "mpromi": 9589, "stitie": 9590, "ustitie": 9591, "justitie": 9592, "oeven": 9593, "compro": 9594, "omprom": 9595, "comprom": 9596, "ompromi": 9597, "compromi": 9598, "tsen": 9599, "rkz": 9600, "erkz": 9601, "tijds": 9602, "tijn": 9603, "erati": 9604, "ordele": 9605, "oordele": 9606, "ordelen": 9607, "oordelen": 9608, "cherme": 9609, "scherme": 9610, "oorber": 9611, "oorbere": 9612, "romis": 9613, "promis": 9614, "ezam": 9615, "ezame": 9616, "fz": 9617, "opd": 9618, "rra": 9619, "omv": 9620, "hto": 9621, "mmuni": 9622, "onderl": 9623, "arsc": 9624, "eschikke": 9625, "beschikke": 9626, "eschikken": 9627, "beschikken": 9628, "mpromis": 9629, "ompromis": 9630, "compromis": 9631, "bescho": 9632, "eerb": 9633, "reur": 9634, "ezamen": 9635, "tueel": 9636, "aser": 9637, "boo": 9638, "rocen": 9639, "rocent": 9640, "pin": 9641, "inere": 9642, "fro": 9643, "proe": 9644, "arsch": 9645, "ean": 9646, "werkz": 9647, "issen": 9648, "ngss": 9649, "enle": 9650, "ionere": 9651, "ioneren": 9652, "ilitai": 9653, "ilitair": 9654, "olid": 9655, "ineren": 9656, "wensen": 9657, "militai": 9658, "militair": 9659, "tari": 9660, "oncl": 9661, "concl": 9662, "spoo": 9663, "onclu": 9664, "conclu": 9665, "breiden": 9666, "renige": 9667, "erenige": 9668, "rgro": 9669, "beschou": 9670, "beschouw": 9671, "procen": 9672, "procent": 9673, "ents": 9674, "enstem": 9675, "lenen": 9676, "tegel": 9677, "ntsta": 9678, "ici\u00ebn": 9679, "onderli": 9680, "tegeli": 9681, "tegelij": 9682, "tegelijk": 9683, "hers": 9684, "ontsta": 9685, "ntstaa": 9686, "solid": 9687, "lau": 9688, "tsj": 9689, "asere": 9690, "ontstaa": 9691, "ntstaan": 9692, "ontstaan": 9693, "tree": 9694, "aseren": 9695, "euge": 9696, "rkza": 9697, "erkza": 9698, "rkzaa": 9699, "erkzaa": 9700, "rkzaam": 9701, "erkzaam": 9702, "eside": 9703, "neens": 9704, "effic": 9705, "effici": 9706, "stle": 9707, "eenst": 9708, "utt": 9709, "nnis": 9710, "verva": 9711, "renigen": 9712, "erenigen": 9713, "hema": 9714, "ress": 9715, "tud": 9716, "erschrij": 9717, "reside": 9718, "chto": 9719, "beke": 9720, "esiden": 9721, "residen": 9722, "esident": 9723, "resident": 9724, "ck": 9725, "grie": 9726, "preside": 9727, "presiden": 9728, "president": 9729, "ogin": 9730, "-g": 9731, "rce": 9732, "aadw": 9733, "-f": 9734, "hermen": 9735, "oods": 9736, "oging": 9737, "daarna": 9738, "poor": 9739, "enhan": 9740, "estan": 9741, "chermen": 9742, "schermen": 9743, "werkza": 9744, "werkzaa": 9745, "werkzaam": 9746, "ndeel": 9747, "escherme": 9748, "bescherme": 9749, "ingss": 9750, "rmu": 9751, "ioe": 9752, "stud": 9753, "elge": 9754, "egra": 9755, "dwerke": 9756, "onda": 9757, "rdigh": 9758, "rdighe": 9759, "tlegg": 9760, "rberei": 9761, "rbereid": 9762, "aarsc": 9763, "afz": 9764, "actief": 9765, "binde": 9766, "binden": 9767, "voorber": 9768, "orberei": 9769, "voorbere": 9770, "oorberei": 9771, "orbereid": 9772, "voorberei": 9773, "oorbereid": 9774, "voorbereid": 9775, "dend": 9776, "slaa": 9777, "rric": 9778, "aarsch": 9779, "dsb": 9780, "enstemm": 9781, "enadr": 9782, "benadr": 9783, "enadru": 9784, "benadru": 9785, "enadruk": 9786, "benadruk": 9787, "enadrukk": 9788, "benadrukk": 9789, "erdaad": 9790, "adwe": 9791, "ardigh": 9792, "aardigh": 9793, "ardighe": 9794, "rdighei": 9795, "aardighe": 9796, "rdigheid": 9797, "sproces": 9798, "adrukken": 9799, "enadrukke": 9800, "nadrukken": 9801, "benadrukke": 9802, "enadrukken": 9803, "benadrukken": 9804, "aadwe": 9805, "adwer": 9806, "aadwer": 9807, "adwerk": 9808, "aadwerk": 9809, "daadw": 9810, "daadwe": 9811, "daadwer": 9812, "daadwerk": 9813, "kwi": 9814, "noch": 9815, "edelin": 9816, "edeling": 9817, "adwerke": 9818, "dwerkel": 9819, "aadwerke": 9820, "adwerkel": 9821, "dwerkeli": 9822, "daadwerke": 9823, "aadwerkel": 9824, "adwerkeli": 9825, "dwerkelij": 9826, "daadwerkel": 9827, "aadwerkeli": 9828, "adwerkelij": 9829, "dwerkelijk": 9830, "daadwerkeli": 9831, "aadwerkelij": 9832, "adwerkelijk": 9833, "daadwerkelij": 9834, "aadwerkelijk": 9835, "daadwerkelijk": 9836, "fron": 9837, "waars": 9838, "tsteke": 9839, "tsteken": 9840, "stro": 9841, "mere": 9842, "ioen": 9843, "neg": 9844, "waarsc": 9845, "waarsch": 9846, "vig": 9847, "ardighei": 9848, "aardighei": 9849, "ardigheid": 9850, "aardigheid": 9851, "tp": 9852, "apa": 9853, "ci\u00ebnt": 9854, "mees": 9855, "siel": 9856, "ichtig": 9857, "itsteke": 9858, "uitsteke": 9859, "itsteken": 9860, "uitsteken": 9861, "inner": 9862, "zuid": 9863, "leids": 9864, "tekend": 9865, "baser": 9866, "basere": 9867, "baseren": 9868, "beken": 9869, "rmul": 9870, "ikb": 9871, "arden": 9872, "spoor": 9873, "ormu": 9874, "formu": 9875, "ormul": 9876, "formul": 9877, "enlev": 9878, "fici\u00eb": 9879, "ieren": 9880, "sda": 9881, "tko": 9882, "eleids": 9883, "beleids": 9884, "ncipe": 9885, "lom": 9886, "fici\u00ebn": 9887, "ici\u00ebnt": 9888, "fici\u00ebnt": 9889, "gle": 9890, "pakken": 9891, "overweg": 9892, "senti": 9893, "uns": 9894, "anbev": 9895, "nbeve": 9896, "aanbev": 9897, "smid": 9898, "inderda": 9899, "incipe": 9900, "meren": 9901, "rrich": 9902, "rricht": 9903, "zend": 9904, "e\u00ebr": 9905, "anbeve": 9906, "nbevel": 9907, "aanbeve": 9908, "anbevel": 9909, "aanbevel": 9910, "rincipe": 9911, "principe": 9912, "eschermen": 9913, "beschermen": 9914, "rmoed": 9915, "erric": 9916, "verenige": 9917, "verenigen": 9918, "errich": 9919, "erricht": 9920, "ffici\u00eb": 9921, "ingsv": 9922, "gings": 9923, "rplichti": 9924, "plichtin": 9925, "erplichti": 9926, "plichting": 9927, "ffici\u00ebn": 9928, "ffici\u00ebnt": 9929, "tiev": 9930, "rdelin": 9931, "rdeling": 9932, "griek": 9933, "smidd": 9934, "smidde": 9935, "smiddel": 9936, "bewi": 9937, "verplichti": 9938, "espreke": 9939, "espreken": 9940, "toffer": 9941, "rplichtin": 9942, "erplichtin": 9943, "rplichting": 9944, "verplichtin": 9945, "erplichting": 9946, "verplichting": 9947, "lukk": 9948, "achto": 9949, "ntai": 9950, "derdaad": 9951, "inderdaa": 9952, "nderdaad": 9953, "inderdaad": 9954, "itgaa": 9955, "uitgaa": 9956, "htof": 9957, "chtof": 9958, "htoff": 9959, "chtoff": 9960, "lachto": 9961, "achtof": 9962, "htoffe": 9963, "slachto": 9964, "achtoff": 9965, "chtoffe": 9966, "stekend": 9967, "erikaa": 9968, "lachtof": 9969, "htoffer": 9970, "slachtof": 9971, "lachtoff": 9972, "achtoffe": 9973, "chtoffer": 9974, "slachtoff": 9975, "lachtoffe": 9976, "achtoffer": 9977, "slachtoffe": 9978, "lachtoffer": 9979, "slachtoffer": 9980, "listi": 9981, "ldoend": 9982, "oldoend": 9983, "voldoend": 9984, "tstekend": 9985, "itstekend": 9986, "uitstekend": 9987, "merikaa": 9988, "erikaan": 9989, "amerikaa": 9990, "merikaan": 9991, "amerikaan": 9992, "rhalv": 9993, "erhalv": 9994, "rhalve": 9995, "derhalv": 9996, "erhalve": 9997, "derhalve": 9998, "evene": 9999, "toel": 10000, "anderi": 10001, "cy": 10002, "dsch": 10003, "-pr": 10004, "kelijkh": 10005, "kelijkhe": 10006, "kelijkhei": 10007, "kelijkheid": 10008, "bezig": 10009, "effici\u00eb": 10010, "effici\u00ebn": 10011, "effici\u00ebnt": 10012, "iering": 10013, "oefe": 10014, "anderin": 10015, "andering": 10016, "elig": 10017, "versi": 10018, "rdba": 10019, "ardba": 10020, "rdbaa": 10021, "vaardb": 10022, "aardba": 10023, "ardbaa": 10024, "rdbaar": 10025, "nvaardb": 10026, "vaardba": 10027, "aardbaa": 10028, "ardbaar": 10029, "anvaardb": 10030, "nvaardba": 10031, "vaardbaa": 10032, "aardbaar": 10033, "aanvaardb": 10034, "anvaardba": 10035, "nvaardbaa": 10036, "vaardbaar": 10037, "aanvaardba": 10038, "anvaardbaa": 10039, "nvaardbaar": 10040, "aanvaardbaa": 10041, "anvaardbaar": 10042, "aanvaardbaar": 10043, "oefen": 10044, "tsje": 10045, "randeri": 10046, "eranderi": 10047, "randerin": 10048, "veranderi": 10049, "eranderin": 10050, "randering": 10051, "veranderin": 10052, "erandering": 10053, "verandering": 10054, "hierv": 10055, "rlegge": 10056, "rleggen": 10057, "urt": 10058, "15": 10059, "lne": 10060, "nkome": 10061, "nkomen": 10062, "ntva": 10063, "erikaans": 10064, "merikaans": 10065, "amerikaans": 10066, "rwijz": 10067, "asie": 10068, "rmoede": 10069, "erwijz": 10070, "noord": 10071, "icu": 10072, "elne": 10073, "laag": 10074, "ly": 10075, "aals": 10076, "ontva": 10077, "trac": 10078, "tvan": 10079, "ntvan": 10080, "ontvan": 10081, "sgez": 10082, "nno": 10083, "duit": 10084, "hog": 10085, "uli": 10086, "ikba": 10087, "listis": 10088, "listisc": 10089, "listisch": 10090, "dvi": 10091, "dsma": 10092, "nfr": 10093, "eenste": 10094, "nvu": 10095, "nvul": 10096, "nvull": 10097, "sgr": 10098, "eenstem": 10099, "eenstemm": 10100, "zaken": 10101, "ndan": 10102, "ante": 10103, "etz": 10104, "abe": 10105, "uv": 10106, "i\u00ebre": 10107, "i\u00ebren": 10108, "nwel": 10109, "ogm": 10110, "rpre": 10111, "lnem": 10112, "elnem": 10113, "bem": 10114, "erpre": 10115, "rdat": 10116, "dina": 10117, "tent": 10118, "nstanti": 10119, "angev": 10120, "aangev": 10121, "uchtv": 10122, "lkom": 10123, "rinn": 10124, "woorden": 10125, "luchtv": 10126, "angeve": 10127, "aangeve": 10128, "oewe": 10129, "kwij": 10130, "api": 10131, "rinne": 10132, "angeven": 10133, "aangeven": 10134, "his": 10135, "lex": 10136, "erinn": 10137, "herinn": 10138, "erinne": 10139, "rinner": 10140, "herinne": 10141, "erinner": 10142, "herinner": 10143, "opo": 10144, "ikbaa": 10145, "ikbaar": 10146, "elm": 10147, "hof": 10148, "rmule": 10149, "ormule": 10150, "formule": 10151, "ewa": 10152, "tvoerin": 10153, "tvoering": 10154, "nale": 10155, "nso": 10156, "produce": 10157, "angst": 10158, "anks": 10159, "isd": 10160, "erov": 10161, "chan": 10162, "5-": 10163, "unst": 10164, "troo": 10165, "sioe": 10166, "sioen": 10167, "dsbe": 10168, "gaal": 10169, "legaa": 10170, "enwel": 10171, "ptr": 10172, "instant": 10173, "ordat": 10174, "eq": 10175, "niem": 10176, "instanti": 10177, "nstantie": 10178, "instantie": 10179, "ssent": 10180, "equ": 10181, "erove": 10182, "houwe": 10183, "risc": 10184, "estand": 10185, "utionee": 10186, "tutionee": 10187, "utioneel": 10188, "itutionee": 10189, "tutioneel": 10190, "titutionee": 10191, "itutioneel": 10192, "stitutionee": 10193, "titutioneel": 10194, "nstitutionee": 10195, "stitutioneel": 10196, "nstitutioneel": 10197, "oordat": 10198, "risch": 10199, "egaal": 10200, "ralise": 10201, "onse": 10202, "aarden": 10203, "keuri": 10204, "nsioe": 10205, "ensioe": 10206, "nsioen": 10207, "pensioe": 10208, "ensioen": 10209, "pensioen": 10210, "pric": 10211, "eland": 10212, "isb": 10213, "advi": 10214, "ptre": 10215, "chouwe": 10216, "schouwe": 10217, "russ": 10218, "ssenti": 10219, "poe": 10220, "reens": 10221, "legaal": 10222, "optr": 10223, "rlenen": 10224, "erlenen": 10225, "verlenen": 10226, "teni": 10227, "cre\u00eb": 10228, "re\u00ebr": 10229, "e\u00ebre": 10230, "e\u00ebren": 10231, "grip": 10232, "veli": 10233, "ergro": 10234, "ngere": 10235, "prich": 10236, "pricht": 10237, "ebele": 10238, "cre\u00ebr": 10239, "re\u00ebre": 10240, "cre\u00ebre": 10241, "re\u00ebren": 10242, "cre\u00ebren": 10243, "optre": 10244, "erstan": 10245, "erstand": 10246, "raliser": 10247, "gena": 10248, "cieri": 10249, "ncieri": 10250, "cierin": 10251, "ancieri": 10252, "ncierin": 10253, "ciering": 10254, "nancieri": 10255, "ancierin": 10256, "nciering": 10257, "inancieri": 10258, "nancierin": 10259, "anciering": 10260, "financieri": 10261, "inancierin": 10262, "nanciering": 10263, "financierin": 10264, "inanciering": 10265, "financiering": 10266, "langs": 10267, "sf": 10268, "esteri": 10269, "ecia": 10270, "ereens": 10271, "reenst": 10272, "vereens": 10273, "ereenst": 10274, "reenste": 10275, "overeens": 10276, "vereenst": 10277, "ereenste": 10278, "overeenst": 10279, "vereenste": 10280, "overeenste": 10281, "reenstem": 10282, "ereenstem": 10283, "reenstemm": 10284, "vereenstem": 10285, "ereenstemm": 10286, "overeenstem": 10287, "vereenstemm": 10288, "overeenstemm": 10289, "rzek": 10290, "rzeke": 10291, "rzeker": 10292, "lam": 10293, "vermo": 10294, "icite": 10295, "nes": 10296, "eveli": 10297, "dedeli": 10298, "erzek": 10299, "erzeke": 10300, "erzeker": 10301, "gelei": 10302, "verzek": 10303, "verzeke": 10304, "verzeker": 10305, "nctio": 10306, "nction": 10307, "ie-": 10308, "ernie": 10309, "brit": 10310, "rgo": 10311, "ededeli": 10312, "dedelin": 10313, "mededeli": 10314, "ededelin": 10315, "dedeling": 10316, "mededelin": 10317, "ededeling": 10318, "mededeling": 10319, "geleid": 10320, "heu": 10321, "pecia": 10322, "egl": 10323, "t\u00e9": 10324, "specia": 10325, "mva": 10326, "fri": 10327, "enbe": 10328, "omva": 10329, "out": 10330, "twa": 10331, "rbin": 10332, "iepr": 10333, "edie": 10334, "ondan": 10335, "eelne": 10336, "deelne": 10337, "gelijker": 10338, "bespreke": 10339, "bespreken": 10340, "lso": 10341, "crit": 10342, "havi": 10343, "ndank": 10344, "ondank": 10345, "-i": 10346, "olie": 10347, "bran": 10348, "egrip": 10349, "begrip": 10350, "gezam": 10351, "gezame": 10352, "ortu": 10353, "reci": 10354, "andh": 10355, "eelnem": 10356, "deelnem": 10357, "menli": 10358, "menlij": 10359, "meest": 10360, "amenli": 10361, "amenlij": 10362, "fice": 10363, "-0": 10364, "scr": 10365, "ebo": 10366, "ebelei": 10367, "ebeleid": 10368, "zamenl": 10369, "gezamen": 10370, "ezamenl": 10371, "zamenli": 10372, "menlijk": 10373, "gezamenl": 10374, "ezamenli": 10375, "zamenlij": 10376, "amenlijk": 10377, "gezamenli": 10378, "ezamenlij": 10379, "zamenlijk": 10380, "gezamenlij": 10381, "ezamenlijk": 10382, "gezamenlijk": 10383, "danks": 10384, "ndanks": 10385, "ondanks": 10386, "ronds": 10387, "nmidde": 10388, "nmiddel": 10389, "wis": 10390, "iali": 10391, "ogma": 10392, "onin": 10393, "coh": 10394, "bekend": 10395, "iever": 10396, "waarov": 10397, "waarove": 10398, "waarover": 10399, "houwen": 10400, "rwachte": 10401, "erwachte": 10402, "verwachte": 10403, "oju": 10404, "iebel": 10405, "aara": 10406, "gronds": 10407, "unctio": 10408, "functio": 10409, "unction": 10410, "function": 10411, "tegra": 10412, "rwachten": 10413, "erwachten": 10414, "verwachten": 10415, "aden": 10416, "30": 10417, "chouwen": 10418, "schouwen": 10419, "ifice": 10420, "gevoe": 10421, "conse": 10422, "onal": 10423, "enstemmi": 10424, "uz": 10425, "gmaa": 10426, "entere": 10427, "tlegge": 10428, "eenstemmi": 10429, "opi": 10430, "rlie": 10431, "vore": 10432, "tleggen": 10433, "eschouwe": 10434, "voren": 10435, "oezi": 10436, "ntegra": 10437, "kings": 10438, "prot": 10439, "it\u00e9": 10440, "rdie": 10441, "preci": 10442, "sterin": 10443, "tif": 10444, "ologis": 10445, "ewerk": 10446, "stering": 10447, "iters": 10448, "uiters": 10449, "iterst": 10450, "uiterst": 10451, "hetz": 10452, "rece": 10453, "ail": 10454, "toezi": 10455, "mot": 10456, "et-": 10457, "ologisc": 10458, "ologisch": 10459, "nism": 10460, "enteren": 10461, "erlie": 10462, "verlie": 10463, "ndve": 10464, "wijt": 10465, "eleide": 10466, "itvoerin": 10467, "uitvoerin": 10468, "itvoering": 10469, "uitvoering": 10470, "maals": 10471, "evoel": 10472, "ealis": 10473, "epasse": 10474, "oepasse": 10475, "toepasse": 10476, "hoeven": 10477, "eron": 10478, "samenl": 10479, "tzi": 10480, "derde": 10481, "ansl": 10482, "gevoel": 10483, "traal": 10484, "dzaak": 10485, "tzel": 10486, "emid": 10487, "-c": 10488, "tzelf": 10489, "tzelfd": 10490, "tzelfde": 10491, "emidd": 10492, "jeenk": 10493, "ijeenk": 10494, "jeenko": 10495, "bijeenk": 10496, "ijeenko": 10497, "jeenkom": 10498, "bijeenko": 10499, "ijeenkom": 10500, "bijeenkom": 10501, "let": 10502, "slage": 10503, "\u00ebl": 10504, "erover": 10505, "herst": 10506, "riter": 10507, "emidde": 10508, "kert": 10509, "ennis": 10510, "gete": 10511, "jkert": 10512, "kerti": 10513, "ijkert": 10514, "jkerti": 10515, "kertij": 10516, "lijkert": 10517, "ijkerti": 10518, "jkertij": 10519, "kertijd": 10520, "elijkert": 10521, "lijkerti": 10522, "ijkertij": 10523, "jkertijd": 10524, "gelijkert": 10525, "elijkerti": 10526, "lijkertij": 10527, "ijkertijd": 10528, "gelijkerti": 10529, "elijkertij": 10530, "lijkertijd": 10531, "gelijkertij": 10532, "elijkertijd": 10533, "gelijkertijd": 10534, "egelijke": 10535, "tegelijke": 10536, "egelijker": 10537, "tegelijker": 10538, "egelijkert": 10539, "tegelijkert": 10540, "egelijkerti": 10541, "tegelijkerti": 10542, "egelijkertij": 10543, "tegelijkertij": 10544, "egelijkertijd": 10545, "tegelijkertijd": 10546, "ional": 10547, "etwe": 10548, "verwijz": 10549, "5-0": 10550, "aansl": 10551, "erbij": 10552, "valu": 10553, "ndo": 10554, "iteri": 10555, "lder": 10556, "bio": 10557, "menle": 10558, "amenle": 10559, "menlev": 10560, "samenle": 10561, "amenlev": 10562, "samenlev": 10563, "jw": 10564, "ijw": 10565, "ialis": 10566, "ebrek": 10567, "gebrek": 10568, "stim": 10569, "-m": 10570, "nav": 10571, "erikaanse": 10572, "merikaanse": 10573, "amerikaanse": 10574, "mit\u00e9": 10575, "ouwb": 10576, "orderi": 10577, "orderin": 10578, "ordering": 10579, "omit\u00e9": 10580, "comit\u00e9": 10581, "elz": 10582, "tvang": 10583, "ntvang": 10584, "ontvang": 10585, "verdi": 10586, "erdie": 10587, "integra": 10588, "vorderi": 10589, "vorderin": 10590, "vordering": 10591, "riteri": 10592, "beschouwe": 10593, "tede": 10594, "erlegg": 10595, "ool": 10596, "stede": 10597, "slagen": 10598, "enstel": 10599, "emiddel": 10600, "crite": 10601, "criter": 10602, "netw": 10603, "criteri": 10604, "wegen": 10605, "nover": 10606, "kennis": 10607, "erstel": 10608, "eschouwen": 10609, "beschouwen": 10610, "realis": 10611, "enstemmin": 10612, "enstemming": 10613, "reenstemmi": 10614, "eenstemmin": 10615, "ereenstemmi": 10616, "reenstemmin": 10617, "eenstemming": 10618, "vereenstemmi": 10619, "ereenstemmin": 10620, "reenstemming": 10621, "overeenstemmi": 10622, "vereenstemmin": 10623, "ereenstemming": 10624, "overeenstemmin": 10625, "vereenstemming": 10626, "overeenstemming": 10627, "ienl": 10628, "ienli": 10629, "ienlij": 10630, "kzaamh": 10631, "kzaamhe": 10632, "dive": 10633, "zienl": 10634, "nzienl": 10635, "zienli": 10636, "anzienl": 10637, "nzienli": 10638, "zienlij": 10639, "ienlijk": 10640, "aanzienl": 10641, "anzienli": 10642, "nzienlij": 10643, "zienlijk": 10644, "aanzienli": 10645, "anzienlij": 10646, "nzienlijk": 10647, "aanzienlij": 10648, "anzienlijk": 10649, "aanzienlijk": 10650, "arbo": 10651, "matis": 10652, "estij": 10653, "ager": 10654, "exi": 10655, "onclus": 10656, "conclus": 10657, "onclusi": 10658, "conclusi": 10659, "onclusie": 10660, "conclusie": 10661, "duits": 10662, "arc": 10663, "erven": 10664, "sove": 10665, "iend": 10666, "diver": 10667, "rbod": 10668, "eoo": 10669, "ptred": 10670, "optred": 10671, "ptrede": 10672, "optrede": 10673, "ptreden": 10674, "optreden": 10675, "araan": 10676, "teng": 10677, "moni": 10678, "asiel": 10679, "alisti": 10680, "elh": 10681, "ticu": 10682, "oorn": 10683, "vn": 10684, "imina": 10685, "hoew": 10686, "hoewe": 10687, "oewel": 10688, "hoewel": 10689, "sover": 10690, "esterin": 10691, "estering": 10692, "vesteri": 10693, "nvesteri": 10694, "vesterin": 10695, "investeri": 10696, "nvesterin": 10697, "vestering": 10698, "investerin": 10699, "nvestering": 10700, "investering": 10701, "eoor": 10702, "04": 10703, "agr": 10704, "isr": 10705, "aaraa": 10706, "aaraan": 10707, "erbod": 10708, "verbod": 10709, "tes": 10710, "eiten": 10711, "venwe": 10712, "divers": 10713, "ital": 10714, "omin": 10715, "epassen": 10716, "oepassen": 10717, "toepassen": 10718, "onli": 10719, "beva": 10720, "aank": 10721, "enten": 10722, "assa": 10723, "beral": 10724, "iberal": 10725, "liberal": 10726, "netwe": 10727, "etwer": 10728, "reer": 10729, "orgaa": 10730, "toev": 10731, "verdie": 10732, "netwer": 10733, "artel": 10734, "feli": 10735, "etwerk": 10736, "ott": 10737, "fspr": 10738, "orgaan": 10739, "netwerk": 10740, "gezin": 10741, "versta": 10742, "50": 10743, "anl": 10744, "evan": 10745, "gsr": 10746, "alistis": 10747, "alistisc": 10748, "alistisch": 10749, "entai": 10750, "ntair": 10751, "entair": 10752, "mentai": 10753, "mentair": 10754, "bewij": 10755, "iebele": 10756, "iebelei": 10757, "iebeleid": 10758, "rimina": 10759, "crimina": 10760, "nweg": 10761, "statu": 10762, "ewu": 10763, "wus": 10764, "bewu": 10765, "ewus": 10766, "wust": 10767, "bewus": 10768, "ewust": 10769, "bewust": 10770, "nmo": 10771, "ficer": 10772, "ommuni": 10773, "communi": 10774, "ctione": 10775, "ificer": 10776, "pva": 10777, "ecent": 10778, "uchte": 10779, "ehou": 10780, "dsla": 10781, "evenwe": 10782, "kzaamhei": 10783, "kzaamheid": 10784, "itali": 10785, "tsluite": 10786, "tsluiten": 10787, "venwel": 10788, "evenwel": 10789, "pit": 10790, "rdina": 10791, "imul": 10792, "elma": 10793, "ehoud": 10794, "mensel": 10795, "menseli": 10796, "menselij": 10797, "menselijk": 10798, "odzaa": 10799, "oodzaa": 10800, "odzaak": 10801, "noodzaa": 10802, "oodzaak": 10803, "noodzaak": 10804, "oonl": 10805, "serv": 10806, "fsl": 10807, "zog": 10808, "lgi": 10809, "eneen": 10810, "geleide": 10811, "haal": 10812, "berali": 10813, "iberali": 10814, "beralis": 10815, "liberali": 10816, "iberalis": 10817, "liberalis": 10818, "ngsbe": 10819, "timu": 10820, "ego": 10821, "ezic": 10822, "ezich": 10823, "ezicht": 10824, "inb": 10825, "nent": 10826, "ukki": 10827, "tota": 10828, "verheids": 10829, "kar": 10830, "ekte": 10831, "oonli": 10832, "onlij": 10833, "oonlij": 10834, "itsluite": 10835, "uitsluite": 10836, "itsluiten": 10837, "uitsluiten": 10838, "alf": 10839, "timul": 10840, "stimu": 10841, "stimul": 10842, "evoo": 10843, "onlijk": 10844, "oonlijk": 10845, "eneens": 10846, "ekomsti": 10847, "oekomsti": 10848, "toekomsti": 10849, "rkzaamh": 10850, "erkzaamh": 10851, "rkzaamhe": 10852, "erkzaamhe": 10853, "overheids": 10854, "kam": 10855, "venee": 10856, "evenee": 10857, "veneen": 10858, "eveneen": 10859, "veneens": 10860, "eveneens": 10861, "nologie": 10862, "nlevi": 10863, "nlevin": 10864, "nleving": 10865, "oversc": 10866, "oversch": 10867, "werkzaamh": 10868, "werkzaamhe": 10869, "vermin": 10870, "eneme": 10871, "egle": 10872, "evoor": 10873, "enemen": 10874, "enlevi": 10875, "menlevi": 10876, "enlevin": 10877, "amenlevi": 10878, "menlevin": 10879, "enleving": 10880, "samenlevi": 10881, "amenlevin": 10882, "menleving": 10883, "samenlevin": 10884, "amenleving": 10885, "samenleving": 10886, "insti": 10887, "ngsm": 10888, "ekomstig": 10889, "oekomstig": 10890, "toekomstig": 10891, "vloed": 10892, "thou": 10893, "ementai": 10894, "lementai": 10895, "ementair": 10896, "lementair": 10897, "kope": 10898, "dinat": 10899, "rdinat": 10900, "lijs": 10901, "aai": 10902, "oesta": 10903, "toesta": 10904, "plichte": 10905, "lijst": 10906, "mmigrat": 10907, "immigrat": 10908, "mmigrati": 10909, "immigrati": 10910, "dslag": 10911, "cap": 10912, "nooi": 10913, "strati": 10914, "mmigratie": 10915, "immigratie": 10916, "haf": 10917, "vana": 10918, "rbre": 10919, "voege": 10920, "gmaal": 10921, "den-": 10922, "dece": 10923, "andv": 10924, "enade": 10925, "sor": 10926, "telin": 10927, "\u00f6rdina": 10928, "o\u00f6rdina": 10929, "\u00f6rdinat": 10930, "co\u00f6rdina": 10931, "o\u00f6rdinat": 10932, "co\u00f6rdinat": 10933, "verri": 10934, "voegen": 10935, "eriu": 10936, "erium": 10937, "verschr": 10938, "iekt": 10939, "ziekt": 10940, "iekte": 10941, "ziekte": 10942, "ramp": 10943, "evalu": 10944, "nooit": 10945, "nisme": 10946, "andr": 10947, "rhog": 10948, "erhog": 10949, "verhog": 10950, "teling": 10951, "ltuu": 10952, "ultuu": 10953, "ltuur": 10954, "cultuu": 10955, "ultuur": 10956, "cultuur": 10957, "meld": 10958, "ingsbe": 10959, "nogm": 10960, "nogma": 10961, "ogmaa": 10962, "nogmaa": 10963, "ogmaal": 10964, "gmaals": 10965, "nogmaal": 10966, "ogmaals": 10967, "nogmaals": 10968, "allere": 10969, "sso": 10970, "gte": 10971, "emd": 10972, "ertoe": 10973, "instit": 10974, "gsco": 10975, "institu": 10976, "idsb": 10977, "leggi": 10978, "trag": 10979, "leggin": 10980, "stratie": 10981, "legging": 10982, "elv": 10983, "ute": 10984, "hele": 10985, "misd": 10986, "ales": 10987, "nma": 10988, "affe": 10989, "anvu": 10990, "aanvu": 10991, "anvul": 10992, "aanvul": 10993, "anvull": 10994, "aanvull": 10995, "sab": 10996, "hef": 10997, "ize": 10998, "ngsr": 10999, "sdi": 11000, "chaf": 11001, "schaf": 11002, "naan": 11003, "hnologie": 11004, "chnologie": 11005, "echnologie": 11006, "technologie": 11007, "gevend": 11008, "vrie": 11009, "verschri": 11010, "ndersc": 11011, "ndersch": 11012, "edings": 11013, "rachti": 11014, "rkzaamhei": 11015, "erkzaamhei": 11016, "rkzaamheid": 11017, "erkzaamheid": 11018, "afri": 11019, "oler": 11020, "inga": 11021, "kern": 11022, "werkzaamhei": 11023, "werkzaamheid": 11024, "nj": 11025, "etalen": 11026, "brand": 11027, "genaa": 11028, "nctione": 11029, "liteits": 11030, "egrat": 11031, "tegrat": 11032, "ntegrat": 11033, "leider": 11034, "sbes": 11035, "frik": 11036, "afrik": 11037, "frika": 11038, "afrika": 11039, "ondig": 11040, "idsm": 11041, "eoord": 11042, "egrati": 11043, "tegrati": 11044, "egratie": 11045, "ntegrati": 11046, "tegratie": 11047, "ntegratie": 11048, "ettin": 11049, "etting": 11050, "teriu": 11051, "iteriu": 11052, "terium": 11053, "riteriu": 11054, "iterium": 11055, "criteriu": 11056, "riterium": 11057, "criterium": 11058, "a5": 11059, "eoorde": 11060, "vies": 11061, "iero": 11062, "zoge": 11063, "erdee": 11064, "rank": 11065, "slaan": 11066, "stati": 11067, "ltr": 11068, "jfs": 11069, "ijfs": 11070, "003": 11071, "dden-": 11072, "idden-": 11073, "midden-": 11074, "rplichte": 11075, "erplichte": 11076, "verplichte": 11077, "heug": 11078, "erdeel": 11079, "999": 11080, "hikb": 11081, "chikb": 11082, "hikba": 11083, "schikb": 11084, "chikba": 11085, "hikbaa": 11086, "eschikb": 11087, "schikba": 11088, "chikbaa": 11089, "hikbaar": 11090, "beschikb": 11091, "eschikba": 11092, "schikbaa": 11093, "chikbaar": 11094, "beschikba": 11095, "eschikbaa": 11096, "schikbaar": 11097, "beschikbaa": 11098, "eschikbaar": 11099, "beschikbaar": 11100, "herh": 11101, "eidsm": 11102, "aanl": 11103, "aki": 11104, "atse": 11105, "iepro": 11106, "1999": 11107, "tzo": 11108, "fis": 11109, "orsp": 11110, "dso": 11111, "aatse": 11112, "rof": 11113, "ovee": 11114, "nvl": 11115, "herha": 11116, "rvolge": 11117, "ervolge": 11118, "dica": 11119, "toer": 11120, "matisc": 11121, "matisch": 11122, "ingsm": 11123, "enden": 11124, "rvolgen": 11125, "ervolgen": 11126, "rlementa": 11127, "arlementa": 11128, "parlementa": 11129, "rsche": 11130, "daari": 11131, "daarin": 11132, "aus": 11133, "cies": 11134, "sep": 11135, "unctione": 11136, "functione": 11137, "ondersc": 11138, "ondersch": 11139, "gener": 11140, "laatse": 11141, "plaatse": 11142, "beoo": 11143, "oorsp": 11144, "loof": 11145, "velin": 11146, "lmat": 11147, "hiero": 11148, "tla": 11149, "tzet": 11150, "beoor": 11151, "beoord": 11152, "beoorde": 11153, "svoo": 11154, "svoor": 11155, "betalen": 11156, "elmat": 11157, "lmati": 11158, "elmati": 11159, "lmatig": 11160, "elmatig": 11161, "ecie": 11162, "eoordel": 11163, "beoordel": 11164, "reers": 11165, "reerst": 11166, "veling": 11167, "aties": 11168, "stree": 11169, "eidsb": 11170, "tsn": 11171, "weder": 11172, "usl": 11173, "zovee": 11174, "oveel": 11175, "zoveel": 11176, "alig": 11177, "leu": 11178, "ecies": 11179, "recie": 11180, "precie": 11181, "recies": 11182, "precies": 11183, "pleid": 11184, "elijks": 11185, "ompl": 11186, "erbin": 11187, "tsla": 11188, "ugen": 11189, "integrat": 11190, "rks": 11191, "evelin": 11192, "eveling": 11193, "doelen": 11194, "vervolge": 11195, "usla": 11196, "uslan": 11197, "usland": 11198, "compl": 11199, "voorn": 11200, "plichten": 11201, "eugen": 11202, "rusl": 11203, "rusla": 11204, "ruslan": 11205, "rusland": 11206, "ntraa": 11207, "integrati": 11208, "integratie": 11209, "ereer": 11210, "jnl": 11211, "ijnl": 11212, "entraa": 11213, "verbin": 11214, "tbaa": 11215, "haff": 11216, "chaff": 11217, "schaff": 11218, "zes": 11219, "not": 11220, "vervolgen": 11221, "tkom": 11222, "ndre": 11223, "estede": 11224, "bestede": 11225, "lneme": 11226, "elneme": 11227, "rson": 11228, "dernemen": 11229, "ndernemen": 11230, "ondernemen": 11231, "ritie": 11232, "centraa": 11233, "tzett": 11234, "urend": 11235, "teden": 11236, "steden": 11237, "leree": 11238, "lleree": 11239, "lereer": 11240, "ereers": 11241, "alleree": 11242, "llereer": 11243, "lereers": 11244, "ereerst": 11245, "allereer": 11246, "llereers": 11247, "lereerst": 11248, "allereers": 11249, "llereerst": 11250, "allereerst": 11251, "tbaar": 11252, "nth": 11253, "ube": 11254, "itzo": 11255, "uitzo": 11256, "baarh": 11257, "baarhe": 11258, "idsbe": 11259, "tenschapp": 11260, "etenschapp": 11261, "tenschappe": 11262, "wetenschapp": 11263, "etenschappe": 11264, "wetenschappe": 11265, "rmuler": 11266, "ormuler": 11267, "formuler": 11268, "erson": 11269, "twoorden": 11270, "ntwoorden": 11271, "zigh": 11272, "baarhei": 11273, "baarheid": 11274, "rplichten": 11275, "erplichten": 11276, "verplichten": 11277, "enov": 11278, "wek": 11279, "antwoorden": 11280, "dheids": 11281, "scri": 11282, "-s": 11283, "ung": 11284, "tad": 11285, "overle": 11286, "iete": 11287, "astl": 11288, "ezigh": 11289, "egele": 11290, "oene": 11291, "sproced": 11292, "sprocedu": 11293, "sprocedur": 11294, "sprocedure": 11295, "zige": 11296, "ersche": 11297, "jeenkoms": 11298, "ijeenkoms": 11299, "jeenkomst": 11300, "bijeenkoms": 11301, "ijeenkomst": 11302, "bijeenkomst": 11303, "ficere": 11304, "ificere": 11305, "ficeren": 11306, "ificeren": 11307, "rien": 11308, "esteden": 11309, "besteden": 11310, "eelt": 11311, "tegens": 11312, "lezi": 11313, "gsla": 11314, "durend": 11315, "npas": 11316, "vari": 11317, "ntu": 11318, "lja": 11319, "jnli": 11320, "ijnli": 11321, "jnlij": 11322, "ijnlij": 11323, "jnlijk": 11324, "ijnlijk": 11325, "nmer": 11326, "ehor": 11327, "ehore": 11328, "ehoren": 11329, "kopen": 11330, "boeke": 11331, "sgro": 11332, "boeken": 11333, "overg": 11334, "izen": 11335, "a\u00eb": 11336, "behor": 11337, "behore": 11338, "behoren": 11339, "rta": 11340, "rmon": 11341, "ntraal": 11342, "entraal": 11343, "centraal": 11344, "bree": 11345, "isra": 11346, "harm": 11347, "genst": 11348, "lant": 11349, "ista": 11350, "hard": 11351, "itaa": 11352, "dom": 11353, "omme": 11354, "opva": 11355, "rdien": 11356, "a\u00ebl": 11357, "koe": 11358, "ngsla": 11359, "aks": 11360, "lw": 11361, "enove": 11362, "arnaa": 11363, "rwerpe": 11364, "erwerpe": 11365, "tioner": 11366, "enover": 11367, "tvange": 11368, "ntvange": 11369, "ontvange": 11370, "ra\u00eb": 11371, "sra\u00eb": 11372, "ra\u00ebl": 11373, "isra\u00eb": 11374, "sra\u00ebl": 11375, "isra\u00ebl": 11376, "etze": 11377, "ndige": 11378, "evat": 11379, "bevat": 11380, "ntb": 11381, "odel": 11382, "rokk": 11383, "nvlo": 11384, "nutt": 11385, "nvloe": 11386, "aande": 11387, "ator": 11388, "soms": 11389, "hetze": 11390, "beveli": 11391, "nbeveli": 11392, "bevelin": 11393, "anbeveli": 11394, "nbevelin": 11395, "beveling": 11396, "aanbeveli": 11397, "anbevelin": 11398, "nbeveling": 11399, "aanbevelin": 11400, "anbeveling": 11401, "aanbeveling": 11402, "evatt": 11403, "bevatt": 11404, "evatte": 11405, "bevatte": 11406, "fene": 11407, "elder": 11408, "tzon": 11409, "spaa": 11410, "evatten": 11411, "bevatten": 11412, "nvloed": 11413, "gangs": 11414, "rachtig": 11415, "stad": 11416, "daard": 11417, "fisc": 11418, "rteli": 11419, "nmerk": 11420, "ingsla": 11421, "kerh": 11422, "ama": 11423, "eidsbe": 11424, "fenen": 11425, "vena": 11426, "etzel": 11427, "hetzel": 11428, "etzelf": 11429, "hetzelf": 11430, "etzelfd": 11431, "hetzelfd": 11432, "etzelfde": 11433, "hetzelfde": 11434, "vree": 11435, "ichts": 11436, "ctur": 11437, "lida": 11438, "essen": 11439, "cture": 11440, "ekerh": 11441, "kerhe": 11442, "zekerh": 11443, "ekerhe": 11444, "kerhei": 11445, "zekerhe": 11446, "ekerhei": 11447, "kerheid": 11448, "zekerhei": 11449, "ekerheid": 11450, "zekerheid": 11451, "affen": 11452, "tional": 11453, "ontb": 11454, "hend": 11455, "moo": 11456, "tbreide": 11457, "itbreide": 11458, "tbreiden": 11459, "uitbreide": 11460, "itbreiden": 11461, "uitbreiden": 11462, "dinati": 11463, "rdinati": 11464, "arteli": 11465, "stuu": 11466, "urs": 11467, "dinatie": 11468, "rdinatie": 11469, "npass": 11470, "dves": 11471, "dvest": 11472, "dvie": 11473, "\u00f6rdinati": 11474, "o\u00f6rdinati": 11475, "\u00f6rdinatie": 11476, "co\u00f6rdinati": 11477, "o\u00f6rdinatie": 11478, "co\u00f6rdinatie": 11479, "dt": 11480, "tren": 11481, "ctiep": 11482, "-eu": 11483, "etro": 11484, "advie": 11485, "sabo": 11486, "ereis": 11487, "citei": 11488, "citeit": 11489, "ndves": 11490, "ndvest": 11491, "rget": 11492, "qua": 11493, "erdien": 11494, "dvies": 11495, "advies": 11496, "zins": 11497, "pbo": 11498, "riaa": 11499, "ndsl": 11500, "stuur": 11501, "heidsb": 11502, "nderde": 11503, "tda": 11504, "opbo": 11505, "\u00ef": 11506, "itzon": 11507, "tzond": 11508, "uitzon": 11509, "itzond": 11510, "tzonde": 11511, "uitzond": 11512, "itzonde": 11513, "tzonder": 11514, "uitzonde": 11515, "itzonder": 11516, "uitzonder": 11517, "iedi": 11518, "eelneme": 11519, "deelneme": 11520, "illeg": 11521, "ptie": 11522, "-pro": 11523, "armon": 11524, "bit": 11525, "oers": 11526, "legi": 11527, "soonl": 11528, "rsoonl": 11529, "soonli": 11530, "ersoonl": 11531, "rsoonli": 11532, "soonlij": 11533, "persoonl": 11534, "ersoonli": 11535, "rsoonlij": 11536, "soonlijk": 11537, "persoonli": 11538, "ersoonlij": 11539, "rsoonlijk": 11540, "persoonlij": 11541, "ersoonlijk": 11542, "persoonlijk": 11543, "lest": 11544, "rmoni": 11545, "armoni": 11546, "ongev": 11547, "bouwen": 11548, "olida": 11549, "solida": 11550, "**<tsw>**": 11551, "otaa": 11552, "harmo": 11553, "harmon": 11554, "chend": 11555, "werpr": 11556, "gslan": 11557, "gsland": 11558, "rvu": 11559, "terv": 11560, "temb": 11561, "prese": 11562, "ervu": 11563, "harmoni": 11564, "schend": 11565, "aarnaa": 11566, "pbou": 11567, "opbou": 11568, "pbouw": 11569, "opbouw": 11570, "twerpr": 11571, "ntwerpr": 11572, "ontwerpr": 11573, "ngslan": 11574, "ngsland": 11575, "onta": 11576, "totaa": 11577, "otaal": 11578, "totaal": 11579, "jdig": 11580, "ijdig": 11581, "eciaa": 11582, "peciaa": 11583, "eciaal": 11584, "speciaa": 11585, "peciaal": 11586, "speciaal": 11587, "abon": 11588, "egis": 11589, "ols": 11590, "ateri": 11591, "nhoude": 11592, "erget": 11593, "vereis": 11594, "nui": 11595, "esen": 11596, "rgete": 11597, "zoj": 11598, "zoju": 11599, "ojui": 11600, "zojui": 11601, "ojuis": 11602, "zojuis": 11603, "ojuist": 11604, "zojuist": 11605, "vervu": 11606, "rmind": 11607, "ermind": 11608, "rminde": 11609, "vermind": 11610, "erminde": 11611, "rminder": 11612, "verminde": 11613, "erminder": 11614, "verminder": 11615, "nsla": 11616, "dood": 11617, "giste": 11618, "gister": 11619, "eratie": 11620, "ngeren": 11621, "ergete": 11622, "tijns": 11623, "aarbo": 11624, "rheu": 11625, "erheu": 11626, "rheug": 11627, "verheu": 11628, "erheug": 11629, "verheug": 11630, "verstr": 11631, "lgev": 11632, "tgeve": 11633, "ndheids": 11634, "oper": 11635, "ksg": 11636, "sentie": 11637, "elgev": 11638, "ngend": 11639, "ondheids": 11640, "zondheids": 11641, "ezondheids": 11642, "gezondheids": 11643, "iteng": 11644, "appen": 11645, "ingslan": 11646, "ingsland": 11647, "luchte": 11648, "uiteng": 11649, "buiteng": 11650, "cij": 11651, "ondsl": 11652, "armoe": 11653, "verko": 11654, "bewer": 11655, "vluchte": 11656, "citer": 11657, "citere": 11658, "citeren": 11659, "anpas": 11660, "aanpas": 11661, "verdien": 11662, "fas": 11663, "verget": 11664, "vergete": 11665, "tenis": 11666, "deleg": 11667, "dsv": 11668, "regl": 11669, "glem": 11670, "regle": 11671, "eglem": 11672, "gleme": 11673, "reglem": 11674, "egleme": 11675, "glemen": 11676, "regleme": 11677, "eglemen": 11678, "glement": 11679, "reglemen": 11680, "eglement": 11681, "reglement": 11682, "2003": 11683, "esent": 11684, "tionere": 11685, "tioneren": 11686, "uwel": 11687, "breed": 11688, "vastl": 11689, "armoed": 11690, "koste": 11691, "orsc": 11692, "tande": 11693, "erandere": 11694, "verandere": 11695, "eranderen": 11696, "veranderen": 11697, "orsch": 11698, "ctioner": 11699, "anpass": 11700, "aanpass": 11701, "resen": 11702, "presen": 11703, "resent": 11704, "present": 11705, "vaarde": 11706, "lesti": 11707, "gk": 11708, "emak": 11709, "nuit": 11710, "ndsla": 11711, "derb": 11712, "epl": 11713, "oorsc": 11714, "oorsch": 11715, "brie": 11716, "armoede": 11717, "heidsbe": 11718, "gewi": 11719, "pales": 11720, "alest": 11721, "palest": 11722, "alesti": 11723, "palesti": 11724, "ntin": 11725, "cla": 11726, "gsproced": 11727, "ngsproced": 11728, "gsprocedu": 11729, "ngsprocedu": 11730, "gsprocedur": 11731, "ngsprocedur": 11732, "gsprocedure": 11733, "ngsprocedure": 11734, "ksge": 11735, "waarbo": 11736, "oorg": 11737, "ingsproced": 11738, "ingsprocedu": 11739, "ingsprocedur": 11740, "ingsprocedure": 11741, "anise": 11742, "eralise": 11743, "trijde": 11744, "rbor": 11745, "nlang": 11746, "opri": 11747, "tifi": 11748, "eraliser": 11749, "nvaarde": 11750, "anvaarde": 11751, "aanvaarde": 11752, "gelg": 11753, "anle": 11754, "verric": 11755, "verrich": 11756, "verricht": 11757, "gelge": 11758, "uma": 11759, "itaal": 11760, "tific": 11761, "andve": 11762, "egelg": 11763, "regelg": 11764, "egelge": 11765, "gelgev": 11766, "regelge": 11767, "egelgev": 11768, "regelgev": 11769, "ronder": 11770, "arbor": 11771, "kloo": 11772, "aanle": 11773, "ondsla": 11774, "overn": 11775, "dda": 11776, "rondsl": 11777, "geten": 11778, "eurt": 11779, "rborg": 11780, "aarbor": 11781, "arborg": 11782, "waarbor": 11783, "aarborg": 11784, "waarborg": 11785, "o'": 11786, "ndslag": 11787, "grondsl": 11788, "rondsla": 11789, "ondslag": 11790, "grondsla": 11791, "rondslag": 11792, "grondslag": 11793, "estuu": 11794, "estuur": 11795, "stande": 11796, "ofi": 11797, "gste": 11798, "aniser": 11799, "rgeten": 11800, "ergeten": 11801, "vergeten": 11802, "nctioner": 11803, "ssab": 11804, "vaarden": 11805, "nai": 11806, "eventi": 11807, "essent": 11808, "nvaarden": 11809, "anvaarden": 11810, "aanvaarden": 11811, "sba": 11812, "essenti": 11813, "vati": 11814, "strijde": 11815, "oedin": 11816, "nvol": 11817, "kap": 11818, "illega": 11819, "beurt": 11820, "**<adj><nom><sup><met-e><zonder-n><stan>**": 11821, "ssabo": 11822, "sabon": 11823, "beralise": 11824, "iberalise": 11825, "liberalise": 11826, "lba": 11827, "ierb": 11828, "caa": 11829, "ssabon": 11830, "uiden": 11831, "-li": 11832, "lissa": 11833, "issab": 11834, "lissab": 11835, "issabo": 11836, "lissabo": 11837, "issabon": 11838, "lissabon": 11839, "beraliser": 11840, "iberaliser": 11841, "liberaliser": 11842, "opric": 11843, "oprich": 11844, "opricht": 11845, "bestuu": 11846, "bestuur": 11847, "paar": 11848, "efene": 11849, "oefene": 11850, "efenen": 11851, "oefenen": 11852, "alte": 11853, "gelen": 11854, "aud": 11855, "tvangen": 11856, "ntvangen": 11857, "ontvangen": 11858, "bron": 11859, "heers": 11860, "fac": 11861, "roen": 11862, "riend": 11863, "elema": 11864, "harte": 11865, "orwe": 11866, "-fr": 11867, "eveel": 11868, "heuge": 11869, "person": 11870, "mba": 11871, "institut": 11872, "ssentie": 11873, "essentie": 11874, "rwerpen": 11875, "erwerpen": 11876, "ievo": 11877, "oeding": 11878, "onderde": 11879, "rgu": 11880, "eldi": 11881, "heugen": 11882, "orle": 11883, "oorle": 11884, "onb": 11885, "ebes": 11886, "anisere": 11887, "aniseren": 11888, "emente": 11889, "aanm": 11890, "ctionere": 11891, "ctioneren": 11892, "ganise": 11893, "rganise": 11894, "organise": 11895, "jdragen": 11896, "ijdragen": 11897, "bijdragen": 11898, "rvar": 11899, "plat": 11900, "navo": 11901, "unctioner": 11902, "functioner": 11903, "rijw": 11904, "strekk": 11905, "uctur": 11906, "ructur": 11907, "tructur": 11908, "structur": 11909, "-eur": 11910, "tac": 11911, "ucture": 11912, "ructure": 11913, "tructure": 11914, "structure": 11915, "vrien": 11916, "vriend": 11917, "heff": 11918, "weed": 11919, "nair": 11920, "-euro": 11921, "ervar": 11922, "ned": 11923, "helem": 11924, "helema": 11925, "elemaa": 11926, "helemaa": 11927, "elemaal": 11928, "helemaal": 11929, "13": 11930, "nhang": 11931, "forme": 11932, "dss": 11933, "ingsr": 11934, "monis": 11935, "iet-": 11936, "verni": 11937, "orli": 11938, "oorwe": 11939, "paan": 11940, "vrijw": 11941, "oco": 11942, "-fra": 11943, "ganiser": 11944, "rganiser": 11945, "ganisere": 11946, "organiser": 11947, "rganisere": 11948, "ganiseren": 11949, "organisere": 11950, "rganiseren": 11951, "organiseren": 11952, "rrichte": 11953, "errichte": 11954, "oorli": 11955, "icie": 11956, "instituti": 11957, "itl": 11958, "t-la": 11959, "etwi": 11960, "behou": 11961, "nctionere": 11962, "nctioneren": 11963, "verrichte": 11964, "derdee": 11965, "nderdee": 11966, "derdeel": 11967, "onderdee": 11968, "nderdeel": 11969, "onderdeel": 11970, "nim": 11971, "behoud": 11972, "penh": 11973, "uweli": 11974, "nnere": 11975, "nneren": 11976, "jna": 11977, "voorle": 11978, "astle": 11979, "elega": 11980, "ijna": 11981, "veron": 11982, "egeno": 11983, "acto": 11984, "stleg": 11985, "astleg": 11986, "ovo": 11987, "belo": 11988, "vastle": 11989, "stlegg": 11990, "vastleg": 11991, "astlegg": 11992, "t-lan": 11993, "t-land": 11994, "niet-": 11995, "nera": 11996, "welij": 11997, "uwelij": 11998, "rrichten": 11999, "errichten": 12000, "vastlegg": 12001, "rmonis": 12002, "armonis": 12003, "harmonis": 12004, "oplei": 12005, "opleid": 12006, "licit": 12007, "opti": 12008, "roord": 12009, "roorde": 12010, "innere": 12011, "rinnere": 12012, "inneren": 12013, "erinnere": 12014, "rinneren": 12015, "herinnere": 12016, "erinneren": 12017, "herinneren": 12018, "verrichten": 12019, "huldi": 12020, "huldig": 12021, "welijk": 12022, "uwelijk": 12023, "kosten": 12024, "ewor": 12025, "sone": 12026, "fsta": 12027, "ph": 12028, "-de": 12029, "benade": 12030, "rsone": 12031, "ersone": 12032, "persone": 12033, "tspre": 12034, "akkel": 12035, "von": 12036, "onden": 12037, "llegaa": 12038, "tieve": 12039, "institutio": 12040, "institution": 12041, "xtra": 12042, "extra": 12043, "instem": 12044, "at-la": 12045, "aat-la": 12046, "at-lan": 12047, "daat-la": 12048, "aat-lan": 12049, "at-land": 12050, "idaat-la": 12051, "daat-lan": 12052, "aat-land": 12053, "didaat-la": 12054, "idaat-lan": 12055, "daat-land": 12056, "ndidaat-la": 12057, "didaat-lan": 12058, "idaat-land": 12059, "andidaat-la": 12060, "ndidaat-lan": 12061, "didaat-land": 12062, "kandidaat-la": 12063, "andidaat-lan": 12064, "ndidaat-land": 12065, "kandidaat-lan": 12066, "andidaat-land": 12067, "kandidaat-land": 12068, "rela": 12069, "-europ": 12070, "spl": 12071, "gewor": 12072, "ikt": 12073, "instemm": 12074, "delings": 12075, "corr": 12076, "hartel": 12077, "vergr": 12078, "voorsc": 12079, "voorsch": 12080, "unctionere": 12081, "functionere": 12082, "unctioneren": 12083, "functioneren": 12084, "tembe": 12085, "arto": 12086, "tember": 12087, "ieke": 12088, "hange": 12089, "handv": 12090, "eleme": 12091, "elemen": 12092, "element": 12093, "sgezo": 12094, "sgezon": 12095, "sgezond": 12096, "sgezondh": 12097, "sgezondhe": 12098, "sgezondhei": 12099, "sgezondheid": 12100, "ssta": 12101, "illegaa": 12102, "istan": 12103, "ndha": 12104, "llegaal": 12105, "illegaal": 12106, "pecti": 12107, "specti": 12108, "groen": 12109, "serie": 12110, "snoe": 12111, "nice": 12112, "evre": 12113, "eto": 12114, "epp": 12115, "rtelij": 12116, "rtelijk": 12117, "sept": 12118, "onaf": 12119, "onmi": 12120, "itspre": 12121, "artelij": 12122, "artelijk": 12123, "andha": 12124, "pectie": 12125, "spectie": 12126, "harteli": 12127, "hartelij": 12128, "hartelijk": 12129, "ptem": 12130, "septe": 12131, "eptem": 12132, "ptemb": 12133, "septem": 12134, "eptemb": 12135, "ptembe": 12136, "septemb": 12137, "eptembe": 12138, "ptember": 12139, "septembe": 12140, "eptember": 12141, "september": 12142, "gsproces": 12143, "ngsproces": 12144, "emis": 12145, "koop": 12146, "loop": 12147, "isw": 12148, "actiep": 12149, "rhou": 12150, "ile": 12151, "estere": 12152, "voorde": 12153, "iscr": 12154, "esteren": 12155, "uil": 12156, "legat": 12157, "delega": 12158, "elegat": 12159, "legati": 12160, "delegat": 12161, "elegati": 12162, "legatie": 12163, "delegati": 12164, "elegatie": 12165, "delegatie": 12166, "nita": 12167, "wone": 12168, "lter": 12169, "rhoud": 12170, "unge": 12171, "treu": 12172, "rieu": 12173, "leri": 12174, "tieb": 12175, "gha": 12176, "spaan": 12177, "derzoeke": 12178, "nderzoeke": 12179, "onderzoeke": 12180, "nede": 12181, "ogt": 12182, "was": 12183, "tsprek": 12184, "tspreke": 12185, "ingend": 12186, "paans": 12187, "spaans": 12188, "chin": 12189, "discr": 12190, "enader": 12191, "makk": 12192, "toene": 12193, "nlei": 12194, "nleid": 12195, "makke": 12196, "tspreken": 12197, "tsno": 12198, "oenem": 12199, "toenem": 12200, "isie": 12201, "aarto": 12202, "terg": 12203, "frans": 12204, "fung": 12205, "eword": 12206, "geword": 12207, "eworde": 12208, "geworde": 12209, "eworden": 12210, "geworden": 12211, "handh": 12212, "handha": 12213, "oeks": 12214, "oeneme": 12215, "toeneme": 12216, "oenemen": 12217, "toenemen": 12218, "eeg": 12219, "nderzi": 12220, "unger": 12221, "ungere": 12222, "eves": 12223, "funge": 12224, "funger": 12225, "fungere": 12226, "ungeren": 12227, "fungeren": 12228, "genov": 12229, "genove": 12230, "vanw": 12231, "makkel": 12232, "akkeli": 12233, "makkeli": 12234, "akkelij": 12235, "makkelij": 12236, "akkelijk": 12237, "makkelijk": 12238, "gna": 12239, "tegeno": 12240, "genover": 12241, "hierb": 12242, "uitspre": 12243, "dhav": 12244, "bijn": 12245, "hijnl": 12246, "chijnl": 12247, "hijnli": 12248, "schijnl": 12249, "chijnli": 12250, "hijnlij": 12251, "schijnli": 12252, "chijnlij": 12253, "hijnlijk": 12254, "schijnlij": 12255, "chijnlijk": 12256, "schijnlijk": 12257, "agra": 12258, "prev": 12259, "lksg": 12260, "olksg": 12261, "volksg": 12262, "vergel": 12263, "ingsproces": 12264, "itsprek": 12265, "uitsprek": 12266, "itspreke": 12267, "uitspreke": 12268, "-frac": 12269, "-fract": 12270, "-fracti": 12271, "-fractie": 12272, "ndhav": 12273, "andhav": 12274, "handhav": 12275, "tander": 12276, "pecte": 12277, "specte": 12278, "itspreken": 12279, "uitspreken": 12280, "wiss": 12281, "tral": 12282, "lksge": 12283, "olksge": 12284, "volksge": 12285, "stander": 12286, "erbre": 12287, "non": 12288, "shei": 12289, "eria": 12290, "egenov": 12291, "tegenov": 12292, "egenove": 12293, "tegenove": 12294, "egenover": 12295, "tegenover": 12296, "ksgez": 12297, "lksgez": 12298, "olksgez": 12299, "volksgez": 12300, "bijna": 12301, "ksgezo": 12302, "lksgezo": 12303, "ksgezon": 12304, "olksgezo": 12305, "lksgezon": 12306, "ksgezond": 12307, "volksgezo": 12308, "olksgezon": 12309, "lksgezond": 12310, "ksgezondh": 12311, "volksgezon": 12312, "olksgezond": 12313, "lksgezondh": 12314, "ksgezondhe": 12315, "volksgezond": 12316, "olksgezondh": 12317, "lksgezondhe": 12318, "ksgezondhei": 12319, "volksgezondh": 12320, "olksgezondhe": 12321, "lksgezondhei": 12322, "ksgezondheid": 12323, "volksgezondhe": 12324, "olksgezondhei": 12325, "lksgezondheid": 12326, "volksgezondhei": 12327, "olksgezondheid": 12328, "volksgezondheid": 12329, "ongel": 12330, "epu": 12331, "edoele": 12332, "emie": 12333, "portu": 12334, "obi": 12335, "aron": 12336, "our": 12337, "tenge": 12338, "vs": 12339, "ergo": 12340, "repe": 12341, "sbu": 12342, "fens": 12343, "adel": 12344, "pmerke": 12345, "opmerke": 12346, "zetti": 12347, "zettin": 12348, "zetting": 12349, "cel": 12350, "oogt": 12351, "erdel": 12352, "anderz": 12353, "anderzi": 12354, "nderzij": 12355, "anderzij": 12356, "nderzijd": 12357, "anderzijd": 12358, "nderzijds": 12359, "anderzijds": 12360, "pera": 12361, "nget": 12362, "afsp": 12363, "chaa": 12364, "here": 12365, "hip": 12366, "rtic": 12367, "wisse": 12368, "diep": 12369, "anism": 12370, "anisme": 12371, "ngsco": 12372, "ierm": 12373, "imule": 12374, "imuler": 12375, "vanwe": 12376, "anweg": 12377, "nwege": 12378, "vanweg": 12379, "anwege": 12380, "vanwege": 12381, "timule": 12382, "timuler": 12383, "eventie": 12384, "stimule": 12385, "stimuler": 12386, "handve": 12387, "andves": 12388, "handves": 12389, "andvest": 12390, "handvest": 12391, "wekk": 12392, "nafh": 12393, "nafha": 12394, "nafhan": 12395, "urig": 12396, "nkomsti": 12397, "enkomsti": 12398, "nkomstig": 12399, "eenkomsti": 12400, "enkomstig": 12401, "reenkomsti": 12402, "eenkomstig": 12403, "ereenkomsti": 12404, "reenkomstig": 12405, "vereenkomsti": 12406, "ereenkomstig": 12407, "overeenkomsti": 12408, "vereenkomstig": 12409, "overeenkomstig": 12410, "erieu": 12411, "ella": 12412, "nafhank": 12413, "nafhanke": 12414, "nafhankel": 12415, "nafhankeli": 12416, "nafhankelij": 12417, "nafhankelijk": 12418, "nri": 12419, "ingsco": 12420, "stur": 12421, "rende": 12422, "onafh": 12423, "onafha": 12424, "onafhan": 12425, "onafhank": 12426, "onafhanke": 12427, "onafhankel": 12428, "onafhankeli": 12429, "onafhankelij": 12430, "onafhankelijk": 12431, "rzak": 12432, "evred": 12433, "sheid": 12434, "nei": 12435, "institutione": 12436, "rheuge": 12437, "erheuge": 12438, "rheugen": 12439, "verheuge": 12440, "erheugen": 12441, "verheugen": 12442, "erhou": 12443, "uchtel": 12444, "fensi": 12445, "fensie": 12446, "mas": 12447, "til": 12448, "artoe": 12449, "essi": 12450, "eraan": 12451, "ierbi": 12452, "hierbi": 12453, "test": 12454, "aartoe": 12455, "ensl": 12456, "erhoud": 12457, "edoelen": 12458, "olere": 12459, "hum": 12460, "luid": 12461, "ierbij": 12462, "hierbij": 12463, "itis": 12464, "onaan": 12465, "pie": 12466, "ierme": 12467, "luiti": 12468, "luitin": 12469, "luiting": 12470, "rijfs": 12471, "bedoele": 12472, "bedoelen": 12473, "li\u00eb": 12474, "ktr": 12475, "dar": 12476, "diti": 12477, "orleg": 12478, "oorleg": 12479, "orlegg": 12480, "voorleg": 12481, "oorlegg": 12482, "voorlegg": 12483, "rzake": 12484, "trijden": 12485, "25": 12486, "drijfs": 12487, "edrijfs": 12488, "bedrijfs": 12489, "zigen": 12490, "lerin": 12491, "iermee": 12492, "lering": 12493, "strijden": 12494, "erend": 12495, "vergeli": 12496, "vergelij": 12497, "vergelijk": 12498, "elati": 12499, "stijn": 12500, "estijn": 12501, "verleg": 12502, "well": 12503, "oz": 12504, "rieus": 12505, "site": 12506, "eps": 12507, "orlegge": 12508, "oorlegge": 12509, "orleggen": 12510, "voorlegge": 12511, "oorleggen": 12512, "voorleggen": 12513, "-in": 12514, "rachte": 12515, "jnse": 12516, "ijnse": 12517, "tene": 12518, "enstell": 12519, "vid": 12520, "sig": 12521, "det": 12522, "elev": 12523, "chuldi": 12524, "schuldi": 12525, "chuldig": 12526, "schuldig": 12527, "htsn": 12528, "chtsn": 12529, "egenst": 12530, "tegenst": 12531, "ntru": 12532, "noer": 12533, "snoer": 12534, "rlementai": 12535, "arlementai": 12536, "rlementair": 12537, "parlementai": 12538, "arlementair": 12539, "parlementair": 12540, "ogte": 12541, "oogte": 12542, "waardo": 12543, "waardoo": 12544, "waardoor": 12545, "liez": 12546, "spoe": 12547, "htelin": 12548, "luchtel": 12549, "uchteli": 12550, "chtelin": 12551, "hteling": 12552, "vluchtel": 12553, "luchteli": 12554, "uchtelin": 12555, "chteling": 12556, "vluchteli": 12557, "luchtelin": 12558, "uchteling": 12559, "vluchtelin": 12560, "luchteling": 12561, "vluchteling": 12562, "gema": 12563, "ingaa": 12564, "ingaan": 12565, "pron": 12566, "dwij": 12567, "sluiti": 12568, "sluitin": 12569, "sluiting": 12570, "rliez": 12571, "lieze": 12572, "erliez": 12573, "rlieze": 12574, "verliez": 12575, "erlieze": 12576, "verlieze": 12577, "sbur": 12578, "ano": 12579, "ndigen": 12580, "emoe": 12581, "ffin": 12582, "esm": 12583, "grote": 12584, "lexi": 12585,
[...]
