{"byte_pairs": {"__eow": 6, "__sow": 7, "e": 8, "n": 9, "i": 10, "a": 11, "t": 12, "r": 13, "o": 14, "d": 15, "en": 16, "s": 17, "l": 18, "g": 19, "v": 20, "er": 21, "m": 22, "de": 23, "h": 24, "k": 25, "an": 26, "ee": 27, "u": 28, "j": 29, "b": 30, "ij": 31, "z": 32, "in": 33, "p": 34, "aa": 35, "c": 36, "w": 37, "ie": 38, "et": 39, "he": 40, "el": 41, "ge": 42, "te": 43, "or": 44, "oo": 45, "va": 46, "st": 47, "at": 48, "ng": 49, "van": 50, "ve": 51, ".": 52, "nd": 53, "zi": 54, "ar": 55, "on": 56, "f": 57, "me": 58, "al": 59, "ch": 60, "re": 61, ",": 62, "it": 63, "vo": 64, "het": 65, "be": 66, "da": 67, "ing": 68, "oor": 69, "li": 70, "oe": 71, "ver": 72, "jn": 73, "ijn": 74, "een": 75, "eer": 76, "ro": 77, "op": 78, "di": 79, "zij": 80, "ti": 81, "le": 82, "we": 83, "aar": 84, "is": 85, "zijn": 86, "om": 87, "nt": 88, "ei": 89, "voo": 90, "voor": 91, "ri": 92, "ra": 93, "id": 94, "la": 95, "dat": 96, "mi": 97, "rd": 98, "ni": 99, "es": 100, "eu": 101, "eg": 102, "ur": 103, "em": 104, "jk": 105, "ijk": 106, "ze": 107, "sc": 108, "lij": 109, "ui": 110, "ig": 111, "tie": 112, "sch": 113, "ma": 114, "ed": 115, "aan": 116, "nde": 117, "and": 118, "ste": 119, "ik": 120, "wi": 121, "eb": 122, "der": 123, "na": 124, "lijk": 125, "co": 126, "ht": 127, "ta": 128, "cht": 129, "ord": 130, "to": 131, "tr": 132, "ne": 133, "ns": 134, "mo": 135, "nie": 136, "pe": 137, "ec": 138, "men": 139, "die": 140, "wo": 141, "ek": 142, "ke": 143, "eid": 144, "wa": 145, "ag": 146, "pr": 147, "eur": 148, "pa": 149, "ent": 150, "eli": 151, "ha": 152, "ol": 153, "heb": 154, "uit": 155, "nder": 156, "si": 157, "ter": 158, "bi": 159, "elij": 160, "elijk": 161, "lan": 162, "ond": 163, "un": 164, "za": 165, "aat": 166, "ov": 167, "zo": 168, "wor": 169, "ef": 170, "word": 171, "ove": 172, "eel": 173, "sta": 174, "do": 175, "ss": 176, "con": 177, "no": 178, "ic": 179, "am": 180, "maa": 181, "ot": 182, "ka": 183, "il": 184, "uro": 185, "euro": 186, "gr": 187, "ak": 188, "met": 189, "rk": 190, "over": 191, "aal": 192, "end": 193, "gen": 194, "ho": 195, "ati": 196, "se": 197, "wij": 198, "iet": 199, "rop": 200, "urop": 201, "europ": 202, "raa": 203, "mis": 204, "ez": 205, "moe": 206, "ege": 207, "rij": 208, "og": 209, "-": 210, "mee": 211, "ct": 212, "ev": 213, "ko": 214, "hei": 215, "niet": 216, "heid": 217, "ga": 218, "ees": 219, "ope": 220, "rt": 221, "gel": 222, "rs": 223, "ang": 224, "sl": 225, "oet": 226, "ac": 227, "ls": 228, "ree": 229, "onde": 230, "ou": 231, "tel": 232, "erk": 233, "moet": 234, "ll": 235, "onder": 236, "rg": 237, "atie": 238, "uw": 239, "ech": 240, "eme": 241, "isc": 242, "als": 243, "waa": 244, "den": 245, "tu": 246, "pro": 247, "zal": 248, "wer": 249, "ich": 250, "pee": 251, "gee": 252, "rope": 253, "tre": 254, "urope": 255, "europe": 256, "waar": 257, "lo": 258, "ers": 259, "kan": 260, "ens": 261, "iss": 262, "nee": 263, "dit": 264, "stel": 265, "ad": 266, "ok": 267, "as": 268, "ment": 269, "isch": 270, "lle": 271, "ru": 272, "sie": 273, "sp": 274, "us": 275, "echt": 276, "daa": 277, "opee": 278, "vr": 279, "ropee": 280, "uropee": 281, "europee": 282, "pees": 283, "opees": 284, "ropees": 285, "uropees": 286, "europees": 287, "ba": 288, "eze": 289, "du": 290, "hee": 291, "hi": 292, "dr": 293, "0": 294, "naa": 295, "bel": 296, "miss": 297, "ere": 298, "ap": 299, "bij": 300, "ande": 301, "rm": 302, "ook": 303, "mij": 304, "dez": 305, "deze": 306, "eem": 307, "land": 308, "ind": 309, "ten": 310, "aak": 311, "ite": 312, "ame": 313, "od": 314, "ssi": 315, "oc": 316, "str": 317, "br": 318, "taa": 319, "ci": 320, "gro": 321, "kom": 322, "toe": 323, "emen": 324, "jd": 325, "ijd": 326, "af": 327, "tee": 328, "ssie": 329, "of": 330, "lee": 331, "ele": 332, "gi": 333, "ld": 334, "ce": 335, "par": 336, "vol": 337, "ts": 338, "po": 339, "so": 340, "dee": 341, "ont": 342, "ien": 343, "oed": 344, "laa": 345, "est": 346, "aag": 347, "rl": 348, "werk": 349, "dig": 350, "issi": 351, "vi": 352, "all": 353, "missi": 354, "ement": 355, "issie": 356, "missie": 357, "doo": 358, "mijn": 359, "rec": 360, "cha": 361, "icht": 362, "heer": 363, "del": 364, "alle": 365, "ier": 366, "reg": 367, "tot": 368, "lang": 369, "nk": 370, "bo": 371, "door": 372, "ede": 373, "sa": 374, "daar": 375, "pl": 376, "doe": 377, "lem": 378, "ren": 379, "ken": 380, "hu": 381, "scha": 382, "wil": 383, "sla": 384, "rde": 385, "eve": 386, "zit": 387, "mm": 388, "maar": 389, "vers": 390, "go": 391, "eit": 392, "lu": 393, "lei": 394, "ela": 395, "dan": 396, "teg": 397, "fe": 398, "ach": 399, "han": 400, "ven": 401, "bl": 402, "staa": 403, "nz": 404, "wee": 405, "ant": 406, "acht": 407, "os": 408, "uu": 409, "2": 410, "tw": 411, "ouw": 412, "egen": 413, "cti": 414, "rech": 415, "recht": 416, "ul": 417, "kel": 418, "eld": 419, "ons": 420, "tij": 421, "eef": 422, "amen": 423, "geb": 424, "iti": 425, "ia": 426, "nc": 427, "ud": 428, "ctie": 429, "roo": 430, "leme": 431, "lemen": 432, "lement": 433, "meer": 434, "elan": 435, "ard": 436, "neem": 437, "nte": 438, "rle": 439, "wel": 440, "oot": 441, "rn": 442, "uni": 443, "leg": 444, "bu": 445, "ran": 446, "ort": 447, "bela": 448, "fi": 449, "im": 450, "elang": 451, "oord": 452, "belan": 453, "belang": 454, "goe": 455, "zie": 456, "leid": 457, "goed": 458, "aad": 459, "arl": 460, "hap": 461, "taat": 462, "chap": 463, "schap": 464, "staat": 465, "rege": 466, "arle": 467, "ut": 468, "uc": 469, "parl": 470, "rlem": 471, "arlem": 472, "parle": 473, "parlem": 474, "rleme": 475, "arleme": 476, "rlemen": 477, "parleme": 478, "arlemen": 479, "parlemen": 480, "rlement": 481, "arlement": 482, "parlement": 483, "lid": 484, "io": 485, "laat": 486, "ieu": 487, "cr": 488, "um": 489, "hoo": 490, "raag": 491, "tei": 492, "orm": 493, "eke": 494, "ern": 495, "teit": 496, "ect": 497, "ep": 498, "sti": 499, "com": 500, "aard": 501, "root": 502, "itei": 503, "uur": 504, "groo": 505, "groot": 506, "ris": 507, "iteit": 508, "rek": 509, "vaa": 510, "geli": 511, "ist": 512, "vee": 513, "her": 514, "oud": 515, "gelij": 516, "gelijk": 517, "ander": 518, "au": 519, "voe": 520, "lag": 521, "nu": 522, "teer": 523, "ied": 524, "zic": 525, "chi": 526, "zich": 527, "tege": 528, "iek": 529, "bie": 530, "nn": 531, "1": 532, "eri": 533, "tra": 534, "hand": 535, "unie": 536, "slag": 537, "pre": 538, "even": 539, "art": 540, "org": 541, "ja": 542, "rei": 543, "jf": 544, "ijf": 545, "egi": 546, "egel": 547, "itie": 548, "act": 549, "(": 550, "zaa": 551, "kk": 552, "lk": 553, "eed": 554, ")": 555, "woo": 556, "geef": 557, "ger": 558, "erg": 559, "hou": 560, "ir": 561, "int": 562, "hie": 563, "ief": 564, "wat": 565, "deel": 566, "meen": 567, "bre": 568, "mens": 569, "era": 570, "rie": 571, "vaar": 572, "res": 573, "rijk": 574, "ds": 575, "dien": 576, "je": 577, "lit": 578, "nze": 579, "nog": 580, "inte": 581, "ili": 582, "nat": 583, "rge": 584, "per": 585, "naar": 586, "omm": 587, "nen": 588, "tegen": 589, "stee": 590, "tan": 591, "tijd": 592, "rou": 593, "vor": 594, "lg": 595, "schi": 596, "dra": 597, "kr": 598, "nti": 599, "ige": 600, "erd": 601, "maak": 602, "raad": 603, "kt": 604, "regel": 605, "rb": 606, "ob": 607, "rouw": 608, "tem": 609, "y": 610, "loo": 611, "pla": 612, "houd": 613, "hte": 614, "ene": 615, "chte": 616, "spr": 617, "onz": 618, "zon": 619, "onze": 620, "baa": 621, "kke": 622, "roe": 623, "ron": 624, "nge": 625, "geen": 626, "ast": 627, "stan": 628, "sse": 629, "ric": 630, "che": 631, "bli": 632, "min": 633, "ein": 634, "nda": 635, "ai": 636, "\u00eb": 637, "00": 638, "rsl": 639, "rsla": 640, "rslag": 641, "pu": 642, "20": 643, "rich": 644, "naal": 645, "ersl": 646, "tuu": 647, "oog": 648, "ersla": 649, "versl": 650, "dri": 651, "versla": 652, "euw": 653, "erslag": 654, "verslag": 655, "tief": 656, "richt": 657, "ea": 658, "gev": 659, "ki": 660, "uid": 661, "olg": 662, "ndel": 663, "woor": 664, "woord": 665, "ate": 666, "reer": 667, "volg": 668, "su": 669, "eree": 670, "oer": 671, "rr": 672, "haa": 673, "sen": 674, "acti": 675, "oek": 676, "fr": 677, "bied": 678, "lf": 679, "oel": 680, "omi": 681, "nne": 682, "nis": 683, "zond": 684, "gem": 685, "eek": 686, "comm": 687, "actie": 688, "stem": 689, "nieu": 690, "js": 691, "ijs": 692, "ieuw": 693, "nieuw": 694, "hande": 695, "ans": 696, "andel": 697, "hier": 698, "bele": 699, "sche": 700, "eken": 701, "mmi": 702, "vro": 703, "enk": 704, "jaa": 705, "nst": 706, "lui": 707, "handel": 708, "see": 709, "ari": 710, "vra": 711, "dd": 712, "oli": 713, "zeg": 714, "maat": 715, "bet": 716, "ade": 717, "cu": 718, "oop": 719, "vere": 720, "elei": 721, "jaar": 722, "kl": 723, "seer": 724, "trek": 725, "hter": 726, "mid": 727, "chter": 728, "opa": 729, "hun": 730, "ropa": 731, "spe": 732, "vraa": 733, "vraag": 734, "fo": 735, "len": 736, "teu": 737, "tro": 738, "ank": 739, "zel": 740, "eleid": 741, "uropa": 742, "europa": 743, "lie": 744, "zaak": 745, "uss": 746, "belei": 747, "beleid": 748, "idd": 749, "orde": 750, "lig": 751, "midd": 752, "kkel": 753, "vrou": 754, "vrouw": 755, "ner": 756, "eni": 757, "cie": 758, "tand": 759, "nter": 760, "elf": 761, "twe": 762, "aam": 763, "ntie": 764, "dde": 765, "stand": 766, "deer": 767, "gra": 768, "hoe": 769, "tuur": 770, "veel": 771, "oge": 772, "rac": 773, "ende": 774, "idde": 775, "midde": 776, "mer": 777, "rag": 778, "nati": 779, "bes": 780, "erm": 781, "ndi": 782, "lt": 783, "ori": 784, "val": 785, "ona": 786, "inter": 787, "eun": 788, "ikk": 789, "ew": 790, "uk": 791, "wik": 792, "ikke": 793, "rui": 794, "ikkel": 795, "ber": 796, "omis": 797, "baar": 798, "steu": 799, "teun": 800, "steun": 801, ":": 802, "ini": 803, "wikk": 804, "wikke": 805, "wikkel": 806, "eco": 807, "zelf": 808, "ono": 809, "leen": 810, "ster": 811, "eng": 812, "geme": 813, "ommi": 814, "ue": 815, "tri": 816, "emee": 817, "tor": 818, "oce": 819, "slu": 820, "slui": 821, "ina": 822, "emeen": 823, "bur": 824, "oa": 825, "doel": 826, "iaa": 827, "luit": 828, "sluit": 829, "ats": 830, "wet": 831, "ntw": 832, "if": 833, "man": 834, "sam": 835, "roc": 836, "gemee": 837, "gemeen": 838, "dui": 839, "same": 840, "samen": 841, "mp": 842, "kw": 843, "eva": 844, "ker": 845, "ref": 846, "mog": 847, "lic": 848, "ssen": 849, "misc": 850, "misch": 851, "proc": 852, "air": 853, "roce": 854, "proce": 855, "pp": 856, "md": 857, "nv": 858, "neer": 859, "ise": 860, "ab": 861, "aats": 862, "mil": 863, "moge": 864, "blij": 865, "anc": 866, "gez": 867, "nom": 868, "ssa": 869, "econ": 870, "inde": 871, "rz": 872, "fin": 873, "vin": 874, "rob": 875, "rdi": 876, "oon": 877, "age": 878, "oal": 879, "mu": 880, "mar": 881, "iee": 882, "enti": 883, "unt": 884, "ide": 885, "inn": 886, "nci": 887, "cono": 888, "econo": 889, "onom": 890, "nomi": 891, "pen": 892, "zoe": 893, "onomi": 894, "conom": 895, "econom": 896, "conomi": 897, "economi": 898, "onaa": 899, "onaal": 900, "zoa": 901, "zoal": 902, "oals": 903, "zoals": 904, "ff": 905, "prob": 906, "ddel": 907, "iddel": 908, "middel": 909, "ebi": 910, "drag": 911, "ebie": 912, "isee": 913, "uite": 914, "iseer": 915, "gebi": 916, "gebie": 917, "ks": 918, "nig": 919, "reek": 920, "oen": 921, "pol": 922, "ebr": 923, "rst": 924, "rit": 925, "voer": 926, "zet": 927, "sis": 928, "rte": 929, "x": 930, "zoek": 931, "edi": 932, "tree": 933, "tal": 934, "omisc": 935, "omisch": 936, "nomis": 937, "onomis": 938, "nomisc": 939, "nomisch": 940, "onomisc": 941, "onomisch": 942, "conomis": 943, "economis": 944, "conomisc": 945, "economisc": 946, "conomisch": 947, "economisch": 948, "ete": 949, "geer": 950, "vind": 951, "bru": 952, "iaal": 953, "jz": 954, "lis": 955, "ijz": 956, "stri": 957, "urg": 958, "iv": 959, "pun": 960, "punt": 961, "ert": 962, "esti": 963, "reen": 964, "ju": 965, "ani": 966, "tern": 967, "twee": 968, "heel": 969, "ogel": 970, "tus": 971, "gebr": 972, "ereen": 973, "por": 974, "entie": 975, "cia": 976, "tref": 977, "hr": 978, "uct": 979, "eden": 980, "rw": 981, "red": 982, "rti": 983, "usse": 984, "echte": 985, "mogel": 986, "ogeli": 987, "mogeli": 988, "ogelij": 989, "mogelij": 990, "ogelijk": 991, "mogelijk": 992, "sit": 993, "200": 994, "elk": 995, "zonde": 996, "nan": 997, "burg": 998, "zee": 999, "cen": 1000, "zonder": 1001, "arde": 1002, "rond": 1003, "llee": 1004, "uee": 1005, "spre": 1006, "fra": 1007, "commi": 1008, "ins": 1009, "vorm": 1010, "mmis": 1011, "ommis": 1012, "vri": 1013, "commis": 1014, "mmiss": 1015, "ommiss": 1016, "commiss": 1017, "chr": 1018, "aarde": 1019, "sel": 1020, "nam": 1021, "eh": 1022, "allee": 1023, "lev": 1024, "zor": 1025, "anda": 1026, "issa": 1027, "gre": 1028, "zorg": 1029, "ader": 1030, "port": 1031, "geva": 1032, "reng": 1033, "echter": 1034, "ali": 1035, "poli": 1036, "nf": 1037, "igen": 1038, "tru": 1039, "gis": 1040, "vera": 1041, "lleen": 1042, "alleen": 1043, "inne": 1044, "cent": 1045, "ntr": 1046, "evr": 1047, "waard": 1048, "i\u00eb": 1049, "kri": 1050, "liti": 1051, "plaa": 1052, "uik": 1053, "ndee": 1054, "nanc": 1055, "anci": 1056, "urge": 1057, "ussen": 1058, "paa": 1059, "noo": 1060, "tis": 1061, "rel": 1062, "laats": 1063, "olit": 1064, "plaat": 1065, "dus": 1066, "polit": 1067, "rkt": 1068, "rger": 1069, "eet": 1070, "?": 1071, "ark": 1072, "gan": 1073, "oliti": 1074, "politi": 1075, "ciaa": 1076, "tuss": 1077, "tusse": 1078, "tussen": 1079, "ciaal": 1080, "rga": 1081, "plaats": 1082, "fina": 1083, "inan": 1084, "jde": 1085, "ijde": 1086, "finan": 1087, "inanc": 1088, "financ": 1089, "nanci": 1090, "inanci": 1091, "financi": 1092, "ug": 1093, "\u00e9": 1094, "zien": 1095, "waarde": 1096, "ble": 1097, "eran": 1098, "schr": 1099, "burge": 1100, "urger": 1101, "burger": 1102, "ies": 1103, "obl": 1104, "duid": 1105, "stra": 1106, "ncie": 1107, "led": 1108, "wijs": 1109, "veran": 1110, "rat": 1111, "sol": 1112, "leve": 1113, "pas": 1114, "bren": 1115, "leem": 1116, "blee": 1117, "pri": 1118, "oble": 1119, "robl": 1120, "roble": 1121, "ust": 1122, "pec": 1123, "reed": 1124, "breng": 1125, "probl": 1126, "proble": 1127, "bleem": 1128, "oblee": 1129, "roblee": 1130, "problee": 1131, "obleem": 1132, "robleem": 1133, "probleem": 1134, "ebied": 1135, "ancie": 1136, "spec": 1137, "gebied": 1138, "ruik": 1139, "nnen": 1140, "litie": 1141, "5": 1142, "mark": 1143, "brui": 1144, "bee": 1145, "name": 1146, "ndeer": 1147, "bruik": 1148, "9": 1149, "beg": 1150, "rke": 1151, "app": 1152, "eig": 1153, "dank": 1154, "ume": 1155, "ft": 1156, "nancie": 1157, "inancie": 1158, "financie": 1159, "eil": 1160, "erb": 1161, "olitie": 1162, "politie": 1163, "gin": 1164, "vrij": 1165, "ex": 1166, "hri": 1167, "tig": 1168, "chri": 1169, "gd": 1170, "sm": 1171, "eren": 1172, "verd": 1173, "aris": 1174, "tiek": 1175, "odi": 1176, "ntern": 1177, "intern": 1178, "rsc": 1179, "uis": 1180, "rsch": 1181, "ure": 1182, "raat": 1183, "mev": 1184, "jg": 1185, "ijg": 1186, "evro": 1187, "evrou": 1188, "mevr": 1189, "evrouw": 1190, "mevro": 1191, "mevrou": 1192, "mevrouw": 1193, "bin": 1194, "oep": 1195, "ca": 1196, "oci": 1197, "llen": 1198, "ebru": 1199, "ega": 1200, "wan": 1201, "overe": 1202, "eder": 1203, "soc": 1204, "gaa": 1205, "rp": 1206, "veree": 1207, "vereen": 1208, "overee": 1209, "overeen": 1210, "dem": 1211, "innen": 1212, "rh": 1213, "erst": 1214, "soci": 1215, "rol": 1216, "erl": 1217, "aand": 1218, "two": 1219, "onc": 1220, "ood": 1221, "ake": 1222, "antw": 1223, "itu": 1224, "twoo": 1225, "ara": 1226, "ezi": 1227, "natie": 1228, "emo": 1229, "rant": 1230, "ntwo": 1231, "twoor": 1232, "twoord": 1233, "ntwoo": 1234, "ntwoor": 1235, "antwo": 1236, "antwoo": 1237, "antwoor": 1238, "ntwoord": 1239, "antwoord": 1240, "conc": 1241, "pree": 1242, "preek": 1243, "inst": 1244, "spree": 1245, "spreek": 1246, "duc": 1247, "for": 1248, "part": 1249, "ema": 1250, "ine": 1251, "rdig": 1252, "rod": 1253, "atr": 1254, "este": 1255, "erz": 1256, "itiek": 1257, "gron": 1258, "3": 1259, "oei": 1260, "grond": 1261, "rin": 1262, "gebru": 1263, "ebrui": 1264, "gebrui": 1265, "ebruik": 1266, "gebruik": 1267, "erh": 1268, "tisc": 1269, "tisch": 1270, "lijn": 1271, "arkt": 1272, "markt": 1273, "mb": 1274, "litiek": 1275, "olitiek": 1276, "politiek": 1277, "schri": 1278, "odu": 1279, "one": 1280, "roep": 1281, "omd": 1282, "mda": 1283, "mdat": 1284, "omda": 1285, "omdat": 1286, "enig": 1287, "stre": 1288, "rijd": 1289, "eff": 1290, "erp": 1291, "ueer": 1292, "gisc": 1293, "erke": 1294, "tek": 1295, "denk": 1296, "gisch": 1297, "oort": 1298, "err": 1299, "ener": 1300, "treg": 1301, "krij": 1302, "trege": 1303, "ban": 1304, "pi": 1305, "eno": 1306, "sar": 1307, "tregel": 1308, "ram": 1309, "aatr": 1310, "atre": 1311, "aatre": 1312, "maatr": 1313, "atreg": 1314, "atrege": 1315, "aatreg": 1316, "aatrege": 1317, "maatre": 1318, "maatreg": 1319, "maatrege": 1320, "eili": 1321, "ilig": 1322, "eilig": 1323, "cons": 1324, "atregel": 1325, "aatregel": 1326, "maatregel": 1327, "pra": 1328, "cri": 1329, "vei": 1330, "reid": 1331, "weg": 1332, "rodu": 1333, "bou": 1334, "veil": 1335, "odig": 1336, "ffe": 1337, "oduc": 1338, "roduc": 1339, "eds": 1340, "ocia": 1341, "socia": 1342, "prod": 1343, "rede": 1344, "gang": 1345, "cher": 1346, "arti": 1347, "lich": 1348, "stru": 1349, "veili": 1350, "spa": 1351, "veilig": 1352, "rre": 1353, "zeer": 1354, "hel": 1355, "nod": 1356, "scher": 1357, "nodi": 1358, "nodig": 1359, "rand": 1360, "tue": 1361, "haar": 1362, "ost": 1363, "eeds": 1364, "wes": 1365, "tuee": 1366, "west": 1367, "cra": 1368, "ub": 1369, "sari": 1370, "ssar": 1371, "saris": 1372, "missa": 1373, "ssari": 1374, "issar": 1375, "ssaris": 1376, "missar": 1377, "issari": 1378, "missari": 1379, "issaris": 1380, "missaris": 1381, "mmissa": 1382, "ommissa": 1383, "commissa": 1384, "mmissar": 1385, "ommissar": 1386, "mmissari": 1387, "commissar": 1388, "ommissari": 1389, "commissari": 1390, "mmissaris": 1391, "ommissaris": 1392, "commissaris": 1393, "hij": 1394, "vert": 1395, "gie": 1396, "erw": 1397, "eind": 1398, "cee": 1399, "dru": 1400, "hoog": 1401, "bouw": 1402, "ceer": 1403, "tai": 1404, "col": 1405, "produ": 1406, "vl": 1407, "produc": 1408, "regi": 1409, "aut": 1410, "ive": 1411, "isi": 1412, "licht": 1413, "stu": 1414, "olk": 1415, "cont": 1416, "lega": 1417, "ong": 1418, "rbe": 1419, "ome": 1420, "demo": 1421, "deb": 1422, "rschi": 1423, "rak": 1424, "oeg": 1425, "taal": 1426, "veer": 1427, "inder": 1428, "eba": 1429, "naam": 1430, "ersc": 1431, "bat": 1432, "noe": 1433, "rne": 1434, "mag": 1435, "lijf": 1436, "groe": 1437, "kwe": 1438, "ersch": 1439, "erel": 1440, "'": 1441, "its": 1442, "rna": 1443, "form": 1444, "sme": 1445, "verb": 1446, "herm": 1447, "were": 1448, "werel": 1449, "best": 1450, "fd": 1451, "reld": 1452, "ereld": 1453, "wereld": 1454, "edr": 1455, "ociaa": 1456, "sociaa": 1457, "ociaal": 1458, "sociaal": 1459, "th": 1460, "rijf": 1461, "lv": 1462, "mili": 1463, "cherm": 1464, "scherm": 1465, "iten": 1466, "stie": 1467, "vaard": 1468, "ult": 1469, "idi": 1470, "ebat": 1471, "nds": 1472, "\"": 1473, "deba": 1474, "volk": 1475, "versc": 1476, "versch": 1477, "debat": 1478, "egin": 1479, "ode": 1480, "eige": 1481, "ocr": 1482, "blijf": 1483, "ion": 1484, "dis": 1485, "uiten": 1486, "rv": 1487, "begi": 1488, "begin": 1489, "med": 1490, "beh": 1491, "rap": 1492, "ets": 1493, "ces": 1494, "nw": 1495, "mel": 1496, "oof": 1497, "vas": 1498, "rijg": 1499, "pt": 1500, "endee": 1501, "estie": 1502, "oll": 1503, "ita": 1504, "ocra": 1505, "krijg": 1506, "rgi": 1507, "atief": 1508, "sto": 1509, "vast": 1510, "edig": 1511, "ogr": 1512, "rus": 1513, "eo": 1514, "eker": 1515, "ract": 1516, "vis": 1517, "egee": 1518, "gele": 1519, "hui": 1520, "egeer": 1521, "ruk": 1522, "moc": 1523, "ppo": 1524, "mocr": 1525, "jo": 1526, "mocra": 1527, "emoc": 1528, "democ": 1529, "emocr": 1530, "democr": 1531, "emocra": 1532, "democra": 1533, "4": 1534, "druk": 1535, "drie": 1536, "bui": 1537, "erv": 1538, "asi": 1539, "ill": 1540, "cto": 1541, "los": 1542, "bed": 1543, "trij": 1544, "strij": 1545, "wijz": 1546, "gew": 1547, "daag": 1548, "zek": 1549, "ogra": 1550, "rite": 1551, "zeke": 1552, "zeker": 1553, "orte": 1554, "paal": 1555, "ange": 1556, "itue": 1557, "ndaa": 1558, "kwes": 1559, "kwest": 1560, "tueer": 1561, "teed": 1562, "steed": 1563, "andaa": 1564, "ituee": 1565, "westi": 1566, "kwesti": 1567, "westie": 1568, "kwestie": 1569, "itueer": 1570, "gens": 1571, "atu": 1572, "eau": 1573, "sy": 1574, "ys": 1575, "ip": 1576, "loop": 1577, "lve": 1578, "craa": 1579, "craat": 1580, "lp": 1581, "kaa": 1582, "hil": 1583, "rog": 1584, "sn": 1585, "eigen": 1586, "ocraa": 1587, "ocraat": 1588, "ije": 1589, "tair": 1590, "leer": 1591, "erna": 1592, "rder": 1593, "endeer": 1594, "nke": 1595, "tt": 1596, "erschi": 1597, "fer": 1598, "mocraa": 1599, "mocraat": 1600, "emocraa": 1601, "democraa": 1602, "emocraat": 1603, "democraat": 1604, "trijd": 1605, "strijd": 1606, "gri": 1607, "verschi": 1608, "rom": 1609, "racti": 1610, "soo": 1611, "wen": 1612, "disc": 1613, "chil": 1614, "ractie": 1615, "nit": 1616, "situ": 1617, "situe": 1618, "situee": 1619, "situeer": 1620, "iste": 1621, "graa": 1622, "frac": 1623, "fract": 1624, "fracti": 1625, "fractie": 1626, "maal": 1627, "duct": 1628, "hul": 1629, "ruc": 1630, "buit": 1631, "risi": 1632, "ppor": 1633, "pport": 1634, "nl": 1635, "omen": 1636, "amm": 1637, "fu": 1638, "bedr": 1639, "binn": 1640, "binne": 1641, "binnen": 1642, "eraa": 1643, "ciee": 1644, "mend": 1645, "erne": 1646, "lege": 1647, "ctor": 1648, "inz": 1649, "ergi": 1650, "schil": 1651, "werp": 1652, "ves": 1653, "olle": 1654, "rapp": 1655, "ice": 1656, "coll": 1657, "verg": 1658, "appo": 1659, "rappo": 1660, "appor": 1661, "rappor": 1662, "apport": 1663, "rapport": 1664, "mende": 1665, "amend": 1666, "kee": 1667, "amende": 1668, "eeld": 1669, "nerg": 1670, "colle": 1671, "mendee": 1672, "mendeer": 1673, "amendee": 1674, "amendeer": 1675, "tio": 1676, "lin": 1677, "prog": 1678, "vest": 1679, "gio": 1680, "oduct": 1681, "roduct": 1682, "kla": 1683, "sec": 1684, "har": 1685, "net": 1686, "rogr": 1687, "lec": 1688, "egio": 1689, "progr": 1690, "mon": 1691, "ese": 1692, "keer": 1693, "regio": 1694, "oef": 1695, "ism": 1696, "eval": 1697, "terk": 1698, "rande": 1699, "erge": 1700, "sterk": 1701, "product": 1702, "beel": 1703, "beeld": 1704, "zig": 1705, "fa": 1706, "isme": 1707, "rnee": 1708, "7": 1709, "bas": 1710, "gram": 1711, "gaan": 1712, "rach": 1713, "nergi": 1714, "geno": 1715, "zicht": 1716, "lite": 1717, "tion": 1718, "cho": 1719, "log": 1720, "racht": 1721, "terna": 1722, "porte": 1723, "rtee": 1724, "rteer": 1725, "ici": 1726, "oos": 1727, "din": 1728, "ortee": 1729, "orteer": 1730, "nterna": 1731, "interna": 1732, "rnat": 1733, "ernat": 1734, "rnati": 1735, "ernati": 1736, "ogram": 1737, "rogra": 1738, "rogram": 1739, "progra": 1740, "program": 1741, "ternat": 1742, "ternati": 1743, "umen": 1744, "ument": 1745, "rgie": 1746, "terr": 1747, "rdr": 1748, "energ": 1749, "nternat": 1750, "internat": 1751, "nternati": 1752, "internati": 1753, "rzo": 1754, "mma": 1755, "6": 1756, "ergie": 1757, "rschil": 1758, "erschil": 1759, "verschil": 1760, "energi": 1761, "ilie": 1762, "fun": 1763, "inee": 1764, "geld": 1765, "nergie": 1766, "inf": 1767, "rum": 1768, "uist": 1769, "ewe": 1770, "portee": 1771, "porteer": 1772, "rio": 1773, "milie": 1774, "esl": 1775, "trat": 1776, "erzo": 1777, "iel": 1778, "lleg": 1779, "dur": 1780, "strat": 1781, "erdr": 1782, "kad": 1783, "verdr": 1784, "eta": 1785, "zen": 1786, "nciee": 1787, "anciee": 1788, "nanciee": 1789, "inanciee": 1790, "financiee": 1791, "effe": 1792, "open": 1793, "esta": 1794, "rdra": 1795, "fic": 1796, "rme": 1797, "ike": 1798, "olleg": 1799, "colleg": 1800, "ramm": 1801, "fei": 1802, "erdra": 1803, "verdra": 1804, "amma": 1805, "gramm": 1806, "eleg": 1807, "ogramm": 1808, "rogramm": 1809, "programm": 1810, "fs": 1811, "och": 1812, "regee": 1813, "mani": 1814, "ramma": 1815, "gramma": 1816, "dam": 1817, "ogramma": 1818, "rogramma": 1819, "programma": 1820, "rtij": 1821, "hoop": 1822, "energie": 1823, "pak": 1824, "bei": 1825, "litei": 1826, "liteit": 1827, "mat": 1828, "regeer": 1829, "ole": 1830, "orga": 1831, "iter": 1832, "buite": 1833, "buiten": 1834, "pporte": 1835, "llega": 1836, "elege": 1837, "gree": 1838, "leven": 1839, "feit": 1840, "eik": 1841, "apporte": 1842, "rapporte": 1843, "8": 1844, "too": 1845, "ontr": 1846, "pportee": 1847, "pporteer": 1848, "apportee": 1849, "rapportee": 1850, "apporteer": 1851, "rapporteer": 1852, "aans": 1853, "etr": 1854, "oem": 1855, "rste": 1856, "ollega": 1857, "collega": 1858, "iona": 1859, "av": 1860, "bete": 1861, "drij": 1862, "teke": 1863, "ctief": 1864, "onee": 1865, "reke": 1866, "vang": 1867, "teken": 1868, "reken": 1869, "jui": 1870, "scho": 1871, "ateg": 1872, "rden": 1873, "basi": 1874, "ecto": 1875, "kade": 1876, "asis": 1877, "tat": 1878, "basis": 1879, "kader": 1880, "nood": 1881, "rif": 1882, "atio": 1883, "drijf": 1884, "elo": 1885, "ector": 1886, "kra": 1887, "lke": 1888, "iets": 1889, "rea": 1890, "beid": 1891, "gene": 1892, "greer": 1893, "rate": 1894, "pers": 1895, "mig": 1896, "ille": 1897, "nkel": 1898, "treed": 1899, "tiona": 1900, "enke": 1901, "pli": 1902, "rdrag": 1903, "erdrag": 1904, "verdrag": 1905, "bev": 1906, "ernee": 1907, "egr": 1908, "orit": 1909, "dure": 1910, "zw": 1911, "edu": 1912, "rzoe": 1913, "erzoe": 1914, "trum": 1915, "ell": 1916, "ation": 1917, "jden": 1918, "ijden": 1919, "\u2013": 1920, "ift": 1921, "lge": 1922, "erde": 1923, "pect": 1924, "spect": 1925, "ib": 1926, "aas": 1927, "ezo": 1928, "arm": 1929, "sle": 1930, "dern": 1931, "ges": 1932, "niv": 1933, "tv": 1934, "nive": 1935, "reik": 1936, "eks": 1937, "eci": 1938, "mind": 1939, "minde": 1940, "keu": 1941, "minder": 1942, "sect": 1943, "ardi": 1944, "dag": 1945, "rik": 1946, "secto": 1947, "sector": 1948, "zaam": 1949, "rmee": 1950, "ifi": 1951, "uti": 1952, "pres": 1953, "atuu": 1954, "merk": 1955, "enkel": 1956, "lieu": 1957, "ilieu": 1958, "milieu": 1959, "rug": 1960, "stree": 1961, "yst": 1962, "ritei": 1963, "riteit": 1964, "taan": 1965, "aardi": 1966, "ple": 1967, "vre": 1968, "orme": 1969, "yste": 1970, "ardig": 1971, "aardig": 1972, "dame": 1973, "eso": 1974, "erant": 1975, "egis": 1976, "ngen": 1977, "verant": 1978, "pos": 1979, "idee": 1980, "rig": 1981, "vand": 1982, "gezi": 1983, "dia": 1984, "amel": 1985, "voort": 1986, "las": 1987, "forme": 1988, "vanda": 1989, "lede": 1990, "cre": 1991, "trate": 1992, "sys": 1993, "syst": 1994, "syste": 1995, "alt": 1996, "rantw": 1997, "erantw": 1998, "rantwo": 1999, "verantw": 2000, "erantwo": 2001, "rantwoo": 2002, "verantwo": 2003, "erantwoo": 2004, "rantwoor": 2005, "verantwoo": 2006, "erantwoor": 2007, "rantwoord": 2008, "verantwoor": 2009, "erantwoord": 2010, "verantwoord": 2011, "betr": 2012, "ormee": 2013, "formee": 2014, "rzoek": 2015, "erzoek": 2016, "vandaa": 2017, "strate": 2018, "rateg": 2019, "trateg": 2020, "strateg": 2021, "uch": 2022, "kie": 2023, "leden": 2024, "ationa": 2025, "tb": 2026, "mom": 2027, "rans": 2028, "oi": 2029, "kij": 2030, "contr": 2031, "neel": 2032, "orite": 2033, "oritei": 2034, "oriteit": 2035, "teem": 2036, "ystee": 2037, "systee": 2038, "steem": 2039, "ysteem": 2040, "systeem": 2041, "teeds": 2042, "steeds": 2043, "natio": 2044, "nation": 2045, "lend": 2046, "ucht": 2047, "nationa": 2048, "ann": 2049, "eis": 2050, "agen": 2051, "koo": 2052, "kor": 2053, "icee": 2054, "iceer": 2055, "eter": 2056, "niti": 2057, "weet": 2058, "besl": 2059, "vaardi": 2060, "inv": 2061, "achte": 2062, "nau": 2063, "vaardig": 2064, "nzi": 2065, "/": 2066, "orden": 2067, "anie": 2068, "olge": 2069, "estee": 2070, "parti": 2071, "rift": 2072, "ald": 2073, "oment": 2074, "prak": 2075, "mome": 2076, "momen": 2077, "moment": 2078, "ntro": 2079, "verh": 2080, "llend": 2081, "erei": 2082, "hrif": 2083, "chrif": 2084, "hrift": 2085, "schrif": 2086, "chrift": 2087, "schrift": 2088, "ena": 2089, "nor": 2090, "e\u00eb": 2091, "volge": 2092, "weer": 2093, "uig": 2094, "kies": 2095, "staan": 2096, "andi": 2097, "init": 2098, "tit": 2099, "juis": 2100, "juist": 2101, "initi": 2102, "ndaag": 2103, "andaag": 2104, "vandaag": 2105, "nel": 2106, "ess": 2107, "reni": 2108, "aran": 2109, "omp": 2110, "veren": 2111, "ereni": 2112, "spo": 2113, "renig": 2114, "erenig": 2115, "vereni": 2116, "verenig": 2117, "uto": 2118, "pan": 2119, "ehe": 2120, "mun": 2121, "iede": 2122, "mme": 2123, "elke": 2124, "tui": 2125, "lj": 2126, "eru": 2127, "evaa": 2128, "evaar": 2129, "rwi": 2130, "gevaa": 2131, "gevaar": 2132, "plan": 2133, "erwi": 2134, "lech": 2135, "rwij": 2136, "erwij": 2137, "ever": 2138, "fen": 2139, "lecht": 2140, "utie": 2141, "zak": 2142, "edri": 2143, "uits": 2144, "nist": 2145, "lat": 2146, "ieder": 2147, "ionaa": 2148, "ionaal": 2149, "atuur": 2150, "ow": 2151, "klaa": 2152, "hik": 2153, "ereer": 2154, "chik": 2155, "schik": 2156, "nstr": 2157, "mede": 2158, "stat": 2159, "les": 2160, "tte": 2161, "ule": 2162, "tijde": 2163, "bedri": 2164, "nzie": 2165, "tionaa": 2166, "tionaal": 2167, "nzien": 2168, "lte": 2169, "ezon": 2170, "ring": 2171, "zin": 2172, "tegi": 2173, "ategi": 2174, "rategi": 2175, "trategi": 2176, "strategi": 2177, "slo": 2178, "gend": 2179, "geval": 2180, "gezo": 2181, "nfo": 2182, "gezon": 2183, "ezond": 2184, "gezond": 2185, "verz": 2186, "legen": 2187, "cl": 2188, "edrij": 2189, "ister": 2190, "bedrij": 2191, "hen": 2192, "nfor": 2193, "nform": 2194, "eeg": 2195, "uut": 2196, "geleg": 2197, "nier": 2198, "elegen": 2199, "gelege": 2200, "gelegen": 2201, "rnatio": 2202, "ernatio": 2203, "rnation": 2204, "ernation": 2205, "rnationa": 2206, "ernationa": 2207, "ternatio": 2208, "nternatio": 2209, "ternation": 2210, "internatio": 2211, "nternation": 2212, "ternationa": 2213, "internation": 2214, "nternationa": 2215, "internationa": 2216, "meli": 2217, "daad": 2218, "edrijf": 2219, "bedrijf": 2220, "olv": 2221, "igd": 2222, "aang": 2223, "slec": 2224, "slech": 2225, "slecht": 2226, "ilj": 2227, "illen": 2228, "reden": 2229, "esol": 2230, "truc": 2231, "melij": 2232, "melijk": 2233, "reso": 2234, "graag": 2235, "zake": 2236, "resol": 2237, "nve": 2238, "solv": 2239, "edur": 2240, "ameli": 2241, "raal": 2242, "vea": 2243, "nsu": 2244, "amelij": 2245, "amelijk": 2246, "edure": 2247, "veau": 2248, "auto": 2249, "ivea": 2250, "nivea": 2251, "iveau": 2252, "niveau": 2253, "rgaa": 2254, "mini": 2255, "struc": 2256, "ruct": 2257, "truct": 2258, "struct": 2259, "plic": 2260, "lgen": 2261, "tori": 2262, ";": 2263, "ationaa": 2264, "ationaal": 2265, "cc": 2266, "olgen": 2267, "rgaan": 2268, "olve": 2269, "volgen": 2270, "bs": 2271, "einde": 2272, "beter": 2273, "rneem": 2274, "laar": 2275, "boe": 2276, "hill": 2277, "nationaa": 2278, "nationaal": 2279, "solve": 2280, "sum": 2281, "lvee": 2282, "olvee": 2283, "lveer": 2284, "olveer": 2285, "ale": 2286, "solvee": 2287, "solveer": 2288, "tg": 2289, "rnationaa": 2290, "ernationaa": 2291, "rnationaal": 2292, "ternationaa": 2293, "ernationaal": 2294, "nternationaa": 2295, "ternationaal": 2296, "internationaa": 2297, "nternationaal": 2298, "internationaal": 2299, "milj": 2300, "tec": 2301, "ika": 2302, "info": 2303, "oven": 2304, "jze": 2305, "ijze": 2306, "ced": 2307, "bon": 2308, "welk": 2309, "natu": 2310, "anier": 2311, "manie": 2312, "onf": 2313, "manier": 2314, "norm": 2315, "infor": 2316, "inform": 2317, "esolv": 2318, "resolv": 2319, "esolve": 2320, "resolve": 2321, "esolvee": 2322, "resolvee": 2323, "esolveer": 2324, "resolveer": 2325, "chill": 2326, "conf": 2327, "vel": 2328, "comp": 2329, "namel": 2330, "nameli": 2331, "namelij": 2332, "namelijk": 2333, "toc": 2334, "tuig": 2335, "rmeer": 2336, "kle": 2337, "hang": 2338, "schill": 2339, "ontro": 2340, "ctu": 2341, "contro": 2342, "iu": 2343, "egisc": 2344, "egisch": 2345, "tegis": 2346, "ategis": 2347, "tegisc": 2348, "ategisc": 2349, "tegisch": 2350, "ategisch": 2351, "rategis": 2352, "trategis": 2353, "rategisc": 2354, "trategisc": 2355, "rategisch": 2356, "trategisch": 2357, "ormeer": 2358, "strategis": 2359, "strategisc": 2360, "strategisch": 2361, "formeer": 2362, "besta": 2363, "oces": 2364, "roces": 2365, "proces": 2366, "klaar": 2367, "aald": 2368, "emi": 2369, "geve": 2370, "ineer": 2371, "eest": 2372, "brei": 2373, "kort": 2374, "olo": 2375, "orgaa": 2376, "orgaan": 2377, "etre": 2378, "fel": 2379, "ndern": 2380, "onds": 2381, "ledi": 2382, "ondern": 2383, "derne": 2384, "inge": 2385, "nderne": 2386, "und": 2387, "onderne": 2388, "sne": 2389, "erand": 2390, "erande": 2391, "verand": 2392, "verande": 2393, "dens": 2394, "hille": 2395, "chille": 2396, "hn": 2397, "schille": 2398, "betre": 2399, "hillen": 2400, "chillen": 2401, "schillen": 2402, "luc": 2403, "natuu": 2404, "natuur": 2405, "rba": 2406, "rmo": 2407, "ors": 2408, "imm": 2409, "vat": 2410, "ecti": 2411, "ledig": 2412, "lgens": 2413, "olgens": 2414, "volgens": 2415, "dac": 2416, "kos": 2417, "rschill": 2418, "erschill": 2419, "verschill": 2420, "ndu": 2421, "vie": 2422, "nza": 2423, "noem": 2424, "tran": 2425, "rso": 2426, "nforme": 2427, "jec": 2428, "bov": 2429, "informe": 2430, "mmig": 2431, "nformee": 2432, "nformeer": 2433, "informee": 2434, "informeer": 2435, "bove": 2436, "erso": 2437, "boven": 2438, "lot": 2439, "last": 2440, "rander": 2441, "ater": 2442, "estaa": 2443, "erander": 2444, "verander": 2445, "perso": 2446, "evo": 2447, "keur": 2448, "cris": 2449, "trol": 2450, "werke": 2451, "enw": 2452, "verzo": 2453, "ium": 2454, "haal": 2455, "inza": 2456, "crisi": 2457, "gar": 2458, "ntrol": 2459, "ontrol": 2460, "control": 2461, "mmu": 2462, "snel": 2463, "luch": 2464, "lucht": 2465, "gs": 2466, "dach": 2467, "nzak": 2468, "nzake": 2469, "dacht": 2470, "inzak": 2471, "inzake": 2472, "rschille": 2473, "erschille": 2474, "verschille": 2475, "rschillen": 2476, "erschillen": 2477, "verschillen": 2478, "dere": 2479, "spra": 2480, "rage": 2481, "role": 2482, "01": 2483, "laag": 2484, "hoor": 2485, "cul": 2486, "trole": 2487, "ndig": 2488, "lti": 2489, "enoe": 2490, "ntrole": 2491, "ontrole": 2492, "controle": 2493, "t-": 2494, "eho": 2495, "aange": 2496, "genoe": 2497, "chie": 2498, "isis": 2499, "nstru": 2500, "voeg": 2501, "tijden": 2502, "gu": 2503, "risis": 2504, "ocen": 2505, "crisis": 2506, "ocent": 2507, "rocen": 2508, "beu": 2509, "rocent": 2510, "akk": 2511, "duu": 2512, "procen": 2513, "procent": 2514, "ged": 2515, "rda": 2516, "mmer": 2517, "erga": 2518, "ooi": 2519, "ectie": 2520, "band": 2521, "para": 2522, "hts": 2523, "jdens": 2524, "ijdens": 2525, "tijdens": 2526, "ana": 2527, "tge": 2528, "schie": 2529, "beur": 2530, "rhe": 2531, "sten": 2532, "jzo": 2533, "bijz": 2534, "ijzo": 2535, "jzon": 2536, "ijzon": 2537, "bijzo": 2538, "jzond": 2539, "bijzon": 2540, "ijzond": 2541, "jzonde": 2542, "bijzond": 2543, "ijzonde": 2544, "jzonder": 2545, "bijzonde": 2546, "ijzonder": 2547, "bijzonder": 2548, "verv": 2549, "chts": 2550, "bew": 2551, "ontw": 2552, "estaan": 2553, "rika": 2554, "duur": 2555, "want": 2556, "wez": 2557, "teru": 2558, "wijze": 2559, "orb": 2560, "order": 2561, "erug": 2562, "terug": 2563, "erba": 2564, "ero": 2565, "verga": 2566, "breid": 2567, "kwa": 2568, "trans": 2569, "sul": 2570, "vord": 2571, "vorde": 2572, "abi": 2573, "paald": 2574, "erhe": 2575, "krac": 2576, "krach": 2577, "mmun": 2578, "kracht": 2579, "vorder": 2580, "ommu": 2581, "commu": 2582, "ommun": 2583, "commun": 2584, "\u00e9n": 2585, "gren": 2586, "fde": 2587, "erste": 2588, "anz": 2589, "beho": 2590, "illend": 2591, "hillend": 2592, "chillend": 2593, "schillend": 2594, "rschillend": 2595, "erschillend": 2596, "verschillend": 2597, "fl": 2598, "ler": 2599, "entr": 2600, "moed": 2601, "ndie": 2602, "oced": 2603, "roced": 2604, "proced": 2605, "ezie": 2606, "tst": 2607, "efe": 2608, "nb": 2609, "echts": 2610, "nsi": 2611, "keli": 2612, "u-": 2613, "anne": 2614, "plich": 2615, "plicht": 2616, "cedu": 2617, "ocedu": 2618, "rocedu": 2619, "procedu": 2620, "centr": 2621, "cedur": 2622, "ocedur": 2623, "rocedur": 2624, "procedur": 2625, "cedure": 2626, "ocedure": 2627, "rocedure": 2628, "procedure": 2629, "aart": 2630, "ndien": 2631, "hoef": 2632, "xt": 2633, "ext": 2634, "vu": 2635, "ewel": 2636, "lever": 2637, "esp": 2638, "eerd": 2639, "ass": 2640, "tn": 2641, "rens": 2642, "nsp": 2643, "rken": 2644, "arb": 2645, "achter": 2646, "mul": 2647, "ehee": 2648, "draa": 2649, "anti": 2650, "verba": 2651, "lein": 2652, "kele": 2653, "erneem": 2654, "roei": 2655, "verhe": 2656, "dernee": 2657, "derneem": 2658, "ndernee": 2659, "ondernee": 2660, "nderneem": 2661, "onderneem": 2662, "peci": 2663, "speci": 2664, "fg": 2665, "eu-": 2666, "ulp": 2667, "nkele": 2668, "enkele": 2669, "ms": 2670, "oorb": 2671, "hulp": 2672, "ctuu": 2673, "ctuur": 2674, "som": 2675, "span": 2676, "akt": 2677, "onsu": 2678, "consu": 2679, "ore": 2680, "geg": 2681, "huid": 2682, "chn": 2683, "emaa": 2684, "kelij": 2685, "chu": 2686, "verzoe": 2687, "enen": 2688, "kelijk": 2689, "oneel": 2690, "artij": 2691, "partij": 2692, "tech": 2693, "iat": 2694, "gezie": 2695, "q": 2696, "slan": 2697, "lfs": 2698, "ezien": 2699, "gezien": 2700, "wac": 2701, "rgel": 2702, "perk": 2703, "uidi": 2704, "idig": 2705, "uidig": 2706, "huidi": 2707, "huidig": 2708, "echn": 2709, "kin": 2710, "bestaa": 2711, "uctu": 2712, "bestaan": 2713, "esi": 2714, "techn": 2715, "voorb": 2716, "elfs": 2717, "zelfs": 2718, "rzi": 2719, "verl": 2720, "ructu": 2721, "tructu": 2722, "structu": 2723, "wach": 2724, "wacht": 2725, "alis": 2726, "fec": 2727, "schu": 2728, "fect": 2729, "gde": 2730, "drage": 2731, "eloo": 2732, "rtu": 2733, "vred": 2734, "woon": 2735, "ergel": 2736, "rgeli": 2737, "ergeli": 2738, "rgelij": 2739, "ergelij": 2740, "rgelijk": 2741, "ergelijk": 2742, "oors": 2743, "eten": 2744, "ders": 2745, "moei": 2746, "e-": 2747, "ucti": 2748, "cur": 2749, "emaal": 2750, "nsum": 2751, "onsum": 2752, "consum": 2753, "rha": 2754, "iati": 2755, "orbe": 2756, "uctie": 2757, "uctuu": 2758, "uctuur": 2759, "ser": 2760, "ructuu": 2761, "tructuu": 2762, "ructuur": 2763, "structuu": 2764, "tructuur": 2765, "structuur": 2766, "ject": 2767, "nnee": 2768, "n-": 2769, "afg": 2770, "ordi": 2771, "nwe": 2772, "grens": 2773, "rkel": 2774, "enl": 2775, "ubl": 2776, "ding": 2777, "ling": 2778, "lfd": 2779, "indi": 2780, "lfde": 2781, "elfd": 2782, "elfde": 2783, "nneer": 2784, "twi": 2785, "lema": 2786, "rbei": 2787, "poo": 2788, "rbeid": 2789, "jl": 2790, "nteg": 2791, "zelfd": 2792, "zelfde": 2793, "oris": 2794, "eraal": 2795, "tia": 2796, "wann": 2797, "annee": 2798, "anneer": 2799, "wanne": 2800, "wannee": 2801, "wanneer": 2802, "slot": 2803, "lemaa": 2804, "itee": 2805, "ubli": 2806, "ijl": 2807, "qu": 2808, "lemaal": 2809, "\u00e9\u00e9": 2810, "vent": 2811, "jv": 2812, "leef": 2813, "olog": 2814, "derg": 2815, "nse": 2816, "inis": 2817, "derge": 2818, "sid": 2819, "stit": 2820, "bere": 2821, "pel": 2822, "erha": 2823, "iem": 2824, "sland": 2825, "loof": 2826, "mees": 2827, "oordi": 2828, "ebe": 2829, "cus": 2830, "ustr": 2831, "ijv": 2832, "zu": 2833, "\u00e9\u00e9n": 2834, "imu": 2835, "nli": 2836, "amens": 2837, "dergel": 2838, "dergeli": 2839, "dergelij": 2840, "dergelijk": 2841, "aanda": 2842, "oorbe": 2843, "onge": 2844, "woordi": 2845, "fon": 2846, "arbe": 2847, "geven": 2848, "voorbe": 2849, "namen": 2850, "arbei": 2851, "arbeid": 2852, "urr": 2853, "kost": 2854, "anv": 2855, "aanv": 2856, "erkel": 2857, "igde": 2858, "namens": 2859, "steer": 2860, "ncu": 2861, "uiter": 2862, "verzoek": 2863, "rro": 2864, "tik": 2865, "ogi": 2866, "eide": 2867, "tere": 2868, "curr": 2869, "jp": 2870, "nlij": 2871, "nlijk": 2872, "ijp": 2873, "ensi": 2874, "urre": 2875, "iatie": 2876, "tap": 2877, "lli": 2878, "logi": 2879, "ncur": 2880, "oncu": 2881, "concu": 2882, "oncur": 2883, "concur": 2884, "ncurr": 2885, "curre": 2886, "oncurr": 2887, "concurr": 2888, "ncurre": 2889, "oncurre": 2890, "concurre": 2891, "tiat": 2892, "itia": 2893, "tiati": 2894, "inist": 2895, "nitia": 2896, "initia": 2897, "itiat": 2898, "nitiat": 2899, "initiat": 2900, "meest": 2901, "erken": 2902, "itiati": 2903, "nitiati": 2904, "initiati": 2905, "tiatie": 2906, "oni": 2907, "zwa": 2908, "itiatie": 2909, "nitiatie": 2910, "initiatie": 2911, "lim": 2912, "zijd": 2913, "berei": 2914, "iatief": 2915, "tiatief": 2916, "toch": 2917, "itiatief": 2918, "nitiatief": 2919, "initiatief": 2920, "ilit": 2921, "minis": 2922, "nov": 2923, "wal": 2924, "lde": 2925, "rban": 2926, "fond": 2927, "zod": 2928, "spee": 2929, "\u00f3": 2930, "gege": 2931, "egev": 2932, "tab": 2933, "rati": 2934, "ffec": 2935, "ffect": 2936, "oj": 2937, "evee": 2938, "minist": 2939, "drin": 2940, "zijde": 2941, "werkel": 2942, "vrede": 2943, "rijs": 2944, "effec": 2945, "effect": 2946, "genw": 2947, "rkeli": 2948, "rkelij": 2949, "rkelijk": 2950, "erkeli": 2951, "erkelij": 2952, "erkelijk": 2953, "werkeli": 2954, "werkelij": 2955, "werkelijk": 2956, "tbr": 2957, "nwo": 2958, "egenw": 2959, "tegenw": 2960, "owe": 2961, "instr": 2962, "gl": 2963, "nwoo": 2964, "nwoor": 2965, "nwoord": 2966, "enwo": 2967, "ordig": 2968, "instru": 2969, "\u00ebn": 2970, "enwoo": 2971, "genwo": 2972, "egenwo": 2973, "genwoo": 2974, "enwoor": 2975, "tegenwo": 2976, "egenwoo": 2977, "genwoor": 2978, "enwoord": 2979, "tegenwoo": 2980, "egenwoor": 2981, "genwoord": 2982, "tegenwoor": 2983, "egenwoord": 2984, "tegenwoord": 2985, "nwoordi": 2986, "enwoordi": 2987, "genwoordi": 2988, "egenwoordi": 2989, "tegenwoordi": 2990, "klei": 2991, "stap": 2992, "gegev": 2993, "egeve": 2994, "egeven": 2995, "klein": 2996, "gegeve": 2997, "gegeven": 2998, "rree": 2999, "grij": 3000, "ua": 3001, "oordig": 3002, "woordig": 3003, "nwoordig": 3004, "enwoordig": 3005, "genwoordig": 3006, "egenwoordig": 3007, "tegenwoordig": 3008, "geri": 3009, "rreer": 3010, "sume": 3011, "urree": 3012, "curree": 3013, "urreer": 3014, "ncurree": 3015, "curreer": 3016, "oncurree": 3017, "ncurreer": 3018, "concurree": 3019, "oncurreer": 3020, "concurreer": 3021, "erban": 3022, "nsume": 3023, "onsume": 3024, "consume": 3025, "rakt": 3026, "tva": 3027, "term": 3028, "peel": 3029, "rband": 3030, "erband": 3031, "verban": 3032, "verband": 3033, "ndac": 3034, "ndach": 3035, "ndacht": 3036, "sult": 3037, "joe": 3038, "enn": 3039, "amp": 3040, "andac": 3041, "aandac": 3042, "andach": 3043, "aandach": 3044, "andacht": 3045, "aandacht": 3046, "strum": 3047, "tike": 3048, "nstrum": 3049, "rume": 3050, "trume": 3051, "rumen": 3052, "strume": 3053, "trumen": 3054, "rument": 3055, "nstrume": 3056, "strumen": 3057, "trument": 3058, "nstrumen": 3059, "strument": 3060, "nstrument": 3061, "instrum": 3062, "instrume": 3063, "instrumen": 3064, "instrument": 3065, "\u201d": 3066, "ereid": 3067, "bereid": 3068, "owel": 3069, "wens": 3070, "soon": 3071, "rsoo": 3072, "ersoo": 3073, "rsoon": 3074, "ersoon": 3075, "persoo": 3076, "persoon": 3077, "anzi": 3078, "ial": 3079, "aanz": 3080, "bro": 3081, "aanzi": 3082, "anzie": 3083, "aanzie": 3084, "orz": 3085, "anzien": 3086, "aanzien": 3087, "enis": 3088, "obe": 3089, "zow": 3090, "speel": 3091, "zowe": 3092, "zowel": 3093, "ude": 3094, "raf": 3095, "nove": 3096, "groei": 3097, "oorz": 3098, "esu": 3099, "sli": 3100, "trou": 3101, "anis": 3102, "win": 3103, "roj": 3104, "nal": 3105, "blijk": 3106, "uwe": 3107, "resu": 3108, "cce": 3109, "umee": 3110, "esul": 3111, "umeer": 3112, "resul": 3113, "sumee": 3114, "sumeer": 3115, "esult": 3116, "result": 3117, "tbre": 3118, "nsumee": 3119, "onsumee": 3120, "nsumeer": 3121, "consumee": 3122, "onsumeer": 3123, "consumeer": 3124, "edere": 3125, "ofd": 3126, "ulte": 3127, "hem": 3128, "oms": 3129, "trouw": 3130, "ltee": 3131, "get": 3132, "pub": 3133, "\u00ebe": 3134, "e\u00ebe": 3135, "lteer": 3136, "ultee": 3137, "ulteer": 3138, "sulte": 3139, "sultee": 3140, "sulteer": 3141, "publ": 3142, "publi": 3143, "oofd": 3144, "esulte": 3145, "resulte": 3146, "esultee": 3147, "resultee": 3148, "esulteer": 3149, "resulteer": 3150, "oda": 3151, "esteer": 3152, "trie": 3153, "gelo": 3154, "tell": 3155, "kaar": 3156, "s-": 3157, "verst": 3158, "sent": 3159, "rein": 3160, "jvo": 3161, "integ": 3162, "emb": 3163, "osi": 3164, "hoof": 3165, "rijp": 3166, "tur": 3167, "tne": 3168, "dring": 3169, "bijv": 3170, "ndus": 3171, "una": 3172, "aro": 3173, "rbee": 3174, "orbee": 3175, "rend": 3176, "rtn": 3177, "hoofd": 3178, "rtne": 3179, "uim": 3180, "artn": 3181, "artne": 3182, "kind": 3183, "draag": 3184, "rbeel": 3185, "oorbee": 3186, "orbeel": 3187, "rbeeld": 3188, "voorbee": 3189, "oorbeel": 3190, "orbeeld": 3191, "voorbeel": 3192, "oorbeeld": 3193, "voorbeeld": 3194, "itief": 3195, "fonds": 3196, "ijvo": 3197, "bijvo": 3198, "jvoo": 3199, "ijvoo": 3200, "jvoor": 3201, "bijvoo": 3202, "ijvoor": 3203, "bijvoor": 3204, "jvoorb": 3205, "ijvoorb": 3206, "jvoorbe": 3207, "bijvoorb": 3208, "ijvoorbe": 3209, "jvoorbee": 3210, "bijvoorbe": 3211, "ijvoorbee": 3212, "jvoorbeel": 3213, "bijvoorbee": 3214, "ijvoorbeel": 3215, "jvoorbeeld": 3216, "bijvoorbeel": 3217, "ijvoorbeeld": 3218, "bijvoorbeeld": 3219, "tner": 3220, "partn": 3221, "rtner": 3222, "partne": 3223, "artner": 3224, "partner": 3225, "itb": 3226, "dic": 3227, "rlo": 3228, "vend": 3229, "indu": 3230, "hal": 3231, "dust": 3232, "indus": 3233, "ndust": 3234, "indust": 3235, "ezen": 3236, "dustr": 3237, "ndustr": 3238, "industr": 3239, "ima": 3240, "amer": 3241, "mac": 3242, "ljo": 3243, "iljo": 3244, "gad": 3245, "rli": 3246, "pes": 3247, "ljoe": 3248, "joen": 3249, "iljoe": 3250, "ljoen": 3251, "iljoen": 3252, "nders": 3253, "rwa": 3254, "liss": 3255, "ngs": 3256, "alti": 3257, "voed": 3258, "miljo": 3259, "miljoe": 3260, "miljoen": 3261, "grijp": 3262, "erte": 3263, "hin": 3264, "loe": 3265, "ece": 3266, "fere": 3267, "eric": 3268, "iedere": 3269, "gade": 3270, "ussi": 3271, "itai": 3272, "jfe": 3273, "ijfe": 3274, "ogis": 3275, "itair": 3276, "oje": 3277, "ane": 3278, "erij": 3279, "raak": 3280, "arant": 3281, "kst": 3282, "fte": 3283, "rteg": 3284, "verte": 3285, "erich": 3286, "biel": 3287, "roje": 3288, "rmi": 3289, "logis": 3290, "rgad": 3291, "ergad": 3292, "vergad": 3293, "ericht": 3294, "rgade": 3295, "ergade": 3296, "vergade": 3297, "gader": 3298, "rgader": 3299, "ergader": 3300, "vergader": 3301, "proj": 3302, "proje": 3303, "ojec": 3304, "rojec": 3305, "oject": 3306, "projec": 3307, "roject": 3308, "project": 3309, "nct": 3310, "ffi": 3311, "beta": 3312, "re\u00eb": 3313, "ulee": 3314, "uleer": 3315, "ezig": 3316, "derd": 3317, "ustri": 3318, "dustri": 3319, "ndustri": 3320, "industri": 3321, "re\u00ebe": 3322, "strie": 3323, "pij": 3324, "ustrie": 3325, "dustrie": 3326, "ndustrie": 3327, "industrie": 3328, "tera": 3329, "eloof": 3330, "abo": 3331, "ntee": 3332, "eeo": 3333, "lka": 3334, "zoda": 3335, "uitb": 3336, "igr": 3337, "rtege": 3338, "rtegen": 3339, "bor": 3340, "erteg": 3341, "ertege": 3342, "ertegen": 3343, "verteg": 3344, "vertege": 3345, "rtegenw": 3346, "vertegen": 3347, "ertegenw": 3348, "rtegenwo": 3349, "vertegenw": 3350, "ertegenwo": 3351, "rtegenwoo": 3352, "vertegenwo": 3353, "ertegenwoo": 3354, "rtegenwoor": 3355, "vertegenwoo": 3356, "ertegenwoor": 3357, "rtegenwoord": 3358, "vertegenwoor": 3359, "ertegenwoord": 3360, "vertegenwoord": 3361, "rtegenwoordi": 3362, "ertegenwoordi": 3363, "vertegenwoordi": 3364, "odat": 3365, "zodat": 3366, "rc": 3367, "imi": 3368, "rtegenwoordig": 3369, "ertegenwoordig": 3370, "vertegenwoordig": 3371, "peri": 3372, "teri": 3373, "migr": 3374, "tz": 3375, "rim": 3376, "nteer": 3377, "oost": 3378, "orw": 3379, "eom": 3380, "erli": 3381, "\u00ebnt": 3382, "oorw": 3383, "eeom": 3384, "neeo": 3385, "neeom": 3386, "hrij": 3387, "chrij": 3388, "schrij": 3389, "endi": 3390, "19": 3391, "uld": 3392, "ermi": 3393, "ogisc": 3394, "ogisch": 3395, "posi": 3396, "top": 3397, "ltij": 3398, "ltijd": 3399, "osit": 3400, "posit": 3401, "tin": 3402, "logisc": 3403, "logisch": 3404, "bri": 3405, "lac": 3406, "esse": 3407, "ncti": 3408, "derw": 3409, "aaf": 3410, "nderd": 3411, "siti": 3412, "nva": 3413, "ruim": 3414, "atis": 3415, "sitie": 3416, "geh": 3417, "erre": 3418, "lechts": 3419, "slechts": 3420, "ideer": 3421, "rstel": 3422, "igre": 3423, "esc": 3424, "ente": 3425, "eeme": 3426, "altij": 3427, "altijd": 3428, "cier": 3429, "ositi": 3430, "positi": 3431, "igree": 3432, "igreer": 3433, "migre": 3434, "migree": 3435, "migreer": 3436, "ositie": 3437, "positie": 3438, "kwal": 3439, "wali": 3440, "kwali": 3441, "nderw": 3442, "ool": 3443, "ibe": 3444, "tuk": 3445, "stuk": 3446, "onderw": 3447, "neeme": 3448, "fici": 3449, "gebe": 3450, "inve": 3451, "nta": 3452, "cit": 3453, "rvo": 3454, "tev": 3455, "ffic": 3456, "elem": 3457, "ologi": 3458, "ikel": 3459, "prio": 3460, "fge": 3461, "nsta": 3462, "auw": 3463, "ervo": 3464, "ncier": 3465, "ancier": 3466, "ducti": 3467, "erec": 3468, "ida": 3469, "ebeu": 3470, "ebeur": 3471, "gebeu": 3472, "ffici": 3473, "gebeur": 3474, "emd": 3475, "erech": 3476, "erecht": 3477, "anw": 3478, "afge": 3479, "rwaa": 3480, "jke": 3481, "rwaar": 3482, "ductie": 3483, "rwaard": 3484, "ijke": 3485, "voorw": 3486, "rwaarde": 3487, "orwa": 3488, "anwe": 3489, "orwaa": 3490, "orwaar": 3491, "oorwa": 3492, "oorwaa": 3493, "oorwaar": 3494, "voorwa": 3495, "voorwaa": 3496, "voorwaar": 3497, "prij": 3498, "orwaard": 3499, "oorwaard": 3500, "voorwaard": 3501, "orwaarde": 3502, "oorwaarde": 3503, "voorwaarde": 3504, "nad": 3505, "jdr": 3506, "ijdr": 3507, "bijd": 3508, "uri": 3509, "bijdr": 3510, "nui": 3511, "jdra": 3512, "ijdra": 3513, "bijdra": 3514, "tabi": 3515, "andee": 3516, "andig": 3517, "ars": 3518, "jdrag": 3519, "ijdrag": 3520, "jdrage": 3521, "bijdrag": 3522, "ijdrage": 3523, "bijdrage": 3524, "cult": 3525, "bree": 3526, "prijs": 3527, "stab": 3528, "nuit": 3529, "cite": 3530, "off": 3531, "lus": 3532, "ira": 3533, "rtik": 3534, "ansp": 3535, "artik": 3536, "teraa": 3537, "nves": 3538, "nvest": 3539, "rtike": 3540, "artike": 3541, "inves": 3542, "invest": 3543, "ntwe": 3544, "blie": 3545, "tikel": 3546, "rtikel": 3547, "artikel": 3548, "tar": 3549, "eus": 3550, "andeer": 3551, "fie": 3552, "stabi": 3553, "evoe": 3554, "veste": 3555, "mmissi": 3556, "ommissi": 3557, "commissi": 3558, "twer": 3559, "vul": 3560, "ublie": 3561, "ior": 3562, "nveste": 3563, "investe": 3564, "ific": 3565, "kend": 3566, "tandi": 3567, "kli": 3568, "nctie": 3569, "ict": 3570, "standi": 3571, "mmissie": 3572, "ommissie": 3573, "commissie": 3574, "ltu": 3575, "welke": 3576, "tandig": 3577, "standig": 3578, "boek": 3579, "tof": 3580, "kti": 3581, "armo": 3582, "opes": 3583, "vestee": 3584, "nvestee": 3585, "vesteer": 3586, "investee": 3587, "nvesteer": 3588, "investeer": 3589, "ropes": 3590, "uropes": 3591, "europes": 3592, "ultu": 3593, "pese": 3594, "cultu": 3595, "endie": 3596, "opese": 3597, "ropese": 3598, "uropese": 3599, "europese": 3600, "ieer": 3601, "aten": 3602, "vervo": 3603, "akti": 3604, "rakti": 3605, "prakt": 3606, "prakti": 3607, "iver": 3608, "hon": 3609, "\u00f6": 3610, "vendi": 3611, "endien": 3612, "ovend": 3613, "vendie": 3614, "egre": 3615, "vendien": 3616, "nigd": 3617, "enigd": 3618, "renigd": 3619, "erenigd": 3620, "verenigd": 3621, "bovend": 3622, "ovendi": 3623, "bovendi": 3624, "ovendie": 3625, "bovendie": 3626, "ovendien": 3627, "bovendien": 3628, "esli": 3629, "uta": 3630, "iori": 3631, "slis": 3632, "besli": 3633, "eslis": 3634, "beslis": 3635, "tic": 3636, "des": 3637, "lach": 3638, "ehoe": 3639, "behoe": 3640, "lijke": 3641, "mor": 3642, "mati": 3643, "ntwer": 3644, "weeg": 3645, "tien": 3646, "toen": 3647, "rior": 3648, "mod": 3649, "ehoef": 3650, "behoef": 3651, "jzi": 3652, "ijzi": 3653, "wijzi": 3654, "ectief": 3655, "prior": 3656, "urk": 3657, "stof": 3658, "kijk": 3659, "jzig": 3660, "ijzig": 3661, "wijzig": 3662, "itbr": 3663, "uitbr": 3664, "ltuu": 3665, "ultuu": 3666, "cultuu": 3667, "chaa": 3668, "bevo": 3669, "ltuur": 3670, "ultuur": 3671, "utor": 3672, "cultuur": 3673, "liek": 3674, "ransp": 3675, "transp": 3676, "autor": 3677, "utori": 3678, "autori": 3679, "anva": 3680, "aanva": 3681, "ontwe": 3682, "ontwer": 3683, "gara": 3684, "riori": 3685, "alit": 3686, "priori": 3687, "vij": 3688, "eers": 3689, "nancier": 3690, "inancier": 3691, "financier": 3692, "mate": 3693, "hart": 3694, "loos": 3695, "lles": 3696, "iden": 3697, "eemen": 3698, "garan": 3699, "stig": 3700, "vlo": 3701, "iorit": 3702, "riorit": 3703, "priorit": 3704, "toon": 3705, "wees": 3706, "scu": 3707, "groep": 3708, "div": 3709, "ror": 3710, "praa": 3711, "nh": 3712, "oducti": 3713, "roducti": 3714, "torit": 3715, "utorit": 3716, "autorit": 3717, "eens": 3718, "oh": 3719, "esch": 3720, "neemen": 3721, "egd": 3722, "ewi": 3723, "mand": 3724, "geric": 3725, "gerich": 3726, "gericht": 3727, "tegr": 3728, "ntegr": 3729, "tim": 3730, "rwe": 3731, "beer": 3732, "oductie": 3733, "roductie": 3734, "integr": 3735, "nisc": 3736, "ngez": 3737, "nisch": 3738, "erti": 3739, "mbe": 3740, "turk": 3741, "ebre": 3742, "ral": 3743, "rla": 3744, "venti": 3745, "oede": 3746, "soor": 3747, "soort": 3748, "deg": 3749, "erro": 3750, "ologis": 3751, "amb": 3752, "rad": 3753, "alles": 3754, "eveel": 3755, "ologisc": 3756, "ologisch": 3757, "ket": 3758, "eerde": 3759, "kko": 3760, "tbrei": 3761, "itbre": 3762, "uitbre": 3763, "itbrei": 3764, "uitbrei": 3765, "rori": 3766, "ventie": 3767, "iteer": 3768, "geloo": 3769, "tbreid": 3770, "itbreid": 3771, "uitbreid": 3772, "gebre": 3773, "geloof": 3774, "vele": 3775, "ni\u00eb": 3776, "mine": 3777, "nce": 3778, "fice": 3779, "tate": 3780, "jns": 3781, "ijns": 3782, "iod": 3783, "bod": 3784, "rror": 3785, "state": 3786, "ngezi": 3787, "angez": 3788, "aangez": 3789, "rmij": 3790, "ermij": 3791, "angezi": 3792, "ngezie": 3793, "aangezi": 3794, "angezie": 3795, "aangezie": 3796, "ngezien": 3797, "angezien": 3798, "aangezien": 3799, "imp": 3800, "rmijn": 3801, "ermijn": 3802, "terro": 3803, "error": 3804, "terror": 3805, "rrori": 3806, "roris": 3807, "errori": 3808, "rroris": 3809, "terrori": 3810, "erroris": 3811, "terroris": 3812, "lissa": 3813, "actief": 3814, "ifice": 3815, "lib": 3816, "ficee": 3817, "ficeer": 3818, "ificee": 3819, "ificeer": 3820, "bliek": 3821, "ubliek": 3822, "publie": 3823, "publiek": 3824, "mst": 3825, "ioo": 3826, "gewe": 3827, "evoeg": 3828, "erla": 3829, "alo": 3830, "bevoe": 3831, "bevoeg": 3832, "usl": 3833, "oegd": 3834, "rake": 3835, "voegd": 3836, "evoegd": 3837, "bevoegd": 3838, "elle": 3839, "iscu": 3840, "usla": 3841, "uslan": 3842, "rusl": 3843, "rusla": 3844, "ruslan": 3845, "usland": 3846, "torite": 3847, "utorite": 3848, "toritei": 3849, "autorite": 3850, "utoritei": 3851, "toriteit": 3852, "autoritei": 3853, "utoriteit": 3854, "autoriteit": 3855, "rusland": 3856, "scus": 3857, "erio": 3858, "rri": 3859, "dv": 3860, "oorde": 3861, "oren": 3862, "elp": 3863, "uwen": 3864, "nni": 3865, "iscus": 3866, "maan": 3867, "rect": 3868, "sab": 3869, "eug": 3870, "sin": 3871, "soli": 3872, "producti": 3873, "ime": 3874, "ept": 3875, "rok": 3876, "mule": 3877, "mber": 3878, "ewo": 3879, "uren": 3880, "rof": 3881, "ouwe": 3882, "elin": 3883, "eft": 3884, "productie": 3885, "ire": 3886, "bar": 3887, "teek": 3888, "fund": 3889, "onst": 3890, "lacht": 3891, "ekst": 3892, "stij": 3893, "aast": 3894, "dege": 3895, "auta": 3896, "evaard": 3897, "evaardi": 3898, "evaardig": 3899, "gevaard": 3900, "gevaardi": 3901, "gevaardig": 3902, "els": 3903, "tho": 3904, "stuu": 3905, "termi": 3906, "rhei": 3907, "stuur": 3908, "tegre": 3909, "ntegre": 3910, "egree": 3911, "tegree": 3912, "egreer": 3913, "ntegree": 3914, "tegreer": 3915, "ntegreer": 3916, "rf": 3917, "ouwen": 3918, "zui": 3919, "rheid": 3920, "integre": 3921, "integree": 3922, "integreer": 3923, "kans": 3924, "naut": 3925, "nvo": 3926, "10": 3927, "niste": 3928, "ezel": 3929, "ink": 3930, "help": 3931, "nigde": 3932, "enigde": 3933, "renigde": 3934, "erenigde": 3935, "verenigde": 3936, "sabo": 3937, "nden": 3938, "abon": 3939, "dre": 3940, "list": 3941, "def": 3942, "muna": 3943, "unda": 3944, "mmuna": 3945, "ommuna": 3946, "communa": 3947, "zam": 3948, "unau": 3949, "unaut": 3950, "munau": 3951, "mmunau": 3952, "ommunau": 3953, "communau": 3954, "munaut": 3955, "mmunaut": 3956, "ommunaut": 3957, "communaut": 3958, "rism": 3959, "utai": 3960, "olid": 3961, "overh": 3962, "nauta": 3963, "unauta": 3964, "utair": 3965, "munauta": 3966, "mmunauta": 3967, "ommunauta": 3968, "communauta": 3969, "autai": 3970, "gere": 3971, "nige": 3972, "nautai": 3973, "autair": 3974, "unautai": 3975, "nautair": 3976, "unautair": 3977, "munautai": 3978, "mmunautai": 3979, "munautair": 3980, "ommunautai": 3981, "mmunautair": 3982, "communautai": 3983, "ommunautair": 3984, "communautair": 3985, "solid": 3986, "iniste": 3987, "nister": 3988, "inister": 3989, "eling": 3990, "risme": 3991, "ministe": 3992, "wijl": 3993, "minister": 3994, "usi": 3995, "adi": 3996, "erhei": 3997, "rlan": 3998, "erheid": 3999, "rgen": 4000, "lima": 4001, "klim": 4002, "ssab": 4003, "llem": 4004, "erwe": 4005, "ssabo": 4006, "issab": 4007, "lissab": 4008, "issabo": 4009, "lissabo": 4010, "beste": 4011, "sabon": 4012, "ssabon": 4013, "oit": 4014, "issabon": 4015, "lissabon": 4016, "allem": 4017, "llema": 4018, "allema": 4019, "erin": 4020, "llemaa": 4021, "allemaa": 4022, "llemaal": 4023, "allemaal": 4024, "edra": 4025, "itst": 4026, "teks": 4027, "tekst": 4028, "bera": 4029, "uitst": 4030, "ico": 4031, "koor": 4032, "luk": 4033, "klima": 4034, "asp": 4035, "ament": 4036, "ivers": 4037, "estig": 4038, "kant": 4039, "iorite": 4040, "riorite": 4041, "priorite": 4042, "embe": 4043, "orst": 4044, "ioritei": 4045, "rioritei": 4046, "ioriteit": 4047, "prioritei": 4048, "rioriteit": 4049, "prioriteit": 4050, "termij": 4051, "termijn": 4052, "gg": 4053, "lkaa": 4054, "vijf": 4055, "behe": 4056, "rns": 4057, "erlan": 4058, "zame": 4059, "gn": 4060, "epa": 4061, "imaa": 4062, "ember": 4063, "erns": 4064, "rnst": 4065, "ernst": 4066, "ndam": 4067, "limaa": 4068, "klimaa": 4069, "imaat": 4070, "sitief": 4071, "limaat": 4072, "klimaat": 4073, "-l": 4074, "fgev": 4075, "afgev": 4076, "ositief": 4077, "positief": 4078, "fgeva": 4079, "afgeva": 4080, "riek": 4081, "overhe": 4082, "ndame": 4083, "funda": 4084, "fgevaa": 4085, "afgevaa": 4086, "fgevaar": 4087, "afgevaar": 4088, "fgevaard": 4089, "afgevaard": 4090, "fgevaardi": 4091, "afgevaardi": 4092, "fgevaardig": 4093, "afgevaardig": 4094, "deree": 4095, "damen": 4096, "koord": 4097, "mulee": 4098, "muleer": 4099, "undam": 4100, "fundam": 4101, "undame": 4102, "ndamen": 4103, "fundame": 4104, "undamen": 4105, "fundamen": 4106, "dament": 4107, "ndament": 4108, "undament": 4109, "fundament": 4110, "clu": 4111, "itg": 4112, "akko": 4113, "kkoo": 4114, "akkoo": 4115, "stell": 4116, "kkoor": 4117, "akkoor": 4118, "kkoord": 4119, "akkoord": 4120, "ueel": 4121, "minee": 4122, "etaa": 4123, "uitg": 4124, "rest": 4125, "201": 4126, "ederee": 4127, "reu": 4128, "xi": 4129, "nla": 4130, "verhei": 4131, "verheid": 4132, "egeli": 4133, "overhei": 4134, "overheid": 4135, "elka": 4136, "aars": 4137, "the": 4138, "-f": 4139, "arom": 4140, "ewoo": 4141, "via": 4142, "ape": 4143, "traa": 4144, "lkaar": 4145, "erder": 4146, "nlan": 4147, "elkaa": 4148, "elkaar": 4149, "huis": 4150, "rzie": 4151, "agee": 4152, "robe": 4153, "anu": 4154, "ifie": 4155, "traf": 4156, "erda": 4157, "ller": 4158, "egelij": 4159, "egelijk": 4160, "etaal": 4161, "mbi": 4162, "somm": 4163, "gewo": 4164, "rot": 4165, "cif": 4166, "straf": 4167, "ageer": 4168, "rwijl": 4169, "erwijl": 4170, "cifi": 4171, "000": 4172, "schaa": 4173, "bank": 4174, "wic": 4175, "nspa": 4176, "spar": 4177, "ku": 4178, "kenn": 4179, "bep": 4180, "02": 4181, "inc": 4182, "mach": 4183, "doen": 4184, "mige": 4185, "prom": 4186, "ommig": 4187, "sommi": 4188, "mmige": 4189, "sommig": 4190, "ommige": 4191, "sommige": 4192, "ecif": 4193, "wich": 4194, "pecif": 4195, "ecifi": 4196, "specif": 4197, "pecifi": 4198, "specifi": 4199, "maand": 4200, "wicht": 4201, "iz": 4202, "rtr": 4203, "cuss": 4204, "terre": 4205, "!": 4206, "bra": 4207, "ginn": 4208, "ginne": 4209, "ginnen": 4210, "mond": 4211, "aaro": 4212, "wei": 4213, "ffen": 4214, "aarom": 4215, "waaro": 4216, "waarom": 4217, "eginn": 4218, "beginn": 4219, "eginne": 4220, "beginne": 4221, "eginnen": 4222, "beginnen": 4223, "discu": 4224, "rbo": 4225, "riod": 4226, "betaa": 4227, "eriod": 4228, "perio": 4229, "period": 4230, "enb": 4231, "orig": 4232, "ussie": 4233, "cussi": 4234, "cussie": 4235, "nvaa": 4236, "nvaar": 4237, "ppe": 4238, "iode": 4239, "anvaa": 4240, "aanvaa": 4241, "anvaar": 4242, "aanvaar": 4243, "riode": 4244, "eriode": 4245, "periode": 4246, "terw": 4247, "nm": 4248, "nvaard": 4249, "enli": 4250, "anvaard": 4251, "aanvaard": 4252, "chen": 4253, "99": 4254, "enlij": 4255, "enlijk": 4256, "scuss": 4257, "discus": 4258, "iscuss": 4259, "discuss": 4260, "scussi": 4261, "iscussi": 4262, "discussi": 4263, "scussie": 4264, "iscussie": 4265, "discussie": 4266, "nsie": 4267, "betaal": 4268, "beve": 4269, "oend": 4270, "probe": 4271, "obee": 4272, "robee": 4273, "probee": 4274, "obeer": 4275, "robeer": 4276, "probeer": 4277, "jet": 4278, "nauw": 4279, "env": 4280, "aller": 4281, "reff": 4282, "doend": 4283, "cree": 4284, "reffe": 4285, "troo": 4286, "unc": 4287, "behee": 4288, "eheer": 4289, "beheer": 4290, "pn": 4291, "treff": 4292, "treffe": 4293, "rtui": 4294, "oom": 4295, "erie": 4296, "disch": 4297, "overt": 4298, "ucc": 4299, "genen": 4300, "\u00eber": 4301, "gehe": 4302, "verw": 4303, "e\u00eber": 4304, "steek": 4305, "tuut": 4306, "imin": 4307, "vesti": 4308, "omst": 4309, "reeds": 4310, "ssel": 4311, "terwi": 4312, "weze": 4313, "vestig": 4314, "terwij": 4315, "terwijl": 4316, "wezen": 4317, "ertu": 4318, "resp": 4319, "orl": 4320, "dereen": 4321, "iederee": 4322, "edereen": 4323, "iedereen": 4324, "erik": 4325, "ieed": 4326, "vou": 4327, "ertui": 4328, "ewoon": 4329, "sk": 4330, "walit": 4331, "kwalit": 4332, "vertu": 4333, "overtu": 4334, "vertui": 4335, "overtui": 4336, "fiek": 4337, "gewoo": 4338, "gewoon": 4339, "ifiek": 4340, "rwijs": 4341, "erwijs": 4342, "lees": 4343, "etrek": 4344, "betrek": 4345, "cifie": 4346, "ecifie": 4347, "pecifie": 4348, "specifie": 4349, "cifiek": 4350, "ecifiek": 4351, "pecifiek": 4352, "specifiek": 4353, "chul": 4354, "schul": 4355, "ensie": 4356, "paar": 4357, "erika": 4358, "ieus": 4359, "inig": 4360, "sprak": 4361, "chin": 4362, "sic": 4363, "vloe": 4364, "voors": 4365, "ezelf": 4366, "telle": 4367, "voud": 4368, "rsta": 4369, "kije": 4370, "loog": 4371, "riu": 4372, "imine": 4373, "erzi": 4374, "oemd": 4375, "fran": 4376, "iminee": 4377, "eerder": 4378, "rimi": 4379, "crim": 4380, "rium": 4381, "oeft": 4382, "medi": 4383, "suc": 4384, "effen": 4385, "cces": 4386, "hoeft": 4387, "ehoeft": 4388, "behoeft": 4389, "crimi": 4390, "rimin": 4391, "crimin": 4392, "succ": 4393, "ucce": 4394, "succe": 4395, "rouwe": 4396, "ucces": 4397, "succes": 4398, "rtuig": 4399, "taak": 4400, "ertuig": 4401, "bez": 4402, "stis": 4403, "erbo": 4404, "rouwen": 4405, "wie": 4406, "vertuig": 4407, "overtuig": 4408, "weld": 4409, "stisc": 4410, "stisch": 4411, "enige": 4412, "efte": 4413, "ote": 4414, "oefte": 4415, "hoefte": 4416, "ehoefte": 4417, "behoefte": 4418, "angen": 4419, "oorl": 4420, "oorst": 4421, "mode": 4422, "reet": 4423, "verbo": 4424, "meri": 4425, "schen": 4426, "biee": 4427, "voorst": 4428, "taand": 4429, "staand": 4430, "efen": 4431, "imme": 4432, "unct": 4433, "twij": 4434, "ebiee": 4435, "bieed": 4436, "gebiee": 4437, "ebieed": 4438, "gebieed": 4439, "ezelfd": 4440, "ezelfde": 4441, "lijd": 4442, "begr": 4443, "meerd": 4444, "bil": 4445, "jks": 4446, "ijks": 4447, "olu": 4448, "att": 4449, "onte": 4450, "wijd": 4451, "macht": 4452, "isic": 4453, "gesc": 4454, "gesch": 4455, "risic": 4456, "verk": 4457, "rimine": 4458, "crimine": 4459, "meerde": 4460, "sico": 4461, "isico": 4462, "risico": 4463, "titu": 4464, "nol": 4465, "vaak": 4466, "tens": 4467, "cip": 4468, "riminee": 4469, "criminee": 4470, "opn": 4471, "wijf": 4472, "wijfe": 4473, "jfel": 4474, "twijf": 4475, "ijfel": 4476, "twijfe": 4477, "wijfel": 4478, "twijfel": 4479, "mpe": 4480, "prake": 4481, "riti": 4482, "derwi": 4483, "antie": 4484, "borg": 4485, "sprake": 4486, "nderwi": 4487, "derwij": 4488, "nderwij": 4489, "orlo": 4490, "ica": 4491, "stitu": 4492, "feree": 4493, "jon": 4494, "onderwi": 4495, "onderwij": 4496, "ameri": 4497, "meerder": 4498, "espe": 4499, "egene": 4500, "huld": 4501, "rma": 4502, "elijke": 4503, "noemd": 4504, "aloo": 4505, "fereer": 4506, "eenv": 4507, "ncr": 4508, "aloog": 4509, "eled": 4510, "immer": 4511, "nade": 4512, "reffen": 4513, "treffen": 4514, "deli": 4515, "creet": 4516, "ertr": 4517, "oorlo": 4518, "envo": 4519, "espec": 4520, "aspe": 4521, "ssc": 4522, "vier": 4523, "dw": 4524, "ialo": 4525, "merik": 4526, "amerik": 4527, "merika": 4528, "amerika": 4529, "vertr": 4530, "fend": 4531, "naas": 4532, "paran": 4533, "edrag": 4534, "nba": 4535, "anspa": 4536, "nspar": 4537, "ranspa": 4538, "transpa": 4539, "anspar": 4540, "mers": 4541, "ranspar": 4542, "transpar": 4543, "ialoo": 4544, "isti": 4545, "boo": 4546, "enoem": 4547, "ssch": 4548, "ialoog": 4549, "spara": 4550, "naast": 4551, "enoemd": 4552, "eenvo": 4553, "effi": 4554, "aspec": 4555, "ffend": 4556, "genoem": 4557, "nspara": 4558, "sparan": 4559, "parant": 4560, "anspara": 4561, "nsparan": 4562, "ranspara": 4563, "ansparan": 4564, "transpara": 4565, "ransparan": 4566, "transparan": 4567, "genoemd": 4568, "sparant": 4569, "nsparant": 4570, "ansparant": 4571, "ransparant": 4572, "transparant": 4573, "aspect": 4574, "effend": 4575, "cor": 4576, "reffend": 4577, "treffend": 4578, "effic": 4579, "effici": 4580, "nvou": 4581, "envou": 4582, "nvoud": 4583, "envoud": 4584, "rki": 4585, "ras": 4586, "issc": 4587, "gewel": 4588, "choo": 4589, "mpl": 4590, "-fr": 4591, "ton": 4592, "eweld": 4593, "geweld": 4594, "schoo": 4595, "issch": 4596, "erle": 4597, "nolo": 4598, "jong": 4599, "ntru": 4600, "eenvou": 4601, "eenvoud": 4602, "rid": 4603, "alite": 4604, "nolog": 4605, "rdin": 4606, "usie": 4607, "ota": 4608, "romi": 4609, "verli": 4610, "ktij": 4611, "-fra": 4612, "laas": 4613, "itge": 4614, "aktij": 4615, "raktij": 4616, "praktij": 4617, "cre\u00eb": 4618, "ront": 4619, "tijk": 4620, "cre\u00ebe": 4621, "re\u00eber": 4622, "cre\u00eber": 4623, "derwijs": 4624, "nbaa": 4625, "nderwijs": 4626, "mmers": 4627, "vla": 4628, "nbaar": 4629, "ktijk": 4630, "aktijk": 4631, "raktijk": 4632, "praktijk": 4633, "uitge": 4634, "onderwijs": 4635, "hno": 4636, "rgan": 4637, "promi": 4638, "func": 4639, "rtijd": 4640, "geo": 4641, "uncti": 4642, "moede": 4643, "ncre": 4644, "funct": 4645, "functi": 4646, "i\u00ebn": 4647, "oncr": 4648, "concr": 4649, "oncre": 4650, "concre": 4651, "nr": 4652, "atisc": 4653, "atisch": 4654, "enba": 4655, "chno": 4656, "fende": 4657, "echno": 4658, "en-": 4659, "techno": 4660, "rtro": 4661, "slac": 4662, "herz": 4663, "ertro": 4664, "vertro": 4665, "slach": 4666, "slacht": 4667, "elen": 4668, "hien": 4669, "clus": 4670, "immers": 4671, "chien": 4672, "schien": 4673, "sschi": 4674, "sschie": 4675, "missc": 4676, "missch": 4677, "isschi": 4678, "misschi": 4679, "isschie": 4680, "sschien": 4681, "misschie": 4682, "isschien": 4683, "misschien": 4684, "rtrou": 4685, "ertrou": 4686, "rtrouw": 4687, "vertrou": 4688, "ertrouw": 4689, "vertrouw": 4690, "uce": 4691, "dh": 4692, "chan": 4693, "ffende": 4694, "effende": 4695, "reffende": 4696, "treffende": 4697, "tali": 4698, "ellen": 4699, "war": 4700, "doc": 4701, "egaa": 4702, "etref": 4703, "betref": 4704, "etreff": 4705, "betreff": 4706, "etreffe": 4707, "betreffe": 4708, "etreffen": 4709, "betreffen": 4710, "etreffend": 4711, "betreffend": 4712, "etreffende": 4713, "betreffende": 4714, "duce": 4715, "\u00ef": 4716, "rbi": 4717, "voel": 4718, "ooit": 4719, "chij": 4720, "schij": 4721, "noeg": 4722, "ncree": 4723, "oncree": 4724, "ncreet": 4725, "concree": 4726, "oncreet": 4727, "concreet": 4728, "trouwe": 4729, "egri": 4730, "trouwen": 4731, "jst": 4732, "ijst": 4733, "alitei": 4734, "aliteit": 4735, "hijn": 4736, "chijn": 4737, "schijn": 4738, "nks": 4739, "hav": 4740, "risc": 4741, "risch": 4742, "ucee": 4743, "uceer": 4744, "enoeg": 4745, "genoeg": 4746, "ducee": 4747, "duceer": 4748, "sub": 4749, "anen": 4750, "rland": 4751, "chuld": 4752, "schuld": 4753, "loed": 4754, "enbaa": 4755, "enbaar": 4756, "dial": 4757, "begri": 4758, "oes": 4759, "hnol": 4760, "chnol": 4761, "echnol": 4762, "hnolo": 4763, "chnolo": 4764, "technol": 4765, "echnolo": 4766, "technolo": 4767, "hnolog": 4768, "chnolog": 4769, "echnolog": 4770, "technolog": 4771, "tste": 4772, "niets": 4773, "-frac": 4774, "-fract": 4775, "-fracti": 4776, "-fractie": 4777, "wate": 4778, "enaa": 4779, "-b": 4780, "coh": 4781, "vori": 4782, "water": 4783, "wed": 4784, "erland": 4785, "mpr": 4786, "respe": 4787, "respec": 4788, "espect": 4789, "respect": 4790, "nsti": 4791, "mit": 4792, "arr": 4793, "vaart": 4794, "dialo": 4795, "anders": 4796, "bek": 4797, "gioo": 4798, "egioo": 4799, "mpro": 4800, "np": 4801, "regioo": 4802, "dialoo": 4803, "dialoog": 4804, "eza": 4805, "mum": 4806, "reef": 4807, "jur": 4808, "pac": 4809, "ps": 4810, "nno": 4811, "ompr": 4812, "compr": 4813, "gh": 4814, "geled": 4815, "vorig": 4816, "resi": 4817, "elaa": 4818, "geza": 4819, "ompro": 4820, "compro": 4821, "walite": 4822, "kwalite": 4823, "walitei": 4824, "kwalitei": 4825, "waliteit": 4826, "kwaliteit": 4827, "rrei": 4828, "mprom": 4829, "mpromi": 4830, "omprom": 4831, "comprom": 4832, "ompromi": 4833, "compromi": 4834, "aande": 4835, "sj": 4836, "dele": 4837, "romis": 4838, "promis": 4839, "mpromis": 4840, "ompromis": 4841, "compromis": 4842, "orr": 4843, "errei": 4844, "egenen": 4845, "vens": 4846, "derh": 4847, "spro": 4848, "enni": 4849, "kaan": 4850, "juri": 4851, "elede": 4852, "eleden": 4853, "taten": 4854, "urea": 4855, "staten": 4856, "nger": 4857, "gelede": 4858, "geleden": 4859, "ute": 4860, "son": 4861, "side": 4862, "reau": 4863, "const": 4864, "bure": 4865, "rstan": 4866, "dezel": 4867, "ureau": 4868, "burea": 4869, "bureau": 4870, "dezelf": 4871, "iber": 4872, "epe": 4873, "derda": 4874, "essen": 4875, "\u00f6r": 4876, "msta": 4877, "nderda": 4878, "imum": 4879, "ffer": 4880, "dezelfd": 4881, "dezelfde": 4882, "abie": 4883, "senti": 4884, "ivi": 4885, "mstan": 4886, "mstand": 4887, "oma": 4888, "az": 4889, "jt": 4890, "urki": 4891, "tegel": 4892, "ilite": 4893, "tegeli": 4894, "tegelij": 4895, "tegelijk": 4896, "pni": 4897, "lusi": 4898, "mstandi": 4899, "mstandig": 4900, "omsta": 4901, "omstan": 4902, "omstand": 4903, "omstandi": 4904, "omstandig": 4905, "itis": 4906, "opni": 4907, "lak": 4908, "nfl": 4909, "neg": 4910, "iken": 4911, "treef": 4912, "streef": 4913, "bb": 4914, "turki": 4915, "esid": 4916, "rkij": 4917, "urkij": 4918, "rkije": 4919, "turkij": 4920, "urkije": 4921, "turkije": 4922, "rza": 4923, "rstand": 4924, "resid": 4925, "terrei": 4926, "timu": 4927, "rrein": 4928, "offe": 4929, "errein": 4930, "terrein": 4931, "sr": 4932, "elli": 4933, "tl": 4934, "abiel": 4935, "eth": 4936, "ertij": 4937, "ertijd": 4938, "pnie": 4939, "opnie": 4940, "pnieu": 4941, "opnieu": 4942, "pnieuw": 4943, "opnieuw": 4944, "tabie": 4945, "stabie": 4946, "tabiel": 4947, "stabiel": 4948, "lita": 4949, "ssent": 4950, "essent": 4951, "oev": 4952, "ssenti": 4953, "essenti": 4954, "ijt": 4955, "sentie": 4956, "xp": 4957, "ssentie": 4958, "essentie": 4959, "lida": 4960, "cep": 4961, "olida": 4962, "solida": 4963, "udi": 4964, "bal": 4965, "evens": 4966, "libe": 4967, "exp": 4968, "out": 4969, "lusie": 4970, "o\u00f6": 4971, "hani": 4972, "ncl": 4973, "beraa": 4974, "spraa": 4975, "liber": 4976, "prec": 4977, "praak": 4978, "spraak": 4979, "degen": 4980, "hanis": 4981, "rep": 4982, "unctie": 4983, "immi": 4984, "functie": 4985, "immig": 4986, "mmigr": 4987, "immigr": 4988, "ntra": 4989, "sh": 4990, "koop": 4991, "ilitei": 4992, "iliteit": 4993, "elde": 4994, "nstit": 4995, "nstitu": 4996, "co\u00f6": 4997, "dai": 4998, "yp": 4999, "penb": 5000, "cum": 5001, "openb": 5002, "penba": 5003, "openba": 5004, "kte": 5005, "lijks": 5006, "uz": 5007, "oduce": 5008, "roduce": 5009, "presi": 5010, "presid": 5011, "nism": 5012, "rese": 5013, "efi": 5014, "alv": 5015, "ldi": 5016, "eti": 5017, "\u00f6rd": 5018, "o\u00f6r": 5019, "co\u00f6r": 5020, "o\u00f6rd": 5021, "\u00f6rdi": 5022, "co\u00f6rd": 5023, "o\u00f6rdi": 5024, "\u00f6rdin": 5025, "co\u00f6rdi": 5026, "o\u00f6rdin": 5027, "co\u00f6rdin": 5028, "ntrum": 5029, "entru": 5030, "centru": 5031, "entrum": 5032, "centrum": 5033, "nisme": 5034, "fri": 5035, "lok": 5036, "nste": 5037, "penbaa": 5038, "openbaa": 5039, "penbaar": 5040, "openbaar": 5041, "herzi": 5042, "oducee": 5043, "roducee": 5044, "oduceer": 5045, "roduceer": 5046, "legaa": 5047, "redi": 5048, "elaas": 5049, "tellen": 5050, "stelle": 5051, "abs": 5052, "stellen": 5053, "-e": 5054, "slaa": 5055, "gaal": 5056, "nfe": 5057, "icie": 5058, "egaal": 5059, "acc": 5060, "kaans": 5061, "rmoe": 5062, "hten": 5063, "chten": 5064, "legaal": 5065, "ocu": 5066, "kon": 5067, "oste": 5068, "eside": 5069, "wege": 5070, "reside": 5071, "verr": 5072, "hela": 5073, "emis": 5074, "preside": 5075, "uike": 5076, "dir": 5077, "atig": 5078, "helaa": 5079, "helaas": 5080, "fli": 5081, "taande": 5082, "ala": 5083, "staande": 5084, "dine": 5085, "enda": 5086, "diaa": 5087, "istr": 5088, "jker": 5089, "ijker": 5090, "tsc": 5091, "erf": 5092, "eini": 5093, "rust": 5094, "ibera": 5095, "libera": 5096, "afr": 5097, "mmigre": 5098, "immigre": 5099, "mmigree": 5100, "immigree": 5101, "mmigreer": 5102, "immigreer": 5103, "tsch": 5104, "dier": 5105, "pti": 5106, "dair": 5107, "up": 5108, "ikaa": 5109, "are": 5110, "tvaa": 5111, "tvaar": 5112, "beide": 5113, "i\u00ebnt": 5114, "zamen": 5115, "ndia": 5116, "old": 5117, "sidee": 5118, "irec": 5119, "ieg": 5120, "lek": 5121, "rsp": 5122, "dire": 5123, "direc": 5124, "irect": 5125, "direct": 5126, "agend": 5127, "raar": 5128, "esidee": 5129, "sideer": 5130, "residee": 5131, "esideer": 5132, "resideer": 5133, "presidee": 5134, "presideer": 5135, "dden": 5136, "nclu": 5137, "rikaa": 5138, "ami": 5139, "ikaan": 5140, "tvaard": 5141, "tvaardi": 5142, "tvaardig": 5143, "rist": 5144, "erri": 5145, "ipe": 5146, "idden": 5147, "midden": 5148, "rikaan": 5149, "eraar": 5150, "drei": 5151, "wede": 5152, "ose": 5153, "rdine": 5154, "lati": 5155, "dinee": 5156, "inds": 5157, "dineer": 5158, "rve": 5159, "nfr": 5160, "ubs": 5161, "rdinee": 5162, "rdineer": 5163, "subs": 5164, "inci": 5165, "istis": 5166, "\u00f6rdine": 5167, "o\u00f6rdine": 5168, "co\u00f6rdine": 5169, "offer": 5170, "\u00f6rdinee": 5171, "o\u00f6rdinee": 5172, "\u00f6rdineer": 5173, "co\u00f6rdinee": 5174, "o\u00f6rdineer": 5175, "co\u00f6rdineer": 5176, "degene": 5177, "apen": 5178, "istisc": 5179, "istisch": 5180, "randee": 5181, "randeer": 5182, "ituu": 5183, "tituu": 5184, "ikaans": 5185, "itste": 5186, "reig": 5187, "stituu": 5188, "hti": 5189, "uitste": 5190, "clusi": 5191, "sind": 5192, "rikaans": 5193, "enor": 5194, "sinds": 5195, "wap": 5196, "genda": 5197, "kop": 5198, "bron": 5199, "clusie": 5200, "erbi": 5201, "ituut": 5202, "tituut": 5203, "stituut": 5204, "dreig": 5205, "enorm": 5206, "hrijf": 5207, "chrijf": 5208, "schrijf": 5209, "oneer": 5210, "einig": 5211, "matig": 5212, "lex": 5213, "npa": 5214, "oto": 5215, "nstituu": 5216, "nstituut": 5217, "lijker": 5218, "ato": 5219, "teve": 5220, "rmoed": 5221, "his": 5222, "idai": 5223, "idair": 5224, "lidai": 5225, "olidai": 5226, "lidair": 5227, "solidai": 5228, "olidair": 5229, "solidair": 5230, "had": 5231, "afri": 5232, "spi": 5233, "lko": 5234, "cume": 5235, "cumen": 5236, "agenda": 5237, "iep": 5238, "wezi": 5239, "wezig": 5240, "eman": 5241, "baan": 5242, "elijker": 5243, "frik": 5244, "afrik": 5245, "frika": 5246, "afrika": 5247, "verge": 5248, "cept": 5249, "htv": 5250, "chtv": 5251, "idis": 5252, "atte": 5253, "bili": 5254, "iberaa": 5255, "beraal": 5256, "liberaa": 5257, "iberaal": 5258, "liberaal": 5259, "orism": 5260, "itera": 5261, "wis": 5262, "rorism": 5263, "rrorism": 5264, "errorism": 5265, "terrorism": 5266, "htva": 5267, "chtva": 5268, "htvaa": 5269, "chtvaa": 5270, "htvaar": 5271, "chtvaar": 5272, "docu": 5273, "ocum": 5274, "docum": 5275, "ocume": 5276, "docume": 5277, "ocumen": 5278, "documen": 5279, "cument": 5280, "ocument": 5281, "document": 5282, "orisme": 5283, "lau": 5284, "gelijke": 5285, "daat": 5286, "rorisme": 5287, "rrorisme": 5288, "errorisme": 5289, "terrorisme": 5290, "spoo": 5291, "lict": 5292, "tvo": 5293, "iema": 5294, "nic": 5295, "rece": 5296, "event": 5297, "verm": 5298, "poor": 5299, "sb": 5300, "ldig": 5301, "eal": 5302, "lkom": 5303, "ridi": 5304, "kert": 5305, "urid": 5306, "rsi": 5307, "russ": 5308, "idisc": 5309, "gelijker": 5310, "ridis": 5311, "uridi": 5312, "cipe": 5313, "uridis": 5314, "jurid": 5315, "juridi": 5316, "juridis": 5317, "eslu": 5318, "eslui": 5319, "ridisc": 5320, "idisch": 5321, "uridisc": 5322, "chei": 5323, "ridisch": 5324, "juridisc": 5325, "uridisch": 5326, "juridisch": 5327, "eschi": 5328, "onfe": 5329, "egelijke": 5330, "egelijker": 5331, "esluit": 5332, "tegelijke": 5333, "tegelijker": 5334, "htvaard": 5335, "chtvaard": 5336, "htvaardi": 5337, "chtvaardi": 5338, "htvaardig": 5339, "chtvaardig": 5340, "schei": 5341, "confe": 5342, "tvoe": 5343, "jkert": 5344, "kerti": 5345, "ijkert": 5346, "jkerti": 5347, "kertij": 5348, "lijkert": 5349, "ijkerti": 5350, "jkertij": 5351, "kertijd": 5352, "elijkert": 5353, "lijkerti": 5354, "ijkertij": 5355, "jkertijd": 5356, "gelijkert": 5357, "elijkerti": 5358, "lijkertij": 5359, "ijkertijd": 5360, "gelijkerti": 5361, "elijkertij": 5362, "lijkertijd": 5363, "gelijkertij": 5364, "elijkertijd": 5365, "gelijkertijd": 5366, "egelijkert": 5367, "egelijkerti": 5368, "egelijkertij": 5369, "egelijkertijd": 5370, "tegelijkert": 5371, "tegelijkerti": 5372, "tegelijkertij": 5373, "tegelijkertijd": 5374, "derha": 5375, "beslu": 5376, "beslui": 5377, "besluit": 5378, "stro": 5379, "pens": 5380, "ekt": 5381, "wape": 5382, "wapen": 5383, "rev": 5384, "ingen": 5385, "tant": 5386, "fini": 5387, "ave": 5388, "tvoer": 5389, "teen": 5390, "bero": 5391, "menl": 5392, "defi": 5393, "dive": 5394, "amenl": 5395, "itv": 5396, "echtv": 5397, "rechtv": 5398, "echtva": 5399, "echtvaa": 5400, "echtvaar": 5401, "echtvaard": 5402, "echtvaardi": 5403, "echtvaardig": 5404, "rechtva": 5405, "rechtvaa": 5406, "rechtvaar": 5407, "rechtvaard": 5408, "rechtvaardi": 5409, "rechtvaardig": 5410, "efin": 5411, "raard": 5412, "teraar": 5413, "eraard": 5414, "teraard": 5415, "iteraa": 5416, "opt": 5417, "iteraar": 5418, "iteraard": 5419, "uitera": 5420, "uiteraa": 5421, "uiteraar": 5422, "uiteraard": 5423, "bsi": 5424, "chou": 5425, "chti": 5426, "d-": 5427, "aci": 5428, "ezam": 5429, "ezame": 5430, "gezam": 5431, "gezame": 5432, "ezamen": 5433, "gezamen": 5434, "menli": 5435, "amenli": 5436, "zamenl": 5437, "menlij": 5438, "ezamenl": 5439, "zamenli": 5440, "amenlij": 5441, "menlijk": 5442, "gezamenl": 5443, "ezamenli": 5444, "zamenlij": 5445, "amenlijk": 5446, "gezamenli": 5447, "ezamenlij": 5448, "zamenlijk": 5449, "gezamenlij": 5450, "ezamenlijk": 5451, "gezamenlijk": 5452, "orge": 5453, "cheid": 5454, "scheid": 5455, "schou": 5456, "rdaa": 5457, "arand": 5458, "uitv": 5459, "garand": 5460, "arande": 5461, "garande": 5462, "onda": 5463, "arandee": 5464, "garandee": 5465, "arandeer": 5466, "garandeer": 5467, "ewij": 5468, "duit": 5469, "defin": 5470, "efini": 5471, "rzaa": 5472, "ging": 5473, "orza": 5474, "morg": 5475, "diver": 5476, "defini": 5477, "ersi": 5478, "treer": 5479, "-a": 5480, "oorza": 5481, "solu": 5482, "spoor": 5483, "divers": 5484, "ppi": 5485, "emand": 5486, "orzaa": 5487, "oorzaa": 5488, "oew": 5489, "ieman": 5490, "iemand": 5491, "oeve": 5492, "geschi": 5493, "oewe": 5494, "zwaa": 5495, "wete": 5496, "rzaak": 5497, "wijk": 5498, "etai": 5499, "weten": 5500, "epaa": 5501, "orzaak": 5502, "oorzaak": 5503, "hni": 5504, "eroe": 5505, "chni": 5506, "nut": 5507, "itisc": 5508, "itisch": 5509, "wu": 5510, "mineer": 5511, "echni": 5512, "techni": 5513, "luu": 5514, "alist": 5515, "hoew": 5516, "hoewe": 5517, "oewel": 5518, "hoewel": 5519, "rlog": 5520, "orlog": 5521, "luut": 5522, "radi": 5523, "xtr": 5524, "anp": 5525, "extr": 5526, "oluu": 5527, "oluut": 5528, "scr": 5529, "oorlog": 5530, "soluu": 5531, "soluut": 5532, "kern": 5533, "esteed": 5534, "tscha": 5535, "bestee": 5536, "besteed": 5537, "versi": 5538, "spor": 5539, "strek": 5540, "gist": 5541, "aanp": 5542, "insta": 5543, "apa": 5544, "wit": 5545, "osten": 5546, "ooste": 5547, "tschap": 5548, "chad": 5549, "orda": 5550, "eerst": 5551, "onse": 5552, "ress": 5553, "degenen": 5554, "opp": 5555, "wije": 5556, "ecen": 5557, "anpa": 5558, "akke": 5559, "terec": 5560, "schad": 5561, "aanpa": 5562, "terech": 5563, "terecht": 5564, "estaand": 5565, "bestaand": 5566, "npak": 5567, "ijet": 5568, "nfer": 5569, "rva": 5570, "wijet": 5571, "ntv": 5572, "once": 5573, "anpak": 5574, "aanpak": 5575, "orgen": 5576, "conce": 5577, "vlak": 5578, "onfl": 5579, "hnis": 5580, "teven": 5581, "hnisc": 5582, "hnisch": 5583, "anks": 5584, "chnis": 5585, "echnis": 5586, "technis": 5587, "chnisc": 5588, "echnisc": 5589, "chnisch": 5590, "technisc": 5591, "echnisch": 5592, "technisch": 5593, "ovee": 5594, "onfer": 5595, "nfere": 5596, "confer": 5597, "onfere": 5598, "confere": 5599, "rige": 5600, "produce": 5601, "htig": 5602, "chtig": 5603, "flic": 5604, "nfli": 5605, "confl": 5606, "onfli": 5607, "nflic": 5608, "flict": 5609, "confli": 5610, "onflic": 5611, "nflict": 5612, "conflic": 5613, "onflict": 5614, "conflict": 5615, "199": 5616, "morge": 5617, "morgen": 5618, "rstell": 5619, "rstelle": 5620, "rstellen": 5621, "beroe": 5622, "ontv": 5623, "erdaa": 5624, "ohe": 5625, "icit": 5626, "jar": 5627, "muni": 5628, "pal": 5629, "bind": 5630, "happ": 5631, "producee": 5632, "produceer": 5633, "krit": 5634, "cohe": 5635, "ppij": 5636, "kriti": 5637, "noc": 5638, "-d": 5639, "chapp": 5640, "schapp": 5641, "ndan": 5642, "nclus": 5643, "bit": 5644, "nclusi": 5645, "nferee": 5646, "onferee": 5647, "nfereer": 5648, "conferee": 5649, "onfereer": 5650, "confereer": 5651, "vloed": 5652, "nclusie": 5653, "eroep": 5654, "atsc": 5655, "atsch": 5656, "beroep": 5657, "bso": 5658, "abso": 5659, "nga": 5660, "houw": 5661, "bilit": 5662, "tevens": 5663, "aatsc": 5664, "aatsch": 5665, "maats": 5666, "ett": 5667, "noor": 5668, "maatsc": 5669, "maatsch": 5670, "atscha": 5671, "conse": 5672, "aatscha": 5673, "maatscha": 5674, "chouw": 5675, "icite": 5676, "schouw": 5677, "atschap": 5678, "aatschap": 5679, "maatschap": 5680, "itvo": 5681, "derdaa": 5682, "nderdaa": 5683, "evan": 5684, "ondan": 5685, "ndank": 5686, "danks": 5687, "ondank": 5688, "ndanks": 5689, "ondanks": 5690, "serv": 5691, "uitvo": 5692, "zwaar": 5693, "dood": 5694, "inno": 5695, "erve": 5696, "rschij": 5697, "prin": 5698, "itvoe": 5699, "itvoer": 5700, "uitvoe": 5701, "uitvoer": 5702, "rschijn": 5703, "rem": 5704, "stant": 5705, "oest": 5706, "gun": 5707, "appi": 5708, "bilite": 5709, "erva": 5710, "bond": 5711, "plo": 5712, "ters": 5713, "cy": 5714, "duits": 5715, "aus": 5716, "rmoede": 5717, "icu": 5718, "tschapp": 5719, "atschapp": 5720, "aatschapp": 5721, "maatschapp": 5722, "verwe": 5723, "derz": 5724, "happi": 5725, "etg": 5726, "chappi": 5727, "sje": 5728, "appij": 5729, "happij": 5730, "schappi": 5731, "chappij": 5732, "tschappi": 5733, "schappij": 5734, "atschappi": 5735, "tschappij": 5736, "aatschappi": 5737, "atschappij": 5738, "maatschappi": 5739, "aatschappij": 5740, "maatschappij": 5741, "ziek": 5742, "adv": 5743, "heu": 5744, "raan": 5745, "omb": 5746, "stim": 5747, "imul": 5748, "grie": 5749, "aanw": 5750, "nderz": 5751, "derzo": 5752, "derzoe": 5753, "nten": 5754, "etge": 5755, "onderz": 5756, "nderzo": 5757, "onderzo": 5758, "nderzoe": 5759, "onderzoe": 5760, "voorz": 5761, "pat": 5762, "arte": 5763, "armoe": 5764, "ogen": 5765, "angs": 5766, "aanwe": 5767, "isse": 5768, "lici": 5769, "rent": 5770, "timul": 5771, "stimu": 5772, "stimul": 5773, "nwez": 5774, "anwez": 5775, "nwezi": 5776, "aanwez": 5777, "anwezi": 5778, "nwezig": 5779, "aanwezi": 5780, "anwezig": 5781, "aanwezig": 5782, "eheel": 5783, "gehee": 5784, "geheel": 5785, "derzoek": 5786, "ritis": 5787, "ly": 5788, "nderzoek": 5789, "onderzoek": 5790, "bran": 5791, "onv": 5792, "jus": 5793, "oosten": 5794, "tari": 5795, "bilitei": 5796, "biliteit": 5797, "bsol": 5798, "absol": 5799, "erc": 5800, "bsolu": 5801, "absolu": 5802, "zend": 5803, "inste": 5804, "bsoluu": 5805, "absoluu": 5806, "bsoluut": 5807, "absoluut": 5808, "11": 5809, "titi": 5810, "nland": 5811, "ndh": 5812, "cap": 5813, "arsc": 5814, "arsch": 5815, "tze": 5816, "sidi": 5817, "eq": 5818, "une": 5819, "just": 5820, "estaande": 5821, "bestaande": 5822, "kam": 5823, "crit": 5824, "iscr": 5825, "discr": 5826, "rneer": 5827, "erig": 5828, "alve": 5829, "bevee": 5830, "beveel": 5831, "vanu": 5832, "hes": 5833, "enta": 5834, "real": 5835, "allen": 5836, "anui": 5837, "anuit": 5838, "don": 5839, "vanui": 5840, "vanuit": 5841, "erneer": 5842, "bedra": 5843, "sio": 5844, "tent": 5845, "onve": 5846, "equ": 5847, "titie": 5848, "hina": 5849, "rtrouwe": 5850, "ertrouwe": 5851, "vertrouwe": 5852, "nvl": 5853, "rtrouwen": 5854, "ertrouwen": 5855, "vertrouwen": 5856, "ekend": 5857, "china": 5858, "corr": 5859, "onderd": 5860, "nvlo": 5861, "nvloe": 5862, "nvloed": 5863, "invl": 5864, "invlo": 5865, "invloe": 5866, "invloed": 5867, "rvoe": 5868, "ubsi": 5869, "subsi": 5870, "dec": 5871, "erkt": 5872, "oorda": 5873, "ewu": 5874, "wus": 5875, "bewu": 5876, "ewus": 5877, "wust": 5878, "bewus": 5879, "ewust": 5880, "bewust": 5881, "kritis": 5882, "bsid": 5883, "ubsid": 5884, "subsid": 5885, "bsidi": 5886, "ubsidi": 5887, "subsidi": 5888, "fecti": 5889, "tif": 5890, "cte": 5891, "nnov": 5892, "ervoe": 5893, "innov": 5894, "zuid": 5895, "fectie": 5896, "mie": 5897, "aarsc": 5898, "aarsch": 5899, "waars": 5900, "avi": 5901, "waarsc": 5902, "waarsch": 5903, "armoed": 5904, "ficie": 5905, "rvoer": 5906, "vlu": 5907, "ret": 5908, "\u00f3\u00f3": 5909, "-s": 5910, "orzi": 5911, "oorzi": 5912, "ffecti": 5913, "ros": 5914, "blo": 5915, "effecti": 5916, "tijn": 5917, "ruike": 5918, "ervoer": 5919, "ramp": 5920, "oveer": 5921, "egg": 5922, "vervoe": 5923, "anism": 5924, "tvan": 5925, "ffectie": 5926, "nner": 5927, "effectie": 5928, "vervoer": 5929, "itaa": 5930, "fectief": 5931, "ffectief": 5932, "luite": 5933, "luiten": 5934, "effectief": 5935, "ital": 5936, "voorzi": 5937, "litai": 5938, "ntva": 5939, "ntvan": 5940, "litair": 5941, "\u00f3r": 5942, "assa": 5943, "plee": 5944, "sluite": 5945, "sluiten": 5946, "anisme": 5947, "fficie": 5948, "mins": 5949, "novee": 5950, "noveer": 5951, "let": 5952, "eriu": 5953, "erium": 5954, "iteri": 5955, "ecia": 5956, "lja": 5957, "\u00ebl": 5958, "armoede": 5959, "riter": 5960, "\u00f3\u00f3r": 5961, "lam": 5962, "pecia": 5963, "oude": 5964, "v\u00f3": 5965, "v\u00f3\u00f3": 5966, "v\u00f3\u00f3r": 5967, "crite": 5968, "criter": 5969, "specia": 5970, "niem": 5971, "riteri": 5972, "criteri": 5973, "uli": 5974, "mak": 5975, "dha": 5976, "ontva": 5977, "ontvan": 5978, "tstee": 5979, "tsteek": 5980, "tvang": 5981, "ntvang": 5982, "ontvang": 5983, "rip": 5984, "citee": 5985, "citeer": 5986, "noord": 5987, "itali": 5988, "itaal": 5989, "eali": 5990, "eep": 5991, "vluc": 5992, "vluch": 5993, "vlucht": 5994, "verste": 5995, "imineer": 5996, "scri": 5997, "itstee": 5998, "uitstee": 5999, "itsteek": 6000, "uitsteek": 6001, "12": 6002, "rhal": 6003, "erhal": 6004, "03": 6005, "jee": 6006, "dige": 6007, "wein": 6008, "weini": 6009, "weinig": 6010, "halv": 6011, "halve": 6012, "rbie": 6013, "jeen": 6014, "erbie": 6015, "heri": 6016, "brit": 6017, "alu": 6018, "teriu": 6019, "terium": 6020, "mmuni": 6021, "a\u00eb": 6022, "iteriu": 6023, "riteriu": 6024, "iterium": 6025, "criteriu": 6026, "riterium": 6027, "criterium": 6028, "nitie": 6029, "ommuni": 6030, "communi": 6031, "rbied": 6032, "erbied": 6033, "late": 6034, "bezi": 6035, "ealis": 6036, "reali": 6037, "prot": 6038, "afe": 6039, "herin": 6040, "scrim": 6041, "bruike": 6042, "astr": 6043, "realis": 6044, "scrimi": 6045, "scrimin": 6046, "a\u00ebl": 6047, "ra\u00eb": 6048, "ra\u00ebl": 6049, "rster": 6050, "erster": 6051, "tanti": 6052, "uiken": 6053, "stanti": 6054, "vange": 6055, "gener": 6056, "iscri": 6057, "discri": 6058, "iscrim": 6059, "discrim": 6060, "milit": 6061, "nologi": 6062, "iscrimi": 6063, "discrimi": 6064, "iscrimin": 6065, "discrimin": 6066, "nnove": 6067, "beke": 6068, "innove": 6069, "olie": 6070, "entee": 6071, "room": 6072, "slaag": 6073, "minst": 6074, "inner": 6075, "tantie": 6076, "stantie": 6077, "brand": 6078, "ambi": 6079, "duren": 6080, "ncip": 6081, "vangen": 6082, "ruiken": 6083, "bruiken": 6084, "rdat": 6085, "griek": 6086, "ticu": 6087, "rbod": 6088, "erbod": 6089, "tifi": 6090, "verbod": 6091, "nnovee": 6092, "nnoveer": 6093, "innovee": 6094, "innoveer": 6095, "buu": 6096, "tific": 6097, "vern": 6098, "arg": 6099, "urend": 6100, "beken": 6101, "td": 6102, "oso": 6103, "bio": 6104, "durend": 6105, "ermo": 6106, "twerp": 6107, "ntwerp": 6108, "elic": 6109, "stroo": 6110, "ondi": 6111, "enteer": 6112, "usti": 6113, "heug": 6114, "ordat": 6115, "breed": 6116, "oordat": 6117, "rsterk": 6118, "ersterk": 6119, "verster": 6120, "versterk": 6121, "gas": 6122, "kun": 6123, "pakk": 6124, "-r": 6125, "bije": 6126, "oefe": 6127, "oefen": 6128, "tgee": 6129, "tgeen": 6130, "hetg": 6131, "hetge": 6132, "etgee": 6133, "hetgee": 6134, "etgeen": 6135, "hetgeen": 6136, "tsj": 6137, "rdee": 6138, "04": 6139, "ama": 6140, "enu": 6141, "rinn": 6142, "scrimine": 6143, "scriminee": 6144, "okk": 6145, "rinne": 6146, "justi": 6147, "erinn": 6148, "nader": 6149, "ilita": 6150, "erinne": 6151, "rinner": 6152, "erinner": 6153, "ebruike": 6154, "gebruike": 6155, "herinn": 6156, "herinne": 6157, "herinner": 6158, "rinc": 6159, "ijee": 6160, "ijeen": 6161, "bijee": 6162, "bijeen": 6163, "princ": 6164, "rimineer": 6165, "crimineer": 6166, "iscrimine": 6167, "discrimine": 6168, "iscriminee": 6169, "scrimineer": 6170, "discriminee": 6171, "iscrimineer": 6172, "discrimineer": 6173, "stiti": 6174, "raaf": 6175, "wak": 6176, "ustit": 6177, "justit": 6178, "ustiti": 6179, "justiti": 6180, "milita": 6181, "vies": 6182, "ontwerp": 6183, "san": 6184, "dom": 6185, "stitie": 6186, "reur": 6187, "ustitie": 6188, "justitie": 6189, "haf": 6190, "rinci": 6191, "princi": 6192, "incip": 6193, "rincip": 6194, "princip": 6195, "ott": 6196, "buur": 6197, "verde": 6198, "hnologi": 6199, "chnologi": 6200, "echnologi": 6201, "technologi": 6202, "ebruiken": 6203, "gebruiken": 6204, "leeg": 6205, "tud": 6206, "kket": 6207, "pakke": 6208, "akket": 6209, "insti": 6210, "hod": 6211, "sd": 6212, "nice": 6213, "l-": 6214, "pakket": 6215, "vermo": 6216, "13": 6217, "derl": 6218, "nees": 6219, "eeste": 6220, "ize": 6221, "spaa": 6222, "a\u00ef": 6223, "pte": 6224, "brek": 6225, "eor": 6226, "ortu": 6227, "etz": 6228, "obi": 6229, "weli": 6230, "fis": 6231, "tati": 6232, "stud": 6233, "chaf": 6234, "schaf": 6235, "gewi": 6236, "instit": 6237, "institu": 6238, "oncl": 6239, "concl": 6240, "exi": 6241, "nnis": 6242, "nin": 6243, "onclu": 6244, "conclu": 6245, "lue": 6246, "mot": 6247, "edie": 6248, "inderd": 6249, "hef": 6250, "kken": 6251, "lla": 6252, "orste": 6253, "rien": 6254, "initie": 6255, "graaf": 6256, "gat": 6257, "ngend": 6258, "gesp": 6259, "mec": 6260, "tota": 6261, "breek": 6262, "nologis": 6263, "nologisc": 6264, "nologisch": 6265, "thod": 6266, "weder": 6267, "ales": 6268, "orstel": 6269, "nes": 6270, "dvi": 6271, "vrie": 6272, "agr": 6273, "echa": 6274, "bekend": 6275, "lder": 6276, "tifice": 6277, "ebrek": 6278, "gebrek": 6279, "inzi": 6280, "stoo": 6281, "tificee": 6282, "tificeer": 6283, "biti": 6284, "ilitai": 6285, "ilitair": 6286, "ezin": 6287, "advi": 6288, "meth": 6289, "hof": 6290, "hetz": 6291, "militai": 6292, "militair": 6293, "rheu": 6294, "erheu": 6295, "verheu": 6296, "zes": 6297, "ersta": 6298, "inzie": 6299, "bitie": 6300, "mech": 6301, "mbit": 6302, "g-": 6303, "eda": 6304, "ambit": 6305, "mbiti": 6306, "ambiti": 6307, "mbitie": 6308, "ambitie": 6309, "echan": 6310, "tijg": 6311, "iger": 6312, "ung": 6313, "mecha": 6314, "chani": 6315, "rheug": 6316, "erheug": 6317, "verheug": 6318, "mechan": 6319, "echani": 6320, "mechani": 6321, "fac": 6322, "chanis": 6323, "echanis": 6324, "mechanis": 6325, "inzien": 6326, "grip": 6327, "rdaad": 6328, "erdaad": 6329, "bepa": 6330, "07": 6331, "sra": 6332, "ail": 6333, "ompl": 6334, "-p": 6335, "compl": 6336, "dvie": 6337, "oper": 6338, "essi": 6339, "izen": 6340, "advie": 6341, "feli": 6342, "reci": 6343, "valu": 6344, "tex": 6345, "iend": 6346, "perkt": 6347, "dvies": 6348, "advies": 6349, "hers": 6350, "esen": 6351, "oeke": 6352, "etho": 6353, "cla": 6354, "pale": 6355, "hong": 6356, "tene": 6357, "ecent": 6358, "fisc": 6359, "leu": 6360, "instituu": 6361, "instituut": 6362, "ritisc": 6363, "kritisc": 6364, "ritisch": 6365, "kritisch": 6366, "gezin": 6367, "tele": 6368, "ista": 6369, "euz": 6370, "roen": 6371, "egrip": 6372, "begrip": 6373, "ase": 6374, "hanism": 6375, "chanism": 6376, "echanism": 6377, "mechanism": 6378, "ecie": 6379, "toer": 6380, "zwe": 6381, "ots": 6382, "kenni": 6383, "bedrag": 6384, "preci": 6385, "hard": 6386, "ilja": 6387, "e-f": 6388, "metho": 6389, "-o": 6390, "ethod": 6391, "method": 6392, "recie": 6393, "precie": 6394, "luee": 6395, "lueer": 6396, "noch": 6397, "hanisme": 6398, "chanisme": 6399, "echanisme": 6400, "mechanisme": 6401, "nooi": 6402, "e\u00ebn": 6403, "tzel": 6404, "derdaad": 6405, "nderdaad": 6406, "latie": 6407, "inderda": 6408, "inderdaa": 6409, "inderdaad": 6410, "avo": 6411, "hnologis": 6412, "chnologis": 6413, "echnologis": 6414, "technologis": 6415, "hnologisc": 6416, "chnologisc": 6417, "hnologisch": 6418, "echnologisc": 6419, "chnologisch": 6420, "technologisc": 6421, "echnologisch": 6422, "technologisch": 6423, "dece": 6424, "not": 6425, "nooit": 6426, "cies": 6427, "jan": 6428, "finit": 6429, "bepaa": 6430, "epaal": 6431, "bepaal": 6432, "organ": 6433, "vana": 6434, "nstan": 6435, "ecies": 6436, "nweg": 6437, "fle": 6438, "/2": 6439, "recies": 6440, "precies": 6441, "moo": 6442, "recen": 6443, "recent": 6444, "soe": 6445, "pit": 6446, "verke": 6447, "e-fr": 6448, "efinit": 6449, "evi": 6450, "finiti": 6451, "efiniti": 6452, "rdeel": 6453, "oorste": 6454, "definit": 6455, "definiti": 6456, "voorste": 6457, "finitie": 6458, "efinitie": 6459, "definitie": 6460, "e-fra": 6461, "e-frac": 6462, "e-fract": 6463, "e-fracti": 6464, "e-fractie": 6465, "cat": 6466, "tzelf": 6467, "tzelfd": 6468, "tzelfde": 6469, "jard": 6470, "ncipe": 6471, "ljar": 6472, "conv": 6473, "oorstel": 6474, "iljar": 6475, "voorstel": 6476, "ljard": 6477, "iljard": 6478, "pere": 6479, "milja": 6480, "miljar": 6481, "conve": 6482, "nstant": 6483, "miljard": 6484, "nem": 6485, "epaald": 6486, "bepaald": 6487, "espr": 6488, "eni\u00eb": 6489, "rric": 6490, "rlij": 6491, "ringe": 6492, "pose": 6493, "vn": 6494, "erstel": 6495, "ggi": 6496, "nko": 6497, "rnatie": 6498, "ernatie": 6499, "plat": 6500, "groen": 6501, "eciaa": 6502, "peciaa": 6503, "eciaal": 6504, "speciaa": 6505, "peciaal": 6506, "speciaal": 6507, "legg": 6508, "onden": 6509, "ned": 6510, "abe": 6511, "rleg": 6512, "erleg": 6513, "ndiaa": 6514, "oeken": 6515, "efer": 6516, "sport": 6517, "tren": 6518, "ggin": 6519, "15": 6520, "imule": 6521, "efere": 6522, "ternatie": 6523, "zoeke": 6524, "lest": 6525, "erlij": 6526, "50": 6527, "bezig": 6528, "prese": 6529, "olee": 6530, "imulee": 6531, "imuleer": 6532, "nent": 6533, "kand": 6534, "ragen": 6535, "gema": 6536, "veri": 6537, "erzie": 6538, "did": 6539, "06": 6540, "lia": 6541, "onger": 6542, "hond": 6543, "refe": 6544, "eggi": 6545, "gging": 6546, "vree": 6547, "herzie": 6548, "rmu": 6549, "timule": 6550, "05": 6551, "stimule": 6552, "osee": 6553, "oseer": 6554, "eggin": 6555, "egging": 6556, "posee": 6557, "poseer": 6558, "leggi": 6559, "leggin": 6560, "legging": 6561, "ndid": 6562, "imen": 6563, "zoeken": 6564, "kandi": 6565, "refer": 6566, "andid": 6567, "tend": 6568, "refere": 6569, "rrich": 6570, "kandid": 6571, "timulee": 6572, "timuleer": 6573, "stimulee": 6574, "stimuleer": 6575, "erric": 6576, "errich": 6577, "prek": 6578, "esent": 6579, "lob": 6580, "resen": 6581, "presen": 6582, "resent": 6583, "present": 6584, "lesti": 6585, "incipe": 6586, "alest": 6587, "rincipe": 6588, "principe": 6589, "pales": 6590, "palest": 6591, "alesti": 6592, "palesti": 6593, "vanw": 6594, "vanwe": 6595, "nwege": 6596, "anweg": 6597, "vanweg": 6598, "anwege": 6599, "vanwege": 6600, "hode": 6601, "gena": 6602, "herst": 6603, "rkee": 6604, "rigen": 6605, "rkeer": 6606, "erkee": 6607, "ola": 6608, "erkeer": 6609, "verkee": 6610, "verkeer": 6611, "enui": 6612, "enuit": 6613, "sprek": 6614, "stijg": 6615, "citei": 6616, "nho": 6617, "seri": 6618, "thode": 6619, "citeit": 6620, "dent": 6621, "ethode": 6622, "methode": 6623, "pron": 6624, "poe": 6625, "ormu": 6626, "tsl": 6627, "rast": 6628, "wiss": 6629, "mijns": 6630, "nternatie": 6631, "internatie": 6632, "rong": 6633, "alf": 6634, "rzoeke": 6635, "erzoeke": 6636, "cij": 6637, "erige": 6638, "rzoeken": 6639, "erzoeken": 6640, "ded": 6641, "herste": 6642, "issel": 6643, "herstel": 6644, "terst": 6645, "tes": 6646, "lise": 6647, "esie": 6648, "site": 6649, "eeks": 6650, "ito": 6651, "tsje": 6652, "hesi": 6653, "laus": 6654, "ohes": 6655, "cohes": 6656, "hesie": 6657, "alue": 6658, "value": 6659, "wisse": 6660, "gle": 6661, "mpa": 6662, "ohesi": 6663, "cohesi": 6664, "ohesie": 6665, "cohesie": 6666, "ings": 6667, "harm": 6668, "wissel": 6669, "nuitv": 6670, "nuitvo": 6671, "nuitvoe": 6672, "nuitvoer": 6673, "nede": 6674, "enuitv": 6675, "enuitvo": 6676, "enuitvoe": 6677, "enuitvoer": 6678, "pleeg": 6679, "aluee": 6680, "valuee": 6681, "alueer": 6682, "valueer": 6683, "ora": 6684, "rvol": 6685, "ervol": 6686, "ids": 6687, "vervol": 6688, "cru": 6689, "fro": 6690, "ebrei": 6691, "gebrei": 6692, "ebreid": 6693, "gebreid": 6694, "prong": 6695, "dels": 6696, "rmul": 6697, "meeste": 6698, "brie": 6699, "spron": 6700, "sprong": 6701, "formu": 6702, "ormul": 6703, "formul": 6704, "estan": 6705, "vore": 6706, "voren": 6707, "kre": 6708, "li\u00eb": 6709, "ante": 6710, "stor": 6711, "andh": 6712, "nhou": 6713, "lso": 6714, "uma": 6715, "ennis": 6716, "nhoud": 6717, "erdi": 6718, "007": 6719, "reeks": 6720, "rela": 6721, "iters": 6722, "uiters": 6723, "iterst": 6724, "uiterst": 6725, "hend": 6726, "worde": 6727, "sno": 6728, "worden": 6729, "ndha": 6730, "andha": 6731, "ngee": 6732, "handh": 6733, "handha": 6734, "iversi": 6735, "crat": 6736, "estand": 6737, "alde": 6738, "herh": 6739, "herha": 6740, "vs": 6741, "ck": 6742, "rricht": 6743, "ngeer": 6744, "streer": 6745, "ie\u00eb": 6746, "erricht": 6747, "rvolg": 6748, "ervolg": 6749, "vervolg": 6750, "unge": 6751, "tac": 6752, "tenu": 6753, "mple": 6754, "oz": 6755, "kz": 6756, "001": 6757, "verri": 6758, "chend": 6759, "schend": 6760, "lisee": 6761, "liseer": 6762, "tenui": 6763, "fung": 6764, "tenuit": 6765, "verric": 6766, "verrich": 6767, "ie\u00ebn": 6768, "ntre": 6769, "oleer": 6770, "kennis": 6771, "funge": 6772, "gani": 6773, "uci": 6774, "mondi": 6775, "ungee": 6776, "fungee": 6777, "ungeer": 6778, "fungeer": 6779, "ondia": 6780, "mondia": 6781, "riv": 6782, "tenuitv": 6783, "tenuitvo": 6784, "tenuitvoe": 6785, "tenuitvoer": 6786, "diaal": 6787, "acto": 6788, "oerl": 6789, "voerl": 6790, "mas": 6791, "wijt": 6792, "lon": 6793, "rdie": 6794, "ben": 6795, "hema": 6796, "ratie": 6797, "oerle": 6798, "voerle": 6799, "onclus": 6800, "conclus": 6801, "onclusi": 6802, "conclusi": 6803, "onclusie": 6804, "conclusie": 6805, "oerleg": 6806, "voerleg": 6807, "tvoerl": 6808, "itvoerl": 6809, "tvoerle": 6810, "uitvoerl": 6811, "itvoerle": 6812, "tvoerleg": 6813, "uitvoerle": 6814, "itvoerleg": 6815, "uitvoerleg": 6816, "enla": 6817, "trac": 6818, "nuitvoerl": 6819, "enuitvoerl": 6820, "nuitvoerle": 6821, "tenuitvoerl": 6822, "enuitvoerle": 6823, "nuitvoerleg": 6824, "tenuitvoerle": 6825, "enuitvoerleg": 6826, "tenuitvoerleg": 6827, "istan": 6828, "ndiaal": 6829, "elder": 6830, "tatu": 6831, "versta": 6832, "rzien": 6833, "ondiaa": 6834, "mondiaa": 6835, "ondiaal": 6836, "mondiaal": 6837, "rgani": 6838, "api": 6839, "enlan": 6840, "lant": 6841, "mogen": 6842, "kap": 6843, "hele": 6844, "ovo": 6845, "bewi": 6846, "hool": 6847, "-eu": 6848, "enland": 6849, "enge": 6850, "tgeb": 6851, "ucia": 6852, "ean": 6853, "efficie": 6854, "gete": 6855, "otaa": 6856, "rdien": 6857, "trof": 6858, "kwi": 6859, "cruc": 6860, "ruci": 6861, "cruci": 6862, "o'": 6863, "vig": 6864, "lijs": 6865, "lijst": 6866, "rucia": 6867, "crucia": 6868, "uciaa": 6869, "ruciaa": 6870, "uciaal": 6871, "cruciaa": 6872, "ruciaal": 6873, "cruciaal": 6874, "rlegg": 6875, "erlegg": 6876, "otaal": 6877, "nsio": 6878, "totaa": 6879, "totaal": 6880, "oerlegg": 6881, "voerlegg": 6882, "nkr": 6883, "rleggi": 6884, "erleggi": 6885, "rleggin": 6886, "oerleggi": 6887, "erleggin": 6888, "rlegging": 6889, "tvoerlegg": 6890, "voerleggi": 6891, "oerleggin": 6892, "erlegging": 6893, "itvoerlegg": 6894, "voerleggin": 6895, "oerlegging": 6896, "uitvoerlegg": 6897, "voerlegging": 6898, "eland": 6899, "nsl": 6900, "tvoerleggi": 6901, "itvoerleggi": 6902, "tvoerleggin": 6903, "nuitvoerlegg": 6904, "uitvoerleggi": 6905, "itvoerleggin": 6906, "tvoerlegging": 6907, "enuitvoerlegg": 6908, "uitvoerleggin": 6909, "itvoerlegging": 6910, "tenuitvoerlegg": 6911, "uitvoerlegging": 6912, "-de": 6913, "nuitvoerleggi": 6914, "enuitvoerleggi": 6915, "nuitvoerleggin": 6916, "tenuitvoerleggi": 6917, "enuitvoerleggin": 6918, "nuitvoerlegging": 6919, "tenuitvoerleggin": 6920, "enuitvoerlegging": 6921, "tenuitvoerlegging": 6922, "verva": 6923, "verdi": 6924, "rmon": 6925, "obie": 6926, "etze": 6927, "entra": 6928, "hetze": 6929, "licit": 6930, "geor": 6931, "armon": 6932, "itgeb": 6933, "kar": 6934, "uar": 6935, "rmule": 6936, "ormule": 6937, "formule": 6938, "harmo": 6939, "harmon": 6940, "centra": 6941, "uitgeb": 6942, "08": 6943, "riend": 6944, "ordee": 6945, "meld": 6946, "ensio": 6947, "licite": 6948, "jna": 6949, "etzel": 6950, "bijn": 6951, "hetzel": 6952, "etzelf": 6953, "hetzelf": 6954, "etzelfd": 6955, "hetzelfd": 6956, "etzelfde": 6957, "hetzelfde": 6958, "chool": 6959, "school": 6960, "later": 6961, "ijna": 6962, "vrien": 6963, "vriend": 6964, "icitee": 6965, "licitee": 6966, "iciteer": 6967, "liciteer": 6968, "2007": 6969, "enh": 6970, "ator": 6971, "bbe": 6972, "erma": 6973, "jun": 6974, "pensi": 6975, "sente": 6976, "pensio": 6977, "erikaa": 6978, "opti": 6979, "kome": 6980, "lect": 6981, "erdie": 6982, "merikaa": 6983, "erikaan": 6984, "amerikaa": 6985, "merikaan": 6986, "amerikaan": 6987, "bijna": 6988, "fron": 6989, "elat": 6990, "ordeel": 6991, "erdien": 6992, "reep": 6993, "esente": 6994, "verdie": 6995, "onstr": 6996, "resente": 6997, "presente": 6998, "verdien": 6999, "inh": 7000, "sentee": 7001, "esentee": 7002, "senteer": 7003, "resentee": 7004, "esenteer": 7005, "presentee": 7006, "resenteer": 7007, "presenteer": 7008, "eorg": 7009, "komen": 7010, "front": 7011, "rokk": 7012, "oordee": 7013, "oordeel": 7014, "georg": 7015, "sw": 7016, "tueel": 7017, "krijk": 7018, "vid": 7019, "tad": 7020, "nkri": 7021, "nkrij": 7022, "nkrijk": 7023, "rget": 7024, "tgebr": 7025, "itgebr": 7026, "tgebre": 7027, "uitgebr": 7028, "itgebre": 7029, "nstanti": 7030, "tgebrei": 7031, "uitgebre": 7032, "itgebrei": 7033, "tgebreid": 7034, "uitgebrei": 7035, "itgebreid": 7036, "uitgebreid": 7037, "tsla": 7038, "verricht": 7039, "erikaans": 7040, "merikaans": 7041, "amerikaans": 7042, "cie\u00eb": 7043, "cie\u00ebn": 7044, "e\u00ebnt": 7045, "organi": 7046, "diu": 7047, "elici": 7048, "atera": 7049, "felic": 7050, "felici": 7051, "elicit": 7052, "felicit": 7053, "instan": 7054, "alise": 7055, "30": 7056, "toor": 7057, "elicite": 7058, "felicite": 7059, "rlie": 7060, "ign": 7061, "ntwi": 7062, "elicitee": 7063, "felicitee": 7064, "eliciteer": 7065, "feliciteer": 7066, "ln": 7067, "ie\u00ebnt": 7068, "haaf": 7069, "elko": 7070, "dsl": 7071, "cie\u00ebnt": 7072, "\u201c": 7073, "ontwi": 7074, "odel": 7075, "instant": 7076, "ganis": 7077, "dium": 7078, "nstantie": 7079, "ieke": 7080, "rgete": 7081, "instanti": 7082, "instantie": 7083, "uze": 7084, "mob": 7085, "erget": 7086, "ergete": 7087, "serie": 7088, "icie\u00eb": 7089, "ficie\u00eb": 7090, "icie\u00ebn": 7091, "ficie\u00ebn": 7092, "evalu": 7093, "mv": 7094, "relat": 7095, "latera": 7096, "dsla": 7097, "erlie": 7098, "hep": 7099, "verlie": 7100, "ofi": 7101, "dragen": 7102, "emak": 7103, "fficie\u00eb": 7104, "fficie\u00ebn": 7105, "gemak": 7106, "icie\u00ebnt": 7107, "ficie\u00ebnt": 7108, "treu": 7109, "tm": 7110, "rganis": 7111, "organis": 7112, "twik": 7113, "ntwik": 7114, "twikk": 7115, "ontwik": 7116, "ntwikk": 7117, "ontwikk": 7118, "uldi": 7119, "model": 7120, "verget": 7121, "uldig": 7122, "twikke": 7123, "ntwikke": 7124, "twikkel": 7125, "ontwikke": 7126, "ntwikkel": 7127, "ontwikkel": 7128, "vergete": 7129, "mobi": 7130, "fficie\u00ebnt": 7131, "prof": 7132, "2001": 7133, "genaa": 7134, "tiem": 7135, "gees": 7136, "vero": 7137, "hum": 7138, "flex": 7139, "egl": 7140, "rieu": 7141, "sig": 7142, "efficie\u00eb": 7143, "efficie\u00ebn": 7144, "welko": 7145, "elkom": 7146, "welkom": 7147, "roem": 7148, "rks": 7149, "/20": 7150, "hrijd": 7151, "chrijd": 7152, "schrijd": 7153, "09": 7154, "isie": 7155, "ette": 7156, "efficie\u00ebnt": 7157, "ngel": 7158, "ti\u00eb": 7159, "our": 7160, "\u00efn": 7161, "afs": 7162, "den-": 7163, "gal": 7164, "oka": 7165, "statu": 7166, "asie": 7167, "evalue": 7168, "evaluee": 7169, "evalueer": 7170, "nmi": 7171, "lom": 7172, "alisee": 7173, "aliseer": 7174, "geten": 7175, "rgeten": 7176, "ergeten": 7177, "vergeten": 7178, "tla": 7179, "sz": 7180, "mobie": 7181, "uari": 7182, "obiel": 7183, "alte": 7184, "mobiel": 7185, "chep": 7186, "rank": 7187, "schep": 7188, "indie": 7189, "nover": 7190, "indien": 7191, "overi": 7192, "opo": 7193, "nita": 7194, "det": 7195, "lexi": 7196, "oba": 7197, "verig": 7198, "verige": 7199, "overig": 7200, "erigen": 7201, "overige": 7202, "verigen": 7203, "overigen": 7204, "004": 7205, "enm": 7206, "igens": 7207, "erieu": 7208, "terne": 7209, "rigens": 7210, "erigens": 7211, "verigens": 7212, "overigens": 7213, "flexi": 7214, "okke": 7215, "siel": 7216, "reve": 7217, "plei": 7218, "elijks": 7219, "uil": 7220, "estij": 7221, "rspr": 7222, "ctee": 7223, "gespr": 7224, "stijn": 7225, "orsp": 7226, "oorsp": 7227, "estijn": 7228, "abil": 7229, "elema": 7230, "nav": 7231, "oeme": 7232, "orn": 7233, "cteer": 7234, "hol": 7235, "spel": 7236, "dden-": 7237, "honde": 7238, "idden-": 7239, "midden-": 7240, "stad": 7241, "ringen": 7242, "portu": 7243, "dedi": 7244, "rije": 7245, "arij": 7246, "helem": 7247, "helema": 7248, "elemaa": 7249, "helemaa": 7250, "elemaal": 7251, "helemaal": 7252, "rspro": 7253, "evre": 7254, "006": 7255, "vena": 7256, "orspr": 7257, "oorspr": 7258, "orspro": 7259, "oorspro": 7260, "rspron": 7261, "orspron": 7262, "rsprong": 7263, "oorspron": 7264, "orsprong": 7265, "oorsprong": 7266, "orstell": 7267, "oorstell": 7268, "orstelle": 7269, "voorstell": 7270, "oorstelle": 7271, "orstellen": 7272, "voorstelle": 7273, "oorstellen": 7274, "voorstellen": 7275, "rhaa": 7276, "erhaa": 7277, "enov": 7278, "otte": 7279, "daan": 7280, "tlan": 7281, "nven": 7282, "tijns": 7283, "rmog": 7284, "rra": 7285, "rmoge": 7286, "-eur": 7287, "huma": 7288, "ermog": 7289, "erend": 7290, "ermoge": 7291, "rded": 7292, "rmogen": 7293, "ermogen": 7294, "nth": 7295, "vermog": 7296, "vermoge": 7297, "reven": 7298, "abili": 7299, "vermogen": 7300, "erded": 7301, "hade": 7302, "rdedi": 7303, "dedig": 7304, "text": 7305, "verded": 7306, "erdedi": 7307, "rdedig": 7308, "verdedi": 7309, "erdedig": 7310, "verdedig": 7311, "rhaal": 7312, "erhaal": 7313, "rce": 7314, "toes": 7315, "rieus": 7316, "fee": 7317, "2000": 7318, "enove": 7319, "inho": 7320, "enover": 7321, "peree": 7322, "pereer": 7323, "week": 7324, "ibi": 7325, "anse": 7326, "glo": 7327, "ident": 7328, "aai": 7329, "koe": 7330, "14": 7331, "lar": 7332, "isten": 7333, "-euro": 7334, "itz": 7335, "rief": 7336, "visi": 7337, "nvent": 7338, "opere": 7339, "erstan": 7340, "operee": 7341, "opereer": 7342, "troom": 7343, "giste": 7344, "gister": 7345, "dwi": 7346, "gst": 7347, "chade": 7348, "schade": 7349, "bewe": 7350, "pd": 7351, "igi": 7352, "inhou": 7353, "stroom": 7354, "inhoud": 7355, "erieus": 7356, "gna": 7357, "tral": 7358, "treur": 7359, "yse": 7360, "pot": 7361, "xtra": 7362, "extra": 7363, "-la": 7364, "eids": 7365, "ci\u00eb": 7366, "bewij": 7367, "-europ": 7368, "derst": 7369, "onders": 7370, "agra": 7371, "eleme": 7372, "elemen": 7373, "element": 7374, "ria": 7375, "genov": 7376, "genove": 7377, "genover": 7378, "xte": 7379, "exte": 7380, "rtic": 7381, "fas": 7382, "wek": 7383, "acce": 7384, "pass": 7385, "iedi": 7386, "25": 7387, "evred": 7388, "serieu": 7389, "lov": 7390, "serieus": 7391, "2004": 7392, "tas": 7393, "ttel": 7394, "egeno": 7395, "erstand": 7396, "eiden": 7397, "tegeno": 7398, "dum": 7399, "agi": 7400, "zone": 7401, "nei": 7402, "meni": 7403, "teni": 7404, "epu": 7405, "egenov": 7406, "egenove": 7407, "egenover": 7408, "orzie": 7409, "tegenov": 7410, "tegenove": 7411, "tegenover": 7412, "oorzie": 7413, "orzien": 7414, "oorzien": 7415, "pg": 7416, "eper": 7417, "won": 7418, "lst": 7419, "bos": 7420, "egle": 7421, "xib": 7422, "anal": 7423, "ntel": 7424, "exib": 7425, "lexib": 7426, "flexib": 7427, "loka": 7428, "aly": 7429, "pecti": 7430, "voorzie": 7431, "voorzien": 7432, "specti": 7433, "lter": 7434, "tenti": 7435, "derhal": 7436, "omit": 7437, "pectie": 7438, "oten": 7439, "spectie": 7440, "2006": 7441, "comi": 7442, "teraal": 7443, "lys": 7444, "ateraa": 7445, "lateraa": 7446, "ateraal": 7447, "lateraal": 7448, "esla": 7449, "nitai": 7450, "nitair": 7451, "uge": 7452, "opd": 7453, "repu": 7454, "xter": 7455, "exter": 7456, "xtern": 7457, "extern": 7458, "mal": 7459, "derste": 7460, "jnl": 7461, "ijnl": 7462, "tentie": 7463, "omv": 7464, "nderst": 7465, "comit": 7466, "-li": 7467, "jnli": 7468, "ijnli": 7469, "jnlij": 7470, "ijnlij": 7471, "jnlijk": 7472, "ijnlijk": 7473, "hijnl": 7474, "chijnl": 7475, "hijnli": 7476, "schijnl": 7477, "chijnli": 7478, "hijnlij": 7479, "schijnli": 7480, "chijnlij": 7481, "hijnlijk": 7482, "schijnlij": 7483, "chijnlijk": 7484, "schijnlijk": 7485, "glem": 7486, "regl": 7487, "regle": 7488, "eglem": 7489, "gleme": 7490, "reglem": 7491, "egleme": 7492, "glemen": 7493, "regleme": 7494, "eglemen": 7495, "glement": 7496, "reglemen": 7497, "eglement": 7498, "reglement": 7499, "mei": 7500, "ingend": 7501, "kred": 7502, "kredi": 7503, "redie": 7504, "kredie": 7505, "otu": 7506, "neder": 7507, "uiz": 7508, "rende": 7509, "ehou": 7510, "biedi": 7511, "langs": 7512, "rbiedi": 7513, "erbiedi": 7514, "iedig": 7515, "biedig": 7516, "rbiedig": 7517, "erbiedig": 7518, "ehoud": 7519, "alys": 7520, "rmulee": 7521, "ormulee": 7522, "rmuleer": 7523, "formulee": 7524, "ormuleer": 7525, "formuleer": 7526, "poog": 7527, "fras": 7528, "elev": 7529, "artic": 7530, "dslag": 7531, "kaal": 7532, "partic": 7533, "behou": 7534, "pea": 7535, "ntin": 7536, "visie": 7537, "belo": 7538, "behoud": 7539, "aud": 7540, "002": 7541, "irak": 7542, "apit": 7543, "onin": 7544, "nderste": 7545, "ndic": 7546, "roeme": 7547, "etek": 7548, "nim": 7549, "ati\u00eb": 7550, "009": 7551, "rale": 7552, "enz": 7553, "ands": 7554, "'n": 7555, "rsit": 7556, "rits": 7557, "ersit": 7558, "versit": 7559, "iversit": 7560, "aken": 7561, "sign": 7562, "-v": 7563, "sv": 7564, "eteke": 7565, "eteken": 7566, "arie": 7567, "ols": 7568, "ronds": 7569, "okaa": 7570, "pact": 7571, "lokaa": 7572, "okaal": 7573, "lokaal": 7574, "dringe": 7575, "dringen": 7576, "gronds": 7577, "ringend": 7578, "ioe": 7579, "dringend": 7580, "essie": 7581, "brits": 7582, "diet": 7583, "isr": 7584, "lestij": 7585, "alestij": 7586, "lestijn": 7587, "palestij": 7588, "alestijn": 7589, "palestijn": 7590, "sat": 7591, "deleg": 7592, "oti": 7593, "lyse": 7594, "uman": 7595, "ntb": 7596, "diep": 7597, "elek": 7598, "003": 7599, "isra": 7600, "ndsl": 7601, "onderst": 7602, "ioen": 7603, "ontb": 7604, "bt": 7605, "onderste": 7606, "ondsl": 7607, "alyse": 7608, "human": 7609, "aven": 7610, "ndsla": 7611, "ondsla": 7612, "rondsl": 7613, "ndslag": 7614, "grondsl": 7615, "rondsla": 7616, "ondslag": 7617, "grondsla": 7618, "rondslag": 7619, "grondslag": 7620, "voord": 7621, "prev": 7622, "betek": 7623, "enaam": 7624, "beteke": 7625, "beteken": 7626, "oke": 7627, "ediet": 7628, "rediet": 7629, "krediet": 7630, "lice": 7631, "lott": 7632, "naf": 7633, "que": 7634, "gerec": 7635, "gerech": 7636, "gerecht": 7637, "uize": 7638, "dm": 7639, "enr": 7640, "-lan": 7641, "sra\u00eb": 7642, "isra\u00eb": 7643, "sra\u00ebl": 7644, "isra\u00ebl": 7645, "ktr": 7646, "tse": 7647, "kapi": 7648, "cem": 7649, "kapit": 7650, "lekt": 7651, "ektr": 7652, "lektr": 7653, "onven": 7654, "conven": 7655, "elekt": 7656, "unic": 7657, "elektr": 7658, "etro": 7659, "tug": 7660, "uizen": 7661, "preso": 7662, "presol": 7663, "lijde": 7664, "/200": 7665, "eres": 7666, "von": 7667, "lijden": 7668, "-land": 7669, "tom": 7670, "kund": 7671, "udee": 7672, "udeer": 7673, "arschi": 7674, "aarschi": 7675, "arschij": 7676, "waarschi": 7677, "aarschij": 7678, "arschijn": 7679, "rschijnl": 7680, "waarschij": 7681, "aarschijn": 7682, "arschijnl": 7683, "rschijnli": 7684, "waarschijn": 7685, "aarschijnl": 7686, "arschijnli": 7687, "rschijnlij": 7688, "waarschijnl": 7689, "aarschijnli": 7690, "arschijnlij": 7691, "rschijnlijk": 7692, "waarschijnli": 7693, "aarschijnlij": 7694, "arschijnlijk": 7695, "waarschijnlij": 7696, "aarschijnlijk": 7697, "waarschijnlijk": 7698, "rko": 7699, "uitz": 7700, "rtug": 7701, "lm": 7702, "ortug": 7703, "portug": 7704, "eure": 7705, "dica": 7706, "vold": 7707, "presolv": 7708, "presolve": 7709, "presolvee": 7710, "presolveer": 7711, "tenis": 7712, "lotte": 7713, "legee": 7714, "legeer": 7715, "test": 7716, "rpe": 7717, "itiem": 7718, "delege": 7719, "treep": 7720, "streep": 7721, "elegee": 7722, "delegee": 7723, "elegeer": 7724, "delegeer": 7725, "slott": 7726, "ische": 7727, "slotte": 7728, "asse": 7729, "frans": 7730, "ning": 7731, "nventi": 7732, "qua": 7733, "ebo": 7734, "o-": 7735, "ano": 7736, "digen": 7737, "klo": 7738, "tela": 7739, "ewee": 7740, "onvent": 7741, "convent": 7742, "asiel": 7743, "latt": 7744, "tzo": 7745, "nventie": 7746, "eral": 7747, "sief": 7748, "itzo": 7749, "tzon": 7750, "uitzo": 7751, "itzon": 7752, "tzond": 7753, "uitzon": 7754, "itzond": 7755, "tzonde": 7756, "uitzond": 7757, "itzonde": 7758, "uitzonde": 7759, "latte": 7760, "tzonder": 7761, "itzonder": 7762, "uitzonder": 7763, "delij": 7764, "2009": 7765, "attel": 7766, "2002": 7767, "platt": 7768, "platte": 7769, "abilit": 7770, "onventi": 7771, "conventi": 7772, "ila": 7773, "ttela": 7774, "attela": 7775, "ierl": 7776, "hec": 7777, "telan": 7778, "lattel": 7779, "ttelan": 7780, "teland": 7781, "plattel": 7782, "lattela": 7783, "attelan": 7784, "tteland": 7785, "plattela": 7786, "lattelan": 7787, "atteland": 7788, "plattelan": 7789, "latteland": 7790, "platteland": 7791, "gea": 7792, "ronte": 7793, "kwij": 7794, "pita": 7795, "eerb": 7796, "fronte": 7797, "ierla": 7798, "ierlan": 7799, "ierland": 7800, "onventie": 7801, "conventie": 7802, "mva": 7803, "omva": 7804, "008": 7805, "enne": 7806, "ratis": 7807, "omme": 7808, "inim": 7809, "remi": 7810, "minim": 7811, "rsteu": 7812, "ersteu": 7813, "rsteun": 7814, "ersteun": 7815, "dersteu": 7816, "ndersteu": 7817, "dersteun": 7818, "ondersteu": 7819, "ndersteun": 7820, "ondersteun": 7821, "sek": 7822, "zo'": 7823, "o'n": 7824, "zo'n": 7825, "anit": 7826, "iali": 7827, "preve": 7828, "preven": 7829, "apita": 7830, "evena": 7831, "ialis": 7832, "revent": 7833, "prevent": 7834, "enal": 7835, "delijk": 7836, "ecem": 7837, "cemb": 7838, "decem": 7839, "ecemb": 7840, "cembe": 7841, "decemb": 7842, "ecembe": 7843, "cember": 7844, "decembe": 7845, "ecember": 7846, "december": 7847, "anita": 7848, "toest": 7849, "2003": 7850, "abilite": 7851, "opea": 7852, "ropea": 7853, "uropea": 7854, "-m": 7855, "meet": 7856, "europea": 7857, "nkz": 7858, "ankz": 7859, "onti": 7860, "nals": 7861, "fv": 7862, "rvolge": 7863, "ervolge": 7864, "rvolgen": 7865, "vervolge": 7866, "ervolgen": 7867, "rvolgens": 7868, "vervolgen": 7869, "ervolgens": 7870, "vervolgens": 7871, "dub": 7872, "lands": 7873, "enals": 7874, "005": 7875, "kapita": 7876, "opi": 7877, "arag": 7878, "anitai": 7879, "anitair": 7880, "unice": 7881, "vak": 7882, "hoev": 7883, "glob": 7884, "hoeve": 7885, "inten": 7886, "arc": 7887, "venal": 7888, "diti": 7889, "ci\u00ebn": 7890, "evenal": 7891, "venals": 7892, "evenals": 7893, "loba": 7894, "sitei": 7895, "siteit": 7896, "have": 7897, "globa": 7898, "rsite": 7899, "ersite": 7900, "rsitei": 7901, "versite": 7902, "ersitei": 7903, "rsiteit": 7904, "iversite": 7905, "versitei": 7906, "ersiteit": 7907, "iversitei": 7908, "versiteit": 7909, "iversiteit": 7910, "duiz": 7911, "eschie": 7912, "\u00ebel": 7913, "duize": 7914, "idu": 7915, "e\u00ebel": 7916, "geschie": 7917, "heide": 7918, "neme": 7919, "hor": 7920, "-lid": 7921, "dankz": 7922, "dmi": 7923, "rolee": 7924, "trolee": 7925, "ntrolee": 7926, "ontrolee": 7927, "controlee": 7928, "roleer": 7929, "troleer": 7930, "ntroleer": 7931, "ontroleer": 7932, "controleer": 7933, "naly": 7934, "analy": 7935, "izend": 7936, "wijn": 7937, "nalys": 7938, "analys": 7939, "..": 7940, "euze": 7941, "nalyse": 7942, "analyse": 7943, "rts": 7944, "nistr": 7945, "link": 7946, "re\u00ebel": 7947, "frank": 7948, "rhalv": 7949, "erhalv": 7950, "rhalve": 7951, "derhalv": 7952, "erhalve": 7953, "derhalve": 7954, "bepe": 7955, "beper": 7956, "eperk": 7957, "beperk": 7958, "oudi": 7959, "snoe": 7960, "heiden": 7961, "ecte": 7962, "eventi": 7963, "ra\u00ef": 7964, "oeri": 7965, "verstan": 7966, "duizen": 7967, "uizend": 7968, "duizend": 7969, "nimu": 7970, "reventi": 7971, "preventi": 7972, "inimu": 7973, "nimum": 7974, "minimu": 7975, "inimum": 7976, "minimum": 7977, "overw": 7978, "oevee": 7979, "hoevee": 7980, "oeveel": 7981, "hoeveel": 7982, "adm": 7983, "ptie": 7984, "kzi": 7985, "eag": 7986, "boer": 7987, "telli": 7988, "infr": 7989, "nkzi": 7990, "ankzi": 7991, "admi": 7992, "eventie": 7993, "igna": 7994, "gari": 7995, "reventie": 7996, "preventie": 7997, "munic": 7998, "garant": 7999, "fisch": 8000, "ods": 8001, "epub": 8002, "repub": 8003, "mmunic": 8004, "ommunic": 8005, "communic": 8006, "nfra": 8007, "lier": 8008, "rechts": 8009, "ccep": 8010, "accep": 8011, "nderh": 8012, "heers": 8013, "ccept": 8014, "accept": 8015, "ici\u00eb": 8016, "feer": 8017, "itt": 8018, "umani": 8019, "humani": 8020, "eron": 8021, "erpe": 8022, "nemen": 8023, "heids": 8024, "epubl": 8025, "republ": 8026, "epubli": 8027, "republi": 8028, "infra": 8029, "drac": 8030, "inb": 8031, "udin": 8032, "rastr": 8033, "eweeg": 8034, "arije": 8035, "lof": 8036, "zwak": 8037, "astru": 8038, "astruc": 8039, "astruct": 8040, "astructu": 8041, "ork": 8042, "oudin": 8043, "rastru": 8044, "rastruc": 8045, "rastruct": 8046, "rastructu": 8047, "nfras": 8048, "frast": 8049, "infras": 8050, "nfrast": 8051, "infrast": 8052, "oder": 8053, "sioe": 8054, "frastr": 8055, "nfrastr": 8056, "frastru": 8057, "infrastr": 8058, "nfrastru": 8059, "frastruc": 8060, "infrastru": 8061, "nfrastruc": 8062, "frastruct": 8063, "infrastruc": 8064, "nfrastruct": 8065, "frastructu": 8066, "infrastruct": 8067, "nfrastructu": 8068, "infrastructu": 8069, "sioen": 8070, "garij": 8071, "garije": 8072, "ealise": 8073, "ealisee": 8074, "ealiseer": 8075, "ntex": 8076, "realise": 8077, "realisee": 8078, "realiseer": 8079, "ontex": 8080, "astructuu": 8081, "astructuur": 8082, "cam": 8083, "uding": 8084, "rastructuu": 8085, "rastructuur": 8086, "kzij": 8087, "nkzij": 8088, "dankzi": 8089, "ankzij": 8090, "dankzij": 8091, "houdi": 8092, "eperkt": 8093, "beperkt": 8094, "houdin": 8095, "ouding": 8096, "frastructuu": 8097, "nfrastructuu": 8098, "frastructuur": 8099, "infrastructuu": 8100, "nfrastructuur": 8101, "infrastructuur": 8102, "houding": 8103, "euren": 8104, "ag-": 8105, "yn": 8106, "nai": 8107, "genaam": 8108, "was": 8109, "ekr": 8110, "koni": 8111, "licee": 8112, "liceer": 8113, "iteen": 8114, "leit": 8115, "uitee": 8116, "uiteen": 8117, "oken": 8118, "tite": 8119, "roke": 8120, "fst": 8121, "terie": 8122, "agn": 8123, "abilitei": 8124, "abiliteit": 8125, "til": 8126, "roken": 8127, "lop": 8128, "moder": 8129, "nsioe": 8130, "ensioe": 8131, "pensioe": 8132, "pleit": 8133, "nsioen": 8134, "ensioen": 8135, "pensioen": 8136, "verstand": 8137, "kra\u00ef": 8138, "afv": 8139, "held": 8140, "onl": 8141, "oppe": 8142, "ull": 8143, "ntere": 8144, "fva": 8145, "afva": 8146, "2008": 8147, "odern": 8148, "modern": 8149, "konin": 8150, "haven": 8151, "pag": 8152, "voorda": 8153, "niema": 8154, "voordat": 8155, "drach": 8156, "minste": 8157, "nieman": 8158, "niemand": 8159, "ssee": 8160, "evang": 8161, "nj": 8162, "oods": 8163, "oesta": 8164, "lag-": 8165, "ngev": 8166, "slag-": 8167, "toesta": 8168, "eut": 8169, "epublie": 8170, "republie": 8171, "epubliek": 8172, "republiek": 8173, "dracht": 8174, "2005": 8175, "reag": 8176, "star": 8177, "arn": 8178, "swa": 8179, "jonge": 8180, "sseer": 8181, "rslag-": 8182, "erslag-": 8183, "verslag-": 8184, "evange": 8185, "eage": 8186, "sso": 8187, "ankr": 8188, "etee": 8189, "russe": 8190, "lda": 8191, "t\u00e9": 8192, "ppel": 8193, "divi": 8194, "elati": 8195, "baal": 8196, "reis": 8197, "reage": 8198, "munice": 8199, "mmunice": 8200, "ommunice": 8201, "communice": 8202, "gge": 8203, "nicee": 8204, "unicee": 8205, "niceer": 8206, "municee": 8207, "uniceer": 8208, "mmunicee": 8209, "municeer": 8210, "ommunicee": 8211, "mmuniceer": 8212, "communicee": 8213, "ommuniceer": 8214, "communiceer": 8215, "bud": 8216, "kb": 8217, "juni": 8218, "achti": 8219, "relati": 8220, "gevan": 8221, "eagee": 8222, "reagee": 8223, "eageer": 8224, "reageer": 8225, "ntral": 8226, "entral": 8227, "central": 8228, "gevang": 8229, "uv": 8230, "oeld": 8231, "abel": 8232, "feren": 8233, "evangen": 8234, "treek": 8235, "git": 8236, "gevange": 8237, "streek": 8238, "achtig": 8239, "gevangen": 8240, "bul": 8241, "gati": 8242, "keuz": 8243, "keuze": 8244, "llig": 8245, "signa": 8246, "nair": 8247, "eerbi": 8248, "eerbie": 8249, "eerbied": 8250, "dmin": 8251, "nsen": 8252, "admin": 8253, "ntege": 8254, "verei": 8255, "inistr": 8256, "ministr": 8257, "ghe": 8258, "rankr": 8259, "ankri": 8260, "frankr": 8261, "rankri": 8262, "ankrij": 8263, "frankri": 8264, "rankrij": 8265, "ankrijk": 8266, "frankrij": 8267, "rankrijk": 8268, "frankrijk": 8269, "dmini": 8270, "admini": 8271, "dminis": 8272, "adminis": 8273, "dminist": 8274, "administ": 8275, "dministr": 8276, "administr": 8277, "isu": 8278, "navo": 8279, "rpen": 8280, "enee": 8281, "manit": 8282, "umanit": 8283, "humanit": 8284, "010": 8285, "ulti": 8286, "manita": 8287, "umanita": 8288, "humanita": 8289, "inie": 8290, "spoe": 8291, "obaa": 8292, "manitai": 8293, "umanitai": 8294, "manitair": 8295, "humanitai": 8296, "umanitair": 8297, "humanitair": 8298, "ym": 8299, "'s": 8300, "ivid": 8301, "gatie": 8302, "divid": 8303, "olda": 8304, "elatie": 8305, "relatie": 8306, "uiste": 8307, "trad": 8308, "et-": 8309, "obaal": 8310, "sisc": 8311, "lobaa": 8312, "globaa": 8313, "lobaal": 8314, "globaal": 8315, "visu": 8316, "dim": 8317, "sisch": 8318, "idie": 8319, "barr": 8320, "oss": 8321, "uister": 8322, "overg": 8323, "werpe": 8324, "sidie": 8325, "bsidie": 8326, "ubsidie": 8327, "subsidie": 8328, "eac": 8329, "elis": 8330, "erpen": 8331, "aki": 8332, "cieer": 8333, "loon": 8334, "priv": 8335, "werpen": 8336, "noot": 8337, "gnaa": 8338, "tha": 8339, "kenne": 8340, "hisc": 8341, "hisch": 8342, "sf": 8343, "dsc": 8344, "crati": 8345, "trale": 8346, "eune": 8347, "atif": 8348, "sma": 8349, "ada": 8350, "ignaa": 8351, "gende": 8352, "nise": 8353, "deta": 8354, "gnaal": 8355, "ignaal": 8356, "signaa": 8357, "uder": 8358, "etw": 8359, "pitaa": 8360, "luis": 8361, "signaal": 8362, "ouder": 8363, ".0": 8364, "sus": 8365, "ngere": 8366, "meni\u00eb": 8367, "harte": 8368, "vi\u00eb": 8369, "gedr": 8370, "ntrale": 8371, "entrale": 8372, "centrale": 8373, "noer": 8374, "soms": 8375, "tabil": 8376, "apitaa": 8377, "kapitaa": 8378, "tabili": 8379, "snoer": 8380, "it\u00e9": 8381, "sanc": 8382, "fase": 8383, "aalde": 8384, "fact": 8385, "bla": 8386, "conti": 8387, "bbel": 8388, "eea": 8389, "kwijt": 8390, "iaan": 8391, "ontin": 8392, "contin": 8393, "ieken": 8394, "afi": 8395, "toris": 8396, "parag": 8397, "ditie": 8398, "overga": 8399, "dani": 8400, "pitaal": 8401, "jfer": 8402, "ijfer": 8403, "ndiv": 8404, "ie-": 8405, "\u00efne": 8406, "swaa": 8407, "ali\u00eb": 8408, "rdel": 8409, "cijf": 8410, "cijfe": 8411, "cijfer": 8412, "swaar": 8413, "hied": 8414, "chied": 8415, "schied": 8416, "eschied": 8417, "geschied": 8418, "ombi": 8419, "ndivi": 8420, "ekra": 8421, "ndivid": 8422, "fval": 8423, "afval": 8424, "vidu": 8425, "indiv": 8426, "ividu": 8427, "indivi": 8428, "dividu": 8429, "individ": 8430, "ndividu": 8431, "individu": 8432, "dsch": 8433, "emiss": 8434, "amd": 8435, "ssis": 8436, "-t": 8437, "sep": 8438, "sov": 8439, "apitaal": 8440, "kapitaal": 8441, "rokke": 8442, "rpr": 8443, "jne": 8444, "beure": 8445, "ngr": 8446, "u-l": 8447, "beuren": 8448, "nega": 8449, "ebeure": 8450, "orisc": 8451, "orisch": 8452, "gebeure": 8453, "ebeuren": 8454, "gebeuren": 8455, "dich": 8456, "erpr": 8457, "voet": 8458, "jdragen": 8459, "ijdragen": 8460, "bijdragen": 8461, "eha": 8462, "aamd": 8463, "2010": 8464, "thou": 8465, "kenl": 8466, "dscha": 8467, "gatief": 8468, "mult": 8469, "eu-l": 8470, "ewijs": 8471, "ijne": 8472, "kenla": 8473, "kenlan": 8474, "kenland": 8475, "ordel": 8476, "overwe": 8477, "mit\u00e9": 8478, "rlijd": 8479, "erlijd": 8480, "dschap": 8481, "emm": 8482, "verlij": 8483, "verlijd": 8484, "omit\u00e9": 8485, "comit\u00e9": 8486, "rlijde": 8487, "erlijde": 8488, "rlijden": 8489, "verlijde": 8490, "erlijden": 8491, "verlijden": 8492, "naamd": 8493, "veron": 8494, "egat": 8495, "ego": 8496, "rson": 8497, "chem": 8498, "unen": 8499, "ace": 8500, "anct": 8501, "sanct": 8502, "dve": 8503, "erson": 8504, "gedra": 8505, "atee": 8506, "emissi": 8507, "teune": 8508, "eunen": 8509, "steune": 8510, "teunen": 8511, "steunen": 8512, "ancti": 8513, "mbu": 8514, "sancti": 8515, "ragr": 8516, "uen": 8517, "aragr": 8518, "ragra": 8519, "paragr": 8520, "aragra": 8521, "paragra": 8522, "agraa": 8523, "ragraa": 8524, "aragraa": 8525, "paragraa": 8526, "ongere": 8527, "anctie": 8528, "dicht": 8529, "sanctie": 8530, "alter": 8531, "agraaf": 8532, "ragraaf": 8533, "aragraaf": 8534, "paragraaf": 8535, "rsteune": 8536, "ersteune": 8537, "rsteunen": 8538, "ersteunen": 8539, "ratif": 8540, "atifi": 8541, "ratifi": 8542, "atific": 8543, "ratific": 8544, "dersteune": 8545, "ndersteune": 8546, "dersteunen": 8547, "ondersteune": 8548, "ndersteunen": 8549, "ondersteunen": 8550, "well": 8551, "emissie": 8552, "egati": 8553, "kas": 8554, "gne": 8555, "person": 8556, "isa": 8557, "atifice": 8558, "ratifice": 8559, "atificee": 8560, "ratificee": 8561, "atificeer": 8562, "ratificeer": 8563, "rieke": 8564, "rieken": 8565, "eeu": 8566, "egatie": 8567, "tieu": 8568, "ateer": 8569, "multi": 8570, "grieke": 8571, "grieken": 8572, "okken": 8573, "onta": 8574, "tol": 8575, "stabil": 8576, "stabili": 8577, "tieus": 8578, "mba": 8579, "pean": 8580, "doeld": 8581, "tum": 8582, "mpo": 8583, "-be": 8584, "anaf": 8585, "ndv": 8586, "vanaf": 8587, "inu": 8588, "opean": 8589, "ropean": 8590, "uropean": 8591, "european": 8592, "honder": 8593, "fici\u00eb": 8594, "ffici\u00eb": 8595, "ici\u00ebn": 8596, "ci\u00ebnt": 8597, "fici\u00ebn": 8598, "ici\u00ebnt": 8599, "ffici\u00ebn": 8600, "fici\u00ebnt": 8601, "ffici\u00ebnt": 8602, "llic": 8603, "nha": 8604, "honderd": 8605, "effici\u00eb": 8606, "effici\u00ebn": 8607, "effici\u00ebnt": 8608, "mijd": 8609, "onga": 8610, "jonger": 8611, "poed": 8612, "cial": 8613, "denti": 8614, "emp": 8615, "rov": 8616, "enaamd": 8617, "genaamd": 8618, "derla": 8619, "sone": 8620, "torisc": 8621, "torisch": 8622, "resse": 8623, "teres": 8624, "rven": 8625, "mone": 8626, "daal": 8627, "reem": 8628, "ltern": 8629, "altern": 8630, "ugd": 8631, "eront": 8632, "oemen": 8633, "stren": 8634, ".00": 8635, "rokken": 8636, "opg": 8637, "rnaa": 8638, "honga": 8639, "nteres": 8640, "eerbiedi": 8641, "tact": 8642, "geren": 8643, "eerbiedig": 8644, "itieu": 8645, "bitieu": 8646, "mbitieu": 8647, "ambitieu": 8648, "uo": 8649, "oeder": 8650, "-st": 8651, "a\u00efn": 8652, "-c": 8653, "rsone": 8654, "ersone": 8655, "persone": 8656, "tail": 8657, "sal": 8658, "negat": 8659, "negati": 8660, "ranse": 8661, "itieus": 8662, "bitieus": 8663, "mbitieus": 8664, "ambitieus": 8665, "treng": 8666, "streng": 8667, "ederl": 8668, "eress": 8669, "teress": 8670, "nteress": 8671, "ederla": 8672, "negatie": 8673, "egatief": 8674, "negatief": 8675, "tradi": 8676, "rofi": 8677, "erlo": 8678, "azi": 8679, "nederl": 8680, "nederla": 8681, "roemen": 8682, "uin": 8683, "franse": 8684, "oordel": 8685, "eresse": 8686, "teresse": 8687, "nteresse": 8688, "andv": 8689, "gim": 8690, "iaans": 8691, "veront": 8692, "ussel": 8693, "eugd": 8694, "tsp": 8695, "enei": 8696, "russel": 8697, "ra\u00efn": 8698, "kra\u00efn": 8699, "brus": 8700, "tande": 8701, "bruss": 8702, "brusse": 8703, "brussel": 8704, "sonee": 8705, "wr": 8706, "gime": 8707, "luist": 8708, "egim": 8709, "luiste": 8710, "luister": 8711, "rsonee": 8712, "soneel": 8713, "ersonee": 8714, "rsoneel": 8715, "personee": 8716, "ersoneel": 8717, "personeel": 8718, "regim": 8719, "egime": 8720, "regime": 8721, "gou": 8722, "lif": 8723, "etail": 8724, "spoed": 8725, "eeuw": 8726, "llich": 8727, "llicht": 8728, "ubb": 8729, "oco": 8730, "neta": 8731, "facto": 8732, "stande": 8733, "nein": 8734, "enein": 8735, "neind": 8736, "eneind": 8737, "neinde": 8738, "eneinde": 8739, "onet": 8740, "tenei": 8741, "tenein": 8742, "teneind": 8743, "teneinde": 8744, "delin": 8745, "ngeren": 8746, "tart": 8747, "nere": 8748, "jongere": 8749, "ongeren": 8750, "ternee": 8751, "odsc": 8752, "odsch": 8753, "odscha": 8754, "ipl": 8755, "terneer": 8756, "oft": 8757, "linge": 8758, "cratis": 8759, "nege": 8760, "odschap": 8761, "herhaa": 8762, "herhaal": 8763, "orsta": 8764, "rote": 8765, "oorsta": 8766, "bood": 8767, "jongeren": 8768, "ratisc": 8769, "ratisch": 8770, "nua": 8771, "boods": 8772, "oodsc": 8773, "boodsc": 8774, "oodsch": 8775, "boodsch": 8776, "oodscha": 8777, "boodscha": 8778, "fou": 8779, "bewijs": 8780, "adit": 8781, "radit": 8782, "aditi": 8783, "tradit": 8784, "raditi": 8785, "traditi": 8786, "oodschap": 8787, "boodschap": 8788, "straa": 8789, "lterne": 8790, "alterne": 8791, "lternee": 8792, "alternee": 8793, "lterneer": 8794, "alterneer": 8795, "ekenl": 8796, "iekenl": 8797, "ekenla": 8798, "iekenla": 8799, "ekenlan": 8800, "iekenlan": 8801, "ekenland": 8802, "iekenland": 8803, "welli": 8804, "riekenl": 8805, "griekenl": 8806, "riekenla": 8807, "griekenla": 8808, "riekenlan": 8809, "griekenlan": 8810, "riekenland": 8811, "griekenland": 8812, "cratisc": 8813, "cratisch": 8814, "ieel": 8815, "voorsta": 8816, "agd": 8817, "onderh": 8818, "ah": 8819, "gest": 8820, "mpel": 8821, "tter": 8822, "aditie": 8823, "raditie": 8824, "traditie": 8825, "profi": 8826, "ikt": 8827, "taf": 8828, "ellic": 8829, "lism": 8830, "ty": 8831, "weed": 8832, "start": 8833, "itsp": 8834, "rstande": 8835, "detai": 8836, "detail": 8837, "tj": 8838, "lisme": 8839, "rtd": 8840, "tander": 8841, "stander": 8842, "oorn": 8843, "orstan": 8844, "oorstan": 8845, "orstand": 8846, "voorstan": 8847, "oorstand": 8848, "orstande": 8849, "rstander": 8850, "voorstand": 8851, "oorstande": 8852, "orstander": 8853, "voorstande": 8854, "oorstander": 8855, "voorstander": 8856, "wellic": 8857, "ellich": 8858, "wellich": 8859, "ellicht": 8860, "wellicht": 8861, "iers": 8862, "monet": 8863, "lh": 8864, "bine": 8865, "oneta": 8866, "moneta": 8867, "rvan": 8868, "arro": 8869, "itsl": 8870, "verlo": 8871, "st-": 8872, "a\u00efne": 8873, "isw": 8874, "geni": 8875, "car": 8876, "emeni": 8877, "helde": 8878, "ateri": 8879, "nbe": 8880, "roeg": 8881, "deling": 8882, "gesl": 8883, "itsla": 8884, "helder": 8885, "gent": 8886, "iswa": 8887, "ineel": 8888, "vroe": 8889, "oekr": 8890, "iswaa": 8891, "iswaar": 8892, "uitsl": 8893, "ldo": 8894, "oekra": 8895, "welis": 8896, "lisw": 8897, "elisw": 8898, "liswa": 8899, "welisw": 8900, "eliswa": 8901, "liswaa": 8902, "weliswa": 8903, "eliswaa": 8904, "liswaar": 8905, "weliswaa": 8906, "eliswaar": 8907, "weliswaar": 8908, "tje": 8909, "ekra\u00ef": 8910, "oekra\u00ef": 8911, "tdu": 8912, "tude": 8913, "uitsla": 8914, "etair": 8915, "derlan": 8916, "derland": 8917, "tslan": 8918, "duitsl": 8919, "itslan": 8920, "tsland": 8921, "duitsla": 8922, "uitslan": 8923, "itsland": 8924, "duitslan": 8925, "uitsland": 8926, "duitsland": 8927, "netai": 8928, "netair": 8929, "onetai": 8930, "monetai": 8931, "onetair": 8932, "monetair": 8933, "ntu": 8934, "kaart": 8935, "moor": 8936, "mater": 8937, "oemeni": 8938, "roemeni": 8939, "ra\u00efne": 8940, "kra\u00efne": 8941, "vroeg": 8942, "ervan": 8943, "nspo": 8944, "emie": 8945, "ekra\u00efn": 8946, "oekra\u00efn": 8947, "ortd": 8948, "hat": 8949, "paci": 8950, "pb": 8951, "ontee": 8952, "rtdu": 8953, "ortdu": 8954, "rwee": 8955, "onis": 8956, "onteer": 8957, "ekra\u00efne": 8958, "oekra\u00efne": 8959, "erwee": 8960, "gesla": 8961, "offi": 8962, "nsief": 8963, "nlang": 8964, "ngst": 8965, "achten": 8966, "ederlan": 8967, "ederland": 8968, "at-": 8969, "ulie": 8970, "tdur": 8971, "tdure": 8972, "tduren": 8973, "rtdur": 8974, "ortdur": 8975, "rtdure": 8976, "ortdure": 8977, "rtduren": 8978, "ortduren": 8979, "ntho": 8980, "ensief": 8981, "onla": 8982, "emeni\u00eb": 8983, "oemeni\u00eb": 8984, "roemeni\u00eb": 8985, "onlan": 8986, "onlang": 8987, "nederlan": 8988, "nederland": 8989, "ance": 8990, "orist": 8991, "nthou": 8992, "entre": 8993, "teren": 8994, "verwee": 8995, "ulier": 8996, "ndum": 8997, "diversi": 8998, "anig": 8999, "materi": 9000, "aren": 9001, "ubbe": 9002, "hris": 9003, "nlangs": 9004, "onlangs": 9005, "chris": 9006, "rorist": 9007, "rrorist": 9008, "errorist": 9009, "terrorist": 9010, "hoon": 9011, "ratief": 9012, "teur": 9013, "deu": 9014, "stude": 9015, "kis": 9016, "trok": 9017, "ichte": 9018, "them": 9019, "etal": 9020, "oortd": 9021, "voortd": 9022, "etrok": 9023, "oortdu": 9024, "voortdu": 9025, "oortdur": 9026, "voortdur": 9027, "oortdure": 9028, "voortdure": 9029, "oortduren": 9030, "voortduren": 9031, "stere": 9032, "thema": 9033, "huw": 9034, "rvang": 9035, "ervang": 9036, "\u00e1": 9037, "evrede": 9038, "verne": 9039, "tudee": 9040, "studee": 9041, "tudeer": 9042, "studeer": 9043, "ii": 9044, "lage": 9045, "danig": 9046, "wart": 9047, "tdurend": 9048, "rtdurend": 9049, "ortdurend": 9050, "emme": 9051, "choon": 9052, "schoon": 9053, "-pr": 9054, "llec": 9055, "derwe": 9056, "ntens": 9057, "ubbel": 9058, "ns-": 9059, "iege": 9060, "orre": 9061, "genee": 9062, "lieg": 9063, "pul": 9064, "centre": 9065, "gedu": 9066, "oortdurend": 9067, "voortdurend": 9068, "onth": 9069, "inen": 9070, "fsta": 9071, "moti": 9072, "kara": 9073, "icus": 9074, "tabilit": 9075, "ndve": 9076, "enaar": 9077, "nfro": 9078, "nfron": 9079, "onfr": 9080, "nfront": 9081, "elg": 9082, "confr": 9083, "onfro": 9084, "confro": 9085, "onfron": 9086, "confron": 9087, "onfront": 9088, "confront": 9089, "ncen": 9090, "nspor": 9091, "vreden": 9092, "evreden": 9093, "rweeg": 9094, "meel": 9095, "erweeg": 9096, "overwee": 9097, "verweeg": 9098, "overweeg": 9099, "tevr": 9100, "tevre": 9101, "tevred": 9102, "tevrede": 9103, "tevreden": 9104, "dubb": 9105, "dubbe": 9106, "dubbel": 9107, "rontee": 9108, "ronteer": 9109, "enha": 9110, "capa": 9111, "nfronte": 9112, "onfronte": 9113, "confronte": 9114, "eger": 9115, "mvan": 9116, "proe": 9117, "frontee": 9118, "nfrontee": 9119, "fronteer": 9120, "onfrontee": 9121, "nfronteer": 9122, "confrontee": 9123, "onfronteer": 9124, "confronteer": 9125, "202": 9126, "xpo": 9127, "expo": 9128, "omvan": 9129, "tag": 9130, "mvang": 9131, "omvang": 9132, "tabilite": 9133, "tabilitei": 9134, "tabiliteit": 9135, "020": 9136, "ongev": 9137, "iva": 9138, "also": 9139, "paalde": 9140, "epaalde": 9141, "bepaalde": 9142, "rnem": 9143, "ncent": 9144, "intens": 9145, "aterie": 9146, "materie": 9147, "eane": 9148, "rwer": 9149, "andve": 9150, "hrist": 9151, "lor": 9152, "aat-": 9153, "conta": 9154, "anj": 9155, "ialist": 9156, "christ": 9157, "dves": 9158, "ndves": 9159, "dvest": 9160, "ndvest": 9161, "dida": 9162, "lga": 9163, "hech": 9164, "ulen": 9165, "ructi": 9166, "tructi": 9167, "structi": 9168, "can": 9169, "isto": 9170, "hecht": 9171, "eanen": 9172, "listi": 9173, "handv": 9174, "opb": 9175, "llect": 9176, "mari": 9177, "eferen": 9178, "ructie": 9179, "tructie": 9180, "structie": 9181, "caa": 9182, "bode": 9183, "ndida": 9184, "andida": 9185, "handve": 9186, "andves": 9187, "handves": 9188, "andvest": 9189, "handvest": 9190, "kandida": 9191, "referen": 9192, "ncentr": 9193, "uve": 9194, "agne": 9195, "conte": 9196, "endu": 9197, "pie": 9198, "vervan": 9199, "vervang": 9200, "idaa": 9201, "kame": 9202, "aagd": 9203, "tast": 9204, "oncen": 9205, "concen": 9206, "oncent": 9207, "concent": 9208, "oncentr": 9209, "concentr": 9210, "a-": 9211, "pbo": 9212, "alism": 9213, "oning": 9214, "opbo": 9215, "omple": 9216, "eiz": 9217, "comple": 9218, "didaa": 9219, "idaat": 9220, "ndidaa": 9221, "didaat": 9222, "andidaa": 9223, "ndidaat": 9224, "kandidaa": 9225, "andidaat": 9226, "kandidaat": 9227, "gevo": 9228, "pbou": 9229, "pbouw": 9230, "kamer": 9231, "opbou": 9232, "opbouw": 9233, "alisme": 9234, "peane": 9235, "opeane": 9236, "peanen": 9237, "ropeane": 9238, "opeanen": 9239, "uropeane": 9240, "ropeanen": 9241, "europeane": 9242, "uropeanen": 9243, "europeanen": 9244, "listis": 9245, "prem": 9246, "bewee": 9247, "ocht": 9248, "beweeg": 9249, "listisc": 9250, "listisch": 9251, "moord": 9252, "t-l": 9253, "ngeve": 9254, "ncentre": 9255, "oncentre": 9256, "concentre": 9257, "eveer": 9258, "apac": 9259, "gevee": 9260, "ongeve": 9261, "ngevee": 9262, "geveer": 9263, "ongevee": 9264, "ngeveer": 9265, "ongeveer": 9266, "capac": 9267, "evol": 9268, "acit": 9269, "apaci": 9270, "pacit": 9271, "capaci": 9272, "apacit": 9273, "capacit": 9274, "unde": 9275, "nmid": 9276, "nmidd": 9277, "pge": 9278, "nje": 9279, "trokk": 9280, "trokke": 9281, "trokken": 9282, "tten": 9283, "omo": 9284, "etrokk": 9285, "etrokke": 9286, "etrokken": 9287, "traag": 9288, "acite": 9289, "pacite": 9290, "acitei": 9291, "apacite": 9292, "pacitei": 9293, "capacite": 9294, "apacitei": 9295, "capacitei": 9296, "tou": 9297, "hist": 9298, "yo": 9299, "%": 9300, "aciteit": 9301, "paciteit": 9302, "apaciteit": 9303, "capaciteit": 9304, "gebo": 9305, "ciali": 9306, "eris": 9307, "ril": 9308, "werken": 9309, "ssisc": 9310, "ssisch": 9311, "cialis": 9312, "gi\u00eb": 9313, "ngo": 9314, "vli": 9315, "russi": 9316, "ussis": 9317, "ties": 9318, "erwer": 9319, "menta": 9320, "eaf": 9321, "fens": 9322, "digd": 9323, "eln": 9324, "avon": 9325, "loot": 9326, "ewijz": 9327, "betro": 9328, "nderwe": 9329, "offic": 9330, "betrok": 9331, "opge": 9332, "betrokk": 9333, "betrokke": 9334, "betrokken": 9335, "russis": 9336, "ussisc": 9337, "ussisch": 9338, "russisc": 9339, "russisch": 9340, "entu": 9341, "ctr": 9342, "onderwe": 9343, "enwe": 9344, "brok": 9345, "iran": 9346, "stabilit": 9347, "luid": 9348, "vond": 9349, "actor": 9350, "temb": 9351, "stabilite": 9352, "stabilitei": 9353, "stabiliteit": 9354, "tul": 9355, "hip": 9356, "oege": 9357, "stijns": 9358, "estijns": 9359, "lestijns": 9360, "alestijns": 9361, "palestijns": 9362, "uaa": 9363, "teli": 9364, "seks": 9365, "vlie": 9366, "vaat": 9367, "dhaa": 9368, "ndhaa": 9369, "dhaaf": 9370, "ndhaaf": 9371, "andhaa": 9372, "handhaa": 9373, "andhaaf": 9374, "handhaaf": 9375, "iez": 9376, "rneme": 9377, "21": 9378, "essee": 9379, "esseer": 9380, "mpli": 9381, "ressee": 9382, "resseer": 9383, "geea": 9384, "eeaf": 9385, "geeaf": 9386, "fit": 9387, "etwi": 9388, "voorn": 9389, "gedrag": 9390, "isum": 9391, "visum": 9392, "epte": 9393, "eaa": 9394, "tak": 9395, "ucr": 9396, "rgang": 9397, "sens": 9398, "rnemen": 9399, "fout": 9400, "offici": 9401, "rwerp": 9402, "ucra": 9403, "premi": 9404, "eressee": 9405, "teressee": 9406, "eresseer": 9407, "nteressee": 9408, "teresseer": 9409, "nteresseer": 9410, "dime": 9411, "dimen": 9412, "rho": 9413, "ntext": 9414, "contex": 9415, "ontext": 9416, "context": 9417, "tule": 9418, "jpe": 9419, "ijpe": 9420, "vlieg": 9421, "erwerp": 9422, "nsla": 9423, "derwer": 9424, "derwerp": 9425, "xpor": 9426, "expor": 9427, "nderwer": 9428, "onderwer": 9429, "nderwerp": 9430, "onderwerp": 9431, "ntac": 9432, "ocol": 9433, "toot": 9434, "mbin": 9435, "ulg": 9436, "xport": 9437, "export": 9438, "mbine": 9439, "imens": 9440, "enere": 9441, "genere": 9442, "twa": 9443, "ombin": 9444, "mensi": 9445, "dimens": 9446, "imensi": 9447, "dimensi": 9448, "ypr": 9449, "ombine": 9450, "nstruc": 9451, "nstruct": 9452, "ulga": 9453, "briek": 9454, "riste": 9455, "steren": 9456, "adee": 9457, "bus": 9458, "terv": 9459, "mensie": 9460, "imensie": 9461, "dimensie": 9462, "otie": 9463, "traat": 9464, "ntact": 9465, "eslaa": 9466, "stoot": 9467, "tembe": 9468, "tember": 9469, "jpen": 9470, "ijpen": 9471, "vic": 9472, "ddels": 9473, "iddels": 9474, "middels": 9475, "prote": 9476, "gaar": 9477, "jnen": 9478, "ijnen": 9479, "tensi": 9480, "istere": 9481, "rmat": 9482, "bulg": 9483, "bulga": 9484, "isteren": 9485, "emin": 9486, "gistere": 9487, "remie": 9488, "gisteren": 9489, "sept": 9490, "non": 9491, "etwij": 9492, "etwijf": 9493, "etwijfe": 9494, "etwijfel": 9495, "lecti": 9496, "getw": 9497, "ptem": 9498, "nderha": 9499, "getwi": 9500, "getwij": 9501, "getwijf": 9502, "getwijfe": 9503, "getwijfel": 9504, "septe": 9505, "eptem": 9506, "ptemb": 9507, "septem": 9508, "eptemb": 9509, "ptembe": 9510, "septemb": 9511, "eptembe": 9512, "ptember": 9513, "septembe": 9514, "eptember": 9515, "september": 9516, "comb": 9517, "onal": 9518, "gemo": 9519, "eafe": 9520, "eeafe": 9521, "geeafe": 9522, "prei": 9523, "2020": 9524, "akte": 9525, "risten": 9526, "sprei": 9527, "alk": 9528, "stil": 9529, "preid": 9530, "spreid": 9531, "geslaa": 9532, "eslaag": 9533, "geslaag": 9534, "notu": 9535, "nstructi": 9536, "paan": 9537, "hriste": 9538, "otul": 9539, "christe": 9540, "nar": 9541, "notul": 9542, "otule": 9543, "notule": 9544, "antee": 9545, "nstructie": 9546, "istor": 9547, "pote": 9548, "niver": 9549, "rwerpe": 9550, "erwerpe": 9551, "rwerpen": 9552, "erwerpen": 9553, "lectie": 9554, "janu": 9555, "ventu": 9556, "eque": 9557, "combi": 9558, "derwerpe": 9559, "nderwerpe": 9560, "derwerpen": 9561, "onderwerpe": 9562, "nderwerpen": 9563, "onderwerpen": 9564, "manda": 9565, "stati": 9566, "premie": 9567, "histo": 9568, "avond": 9569, "combin": 9570, "poten": 9571, "anteer": 9572, "hre": 9573, "ering": 9574, "eto": 9575, "combine": 9576, "otent": 9577, "potent": 9578, "identi": 9579, "rijpe": 9580, "eits": 9581, "stop": 9582, "auc": 9583, "grijpe": 9584, "binee": 9585, "mbinee": 9586, "bineer": 9587, "ombinee": 9588, "mbineer": 9589, "combinee": 9590, "ombineer": 9591, "combineer": 9592, "stori": 9593, "nterv": 9594, "interv": 9595, "histor": 9596, "spaan": 9597, "rijpen": 9598, "onsta": 9599, "daat-": 9600, "idaat-": 9601, "didaat-": 9602, "ndidaat-": 9603, "andidaat-": 9604, "kandidaat-": 9605, "camp": 9606, "grijpen": 9607, "ppl": 9608, "ngaa": 9609, "tulen": 9610, "otulen": 9611, "notulen": 9612, "neree": 9613, "nereer": 9614, "endum": 9615, "teits": 9616, "mass": 9617, "univ": 9618, "ting": 9619, "fensi": 9620, "unive": 9621, "ender": 9622, "istori": 9623, "fensie": 9624, "histori": 9625, "univer": 9626, "alia": 9627, "iteits": 9628, "hristen": 9629, "christen": 9630, "barro": 9631, "rvi": 9632, "enees": 9633, "genees": 9634, "insp": 9635, "chat": 9636, "nivers": 9637, "univers": 9638, "ula": 9639, "ntegen": 9640, "ediu": 9641, "mediu": 9642, "edium": 9643, "medium": 9644, "ieze": 9645, "tensie": 9646, "\u00ebnti": 9647, "pru": 9648, "anua": 9649, "ntit": 9650, "lende": 9651, "gep": 9652, "nuar": 9653, "janua": 9654, "anuar": 9655, "nuari": 9656, "januar": 9657, "anuari": 9658, "januari": 9659, "\u00ebntie": 9660, "paans": 9661, "ferend": 9662, "eferend": 9663, "referend": 9664, "spaans": 9665, "rendu": 9666, "erendu": 9667, "rendum": 9668, "ferendu": 9669, "erendum": 9670, "eferendu": 9671, "ferendum": 9672, "referendu": 9673, "eferendum": 9674, "referendum": 9675, "al-": 9676, "arne": 9677, "aap": 9678, "erho": 9679, "anje": 9680, "nisee": 9681, "niseer": 9682, "ndaat": 9683, "mandaa": 9684, "andaat": 9685, "mandaat": 9686, "erven": 9687, "ober": 9688, "ngeg": 9689, "eauc": 9690, "culi": 9691, "nts": 9692, "reauc": 9693, "ureauc": 9694, "bureauc": 9695, "trati": 9696, "ife": 9697, "aucr": 9698, "eaucr": 9699, "reaucr": 9700, "ureaucr": 9701, "bureaucr": 9702, "at-l": 9703, "aucra": 9704, "eaucra": 9705, "reaucra": 9706, "ureaucra": 9707, "bureaucra": 9708, "lans": 9709, "aat-l": 9710, "nwer": 9711, "alisti": 9712, "uver": 9713, "eventu": 9714, "daat-l": 9715, "idaat-l": 9716, "didaat-l": 9717, "ndidaat-l": 9718, "andidaat-l": 9719, "kandidaat-l": 9720, "intere": 9721, "ntue": 9722, "entue": 9723, "ntensi": 9724, "ntuee": 9725, "ventue": 9726, "entuee": 9727, "ntueel": 9728, "eventue": 9729, "ventuee": 9730, "entueel": 9731, "eventuee": 9732, "ventueel": 9733, "eventueel": 9734, "pend": 9735, "intensi": 9736, "rraa": 9737, "culie": 9738, "tensief": 9739, "anise": 9740, "ongen": 9741, "istra": 9742, "culier": 9743, "asti": 9744, "ense": 9745, "cyp": 9746, "40": 9747, "sor": 9748, "ouv": 9749, "sef": 9750, "strati": 9751, "anisee": 9752, "aniseer": 9753, "liaa": 9754, "cypr": 9755, "nwerk": 9756, "motie": 9757, "fite": 9758, "tris": 9759, "ompe": 9760, "edo": 9761, "defe": 9762, "chip": 9763, "xpl": 9764, "tob": 9765, "geest": 9766, "ontac": 9767, "consta": 9768, "contac": 9769, "ontact": 9770, "contact": 9771, "expl": 9772, "quen": 9773, "lemm": 9774, "uent": 9775, "istrat": 9776, "ian": 9777, "tratie": 9778, "de-": 9779, "alistis": 9780, "istrati": 9781, "quent": 9782, "alistisc": 9783, "alistisch": 9784, "\u00e8": 9785, "kond": 9786, "panj": 9787, "spanj": 9788, "enwer": 9789, "euk": 9790, "dg": 9791, "stratie": 9792, "ione": 9793, "rau": 9794, "17": 9795, "akel": 9796, "onstru": 9797, "enwerk": 9798, "upt": 9799, "rees": 9800, "corre": 9801, "mineel": 9802, "imineel": 9803, "rimineel": 9804, "crimineel": 9805, "ampa": 9806, "-g": 9807, "istratie": 9808, "storis": 9809, "istoris": 9810, "historis": 9811, "praat": 9812, "storisc": 9813, "istorisc": 9814, "storisch": 9815, "historisc": 9816, "istorisch": 9817, "historisch": 9818, "hz": 9819, "constr": 9820, "legi": 9821, "vrees": 9822, "ucrat": 9823, "roma": 9824, "constru": 9825, "ntensie": 9826, "intensie": 9827, "evel": 9828, "nistra": 9829, "tiee": 9830, "uic": 9831, "inistra": 9832, "nistrat": 9833, "ministra": 9834, "inistrat": 9835, "ministrat": 9836, "dministra": 9837, "administra": 9838, "dministrat": 9839, "administrat": 9840, "interes": 9841, "nistrati": 9842, "inistrati": 9843, "ministrati": 9844, "dministrati": 9845, "administrati": 9846, "defen": 9847, "ouve": 9848, "ucrati": 9849, "e\u00ebnti": 9850, "ie\u00ebnti": 9851, "cie\u00ebnti": 9852, "kus": 9853, "talia": 9854, "icul": 9855, "comme": 9856, "eneree": 9857, "generee": 9858, "enereer": 9859, "genereer": 9860, "cel": 9861, "ntensief": 9862, "intensief": 9863, "half": 9864, "uga": 9865, "nsens": 9866, "sni": 9867, "chaal": 9868, "ngege": 9869, "ngegev": 9870, "ngegeve": 9871, "ngegeven": 9872, "e\u00ebntie": 9873, "ie\u00ebntie": 9874, "cie\u00ebntie": 9875, "rres": 9876, "esef": 9877, "koning": 9878, "than": 9879, "roto": 9880, "laagd": 9881, "zwee": 9882, "bonde": 9883, "schat": 9884, "bese": 9885, "besef": 9886, "ax": 9887, "roef": 9888, "opol": 9889, "woe": 9890, "nistratie": 9891, "inistratie": 9892, "ministratie": 9893, "dministratie": 9894, "administratie": 9895, "anke": 9896, "efens": 9897, "uich": 9898, "dro": 9899, "dk": 9900, "defens": 9901, "interess": 9902, "lai": 9903, "liaan": 9904, "erra": 9905, "tratief": 9906, "stratief": 9907, "riva": 9908, "ensu": 9909, "hans": 9910, "ticus": 9911, "llende": 9912, "menw": 9913, "istratief": 9914, "amil": 9915, "nistratief": 9916, "inistratief": 9917, "ministratief": 9918, "dministratief": 9919, "administratief": 9920, "amenw": 9921, "menwe": 9922, "samenw": 9923, "amenwe": 9924, "menwer": 9925, "samenwe": 9926, "amenwer": 9927, "menwerk": 9928, "samenwer": 9929, "amenwerk": 9930, "samenwerk": 9931, "eraan": 9932, "schaal": 9933, "icie\u00ebnti": 9934, "ficie\u00ebnti": 9935, "icie\u00ebntie": 9936, "ficie\u00ebntie": 9937, "proto": 9938, "interesse": 9939, "hind": 9940, "ura": 9941, "maart": 9942, "dse": 9943, "fficie\u00ebnti": 9944, "fficie\u00ebntie": 9945, "italia": 9946, "ouver": 9947, "efficie\u00ebnti": 9948, "efficie\u00ebntie": 9949, "chz": 9950, "veld": 9951, "hze": 9952, "ichz": 9953, "chze": 9954, "hzel": 9955, "zichz": 9956, "ichze": 9957, "chzel": 9958, "hzelf": 9959, "zichze": 9960, "ichzel": 9961, "chzelf": 9962, "zichzel": 9963, "ichzelf": 9964, "zichzelf": 9965, "pati": 9966, "ectee": 9967, "ecteer": 9968, "equen": 9969, "onstruc": 9970, "onstruct": 9971, "trisc": 9972, "trisch": 9973, "rmeel": 9974, "ri\u00eb": 9975, "plu": 9976, "construc": 9977, "construct": 9978, "eorga": 9979, "enden": 9980, "toco": 9981, "equent": 9982, "igh": 9983, "eorgan": 9984, "ganise": 9985, "rganise": 9986, "organise": 9987, "ws": 9988, "gouv": 9989, "gouve": 9990, "otoc": 9991, "gouver": 9992, "georga": 9993, "niu": 9994, "eorgani": 9995, "ganisee": 9996, "eorganis": 9997, "rganisee": 9998, "ganiseer": 9999, "organisee": 10000, "rganiseer": 10001, "organiseer": 10002, "uvern": 10003, "georgan": 10004, "georgani": 10005, "georganis": 10006, "eorganise": 10007, "georganise": 10008, "eorganisee": 10009, "georganisee": 10010, "eorganiseer": 10011, "georganiseer": 10012, "fam": 10013, "rotoc": 10014, "ouvern": 10015, "gouvern": 10016, "ergan": 10017, "otoco": 10018, "tocol": 10019, "protoc": 10020, "rotoco": 10021, "otocol": 10022, "protoco": 10023, "rotocol": 10024, "protocol": 10025, "ted": 10026, "tali\u00eb": 10027, "itali\u00eb": 10028, "18": 10029, "afis": 10030, "-ru": 10031, "fw": 10032, "uverne": 10033, "ouverne": 10034, "gouverne": 10035, "schip": 10036, "ergang": 10037, "vergan": 10038, "vergang": 10039, "overgan": 10040, "overgang": 10041, "afisc": 10042, "straat": 10043, "afisch": 10044, "kro": 10045, "equa": 10046, "onstructi": 10047, "constructi": 10048, "ervi": 10049, "regis": 10050, "yc": 10051, "terve": 10052, "rgu": 10053, "onstructie": 10054, "constructie": 10055, "juic": 10056, "ndeli": 10057, "sof": 10058, "juich": 10059, "tine": 10060, "campa": 10061, "orie": 10062, "kamp": 10063, "ozo": 10064, "appl": 10065, "pectief": 10066, "spectief": 10067, "delen": 10068, "dio": 10069, "terven": 10070, "gor": 10071, "27": 10072, "nterve": 10073, "nterven": 10074, "interve": 10075, "interven": 10076, "plau": 10077, "verzoeke": 10078, "plaus": 10079, "trei": 10080, "egens": 10081, "verzoeken": 10082, "hinde": 10083, "hinder": 10084, "nri": 10085, "ulk": 10086, "velen": 10087, "elv": 10088, "ntbr": 10089, "ontbr": 10090, "oepe": 10091, "eiger": 10092, "ktis": 10093, "aktis": 10094, "raktis": 10095, "praktis": 10096, "monde": 10097, "impl": 10098, "-2": 10099, "betal": 10100, "nwerke": 10101, "vernee": 10102, "liaans": 10103, "nwerken": 10104, "egist": 10105, "regist": 10106, "heen": 10107, "quo": 10108, "ticul": 10109, "ormeel": 10110, "formeel": 10111, "uvernee": 10112, "verneer": 10113, "ouvernee": 10114, "uverneer": 10115, "gouvernee": 10116, "ouverneer": 10117, "gouverneer": 10118, "post": 10119, "rlei": 10120, "wets": 10121, "ellig": 10122, "opr": 10123, "r-": 10124, "ppla": 10125, "preke": 10126, "gum": 10127, "pecte": 10128, "specte": 10129, "egrij": 10130, "16": 10131, "appla": 10132, "pplau": 10133, "applau": 10134, "pplaus": 10135, "applaus": 10136, "ozon": 10137, "rgo": 10138, "preken": 10139, "emisc": 10140, "emisch": 10141, "ennen": 10142, "mde": 10143, "aarn": 10144, "aucrat": 10145, "eaucrat": 10146, "reaucrat": 10147, "ureaucrat": 10148, "bureaucrat": 10149, "begrij": 10150, "egrijp": 10151, "begrijp": 10152, "isb": 10153, "ersp": 10154, "argu": 10155, "rkenn": 10156, "erkenn": 10157, "n-o": 10158, "enwerke": 10159, "ktisc": 10160, "aktisc": 10161, "ktisch": 10162, "raktisc": 10163, "aktisch": 10164, "praktisc": 10165, "raktisch": 10166, "praktisch": 10167, "handi": 10168, "aucrati": 10169, "eaucrati": 10170, "reaucrati": 10171, "ureaucrati": 10172, "bureaucrati": 10173, "otenti": 10174, "enwerken": 10175, "potenti": 10176, "panje": 10177, "spanje": 10178, "bonden": 10179, "ey": 10180, "aarne": 10181, "otentie": 10182, "potentie": 10183, "haad": 10184, "chaad": 10185, "schaad": 10186, "enri": 10187, "compe": 10188, "kennen": 10189, "rticu": 10190, "articu": 10191, "rticul": 10192, "articul": 10193, "rkenne": 10194, "erkenne": 10195, "rkennen": 10196, "erkennen": 10197, "ndelin": 10198, "ndeling": 10199, "ecu": 10200, "undi": 10201, "efensi": 10202, "defensi": 10203, "kopp": 10204, "weig": 10205, "spreke": 10206, "efensie": 10207, "defensie": 10208, "particu": 10209, "particul": 10210, "-0": 10211, "niee": 10212, "lena": 10213, "tellig": 10214, "ao": 10215, "weige": 10216, "spreken": 10217, "u-b": 10218, "jken": 10219, "ndica": 10220, "rman": 10221, "nera": 10222, "rab": 10223, "slaagd": 10224, "arre": 10225, "rgum": 10226, "gume": 10227, "argum": 10228, "rgume": 10229, "gumen": 10230, "argume": 10231, "rgumen": 10232, "gument": 10233, "argumen": 10234, "rgument": 10235, "argument": 10236, "weiger": 10237, "atus": 10238, "ijken": 10239, "iculi": 10240, "ticuli": 10241, "iculie": 10242, "rticuli": 10243, "ticulie": 10244, "iculier": 10245, "articuli": 10246, "rticulie": 10247, "ticulier": 10248, "particuli": 10249, "articulie": 10250, "rticulier": 10251, "particulie": 10252, "articulier": 10253, "particulier": 10254, "eu-b": 10255, "rrec": 10256, "ulle": 10257, "eslaagd": 10258, "geslaagd": 10259, "pectee": 10260, "spectee": 10261, "pecteer": 10262, "specteer": 10263, "uden": 10264, "sco": 10265, "jul": 10266, "mic": 10267, "asso": 10268, "rvent": 10269, "ervent": 10270, "tspr": 10271, "weste": 10272, "ucratis": 10273, "aucratis": 10274, "eaucratis": 10275, "reaucratis": 10276, "ureaucratis": 10277, "bureaucratis": 10278, "plen": 10279, "orrec": 10280, "ucratisc": 10281, "aucratisc": 10282, "ucratisch": 10283, "eaucratisc": 10284, "aucratisch": 10285, "reaucratisc": 10286, "eaucratisch": 10287, "ureaucratisc": 10288, "reaucratisch": 10289, "bureaucratisc": 10290, "ureaucratisch": 10291, "bureaucratisch": 10292, "oppel": 10293, "ntis": 10294, "koppe": 10295, "koppel": 10296, "menwerke": 10297, "amenwerke": 10298, "menwerken": 10299, "samenwerke": 10300, "amenwerken": 10301, "samenwerken": 10302, "thoud": 10303, "fstan": 10304, "fstand": 10305, "-oo": 10306, "rbon": 10307, "mpag": 10308, "pagn": 10309, "okt": 10310, "iev": 10311, "mpagn": 10312, "sbr": 10313, "nada": 10314, "tatus": 10315, "status": 10316, "var": 10317, "itspr": 10318, "uitsp": 10319, "chuw": 10320, "schuw": 10321, "ampag": 10322, "sted": 10323, "emoe": 10324, "hine": 10325, "ampagn": 10326, "olen": 10327, "tspre": 10328, "uitspr": 10329, "thi": 10330, "pagne": 10331, "mpagne": 10332, "ampagne": 10333, "wend": 10334, "itspre": 10335, "uitspre": 10336, "emde": 10337, "misb": 10338, "sbru": 10339, "chine": 10340, "nium": 10341, "tage": 10342, "pin": 10343, "vem": 10344, "erce": 10345, "isbr": 10346, "misbr": 10347, "isbru": 10348, "sbrui": 10349, "misbru": 10350, "isbrui": 10351, "misbrui": 10352, "tenr": 10353, "sbruik": 10354, "isbruik": 10355, "misbruik": 10356, "oele": 10357, "antis": 10358, "amili": 10359, "olan": 10360, "lea": 10361, "rbond": 10362, "onsen": 10363, "erman": 10364, "erbon": 10365, "erbond": 10366, "verbon": 10367, "verbond": 10368, "onsens": 10369, "ester": 10370, "enai": 10371, "aliaa": 10372, "taliaa": 10373, "aliaan": 10374, "italiaa": 10375, "taliaan": 10376, "italiaan": 10377, "illi": 10378, "gaand": 10379, "nker": 10380, "nij": 10381, "-pro": 10382, "xe": 10383, "erlei": 10384, "lemme": 10385, "tatie": 10386, "emmer": 10387, "kene": 10388, "tsprek": 10389, "tspreke": 10390, "tspreken": 10391, "quaa": 10392, "nka": 10393, "massa": 10394, "rrest": 10395, "ntbre": 10396, "ontbre": 10397, "mbt": 10398, "ambt": 10399, "uige": 10400, "roso": 10401, "nzel": 10402, "taris": 10403, "itsprek": 10404, "uitsprek": 10405, "itspreke": 10406, "uitspreke": 10407, "itspreken": 10408, "uitspreken": 10409, "campag": 10410, "prest": 10411, "rrect": 10412, "correc": 10413, "orrect": 10414, "correct": 10415, "ndo": 10416, "campagn": 10417, "campagne": 10418, "ullen": 10419, "ovem": 10420, "sensu": 10421, "rup": 10422, "tenri": 10423, "gede": 10424, "fami": 10425, "zigd": 10426, "jzigd": 10427, "ijzigd": 10428, "wijzigd": 10429, "famil": 10430, "loge": 10431, "roz": 10432, "waarn": 10433, "famili": 10434, "tuige": 10435, "ofte": 10436, "gemoe": 10437, "nitief": 10438, "de-f": 10439, "kenen": 10440, "uaat": 10441, "initief": 10442, "finitief": 10443, "efinitief": 10444, "definitief": 10445, "stenr": 10446, "zev": 10447, "enko": 10448, "de-fr": 10449, "de-fra": 10450, "de-frac": 10451, "de-fract": 10452, "de-fracti": 10453, "de-fractie": 10454, "vemb": 10455, "novem": 10456, "ovemb": 10457, "vembe": 10458, "novemb": 10459, "ovembe": 10460, "vember": 10461, "novembe": 10462, "ovember": 10463, "november": 10464, "stenri": 10465, "waarne": 10466, "zeve": 10467, "oriu": 10468, "orium": 10469, "oork": 10470, "kust": 10471, "toriu": 10472, "torium": 10473, "plena": 10474, "lenai": 10475, "plenai": 10476, "zeven": 10477, "enair": 10478, "lenair": 10479, "plenair": 10480, "rspe": 10481, "nsus": 10482, "ensus": 10483, "consen": 10484, "gek": 10485, "lemmer": 10486, "rali": 10487, "nsensu": 10488, "onsensu": 10489, "thans": 10490, "rros": 10491, "belem": 10492, "elemm": 10493, "belemm": 10494, "elemme": 10495, "belemme": 10496, "elemmer": 10497, "belemmer": 10498, "iet-": 10499, "sensus": 10500, "consens": 10501, "consensu": 10502, "amilie": 10503, "familie": 10504, "kn": 10505, "erko": 10506, "tam": 10507, "houde": 10508, "rbonde": 10509, "erbonde": 10510, "rbonden": 10511, "verbonde": 10512, "erbonden": 10513, "verbonden": 10514, "ocial": 10515, "social": 10516, "nzelf": 10517, "kto": 10518, "spaar": 10519, "loei": 10520, "deq": 10521, "adeq": 10522, "nvu": 10523, "nvul": 10524, "vull": 10525, "vulle": 10526, "itic": 10527, "anvu": 10528, "aanvu": 10529, "anvul": 10530, "aanvul": 10531, "vullen": 10532, "elh": 10533, "nvull": 10534, "nvulle": 10535, "ullend": 10536, "ressi": 10537, "anvull": 10538, "aanvull": 10539, "anvulle": 10540, "nvullen": 10541, "vullend": 10542, "aanvulle": 10543, "anvullen": 10544, "nvullend": 10545, "aanvullen": 10546, "anvullend": 10547, "aanvullend": 10548, "r.": 10549, "quaat": 10550, "dequ": 10551, "adequ": 10552, "dequa": 10553, "adequa": 10554, "arros": 10555, "kter": 10556, "tist": 10557, "perm": 10558, "nrij": 10559, "enrij": 10560, "equaa": 10561, "dequaa": 10562, "equaat": 10563, "adequaa": 10564, "dequaat": 10565, "adequaat": 10566, "nrijk": 10567, "enrijk": 10568, "tenrij": 10569, "tenrijk": 10570, "ostenr": 10571, "oostenr": 10572, "pool": 10573, "ostenri": 10574, "stenrij": 10575, "oostenri": 10576, "ostenrij": 10577, "stenrijk": 10578, "oostenrij": 10579, "ostenrijk": 10580, "oostenrijk": 10581, "nsensus": 10582, "onsensus": 10583, "lies": 10584, "consensus": 10585, "ugg": 10586, "lgar": 10587, "-oos": 10588, "-oost": 10589, "tarie": 10590, "istre": 10591, "bak": 10592, "erspe": 10593, "rd-": 10594, "tervent": 10595, "ntervent": 10596, "intervent": 10597, "istree": 10598, "istreer": 10599, "barros": 10600, "ata": 10601, "gier": 10602, "waak": 10603, "vige": 10604, "ressie": 10605, "vui": 10606, "rroso": 10607, "arroso": 10608, "barroso": 10609, "niet-": 10610, "aliaans": 10611, "taliaans": 10612, "italiaans": 10613, "toeri": 10614, "cialist": 10615, "oeris": 10616, "toeris": 10617, "ilan": 10618, "-str": 10619, "dek": 10620, "iett": 10621, "tmo": 10622, "aties": 10623, "chui": 10624, "oever": 10625, "diversit": 10626, "temi": 10627, "schui": 10628, "cod": 10629, "rkend": 10630, "sbu": 10631, "voork": 10632, "arak": 10633, "erkend": 10634, "diversite": 10635, "diversitei": 10636, "diversiteit": 10637, "geda": 10638, "bis": 10639, "arnee": 10640, "htst": 10641, "chtst": 10642, "blic": 10643, "ntm": 10644, "lide": 10645, "nadee": 10646, "tafe": 10647, "axi": 10648, "sbur": 10649, "bestan": 10650, "bestand": 10651, "lijken": 10652, "koso": 10653, "icap": 10654, "aarnee": 10655, "waarnee": 10656, "arneem": 10657, "aarneem": 10658, "waarneem": 10659, "nsc": 10660, "inze": 10661, "osov": 10662, "kwet": 10663, "ublic": 10664, "public": 10665, "ional": 10666, "-20": 10667, "it-": 10668, "inent": 10669, "arit": 10670, "aude": 10671, "gv": 10672, "andic": 10673, "andica": 10674, "gedur": 10675, "balk": 10676, "nzet": 10677, "kosov": 10678, "huldi": 10679, "huldig": 10680, "oldo": 10681, "afel": 10682, "tobe": 10683, "mpu": 10684, "nif": 10685, "pole": 10686, "dicap": 10687, "handic": 10688, "ndicap": 10689, "handica": 10690, "andicap": 10691, "handicap": 10692, "sburg": 10693, "servi": 10694, "ntiee": 10695, "sag": 10696, "inzet": 10697, "angeg": 10698, "aangeg": 10699, "angege": 10700, "aangege": 10701, "angegev": 10702, "aangegev": 10703, "angegeve": 10704, "aangegeve": 10705, "angegeven": 10706, "aangegeven": 10707, "kwets": 10708, "ontm": 10709, "tbree": 10710, "ntbree": 10711, "tbreek": 10712, "ontbree": 10713, "ntbreek": 10714, "ontbreek": 10715, "erism": 10716, "edac": 10717, "dko": 10718, "arres": 10719, "iette": 10720, "erisme": 10721, "urende": 10722, "arrest": 10723, "eduren": 10724, "durende": 10725, "raud": 10726, "ulgar": 10727, "bulgar": 10728, "gedure": 10729, "geduren": 10730, "edurend": 10731, "gedurend": 10732, "edurende": 10733, "gedurende": 10734, "zul": 10735, "tici": 10736, "oerism": 10737, "toerism": 10738, "oerisme": 10739, "toerisme": 10740, "ti\u00ebn": 10741, "pati\u00eb": 10742, "arief": 10743, "tarief": 10744, "niett": 10745, "each": 10746, "niette": 10747, "rooi": 10748, "voldo": 10749, "ati\u00ebn": 10750, "ti\u00ebnt": 10751, "pati\u00ebn": 10752, "atten": 10753, "rse": 10754, "ati\u00ebnt": 10755, "pati\u00ebnt": 10756, "verko": 10757, "ologe": 10758, "ktob": 10759, "rele": 10760, "n-oo": 10761, "rozo": 10762, "okto": 10763, "uroz": 10764, "euroz": 10765, "urozo": 10766, "rozon": 10767, "eurozo": 10768, "urozon": 10769, "eurozon": 10770, "iticu": 10771, "iticus": 10772, "oktob": 10773, "ktobe": 10774, "oktobe": 10775, "tober": 10776, "ktober": 10777, "oktober": 10778, "ozone": 10779, "-rus": 10780, "dend": 10781, "frau": 10782, "belg": 10783, "rspec": 10784, "erspec": 10785, "tafel": 10786, "oppo": 10787, "fraud": 10788, "onderha": 10789, "rozone": 10790, "urozone": 10791, "eurozone": 10792, "serve": 10793, "en-o": 10794, "ibil": 10795, "fab": 10796, "eemd": 10797, "hant": 10798, "ontra": 10799, "ecr": 10800, "gm": 10801, "zins": 10802, "tede": 10803, "neraa": 10804, "max": 10805, "neraal": 10806, "overa": 10807, "contra": 10808, "stede": 10809, "eteer": 10810, "undig": 10811, "eite": 10812, "tisti": 10813, "ocie": 10814, "rbr": 10815, "merc": 10816, "enera": 10817, "genera": 10818, "socie": 10819, "eloos": 10820, "fsc": 10821, "elig": 10822, "leur": 10823, "zulk": 10824, "iland": 10825, "fsch": 10826, "bst": 10827, "vle": 10828, "pon": 10829, "rventi": 10830, "erventi": 10831, "terventi": 10832, "nterventi": 10833, "interventi": 10834, "nkom": 10835, "vuil": 10836, "oct": 10837, "nso": 10838, "rventie": 10839, "erventie": 10840, "terventie": 10841, "nterventie": 10842, "interventie": 10843, "urks": 10844, "turks": 10845, "ost-": 10846, "en-oo": 10847, "kba": 10848, "cle": 10849, "ommer": 10850, "sym": 10851, "rhou": 10852, "hante": 10853, "persp": 10854, "perspe": 10855, "perspec": 10856, "ord-": 10857, "den-o": 10858, "den-oo": 10859, "rspect": 10860, "erspect": 10861, "0-": 10862, "ofit": 10863, "rofit": 10864, "n-oos": 10865, "en-oos": 10866, "n-oost": 10867, "en-oost": 10868, "hantee": 10869, "hanteer": 10870, "perspect": 10871, "xim": 10872, "avig": 10873, "erhou": 10874, "dden-o": 10875, "idden-o": 10876, "dden-oo": 10877, "den-oos": 10878, "midden-o": 10879, "idden-oo": 10880, "den-oost": 10881, "midden-oo": 10882, "dden-oos": 10883, "idden-oos": 10884, "dden-oost": 10885, "midden-oos": 10886, "idden-oost": 10887, "midden-oost": 10888, "kundi": 10889, "kundig": 10890, "rspecti": 10891, "erspecti": 10892, "perspecti": 10893, "profit": 10894, "rspectie": 10895, "erspectie": 10896, "perspectie": 10897, "maxi": 10898, "veral": 10899, "axim": 10900, "maxim": 10901, "estel": 10902, "reide": 10903, "frikaa": 10904, "afrikaa": 10905, "frikaan": 10906, "afrikaan": 10907, "giti": 10908, "itor": 10909, "rhoud": 10910, "uan": 10911, "erhoud": 10912, "abr": 10913, "berg": 10914, "onderda": 10915, "lgari": 10916, "xibi": 10917, "exibi": 10918, "xibil": 10919, "lexibi": 10920, "exibil": 10921, "flexibi": 10922, "lexibil": 10923, "flexibil": 10924, "egit": 10925, "egiti": 10926, "agie": 10927, "ulgari": 10928, "bulgari": 10929, "pret": 10930, "verho": 10931, "overal": 10932, "rspectief": 10933, "erspectief": 10934, "perspectief": 10935, "digde": 10936, "lgarij": 10937, "lgarije": 10938, "erein": 10939, "verein": 10940, "oord-": 10941, "ulgarij": 10942, "bulgarij": 10943, "ulgarije": 10944, "bulgarije": 10945, "ossi": 10946, "kbaa": 10947, "kbaar": 10948, "legit": 10949, "legiti": 10950, "bezo": 10951, "rakte": 10952, "terd": 10953, "rer": 10954, "enie": 10955, "peer": 10956, "drug": 10957, "noord-": 10958, "blice": 10959, "ublice": 10960, "blicee": 10961, "publice": 10962, "ublicee": 10963, "bliceer": 10964, "publicee": 10965, "ubliceer": 10966, "publiceer": 10967, "tsta": 10968, "etn": 10969, "gha": 10970, "gitie": 10971, "egitie": 10972, "gitiem": 10973, "legitie": 10974, "egitiem": 10975, "legitiem": 10976, "-ooste": 10977, "-oosten": 10978, "dachte": 10979, "ldaa": 10980, "-stra": 10981, "nsch": 10982, "stal": 10983, "esk": 10984, "chre": 10985, "oldaa": 10986, "bijs": 10987, "schre": 10988, "doord": 10989, "laf": 10990, "db": 10991, "priva": 10992, "akter": 10993, "interessee": 10994, "interesseer": 10995, "rakter": 10996, "jdel": 10997, "ijdel": 10998, "mbo": 10999, "u-li": 11000, "karak": 11001, "nsa": 11002, "arakt": 11003, "karakt": 11004, "arakte": 11005, "karakte": 11006, "arakter": 11007, "karakter": 11008, "vice": 11009, "eu-li": 11010, "edw": 11011, "sovo": 11012, "frikaans": 11013, "afrikaans": 11014, "osovo": 11015, "kosovo": 11016, "t-r": 11017, "ntite": 11018, "zweed": 11019, "nr.": 11020, "ldoe": 11021, "ximu": 11022, "ldoen": 11023, "aximu": 11024, "ximum": 11025, "maximu": 11026, "aximum": 11027, "maximum": 11028, "oldoe": 11029, "voldoe": 11030, "oldoen": 11031, "voldoen": 11032, "n-ooste": 11033, "en-ooste": 11034, "alka": 11035, "qui": 11036, "n-oosten": 11037, "den-ooste": 11038, "en-oosten": 11039, "atl": 11040, "dden-ooste": 11041, "den-oosten": 11042, "idden-ooste": 11043, "midden-ooste": 11044, "dden-oosten": 11045, "idden-oosten": 11046, "midden-oosten": 11047, "-strat": 11048, "elov": 11049, "ldoend": 11050, "oldoend": 11051, "voldoend": 11052, "-strate": 11053, "-strateg": 11054, "rschu": 11055, "nologe": 11056, "-europe": 11057, "ndige": 11058, "hnologe": 11059, "chnologe": 11060, "echnologe": 11061, "technologe": 11062, "hed": 11063, "ibili": 11064, "cid": 11065, "ofite": 11066, "rofite": 11067, "profite": 11068, "nslag": 11069, "oute": 11070, "-dem": 11071, "uwel": 11072, "rente": 11073, "fitee": 11074, "ofitee": 11075, "fiteer": 11076, "rofitee": 11077, "ofiteer": 11078, "profitee": 11079, "rofiteer": 11080, "profiteer": 11081, "ry": 11082, "98": 11083, "-strategi": 11084, "ontho": 11085, "onthou": 11086, "rwez": 11087, "erwez": 11088, "ttem": 11089, "-demo": 11090, "lkan": 11091, "low": 11092, "ump": 11093, "etig": 11094, "hag": 11095, "id-": 11096, "weeds": 11097, "zweeds": 11098, "aal-": 11099, "rweze": 11100, "erweze": 11101, "rwezen": 11102, "erwezen": 11103, "litic": 11104, "olitic": 11105, "politic": 11106, "tsto": 11107, "ntell": 11108, "ociali": 11109, "sociali": 11110, "ocialis": 11111, "socialis": 11112, "hot": 11113, "nthoud": 11114, "bijst": 11115, "munt": 11116, "u-lid": 11117, "-democ": 11118, "-democr": 11119, "-democra": 11120, "lsm": 11121, "india": 11122, "espre": 11123, "hy": 11124, "koer": 11125, "idia": 11126, "eu-lid": 11127, "onthoud": 11128, "perc": 11129, "ttemi": 11130, "esprek": 11131, "oegen": 11132, "temin": 11133, "gewij": 11134, "balka": 11135, "mier": 11136, "anspo": 11137, "ettem": 11138, "iettem": 11139, "ettemi": 11140, "ttemin": 11141, "niettem": 11142, "iettemi": 11143, "ettemin": 11144, "niettemi": 11145, "iettemin": 11146, "niettemin": 11147, "alkan": 11148, "kope": 11149, "oost-": 11150, "kste": 11151, "balkan": 11152, "xibili": 11153, "ibilit": 11154, "exibili": 11155, "lexibili": 11156, "flexibili": 11157, "alli": 11158, "passa": 11159, "nstat": 11160, "lgi": 11161, "geac": 11162, "breide": 11163, "rlies": 11164, "erlies": 11165, "verlies": 11166, "sidia": 11167, "bsidia": 11168, "ionee": 11169, "tstoo": 11170, "nista": 11171, "ubsidia": 11172, "subsidia": 11173, "dge": 11174, "fwe": 11175, "ensl": 11176, "nistan": 11177, "gespre": 11178, "ossie": 11179, "sku": 11180, "gesprek": 11181, "ebreide": 11182, "gebreide": 11183, "ieti": 11184, "line": 11185, "ruch": 11186, "-rusl": 11187, "-rusla": 11188, "-ruslan": 11189, "-rusland": 11190, "rlin": 11191, "t-e": 11192, "echtst": 11193, "ndse": 11194, "rucht": 11195, "rechtst": 11196, "tstoot": 11197, "ibilite": 11198, "ibilitei": 11199, "ibiliteit": 11200, "sagi": 11201, "ash": 11202, "szi": 11203, "tatis": 11204, "intel": 11205, "xibilit": 11206, "exibilit": 11207, "xibilite": 11208, "lexibilit": 11209, "exibilite": 11210, "xibilitei": 11211, "flexibilit": 11212, "lexibilite": 11213, "exibilitei": 11214, "xibiliteit": 11215, "flexibilite": 11216, "lexibilitei": 11217, "exibiliteit": 11218, "flexibilitei": 11219, "lexibiliteit": 11220, "flexibiliteit": 11221, "ndeel": 11222, "skun": 11223, "ssag": 11224, "leng": 11225, "itsto": 11226, "lore": 11227, "nstate": 11228, "uitsto": 11229, "chuldi": 11230, "schuldi": 11231, "chuldig": 11232, "schuldig": 11233, "013": 11234, "itstoo": 11235, "uitstoo": 11236, "itstoot": 11237, "uitstoot": 11238, "edach": 11239, "edacht": 11240, "reuk": 11241, "raai": 11242, "skund": 11243, "uot": 11244, "intell": 11245, "assag": 11246, "quot": 11247, "vac": 11248, "nver": 11249, "entiee": 11250, "agier": 11251, "dip": 11252, "ssagi": 11253, "sagie": 11254, "ssagie": 11255, "sagier": 11256, "ssagier": 11257, "oemde": 11258, "assagi": 11259, "assagie": 11260, "assagier": 11261, "onstat": 11262, "jech": 11263, "endeel": 11264, "passag": 11265, "constat": 11266, "onstate": 11267, "constate": 11268, "sjec": 11269, "tsjec": 11270, "sjech": 11271, "tsjech": 11272, "rade": 11273, "passagi": 11274, "passagie": 11275, "passagier": 11276, "tatee": 11277, "statee": 11278, "tateer": 11279, "nstatee": 11280, "stateer": 11281, "onstatee": 11282, "nstateer": 11283, "constatee": 11284, "onstateer": 11285, "constateer": 11286, "erent": 11287, "raude": 11288, "fraude": 11289, "nieti": 11290, "ietig": 11291, "statis": 11292, "sati": 11293, "ansl": 11294, "ondel": 11295, "plom": 11296, "lkome": 11297, "ondeli": 11298, "rbaa": 11299, "nietig": 11300, "mondel": 11301, "mondeli": 11302, "ondelin": 11303, "mondelin": 11304, "ondeling": 11305, "mondeling": 11306, "dy": 11307, "lkomen": 11308, "iplo": 11309, "olko": 11310, "volko": 11311, "olkom": 11312, "volkom": 11313, "dipl": 11314, "diplo": 11315, "olkome": 11316, "volkome": 11317, "olkomen": 11318, "volkomen": 11319, "noemde": 11320, "iplom": 11321, "diplom": 11322, "enoemde": 11323, "loma": 11324, "t-ru": 11325, "t-rus": 11326, "espro": 11327, "verwez": 11328, "verweze": 11329, "verwezen": 11330, "seq": 11331, "sequ": 11332, "tric": 11333, "seque": 11334, "sequen": 11335, "liticu": 11336, "oliticu": 11337, "liticus": 11338, "politicu": 11339, "oliticus": 11340, "politicus": 11341, "cro": 11342, "sequent": 11343, "aansl": 11344, "chand": 11345, "genoemde": 11346, "gepa": 11347, "uid-": 11348, "ighe": 11349, "sim": 11350, "nlijke": 11351, "isat": 11352, "noege": 11353, "noegen": 11354, "zuid-": 11355, "rru": 11356, "perce": 11357, "nseq": 11358, "nsequ": 11359, "nseque": 11360, "nsequen": 11361, "wit-": 11362, "zenl": 11363, "enlijke": 11364, "zenli": 11365, "onseq": 11366, "conseq": 11367, "onsequ": 11368, "consequ": 11369, "onseque": 11370, "conseque": 11371, "onsequen": 11372, "nsequent": 11373, "consequen": 11374, "pe-": 11375, "zenlij": 11376, "zenlijk": 11377, "nlijken": 11378, "impe": 11379, "rling": 11380, "ezenl": 11381, "wezenl": 11382, "ezenli": 11383, "wezenli": 11384, "ezenlij": 11385, "wezenlij": 11386, "ezenlijk": 11387, "wezenlijk": 11388, "inm": 11389, "onsequent": 11390, "consequent": 11391, "rwezenl": 11392, "erwezenl": 11393, "rwezenli": 11394, "zenlijke": 11395, "verwezenl": 11396, "erwezenli": 11397, "rwezenlij": 11398, "verwezenli": 11399, "erwezenlij": 11400, "rwezenlijk": 11401, "verwezenlij": 11402, "erwezenlijk": 11403, "verwezenlijk": 11404, "rupt": 11405, "enlijken": 11406, "ezenlijke": 11407, "wezenlijke": 11408, "akis": 11409, "it-r": 11410, "alsm": 11411, "zenlijken": 11412, "wit-r": 11413, "enoege": 11414, "genoege": 11415, "enoegen": 11416, "genoegen": 11417, "ezenlijken": 11418, "rwezenlijke": 11419, "wezenlijken": 11420, "erwezenlijke": 11421, "rwezenlijken": 11422, "verwezenlijke": 11423, "erwezenlijken": 11424, "verwezenlijken": 11425, "schan": 11426, "traal": 11427, "hage": 11428, "it-ru": 11429, "wit-ru": 11430, "it-rus": 11431, "wit-rus": 11432, "apr": 11433, "breu": 11434, "udie": 11435, "jdeli": 11436, "ijdeli": 11437, "octr": 11438, "heng": 11439, "breuk": 11440, "-k": 11441, "gres": 11442, "derzoeke": 11443, "nderzoeke": 11444, "onderzoeke": 11445, "euge": 11446, "ullende": 11447, "vullende": 11448, "nvullende": 11449, "anvullende": 11450, "aanvullende": 11451, "atist": 11452, "ploma": 11453, "iploma": 11454, "diploma": 11455, "lstr": 11456, "ansla": 11457, "derzoeken": 11458, "nderzoeken": 11459, "onderzoeken": 11460, "kist": 11461, "elt": 11462, "atla": 11463, "iezen": 11464, "tudi": 11465, "studi": 11466, "fil": 11467, "aansla": 11468, "tun": 11469, "anslag": 11470, "aanslag": 11471, "meng": 11472, "dict": 11473, "mane": 11474, "ekene": 11475, "tstr": 11476, "aden": 11477, "anspor": 11478, "ntisc": 11479, "ntisch": 11480, "ox": 11481, "trein": 11482, "antisc": 11483, "antisch": 11484, "emier": 11485, "-democraa": 11486, "-democraat": 11487, "ay": 11488, "cide": 11489, "kopen": 11490, "atisti": 11491, "ekenen": 11492, "gedw": 11493, "ghei": 11494, "ghan": 11495, "elgi": 11496, "tudie": 11497, "studie": 11498, "gheid": 11499, "ntag": 11500, "colo": 11501, "zwi": 11502, "liez": 11503, "clau": 11504, "ighei": 11505, "igheid": 11506, "ieks": 11507, "eneraa": 11508, "generaa": 11509, "eneraal": 11510, "generaal": 11511, "anist": 11512, "inko": 11513, "pda": 11514, "rliez": 11515, "lieze": 11516, "erliez": 11517, "rlieze": 11518, "verliez": 11519, "erlieze": 11520, "verlieze": 11521, "tistis": 11522, "chel": 11523, "liezen": 11524, "rliezen": 11525, "erliezen": 11526, "verliezen": 11527, "remier": 11528, "premier": 11529, "pdat": 11530, "lanti": 11531, "belgi": 11532, "tistisc": 11533, "tistisch": 11534, "oere": 11535, "schand": 11536, "skundi": 11537, "skundig": 11538, "tatist": 11539, "tatisti": 11540, "atlan": 11541, "sier": 11542, "statist": 11543, "statisti": 11544, "dwo": 11545, "tie-": 11546, "hra": 11547, "hagen": 11548, "tlant": 11549, "atlant": 11550, "ham": 11551, "tekene": 11552, "tekenen": 11553, "edwo": 11554, "dwon": 11555, "wong": 11556, "gedwo": 11557, "edwon": 11558, "dwong": 11559, "gedwon": 11560, "pz": 11561, "wonge": 11562, "edwong": 11563, "dwonge": 11564, "wongen": 11565, "gedwong": 11566, "edwonge": 11567, "dwongen": 11568, "gedwonge": 11569, "edwongen": 11570, "gedwongen": 11571, "ugal": 11572, "sac": 11573, "perma": 11574, "lik": 11575, "leva": 11576, "\u00fc": 11577, "tuga": 11578, "rtuga": 11579, "tugal": 11580, "ortuga": 11581, "rtugal": 11582, "portuga": 11583, "ortugal": 11584, "portugal": 11585, "angel": 11586, "polen": 11587, "vant": 11588, "tlanti": 11589, "atlanti": 11590, "cis": 11591, "ivie": 11592, "abri": 11593, "nmidde": 11594, "nmiddel": 11595, "rrup": 11596, "manen": 11597, "ile": 11598, "rrupt": 11599, "omin": 11600, "andse": 11601, "ppe-": 11602, "atistis": 11603, "olide": 11604, "alif": 11605, "landse": 11606, "anent": 11607, "ereik": 11608, "ugge": 11609, "tstre": 11610, "inmi": 11611, "inmid": 11612, "inmidd": 11613, "inmidde": 11614, "inmiddel": 11615, "nmiddels": 11616, "inmiddels": 11617, "atistisc": 11618, "atistisch": 11619, "szin": 11620, "cal": 11621, "jdelij": 11622, "ijdelij": 11623, "jdelijk": 11624, "ijdelijk": 11625, "ngew": 11626, "adeel": 11627, "nadeel": 11628, "szins": 11629, "telij": 11630, "kool": 11631, "solide": 11632, "cheng": 11633, "tijdel": 11634, "tijdeli": 11635, "tijdelij": 11636, "tijdelijk": 11637, "telijk": 11638, "arts": 11639, "ocialist": 11640, "socialist": 11641, "tatistis": 11642, "eleva": 11643, "ingr": 11644, "satie": 11645, "statistis": 11646, "urt": 11647, "xtre": 11648, "extre": 11649, "tatistisc": 11650, "tatistisch": 11651, "touw": 11652, "rmane": 11653, "rmanen": 11654, "doorda": 11655, "alan": 11656, "statistisc": 11657, "statistisch": 11658, "scheng": 11659, "opda": 11660, "esku": 11661, "egem": 11662, "eskun": 11663, "eskund": 11664, "opdat": 11665, "reli": 11666, "t-rusl": 11667, "t-rusla": 11668, "t-ruslan": 11669, "t-rusland": 11670, "manent": 11671, "tle": 11672, "dos": 11673, "assi": 11674, "levan": 11675, "avige": 11676, "-europee": 11677, "-europees": 11678, "perman": 11679, "relev": 11680, "amme": 11681, "urs": 11682, "elevan": 11683, "evant": 11684, "levant": 11685, "usu": 11686, "ermane": 11687, "permane": 11688, "ermanen": 11689, "rmanent": 11690, "permanen": 11691, "ermanent": 11692, "permanent": 11693, "releva": 11694, "relevan": 11695, "elevant": 11696, "anze": 11697, "relevant": 11698, "rabi": 11699, "put": 11700, "etekene": 11701, "betekene": 11702, "etekenen": 11703, "betekenen": 11704, "igie": 11705, "rieks": 11706, "ngri": 11707, "intege": 11708, "nhag": 11709, "enhag": 11710, "nhage": 11711, "enhage": 11712, "especte": 11713, "respecte": 11714, "graf": 11715, "eskundi": 11716, "eskundig": 11717, "ptim": 11718, "optim": 11719, "grieks": 11720, "tland": 11721, "sca": 11722, "espectee": 11723, "respectee": 11724, "especteer": 11725, "respecteer": 11726, "fgh": 11727, "afgh": 11728, "fgha": 11729, "afgha": 11730, "sfe": 11731, "eser": 11732, "oestan": 11733, "toestan": 11734, "iraa": 11735, "emid": 11736, "anker": 11737, "pijl": 11738, "emidd": 11739, "dda": 11740, "fghan": 11741, "afghan": 11742, "lantis": 11743, "tlantis": 11744, "atlantis": 11745, "oestand": 11746, "toestand": 11747, "ligi": 11748, "rcen": 11749, "lantisc": 11750, "tlantisc": 11751, "lantisch": 11752, "atlantisc": 11753, "tlantisch": 11754, "atlantisch": 11755, "it-rusl": 11756, "wit-rusl": 11757, "it-rusla": 11758, "wit-rusla": 11759, "it-ruslan": 11760, "wit-ruslan": 11761, "it-rusland": 11762, "wit-rusland": 11763, "rcent": 11764, "entag": 11765, "ercen": 11766, "ercent": 11767, "percen": 11768, "percent": 11769, "ompli": 11770, "compli": 11771, "titei": 11772, "titeit": 11773, "itori": 11774, "emidde": 11775, "blok": 11776, "loren": 11777, "ntitei": 11778, "ntiteit": 11779, "nhagen": 11780, "enhagen": 11781, "rib": 11782, "jam": 11783, "ropo": 11784, "ncep": 11785, "penh": 11786, "uweli": 11787, "ibel": 11788, "lifi": 11789, "oncep": 11790, "concep": 11791, "egemo": 11792, "gaars": 11793, "stin": 11794, "isl": 11795, "mg": 11796, "centa": 11797, "keni": 11798, "-ve": 11799, "eldi": 11800, "ngrij": 11801, "nma": 11802, "lific": 11803, "ntage": 11804, "lhe": 11805, "fabr": 11806, "ncept": 11807, "oncept": 11808, "concept": 11809, "desk": 11810, "rcenta": 11811, "ercenta": 11812, "percenta": 11813, "centag": 11814, "entage": 11815, "rcentag": 11816, "centage": 11817, "ercentag": 11818, "rcentage": 11819, "percentag": 11820, "ercentage": 11821, "percentage": 11822, "mos": 11823, "smed": 11824, "pir": 11825, "geru": 11826, "evere": 11827, "alifi": 11828, "tinen": 11829, "eila": 11830, "chis": 11831, "eligi": 11832, "vit": 11833, "bsta": 11834, "-w": 11835, "relig": 11836, "religi": 11837, "welij": 11838, "uwelij": 11839, "vloei": 11840, "alific": 11841, "eeln": 11842, "fabri": 11843, "deeln": 11844, "ansa": 11845, "uide": 11846, "lifice": 11847, "ngrijp": 11848, "lificee": 11849, "lificeer": 11850, "ligie": 11851, "eligie": 11852, "religie": 11853, "gespro": 11854, "emiddel": 11855, "eilan": 11856, "tende": 11857, "penha": 11858, "walif": 11859, "kwalif": 11860, "walifi": 11861, "kwalifi": 11862, "walific": 11863, "kwalific": 11864, "elhe": 11865, "-u": 11866, "openh": 11867, "enoo": 11868, "eiland": 11869, "trik": 11870, "welijk": 11871, "uwelijk": 11872, "sve": 11873, "vuld": 11874, "openha": 11875, "strik": 11876, "smede": 11877, "trooi": 11878, "kopenh": 11879, "kopenha": 11880, "everei": 11881, "penhag": 11882, "openhag": 11883, "penhage": 11884, "openhage": 11885, "penhagen": 11886, "openhagen": 11887, "sda": 11888, "kopenhag": 11889, "kopenhage": 11890, "kopenhagen": 11891, "lhei": 11892, "god": 11893, "elhei": 11894, "lheid": 11895, "elheid": 11896, "tatuu": 11897, "rta": 11898, "alifice": 11899, "walifice": 11900, "alificee": 11901, "kwalifice": 11902, "walificee": 11903, "alificeer": 11904, "kwalificee": 11905, "walificeer": 11906, "kwalificeer": 11907, "emoet": 11908, "wing": 11909, "echi": 11910, "erschij": 11911, "eelh": 11912, "genoo": 11913, "soev": 11914, "soeve": 11915, "soever": 11916, "oevere": 11917, "soevere": 11918, "haam": 11919, "orru": 11920, "verschij": 11921, "oeverei": 11922, "everein": 11923, "soeverei": 11924, "oeverein": 11925, "soeverein": 11926, "ilo": 11927, "tba": 11928, "corru": 11929, "erschijn": 11930, "verschijn": 11931, "kwaa": 11932, "eelhe": 11933, "chaam": 11934, "desku": 11935, "deskun": 11936, "deskund": 11937, "jle": 11938, "ijle": 11939, "rontr": 11940, "veelh": 11941, "eveelh": 11942, "veelhe": 11943, "oeveelh": 11944, "eveelhe": 11945, "hoeveelh": 11946, "oeveelhe": 11947, "hoeveelhe": 11948, "ouden": 11949, "ransa": 11950, "transa": 11951, "erontr": 11952, "verontr": 11953, "tinent": 11954, "prok": 11955, "rzic": 11956, "eelhei": 11957, "veelhei": 11958, "eelheid": 11959, "eveelhei": 11960, "veelheid": 11961, "oeveelhei": 11962, "eveelheid": 11963, "hoeveelhei": 11964, "oeveelheid": 11965, "hoeveelheid": 11966, "deskundi": 11967, "deskundig": 11968, "rzich": 11969, "tges": 11970, "rzicht": 11971, "jechi": 11972, "2013": 11973, "sprok": 11974, "havi": 11975, "sjechi": 11976, "tsjechi": 11977, "hanist": 11978, "anista": 11979, "nami": 11980, "999": 11981, "ya": 11982, "anistan": 11983, "ypru": 11984, "prus": 11985, "cypru": 11986, "yprus": 11987, "cyprus": 11988, "rmate": 11989, "dwin": 11990, "tegem": 11991, "tegemo": 11992, "egemoe": 11993, "gemoet": 11994, "tegemoe": 11995, "egemoet": 11996, "tegemoet": 11997, "eldig": 11998, "hanista": 11999, "hanistan": 12000, "22": 12001, "erbr": 12002, "erlin": 12003, "verp": 12004, "tional": 12005, "nniu": 12006, "dwing": 12007, "fed": 12008, "nnium": 12009, "reser": 12010, "osl": 12011, "enniu": 12012, "ennium": 12013, "anzel": 12014, "anzelf": 12015, "vanz": 12016, "vanze": 12017, "vanzel": 12018, "vanzelf": 12019, "rstr": 12020, "1999": 12021, "wt": 12022, "empe": 12023, "itges": 12024, "uitges": 12025, "ssoc": 12026, "ssoci": 12027, "erling": 12028, "erstr": 12029, "eserv": 12030, "reserv": 12031, "iket": 12032, "duw": 12033, "ghani": 12034, "lb": 12035, "fghani": 12036, "ghanis": 12037, "afghani": 12038, "fghanis": 12039, "ghanist": 12040, "afghanis": 12041, "fghanist": 12042, "ghanista": 12043, "afghanist": 12044, "fghanista": 12045, "ghanistan": 12046, "afghanista": 12047, "fghanistan": 12048, "afghanistan": 12049, "assoc": 12050, "associ": 12051, "orrup": 12052, "corrup": 12053, "inkom": 12054, "orrupt": 12055, "corrupt": 12056, "tanda": 12057, "etik": 12058, "rsche": 12059, "draai": 12060, "trag": 12061, "standa": 12062, "roa": 12063, "nkome": 12064, "slist": 12065, "eslist": 12066, "beslist": 12067, "-h": 12068, "nkomen": 12069, "etike": 12070, "tiket": 12071, "etiket": 12072, "lsme": 12073, "esprok": 12074, "houden": 12075, "fede": 12076, "rstandi": 12077, "erstandi": 12078, "nderl": 12079, "alsme": 12080, "lsmed": 12081, "alsmed": 12082, "lsmede": 12083, "alsmede": 12084, "feder": 12085, "vuldi": 12086, "vuldig": 12087, "iaar": 12088, "rdw": 12089, "5-": 12090, "chot": 12091, "kista": 12092, "ersche": 12093, "sman": 12094, "idiaa": 12095, "diaar": 12096, "sidiaa": 12097, "bsidiaa": 12098, "idiaar": 12099, "sidiaar": 12100, "ubsidiaa": 12101, "bsidiaar": 12102, "subsidiaa": 12103, "ktri": 12104, "inkome": 12105, "ubsidiaar": 12106, "subsidiaar": 12107, "sion": 12108, "enoot": 12109, "inkomen": 12110, "cheide": 12111, "scheide": 12112, "genoot": 12113, "ivaa": 12114, "cheiden": 12115, "scheiden": 12116, "rivaa": 12117, "bloe": 12118, "rhav": 12119, "erhav": 12120, "derhav": 12121, "nderhav": 12122, "onderhav": 12123, "ektri": 12124, "lektri": 12125, "ational": 12126, "rhavi": 12127, "havig": 12128, "erhavi": 12129, "rhavig": 12130, "derhavi": 12131, "erhavig": 12132, "nderhavi": 12133, "derhavig": 12134, "onderhavi": 12135, "nderhavig": 12136, "onderhavig": 12137, "t-eu": 12138, "elektri": 12139, "yr": 12140, "zamel": 12141, "rni": 12142, "\u00ebli": 12143, "ctro": 12144, "stelli": 12145, "tract": 12146, "mt": 12147, "onderl": 12148, "derli": 12149, "ndaar": 12150, "ntine": 12151, "verstandi": 12152, "loft": 12153, "rstandig": 12154, "erstandig": 12155, "verstandig": 12156, "gol": 12157, "jsta": 12158, "ijsta": 12159, "nderli": 12160, "rpl": 12161, "onderli": 12162, "liteits": 12163, "wto": 12164, "juli": 12165, "rafi": 12166, "60": 12167, "rita": 12168, "nzo": 12169, "elof": 12170, "lofte": 12171, "by": 12172, "tgebreide": 12173, "itgebreide": 12174, "uitgebreide": 12175, "eloft": 12176, "elofte": 12177, "unis": 12178, "schot": 12179, "onts": 12180, "vreem": 12181, "reiz": 12182, "nto": 12183, "euri": 12184, "ecre": 12185, "octro": 12186, "tbe": 12187, "ovi": 12188, "isati": 12189, "ligh": 12190, "ctroo": 12191, "octroo": 12192, "ctrooi": 12193, "octrooi": 12194, "belof": 12195, "beloft": 12196, "derlin": 12197, "stoor": 12198, "belofte": 12199, "ezoe": 12200, "nderlin": 12201, "derling": 12202, "onderlin": 12203, "nderling": 12204, "onderling": 12205, "-i": 12206, "bezoe": 12207, "jler": 12208, "ijler": 12209, "gelov": 12210, "sule": 12211, "tti": 12212, "plem": 12213, "pleme": 12214, "plemen": 12215, "plement": 12216, "icaa": 12217, "will": 12218, "c-": 12219, "undige": 12220, "kundige": 12221, "claus": 12222, "tsb": 12223, "dwij": 12224, "pijle": 12225, "pijler": 12226, "xc": 12227, "exc": 12228, "zov": 12229, "mplem": 12230, "mpleme": 12231, "mplemen": 12232, "mplement": 12233, "estem": 12234, "23": 12235, "andaar": 12236, "xplo": 12237, "herp": 12238, "iment": 12239, "eserve": 12240, "reserve": 12241, "entit": 12242, "gedac": 12243, "gedach": 12244, "gedacht": 12245, "tandaa": 12246, "standaa": 12247, "tandaar": 12248, "standaar": 12249, "explo": 12250, "tbaa": 12251, "tbaar": 12252, "nuc": 12253, "bijsta": 12254, "reemd": 12255, "vreemd": 12256, "temp": 12257, "ppa": 12258, "dist": 12259, "entite": 12260, "entitei": 12261, "entiteit": 12262, "national": 12263, "erse": 12264, "erpl": 12265, "a\u00ebli": 12266, "jstan": 12267, "ijstan": 12268, "jstand": 12269, "bijstan": 12270, "ijstand": 12271, "bijstand": 12272, "cherp": 12273, "scherp": 12274, "ra\u00ebli": 12275, "proef": 12276, "gewijz": 12277, "grafi": 12278, "enc": 12279, "ppos": 12280, "oppos": 12281, "dol": 12282, "naties": 12283, "oeit": 12284, "chisc": 12285, "chisch": 12286, "ontine": 12287, "ntinen": 12288, "contine": 12289, "ontinen": 12290, "ntinent": 12291, "continen": 12292, "ontinent": 12293, "continent": 12294, "isla": 12295, "tmoe": 12296, "edachte": 12297, "gesprok": 12298, "ausu": 12299, "80": 12300, "lausu": 12301, "onso": 12302, "clausu": 12303, "erdw": 12304, "verdw": 12305, "rete": 12306, "usul": 12307, "overs": 12308, "rdwi": 12309, "rdwij": 12310, "daard": 12311, "wd": 12312, "ausul": 12313, "usule": 12314, "lausul": 12315, "ausule": 12316, "clausul": 12317, "lausule": 12318, "clausule": 12319, "orgi": 12320, "edit": 12321, "matie": 12322, "ulke": 12323, "zulke": 12324, "migen": 12325, "erdwi": 12326, "verdwi": 12327, "erdwij": 12328, "verdwij": 12329, "isatie": 12330, "minu": 12331, "mmigen": 12332, "ommigen": 12333, "sommigen": 12334, "ath": 12335, "werf": 12336, "proke": 12337, "sproke": 12338, "proken": 12339, "sproken": 12340, "esa": 12341, "cos": 12342, "sver": 12343, "dwijn": 12344, "ichti": 12345, "doele": 12346, "rikt": 12347, "rdwijn": 12348, "nsz": 12349, "moni": 12350, "erdwijn": 12351, "verdwijn": 12352, "ammer": 12353, "esproke": 12354, "esproken": 12355, "gesproke": 12356, "gesproken": 12357, "gedachte": 12358, "tgesp": 12359, "tgespr": 12360, "tgespro": 12361, "tgesprok": 12362, "lighe": 12363, "lighei": 12364, "ligheid": 12365, "itte": 12366, "pril": 12367, "ezoek": 12368, "bezoek": 12369, "eim": 12370, "tmoet": 12371, "itgesp": 12372, "uitgesp": 12373, "itgespr": 12374, "uitgespr": 12375, "itgespro": 12376, "uitgespro": 12377, "itgesprok": 12378, "uitgesprok": 12379, "verbr": 12380, "otst": 12381, "trikt": 12382, "strikt": 12383, "ky": 12384, "iligh": 12385, "eiligh": 12386, "ilighe": 12387, "veiligh": 12388, "eilighe": 12389, "ilighei": 12390, "veilighe": 12391, "eilighei": 12392, "iligheid": 12393, "veilighei": 12394, "eiligheid": 12395, "veiligheid": 12396, "ehal": 12397, "tron": 12398, "ntmo": 12399, "ntmoe": 12400, "terp": 12401, "ontmo": 12402, "ontmoe": 12403, "ntmoet": 12404, "ndaard": 12405, "andaard": 12406, "appa": 12407, "ograf": 12408, "zwar": 12409, "tandaard": 12410, "standaard": 12411, "ontmoet": 12412, "abrie": 12413, "ktro": 12414, "ektro": 12415, "lektro": 12416, "cret": 12417, "verpl": 12418, "elektro": 12419, "redig": 12420, "arke": 12421, "tgesproke": 12422, "tgesproken": 12423, "otsta": 12424, "pdr": 12425, "treeks": 12426, "itgesproke": 12427, "uitgesproke": 12428, "itgesproken": 12429, "uitgesproken": 12430, "verstr": 12431, "ocrat": 12432, "oeite": 12433, "opdr": 12434, "pdra": 12435, "opdra": 12436, "pdrac": 12437, "opdrac": 12438, "pdrach": 12439, "opdrach": 12440, "pdracht": 12441, "opdracht": 12442, "streeks": 12443, "rze": 12444, "etu": 12445, "nre": 12446, "tstan": 12447, "tstand": 12448, "plex": 12449, "otstan": 12450, "otstand": 12451, "ografi": 12452, "verla": 12453, "tots": 12454, "totst": 12455, "totsta": 12456, "totstan": 12457, "totstand": 12458, "uif": 12459, "optie": 12460, "t-eur": 12461, "t-euro": 12462, "uba": 12463, "ella": 12464, "adu": 12465, "prete": 12466, "ronde": 12467, "rstre": 12468, "ifo": 12469, "atum": 12470, "erstre": 12471, "rstrek": 12472, "verstre": 12473, "baat": 12474, "erstrek": 12475, "verstrek": 12476, "nterp": 12477, "oat": 12478, "zwart": 12479, "besc": 12480, "onsti": 12481, "tstree": 12482, "besch": 12483, "dsm": 12484, "ktris": 12485, "mplex": 12486, "omplex": 12487, "complex": 12488, "oden": 12489, "t-europ": 12490, "verhou": 12491, "verhoud": 12492, "apri": 12493, "reta": 12494, "versche": 12495, "alar": 12496, "ritie": 12497, "rschei": 12498, "erschei": 12499, "rscheid": 12500, "erscheid": 12501, "ektris": 12502, "ktrisc": 12503, "lektris": 12504, "ektrisc": 12505, "ktrisch": 12506, "elektris": 12507, "lektrisc": 12508, "ektrisch": 12509, "elektrisc": 12510, "lektrisch": 12511, "elektrisch": 12512, "ifor": 12513, "aba": 12514, "tred": 12515, "ranspo": 12516, "transpo": 12517, "htstr": 12518, "chtstr": 12519, "tip": 12520, "ociee": 12521, "ssocie": 12522, "sociee": 12523, "ocieer": 12524, "ssociee": 12525, "socieer": 12526, "ssocieer": 12527, "interp": 12528, "uds": 12529, "associe": 12530, "associee": 12531, "associeer": 12532, "terg": 12533, "htstre": 12534, "echtstr": 12535, "chtstre": 12536, "htstree": 12537, "tstreek": 12538, "rechtstr": 12539, "echtstre": 12540, "chtstree": 12541, "htstreek": 12542, "tstreeks": 12543, "rechtstre": 12544, "echtstree": 12545, "chtstreek": 12546, "htstreeks": 12547, "rechtstree": 12548, "echtstreek": 12549, "chtstreeks": 12550, "rechtstreek": 12551, "echtstreeks": 12552, "rechtstreeks": 12553, "moeit": 12554, "moeite": 12555, "chra": 12556, "olst": 12557, "dsma": 12558, "consti": 12559, "onstit": 12560, "constit": 12561, "stl": 12562, "schra": 12563, "rci": 12564, "fabrie": 12565, "abriek": 12566, "fabriek": 12567, "onstitu": 12568, "constitu": 12569, "-europa": 12570, "igend": 12571, "onver": 12572, "ralis": 12573, "april": 12574, "usa": 12575, "roat": 12576, "rdele": 12577, "gheids": 12578, "igheids": 12579, "kroa": 12580, "kroat": 12581, "rdelen": 12582, "verschei": 12583, "verscheid": 12584, "jamm": 12585, "24": 12586, "lna": 12587, "cs": 12588, "...": 12589, "vols": 12590, "commer": 12591, "mmerc": 12592, "ommerc": 12593, "commerc": 12594, "mbud": 12595, "impo": 12596, "ordele": 12597, "ordelen": 12598, "ombu": 12599, "ombud": 12600, "oordele": 12601, "oordelen": 12602, "omie": 12603, "terf": 12604, "ndels": 12605, "ae": 12606, "rto": 12607, "nbeg": 12608, "elinge": 12609, "clea": 12610, "mpen": 12611, "andels": 12612, "nuu": 12613, "rang": 12614, "nbegr": 12615, "ekeni": 12616, "elna": 12617, "araa": 12618, "cate": 12619, "eelna": 12620, "deelna": 12621, "nbegri": 12622, "nbegrip": 12623, "-am": 12624, "uwd": 12625, "lnam": 12626, "elnam": 12627, "lname": 12628, "eelnam": 12629, "elname": 12630, "deelnam": 12631, "eelname": 12632, "deelname": 12633, "buds": 12634, "mbuds": 12635, "ombuds": 12636, "beri": 12637, "nomie": 12638, "onomie": 12639, "ranspor": 12640, "transpor": 12641, "bestem": 12642, "pposi": 12643, "opposi": 12644, "nsport": 12645, "inuu": 12646, "nuut": 12647, "minuu": 12648, "inuut": 12649, "minuut": 12650, "ernem": 12651, "reste": 12652, "ansport": 12653, "ransport": 12654, "transport": 12655, "pposit": 12656, "opposit": 12657, "educ": 12658, "rscheide": 12659, "erscheide": 12660, "rscheiden": 12661, "erscheiden": 12662, "w-": 12663, "aps": 12664, "ppositi": 12665, "oppositi": 12666, "ppositie": 12667, "oppositie": 12668, "mpor": 12669, "-n": 12670, "zi\u00eb": 12671, "verscheide": 12672, "verscheiden": 12673, "zol": 12674, "dsman": 12675, "ivaat": 12676, "rivaat": 12677, "udsm": 12678, "erks": 12679, "udsma": 12680, "budsm": 12681, "mbudsm": 12682, "budsma": 12683, "udsman": 12684, "ombudsm": 12685, "mbudsma": 12686, "budsman": 12687, "ombudsma": 12688, "mbudsman": 12689, "ombudsman": 12690, "dif": 12691, "angst": 12692, "tina": 12693, "eike": 12694, "dide": 12695, "skundige": 12696, "onn": 12697, "mper": 12698, "negen": 12699, "rtel": 12700, "sfee": 12701, "tieel": 12702, "sfeer": 12703, "sem": 12704, "engel": 12705, "eoo": 12706, "jamme": 12707, "jammer": 12708, "eindi": 12709, "lleer": 12710, "ligheids": 12711, "indig": 12712, "rkst": 12713, "erkst": 12714, "eferee": 12715, "referee": 12716, "efereer": 12717, "refereer": 12718, "urig": 12719, "ssier": 12720, "vlee": 12721, "rkste": 12722, "erkste": 12723, "iligheids": 12724, "eiligheids": 12725, "veiligheids": 12726, "ndide": 12727, "didee": 12728, "andide": 12729, "ndidee": 12730, "dideer": 12731, "kandide": 12732, "andidee": 12733, "ndideer": 12734, "kandidee": 12735, "andideer": 12736, "kandideer": 12737, "impor": 12738, "eindig": 12739, "wond": 12740, "enam": 12741, "utom": 12742, "autom": 12743, "gy": 12744, "mport": 12745, "deld": 12746, "tekeni": 12747, "nval": 12748, "omat": 12749, "kenis": 12750, "oati": 12751, "epr": 12752, "ekenis": 12753, "etekeni": 12754, "tekenis": 12755, "betekeni": 12756, "etekenis": 12757, "betekenis": 12758, "import": 12759, "werks": 12760, "rlor": 12761, "havige": 12762, "rhavige": 12763, "erhavige": 12764, "derhavige": 12765, "nderhavige": 12766, "onderhavige": 12767, "fsp": 12768, "cas": 12769, "kstel": 12770, "erden": 12771, "deur": 12772, "igee": 12773, "hede": 12774, "eskundige": 12775, "roati": 12776, "rvange": 12777, "ervange": 12778, "werkst": 12779, "kroati": 12780, "rvangen": 12781, "ervangen": 12782, "rkstel": 12783, "werkste": 12784, "erkstel": 12785, "werkstel": 12786, "arschu": 12787, "aarschu": 12788, "waarschu": 12789, "erlor": 12790, "rlore": 12791, "verlor": 12792, "erlore": 12793, "rloren": 12794, "verlore": 12795, "erloren": 12796, "verloren": 12797, "terri": 12798, "mace": 12799, "gori": 12800, "o2": 12801, "etar": 12802, "conomie": 12803, "economie": 12804, "rechte": 12805, "eoor": 12806, "epen": 12807, "ewa": 12808, "opin": 12809, "ossier": 12810, "dz": 12811, "ngeni": 12812, "mol": 12813, "statuu": 12814, "doordat": 12815, "lad": 12816, "edel": 12817, "eurig": 12818, "doss": 12819, "bisc": 12820, "rama": 12821, "dossi": 12822, "dossie": 12823, "anm": 12824, "deskundige": 12825, "inbe": 12826, "dossier": 12827, "mart": 12828, "mage": 12829, "eam": 12830, "uws": 12831, "-ame": 12832, "ntieel": 12833, "atuut": 12834, "ensc": 12835, "nbr": 12836, "meens": 12837, "tatuut": 12838, "statuut": 12839, "igs": 12840, "troe": 12841, "tsbu": 12842, "tsbur": 12843, "tsburg": 12844, "eacht": 12845, "omg": 12846, "fspr": 12847, "oree": 12848, "intr": 12849, "etari": 12850, "entieel": 12851, "dernem": 12852, "ndernem": 12853, "ondernem": 12854, "heim": 12855, "ibu": 12856, "bisch": 12857, "paraa": 12858, "rpre": 12859, "hadu": 12860, "tische": 12861, "tatief": 12862, "erpre": 12863, "llan": 12864, "dav": 12865, "oca": 12866, "orna": 12867, "aduw": 12868, "chadu": 12869, "haduw": 12870, "schadu": 12871, "chaduw": 12872, "schaduw": 12873, "itat": 12874, "rschuw": 12875, "arschuw": 12876, "aarschuw": 12877, "waarschuw": 12878, "erad": 12879, "-amer": 12880, "ekk": 12881, "-ameri": 12882, "-amerik": 12883, "-amerika": 12884, "oru": 12885, "oers": 12886, "stic": 12887, "eai": 12888, "conso": 12889, "elve": 12890, "bala": 12891, "twaa": 12892, "restee": 12893, "resteer": 12894, "aare": 12895, "ofs": 12896, "inbeg": 12897, "inbegr": 12898, "inbegri": 12899, "inbegrip": 12900, "rekt": 12901, "tego": 12902, "rrit": 12903, "co2": 12904, "geze": 12905, "egor": 12906, "ain": 12907, "tentiee": 12908, "otentiee": 12909, "potentiee": 12910, "rnaam": 12911, "terpr": 12912, "tentieel": 12913, "otentieel": 12914, "potentieel": 12915, "cub": 12916, "ornaa": 12917, "oorna": 12918, "voorna": 12919, "ktron": 12920, "ektron": 12921, "lektron": 12922, "dou": 12923, "uns": 12924, "erbaa": 12925, "prim": 12926, "elektron": 12927, "berad": 12928, "nterpr": 12929, "oornaa": 12930, "ornaam": 12931, "voornaa": 12932, "oornaam": 12933, "voornaam": 12934, "anee": 12935, "raden": 12936, "vru": 12937, "vruc": 12938, "vruch": 12939, "vrucht": 12940, "enst": 12941, "ntrac": 12942, "balan": 12943, "eair": 12944, "erneme": 12945, "kh": 12946, "fspra": 12947, "gvu": 12948, "gvul": 12949, "gvuld": 12950, "gvuldi": 12951, "gvuldig": 12952, "egori": 12953, "trekt": 12954, "strekt": 12955, "afsp": 12956, "ontrac": 12957, "uteu": 12958, "uteur": 12959, "xibe": 12960, "contrac": 12961, "nop": 12962, "ewijzi": 12963, "gue": 12964, "isd": 12965, "afspr": 12966, "afspra": 12967, "exibe": 12968, "xibel": 12969, "lexibe": 12970, "exibel": 12971, "flexibe": 12972, "lexibel": 12973, "flexibel": 12974, "dite": 12975, "preste": 12976, "ewijzig": 12977, "categ": 12978, "atego": 12979, "tegor": 12980, "catego": 12981, "ategor": 12982, "tegori": 12983, "categor": 12984, "ategori": 12985, "categori": 12986, "tni": 12987, "cuba": 12988, "engen": 12989, "lagen": 12990, "tono": 12991, "prestee": 12992, "presteer": 12993, "erci": 12994, "istri": 12995, "lerl": 12996, "nterg": 12997, "gewijzi": 12998, "gewijzig": 12999, "ewijzigd": 13000, "gewijzigd": 13001,
[...]
