{"byte_pairs": {"__sow": 5, "__eow": 6, "e": 7, "n": 8, "i": 9, "a": 10, "r": 11, "t": 12, "o": 13, "d": 14, "en": 15, "l": 16, "s": 17, "g": 18, "v": 19, "**<vz><init>**": 20, "de": 21, "m": 22, "er": 23, "k": 24, "h": 25, "u": 26, "**<let>**": 27, "**<n><soort><ev><basis><zijd><stan>**": 28, "an": 29, "j": 30, "b": 31, "p": 32, "ij": 33, "z": 34, "in": 35, "c": 36, "w": 37, "te": 38, "aa": 39, "et": 40, "**<lid><bep><stan><rest>**": 41, "ie": 42, "el": 43, "ee": 44, "he": 45, "**<bw>**": 46, "or": 47, "**<n><soort><mv><basis>**": 48, "ge": 49, ".": 50, "**<n><soort><ev><basis><onz><stan>**": 51, "ve": 52, "oo": 53, "va": 54, "re": 55, "st": 56, "at": 57, "me": 58, "be": 59, "le": 60, "**<ww><inf><vrij><zonder>**": 61, "ng": 62, "ar": 63, "nd": 64, "zi": 65, "van": 66, "**<adj><prenom><basis><met-e><stan>**": 67, "f": 68, "li": 69, "**<spec><deeleigen>**": 70, "ch": 71, ",": 72, "on": 73, "**<vg><neven>**": 74, "ti": 75, "it": 76, "al": 77, "**<ww><pv><tgw><ev>**": 78, "vo": 79, "een": 80, "oe": 81, "jn": 82, "ijn": 83, "da": 84, "het": 85, "ver": 86, "oor": 87, "ing": 88, "di": 89, "ri": 90, "ke": 91, "**<adj><vrij><basis><zonder>**": 92, "zij": 93, "op": 94, "ro": 95, "ne": 96, "aar": 97, "we": 98, "zijn": 99, "nt": 100, "om": 101, "ra": 102, "**<lid><bep><stan><evon>**": 103, "**<ww><pv><tgw><met-t>**": 104, "ni": 105, "**<ww><vd><vrij><zonder>**": 106, "den": 107, "la": 108, "rd": 109, "is": 110, "ei": 111, "gen": 112, "**<lid><onbep><stan><agr>**": 113, "ns": 114, "voo": 115, "voor": 116, "**<ww><pv><tgw><mv>**": 117, "aan": 118, "es": 119, "ll": 120, "**<vg><onder>**": 121, "mi": 122, "ma": 123, "ui": 124, "men": 125, "ed": 126, "nde": 127, "ten": 128, "ze": 129, "id": 130, "em": 131, "len": 132, "eg": 133, "der": 134, "ken": 135, "dat": 136, "ig": 137, "lle": 138, "ta": 139, "jk": 140, "ijk": 141, "pe": 142, "na": 143, "sc": 144, "lij": 145, "ren": 146, "wi": 147, "eb": 148, "ek": 149, "and": 150, "ur": 151, "se": 152, "ik": 153, "un": 154, "to": 155, "ter": 156, "ere": 157, "tie": 158, "ht": 159, "sch": 160, "cht": 161, "rde": 162, "eu": 163, "ord": 164, "ste": 165, "co": 166, "ev": 167, "tr": 168, "lijk": 169, "eli": 170, "mo": 171, "wa": 172, "rs": 173, "wo": 174, "llen": 175, "nen": 176, "nie": 177, "eel": 178, "ec": 179, "orde": 180, "nn": 181, "ha": 182, "pr": 183, "bi": 184, "die": 185, "ag": 186, "ss": 187, "ol": 188, "si": 189, "nder": 190, "uit": 191, "ho": 192, "pa": 193, "zo": 194, "rk": 195, "do": 196, "eren": 197, "am": 198, "met": 199, "ben": 200, "il": 201, "ent": 202, "rt": 203, "eid": 204, "rden": 205, "bb": 206, "nne": 207, "ak": 208, "ic": 209, "ez": 210, "bbe": 211, "ov": 212, "orden": 213, "ond": 214, "ebb": 215, "heb": 216, "ebbe": 217, "hebb": 218, "hebbe": 219, "bben": 220, "gr": 221, "ebben": 222, "hebben": 223, "ers": 224, "ens": 225, "**<adj><prenom><basis><zonder>**": 226, "og": 227, "wor": 228, "elij": 229, "elijk": 230, "sta": 231, "-": 232, "ot": 233, "ove": 234, "word": 235, "worde": 236, "worden": 237, "no": 238, "eme": 239, "lan": 240, "0": 241, "eer": 242, "ati": 243, "iet": 244, "ul": 245, "ou": 246, "ko": 247, "ven": 248, "ac": 249, "ete": 250, "ls": 251, "nnen": 252, "wij": 253, "**<vnw><pers><pron><nomin><vol><1><ev>**": 254, "erk": 255, "rij": 256, "ga": 257, "ts": 258, "**<ww><pv><verl><ev>**": 259, "as": 260, "ct": 261, "over": 262, "**<tw><hoofd><vrij>**": 263, "hi": 264, "**<vz><fin>**": 265, "sp": 266, "mm": 267, "lo": 268, "niet": 269, "eve": 270, "uw": 271, "eur": 272, "ru": 273, "ad": 274, "tel": 275, "gel": 276, "maa": 277, "ege": 278, "ok": 279, "rg": 280, "tu": 281, "vi": 282, "sl": 283, "ele": 284, "eten": 285, "eze": 286, "1": 287, "aat": 288, "rm": 289, "onde": 290, "del": 291, "ku": 292, "als": 293, "ds": 294, "rl": 295, "emen": 296, "ien": 297, "eri": 298, "aal": 299, "bij": 300, "tt": 301, "kun": 302, "us": 303, "end": 304, "ich": 305, "onder": 306, "ite": 307, "wer": 308, "dr": 309, "ind": 310, "nk": 311, "gi": 312, "rin": 313, "**<tw><hoofd><prenom><stan>**": 314, "ba": 315, "unn": 316, "of": 317, "ede": 318, "**<vnw><pers><pron><stan><red><3><ev><onz>**": 319, "ang": 320, "br": 321, "unne": 322, "unnen": 323, "kunn": 324, "kunne": 325, "kunnen": 326, "ope": 327, "kk": 328, "hei": 329, "moe": 330, "ki": 331, "ook": 332, "ef": 333, "raa": 334, "lin": 335, "est": 336, "taa": 337, "atie": 338, "naa": 339, "je": 340, "heid": 341, "waa": 342, "pro": 343, "2": 344, "oet": 345, "ech": 346, "du": 347, "rz": 348, "**<vnw><betr><pron><stan><vol><persoon><getal>**": 349, "waar": 350, "ld": 351, "vr": 352, "pl": 353, "com": 354, "od": 355, "mis": 356, "af": 357, "ull": 358, "eke": 359, "ment": 360, "ap": 361, "zu": 362, "tte": 363, "dit": 364, "stel": 365, "ons": 366, "tre": 367, "ant": 368, "iss": 369, "dez": 370, "daa": 371, "deze": 372, "even": 373, "ulle": 374, "ande": 375, "ullen": 376, "so": 377, "bo": 378, "rop": 379, "moet": 380, "oete": 381, "bes": 382, "dig": 383, "fe": 384, "oeten": 385, "**<vnw><pers><pron><nomin><vol><1><mv>**": 386, "gev": 387, "**<vnw><aanw><pron><stan><vol><3o><ev>**": 388, "moete": 389, "moeten": 390, "ling": 391, "echt": 392, "hee": 393, "ep": 394, "jd": 395, "ijd": 396, "nge": 397, "**<vnw><aanw><adv-pron><stan><red><3><getal>**": 398, "ame": 399, "pen": 400, "tw": 401, "ell": 402, "bel": 403, "ssi": 404, "ier": 405, "zul": 406, "po": 407, "ka": 408, "uro": 409, "euro": 410, "zull": 411, "zulle": 412, "zullen": 413, "sie": 414, "vee": 415, "mij": 416, "kel": 417, "rb": 418, "ring": 419, "doo": 420, "omm": 421, "mmi": 422, "ont": 423, "lu": 424, "kom": 425, "**<vnw><aanw><det><stan><prenom><met-e><rest>**": 426, "kke": 427, "ill": 428, "**<spec><vreemd>**": 429, "sa": 430, "ce": 431, "oed": 432, "con": 433, "str": 434, "isc": 435, "oc": 436, "staa": 437, "door": 438, "toe": 439, "go": 440, "veel": 441, "rv": 442, "vol": 443, "werk": 444, "gro": 445, "ake": 446, "vers": 447, "comm": 448, "hu": 449, "urop": 450, "europ": 451, "land": 452, "sen": 453, "ach": 454, "icht": 455, "ci": 456, "dan": 457, "io": 458, "ille": 459, "miss": 460, "bl": 461, "y": 462, "os": 463, "eken": 464, "ome": 465, "nte": 466, "ud": 467, "tell": 468, "rst": 469, "maar": 470, "min": 471, "ene": 472, "sti": 473, "par": 474, "mee": 475, "isch": 476, "ia": 477, "ommi": 478, "hte": 479, "acht": 480, "chte": 481, "gs": 482, "oen": 483, "**<vnw><aanw><det><stan><prenom><zonder><evon>**": 484, "eld": 485, "daar": 486, "rec": 487, "rn": 488, "erin": 489, "illen": 490, "tij": 491, "ige": 492, "nst": 493, "stell": 494, "ard": 495, "wel": 496, "**<vnw><pers><pron><nomin><red><1><mv>**": 497, "mijn": 498, "rek": 499, "kin": 500, "doe": 501, "commi": 502, "cha": 503, "laa": 504, "mmis": 505, "ommis": 506, "commis": 507, "mmiss": 508, "ommiss": 509, "commiss": 510, "omen": 511, "eni": 512, "art": 513, "nem": 514, "inde": 515, "ssie": 516, "tot": 517, "gaa": 518, "za": 519, "ide": 520, "ort": 521, "uu": 522, "im": 523, "bet": 524, "ut": 525, "erd": 526, "fi": 527, "deli": 528, "egen": 529, "ement": 530, "ela": 531, "wil": 532, "gg": 533, "geb": 534, "sse": 535, "lei": 536, "ate": 537, "ering": 538, "per": 539, "oek": 540, "erv": 541, "sla": 542, "all": 543, "ja": 544, "han": 545, "rope": 546, "din": 547, "issi": 548, "ouw": 549, "**<spec><symb>**": 550, "urope": 551, "europe": 552, "will": 553, "oord": 554, "gaan": 555, "oud": 556, "tra": 557, "gin": 558, "lang": 559, "cti": 560, "mer": 561, "reg": 562, "voe": 563, "nh": 564, "rke": 565, "chi": 566, "rui": 567, "igen": 568, "age": 569, "rzi": 570, "ran": 571, "lg": 572, "wille": 573, "neme": 574, "heer": 575, "scha": 576, "erl": 577, "goe": 578, "rw": 579, "ngs": 580, "gge": 581, "ger": 582, "goed": 583, "pp": 584, "ari": 585, "nc": 586, "missi": 587, "willen": 588, "zie": 589, "issie": 590, "missie": 591, "tin": 592, "aard": 593, "rge": 594, "nin": 595, "ander": 596, "itt": 597, "nl": 598, "kl": 599, "lem": 600, ":": 601, "ker": 602, "**<vnw><pers><pron><nomin><red><2v><ev>**": 603, "nke": 604, "orm": 605, "ber": 606, "uur": 607, "vin": 608, "aken": 609, "naar": 610, "iti": 611, "mmissi": 612, "ommissi": 613, "commissi": 614, "mmissie": 615, "ommissie": 616, "commissie": 617, "bu": 618, "erg": 619, "lee": 620, "au": 621, "eit": 622, "mak": 623, "rle": 624, "kome": 625, "ding": 626, "ese": 627, "komen": 628, "oge": 629, "elen": 630, "uc": 631, "ied": 632, "ree": 633, "ist": 634, "hie": 635, "orz": 636, "leg": 637, "alle": 638, "amen": 639, "elle": 640, "oorz": 641, "wee": 642, "ggen": 643, "king": 644, "geli": 645, "erke": 646, "itte": 647, "ning": 648, "fo": 649, "zit": 650, "nu": 651, "ect": 652, "ea": 653, "elin": 654, "ieu": 655, "zitt": 656, "eling": 657, "ngen": 658, "teg": 659, ")": 660, "ca": 661, "ellen": 662, "rech": 663, "wat": 664, "recht": 665, "rie": 666, "ew": 667, "lk": 668, "ting": 669, "(": 670, "enk": 671, "00": 672, "era": 673, "5": 674, "ff": 675, "hou": 676, "roo": 677, "x": 678, "ern": 679, "zitte": 680, "**<vnw><pers><pron><nomin><vol><2b><getal>**": 681, "ndi": 682, "nis": 683, "nemen": 684, "org": 685, "pla": 686, "ast": 687, "iek": 688, "um": 689, "ali": 690, "voorz": 691, "taan": 692, "rh": 693, "schi": 694, "ins": 695, "make": 696, "orzi": 697, "oorzi": 698, "telle": 699, "keli": 700, "zic": 701, "zich": 702, "eden": 703, "tter": 704, "kr": 705, "tijd": 706, "voorzi": 707, "zien": 708, "act": 709, "staan": 710, "tellen": 711, "nti": 712, "gelij": 713, "gelijk": 714, "ctie": 715, "geve": 716, "ili": 717, "ief": 718, "tei": 719, "rag": 720, "nog": 721, "ai": 722, "maken": 723, "erw": 724, "eh": 725, "20": 726, "int": 727, "nv": 728, "aag": 729, "spr": 730, "nden": 731, "leid": 732, "rei": 733, "ir": 734, "3": 735, "**<ww><vd><prenom><met-e>**": 736, "ings": 737, "res": 738, "ids": 739, "9": 740, "oer": 741, "'": 742, "pes": 743, "ntw": 744, "che": 745, "egg": 746, "uite": 747, "ms": 748, "lag": 749, "itei": 750, "aad": 751, "pre": 752, "erz": 753, "tig": 754, "zen": 755, "her": 756, "gra": 757, "ssen": 758, "stelle": 759, "**<vnw><bez><det><stan><vol><3><ev><prenom><zonder><agr>**": 760, "erb": 761, "pese": 762, "opes": 763, "ropes": 764, "uropes": 765, "europes": 766, "opese": 767, "ropese": 768, "uropese": 769, "europese": 770, "bela": 771, "stellen": 772, "ion": 773, "lf": 774, "**<ww><pv><verl><mv>**": 775, "ert": 776, "**<ww><inf><nom><zonder><zonder-n>**": 777, "ein": 778, "uni": 779, "mog": 780, "edi": 781, "nhe": 782, "lie": 783, "moge": 784, "nat": 785, "kken": 786, "hand": 787, "**<adj><vrij><comp><zonder>**": 788, "ser": 789, "bre": 790, "open": 791, "erm": 792, "ans": 793, "rsc": 794, "gee": 795, "lt": 796, "elan": 797, "tan": 798, "erh": 799, "lli": 800, "rsch": 801, "itter": 802, "uk": 803, "rat": 804, "ron": 805, "houd": 806, "kt": 807, "delij": 808, "doen": 809, "delijk": 810, "rste": 811, "ks": 812, "teit": 813, "ure": 814, "laat": 815, "leme": 816, "th": 817, "hier": 818, "roe": 819, "lemen": 820, "su": 821, "egge": 822, "lement": 823, "tere": 824, "rege": 825, "dien": 826, "etr": 827, "lit": 828, "woo": 829, "spe": 830, "iteit": 831, "arl": 832, "aak": 833, "ude": 834, "lig": 835, "ster": 836, "rzit": 837, "orzit": 838, "oorzit": 839, "hap": 840, "rzitt": 841, "orzitt": 842, "oorzitt": 843, "dra": 844, "oot": 845, "voorzit": 846, "rzitte": 847, "voorzitt": 848, "orzitte": 849, "oorzitte": 850, "voorzitte": 851, "zitter": 852, "rzitter": 853, "orzitter": 854, "oorzitter": 855, "voorzitter": 856, "eggen": 857, "erst": 858, "geven": 859, "app": 860, "euw": 861, "egi": 862, "enen": 863, "tten": 864, "chap": 865, "lge": 866, "schap": 867, "gem": 868, "ank": 869, "zel": 870, "tal": 871, "pu": 872, "slag": 873, "vere": 874, "hoo": 875, "best": 876, "geen": 877, "bru": 878, "ors": 879, "tege": 880, "bie": 881, "ade": 882, "dri": 883, "ob": 884, "**<vnw><aanw><adv-pron><obl><vol><3o><getal>**": 885, "ffe": 886, "nw": 887, "twe": 888, "ging": 889, "ndel": 890, "rr": 891, "jaa": 892, "rou": 893, "bli": 894, "cr": 895, "ike": 896, "ris": 897, "ats": 898, "wet": 899, "jaar": 900, "taat": 901, "inte": 902, "**<ww><od><prenom><met-e>**": 903, "4": 904, "nter": 905, "elang": 906, "jz": 907, "dee": 908, "belan": 909, "ijz": 910, "tee": 911, "elf": 912, "egel": 913, "pel": 914, "jv": 915, "iv": 916, "inn": 917, "ijv": 918, "rp": 919, "baa": 920, "zoe": 921, "itie": 922, "zon": 923, "belang": 924, "mp": 925, "stan": 926, "oel": 927, "ric": 928, "rken": 929, "gri": 930, "lid": 931, "aats": 932, "rte": 933, "pi": 934, "olg": 935, "hoe": 936, "ekk": 937, "**<vnw><bez><det><stan><vol><1><mv><prenom><met-e><rest>**": 938, "rli": 939, "etre": 940, "?": 941, "volg": 942, "eens": 943, "lat": 944, "dd": 945, "esc": 946, "man": 947, "lev": 948, "ende": 949, "vor": 950, "ieuw": 951, "nieu": 952, "betr": 953, "arle": 954, "ebr": 955, "aro": 956, "ersc": 957, "**<vnw><onbep><det><stan><prenom><zonder><agr>**": 958, "agen": 959, "oude": 960, "nieuw": 961, "evo": 962, "rouw": 963, "rlem": 964, "arlem": 965, "oors": 966, "oms": 967, "bied": 968, "rbe": 969, "ming": 970, "bed": 971, "nta": 972, "beg": 973, "erken": 974, "ersch": 975, "parl": 976, "rleme": 977, "rlemen": 978, "rlement": 979, "parle": 980, "parlem": 981, "arleme": 982, "parleme": 983, "arlemen": 984, "parlemen": 985, "arlement": 986, "parlement": 987, "nse": 988, "ner": 989, "sche": 990, "vra": 991, "zoek": 992, "nda": 993, "tem": 994, "zelf": 995, "lui": 996, "tro": 997, "eng": 998, "tv": 999, "tis": 1000, "ale": 1001, "val": 1002, "raad": 1003, "inden": 1004, "tegen": 1005, "tio": 1006, "jke": 1007, "ijke": 1008, "mat": 1009, "ass": 1010, "rijk": 1011, "haa": 1012, "rac": 1013, "uid": 1014, "ikk": 1015, "mens": 1016, "tion": 1017, "fr": 1018, "hter": 1019, "enin": 1020, "uik": 1021, "ini": 1022, "chter": 1023, "rti": 1024, "**<vnw><vb><pron><stan><vol><3o><ev>**": 1025, "nz": 1026, "one": 1027, "brui": 1028, "lic": 1029, "ett": 1030, "eder": 1031, "eff": 1032, "esch": 1033, "ntie": 1034, "ona": 1035, "iten": 1036, "betre": 1037, "mst": 1038, "teu": 1039, "nb": 1040, "..": 1041, "fen": 1042, "ening": 1043, "rich": 1044, "aam": 1045, "aaro": 1046, "\u00eb": 1047, "rdi": 1048, "erp": 1049, "tief": 1050, "teren": 1051, "richt": 1052, "nee": 1053, "root": 1054, "groo": 1055, "zaa": 1056, "**<tw><rang><prenom><stan>**": 1057, "sm": 1058, "groot": 1059, "ees": 1060, "pri": 1061, "oog": 1062, "ani": 1063, "inne": 1064, "gebr": 1065, "rme": 1066, "uis": 1067, "cu": 1068, "sit": 1069, "ju": 1070, "baar": 1071, "idi": 1072, "zond": 1073, "rvo": 1074, "oon": 1075, "**<vnw><refl><pron><obl><red><3><getal>**": 1076, "vaa": 1077, "ero": 1078, "acti": 1079, "voer": 1080, "ikke": 1081, "voors": 1082, "gh": 1083, "woor": 1084, "woord": 1085, "beh": 1086, "ruik": 1087, "houde": 1088, "reke": 1089, "tand": 1090, "elk": 1091, "kelij": 1092, "deel": 1093, "kelijk": 1094, "red": 1095, "elli": 1096, "staat": 1097, "ab": 1098, "rsl": 1099, "sin": 1100, "bruik": 1101, "rom": 1102, "tuu": 1103, "geme": 1104, "ex": 1105, "dag": 1106, "kkel": 1107, "stand": 1108, "rstel": 1109, "**<vnw><onbep><pron><stan><vol><3o><ev>**": 1110, "lis": 1111, "vind": 1112, "dst": 1113, "orst": 1114, "**<vnw><onbep><grad><stan><vrij><zonder><comp>**": 1115, "rati": 1116, "hten": 1117, "chten": 1118, "ori": 1119, "ina": 1120, "uiten": 1121, "ebru": 1122, "vinde": 1123, "ersl": 1124, "hij": 1125, "vinden": 1126, "ler": 1127, "ema": 1128, "mu": 1129, "gan": 1130, "grij": 1131, "uden": 1132, "6": 1133, "8": 1134, "eem": 1135, "ppe": 1136, "raag": 1137, "tor": 1138, "verb": 1139, "rki": 1140, "bev": 1141, "rsla": 1142, "/": 1143, "tri": 1144, "regel": 1145, "**<vz><versm>**": 1146, "unie": 1147, "reken": 1148, "jde": 1149, "ijde": 1150, "omst": 1151, "jken": 1152, "ijken": 1153, "iede": 1154, "ann": 1155, "emee": 1156, "nds": 1157, "jf": 1158, "meen": 1159, "dde": 1160, "fs": 1161, "mb": 1162, "versl": 1163, "ijf": 1164, "leve": 1165, "js": 1166, "effe": 1167, "ezi": 1168, "ijs": 1169, "**<spec><afk>**": 1170, "ersla": 1171, "eva": 1172, "enke": 1173, "**<vnw><bez><det><stan><vol><1><ev><prenom><zonder><agr>**": 1174, "plaa": 1175, "dem": 1176, "slu": 1177, "inter": 1178, "rage": 1179, "kri": 1180, "trek": 1181, "oep": 1182, "vro": 1183, "uss": 1184, "oa": 1185, "gebru": 1186, "for": 1187, "ebrui": 1188, "gebrui": 1189, "oorst": 1190, "twi": 1191, "nati": 1192, "oli": 1193, "andel": 1194, "ebruik": 1195, "gebruik": 1196, "aten": 1197, "gemee": 1198, "sel": 1199, "tuur": 1200, "rslag": 1201, "versla": 1202, "inst": 1203, "stu": 1204, "mid": 1205, "tg": 1206, "its": 1207, "nf": 1208, "oll": 1209, "kw": 1210, "jnh": 1211, "ijnh": 1212, "nhee": 1213, "plaat": 1214, "jnhe": 1215, "ijnhe": 1216, "por": 1217, "nig": 1218, "nheer": 1219, "mijnh": 1220, "mijnhe": 1221, "jnhee": 1222, "ijnhee": 1223, "jnheer": 1224, "mijnhee": 1225, "ijnheer": 1226, "mijnheer": 1227, "ouden": 1228, "voorst": 1229, "tb": 1230, "emeen": 1231, "slui": 1232, "erslag": 1233, "nken": 1234, "blij": 1235, "idd": 1236, "ntr": 1237, "gemeen": 1238, "dere": 1239, "ontw": 1240, "**<vnw><onbep><det><stan><prenom><met-e><agr>**": 1241, "ette": 1242, "verslag": 1243, "enl": 1244, "luit": 1245, "mme": 1246, "elei": 1247, "7": 1248, "houden": 1249, "eed": 1250, "eide": 1251, "hun": 1252, "bin": 1253, "rva": 1254, "innen": 1255, "wijz": 1256, "midd": 1257, "sluit": 1258, "wen": 1259, "enge": 1260, "!": 1261, "zeg": 1262, "laats": 1263, "orste": 1264, "**<vnw><pr><pron><obl><vol><1><mv>**": 1265, "**<vnw><aanw><det><stan><prenom><zonder><rest>**": 1266, "ug": 1267, "ngr": 1268, "\"": 1269, "rekk": 1270, "jo": 1271, "rga": 1272, "orstel": 1273, "verw": 1274, "erki": 1275, "iden": 1276, "igh": 1277, "ffen": 1278, "bele": 1279, "eil": 1280, "oorste": 1281, "hti": 1282, "chti": 1283, "**<vnw><bez><det><stan><vol><3><mv><prenom><zonder><agr>**": 1284, "plaats": 1285, "werke": 1286, "weg": 1287, "voorste": 1288, "rlij": 1289, "trekk": 1290, "llin": 1291, "oorstel": 1292, "voorstel": 1293, "eleid": 1294, "tek": 1295, "rmi": 1296, "enti": 1297, "jve": 1298, "ijve": 1299, "echte": 1300, "01": 1301, "drag": 1302, "heel": 1303, "unt": 1304, "lling": 1305, "ise": 1306, "ange": 1307, "olge": 1308, "sam": 1309, "idde": 1310, "rond": 1311, "besc": 1312, "besch": 1313, "nli": 1314, "**<adj><prenom><sup><met-e><stan>**": 1315, "este": 1316, "zegg": 1317, "volge": 1318, "av": 1319, "ogen": 1320, "hande": 1321, "hui": 1322, "kan": 1323, "midde": 1324, "verk": 1325, "epa": 1326, "enw": 1327, "uct": 1328, "koms": 1329, "komst": 1330, "lgen": 1331, "dus": 1332, "ong": 1333, "vrou": 1334, "maat": 1335, "vrouw": 1336, "mar": 1337, "ervo": 1338, "stem": 1339, "same": 1340, "zegge": 1341, "handel": 1342, "sb": 1343, "samen": 1344, "vri": 1345, "ogel": 1346, "olgen": 1347, "zeggen": 1348, "volgen": 1349, "tisc": 1350, "tisch": 1351, "waard": 1352, "ghe": 1353, "zet": 1354, "jven": 1355, "ip": 1356, "ijven": 1357, "telli": 1358, "els": 1359, "ega": 1360, "esta": 1361, "nsc": 1362, "vl": 1363, "twee": 1364, "pt": 1365, "ine": 1366, "erde": 1367, "rma": 1368, "iona": 1369, "eig": 1370, "rlijk": 1371, "dui": 1372, "hr": 1373, "iaa": 1374, "actie": 1375, "rob": 1376, "ust": 1377, "port": 1378, "verd": 1379, "nsch": 1380, "i\u00eb": 1381, "pas": 1382, "vert": 1383, "eds": 1384, "mil": 1385, "verl": 1386, "olle": 1387, "oeg": 1388, "edr": 1389, "ngri": 1390, "ente": 1391, "ref": 1392, "ost": 1393, "ellin": 1394, "stra": 1395, "krij": 1396, "omi": 1397, "ogeli": 1398, "ogelij": 1399, "mogel": 1400, "ogelijk": 1401, "mogeli": 1402, "mogelij": 1403, "mogelijk": 1404, "ngrij": 1405, "elling": 1406, "ekke": 1407, "jg": 1408, "nkel": 1409, "rkin": 1410, "gd": 1411, "ijg": 1412, "sto": 1413, "ighe": 1414, "ghei": 1415, "oal": 1416, "**<vnw><pers><pron><stan><red><3><mv>**": 1417, "gheid": 1418, "ara": 1419, "late": 1420, "ets": 1421, "sn": 1422, "zor": 1423, "stelli": 1424, "ighei": 1425, "igheid": 1426, "oi": 1427, "ub": 1428, "evi": 1429, "oorde": 1430, "zorg": 1431, "rking": 1432, "rzo": 1433, "fa": 1434, "stee": 1435, "aand": 1436, "effen": 1437, "**<vnw><pers><pron><nomin><vol><3><ev><masc>**": 1438, "tus": 1439, "erkin": 1440, "naal": 1441, "ple": 1442, "mel": 1443, "mati": 1444, "**<n><soort><ev><dim><onz><stan>**": 1445, "erking": 1446, "tst": 1447, "nwe": 1448, "gez": 1449, "chr": 1450, "angr": 1451, "rit": 1452, "eige": 1453, "zoa": 1454, "zoal": 1455, "oals": 1456, "zoals": 1457, "ua": 1458, "kkeli": 1459, "achte": 1460, "tl": 1461, "angri": 1462, "tellin": 1463, "telling": 1464, "angrij": 1465, "ikkel": 1466, "wan": 1467, "rna": 1468, "arti": 1469, "uren": 1470, "arin": 1471, "doel": 1472, "loo": 1473, "cia": 1474, "versc": 1475, "versch": 1476, "egr": 1477, "atio": 1478, "vaar": 1479, "prob": 1480, "stellin": 1481, "stelling": 1482, "grijk": 1483, "ngrijk": 1484, "bee": 1485, "verg": 1486, "kh": 1487, "usse": 1488, "ation": 1489, "angrijk": 1490, "haar": 1491, "pun": 1492, "cho": 1493, "ever": 1494, "arm": 1495, "air": 1496, "jden": 1497, "ijden": 1498, "eree": 1499, "erzo": 1500, "bur": 1501, "200": 1502, "idst": 1503, "nko": 1504, "punt": 1505, "wik": 1506, "rder": 1507, "zonde": 1508, "ragen": 1509, "**<n><soort><ev><basis><dat>**": 1510, "hel": 1511, "langr": 1512, "elangr": 1513, "belangr": 1514, "langri": 1515, "elangri": 1516, "langrij": 1517, "belangri": 1518, "langrijk": 1519, "elangrij": 1520, "belangrij": 1521, "elangrijk": 1522, "belangrijk": 1523, "rgen": 1524, "belei": 1525, "beleid": 1526, "leen": 1527, "verz": 1528, "dsta": 1529, "pra": 1530, "sh": 1531, "zonder": 1532, "rbi": 1533, "uwe": 1534, "wikk": 1535, "spre": 1536, "wikke": 1537, "alen": 1538, "onaa": 1539, "llee": 1540, "enst": 1541, "wikkel": 1542, "rwe": 1543, "rdig": 1544, "pol": 1545, "iaal": 1546, "lich": 1547, "sv": 1548, "jge": 1549, "ijge": 1550, "ssa": 1551, "ddel": 1552, "form": 1553, "ader": 1554, "rod": 1555, "allee": 1556, "if": 1557, "kla": 1558, "stri": 1559, "noo": 1560, "gens": 1561, "lleen": 1562, "alleen": 1563, "err": 1564, "veren": 1565, "nste": 1566, "ies": 1567, "fd": 1568, "iken": 1569, "reng": 1570, "iddel": 1571, "bep": 1572, "laten": 1573, "tref": 1574, "enn": 1575, "middel": 1576, "deren": 1577, "esti": 1578, "md": 1579, "reff": 1580, "reffe": 1581, "**<vnw><bez><det><stan><vol><2><getal><prenom><zonder><agr>**": 1582, "ving": 1583, "eili": 1584, "**<vnw><betr><pron><stan><vol><3><ev>**": 1585, "treff": 1586, "treffe": 1587, "eigen": 1588, "zee": 1589, "igi": 1590, "pec": 1591, "idsta": 1592, "bou": 1593, "entie": 1594, "dstaa": 1595, "emm": 1596, "ntwi": 1597, "vorm": 1598, "lids": 1599, "lidst": 1600, "lidsta": 1601, "idstaa": 1602, "duc": 1603, "dstaat": 1604, "echter": 1605, "lidstaa": 1606, "idstaat": 1607, "lidstaat": 1608, "eker": 1609, "cen": 1610, "engen": 1611, "esl": 1612, "bere": 1613, "reffen": 1614, "tru": 1615, "spec": 1616, "treffen": 1617, "fin": 1618, "anda": 1619, "ps": 1620, "nscha": 1621, "nlij": 1622, "ore": 1623, "ontwi": 1624, "ezen": 1625, "akk": 1626, "lde": 1627, "odu": 1628, "jgen": 1629, "ijgen": 1630, "eun": 1631, "sten": 1632, "rel": 1633, "twik": 1634, "cie": 1635, "ntwik": 1636, "twikk": 1637, "ontwik": 1638, "ntwikk": 1639, "ontwikk": 1640, "twikke": 1641, "ntwikke": 1642, "ontwikke": 1643, "tiek": 1644, "twikkel": 1645, "ntwikkel": 1646, "ontwikkel": 1647, "wete": 1648, "cont": 1649, "rzoe": 1650, "weten": 1651, "erzoe": 1652, "eco": 1653, "kle": 1654, "ode": 1655, "anc": 1656, "jze": 1657, "reen": 1658, "enh": 1659, "ijze": 1660, "arom": 1661, "dele": 1662, "rede": 1663, "tiona": 1664, "ussen": 1665, "tern": 1666, "etten": 1667, "ensc": 1668, "nam": 1669, "gew": 1670, "bedr": 1671, "schr": 1672, "maal": 1673, "ark": 1674, "rne": 1675, "aarom": 1676, "teun": 1677, "anne": 1678, "rzoek": 1679, "ft": 1680, "egin": 1681, "steu": 1682, "steun": 1683, "erzoek": 1684, "fra": 1685, "nlijk": 1686, "sing": 1687, "rijg": 1688, "ensch": 1689, "zin": 1690, "atu": 1691, "ena": 1692, "arb": 1693, "onaal": 1694, "fl": 1695, "hri": 1696, "gele": 1697, "rodu": 1698, "tat": 1699, "eids": 1700, "khe": 1701, "ewe": 1702, "bren": 1703, "ionaa": 1704, "lijke": 1705, "ionaal": 1706, "teri": 1707, "prod": 1708, "chri": 1709, "oduc": 1710, "roduc": 1711, "ban": 1712, "kaa": 1713, "jkh": 1714, "ijkh": 1715, "zett": 1716, "ereen": 1717, "rhe": 1718, "jkhe": 1719, "ijkhe": 1720, "khei": 1721, "breng": 1722, "kheid": 1723, "lijkh": 1724, "krijg": 1725, "lijkhe": 1726, "part": 1727, "urg": 1728, "jkhei": 1729, "ijkhei": 1730, "licht": 1731, "jkheid": 1732, "ijkheid": 1733, "ono": 1734, "erli": 1735, "led": 1736, "lijkhei": 1737, "lijkheid": 1738, "rschi": 1739, "ebi": 1740, "scho": 1741, "rig": 1742, "ive": 1743, "net": 1744, "ble": 1745, "delin": 1746, "erge": 1747, "tuss": 1748, "spa": 1749, "deri": 1750, "tusse": 1751, "tussen": 1752, "deling": 1753, "orge": 1754, "arde": 1755, "col": 1756, "med": 1757, "orb": 1758, "bouw": 1759, "roc": 1760, "aut": 1761, "cent": 1762, "geva": 1763, "ndeli": 1764, "aans": 1765, "rijge": 1766, "nschap": 1767, "vrij": 1768, "inge": 1769, "ebie": 1770, "ationa": 1771, "enscha": 1772, "oeke": 1773, "gebi": 1774, "groe": 1775, "soo": 1776, "ebied": 1777, "uide": 1778, "nm": 1779, "gebie": 1780, "gebied": 1781, "vraa": 1782, "vraag": 1783, "vera": 1784, "bs": 1785, "nci": 1786, "enschap": 1787, "och": 1788, "kki": 1789, "dh": 1790, "erwe": 1791, "natio": 1792, "nation": 1793, "produ": 1794, "poli": 1795, "ekken": 1796, "verv": 1797, "nationa": 1798, "erva": 1799, "ram": 1800, "stig": 1801, "prek": 1802, "rijgen": 1803, "ink": 1804, "sprek": 1805, "krijge": 1806, "krijgen": 1807, "produc": 1808, "renge": 1809, "temm": 1810, "hil": 1811, "oort": 1812, "oorb": 1813, "stemm": 1814, "rant": 1815, "are": 1816, "ood": 1817, "uike": 1818, "ders": 1819, "eeds": 1820, "hal": 1821, "besl": 1822, "oce": 1823, "rot": 1824, "brenge": 1825, "odi": 1826, "rengen": 1827, "verh": 1828, "brengen": 1829, "tai": 1830, "rla": 1831, "emi": 1832, "evin": 1833, "mogen": 1834, "ratie": 1835, "roep": 1836, "lp": 1837, "win": 1838, "uits": 1839, "evr": 1840, "wijze": 1841, "har": 1842, "pee": 1843, "pers": 1844, "appe": 1845, "name": 1846, "hts": 1847, "epe": 1848, "aarde": 1849, "daaro": 1850, "ral": 1851, "eiden": 1852, "rak": 1853, "igin": 1854, "rol": 1855, "elijkh": 1856, "elijkhe": 1857, "lop": 1858, "tge": 1859, "chts": 1860, "erei": 1861, "burg": 1862, "eno": 1863, "pass": 1864, "elijkhei": 1865, "elijkheid": 1866, "oven": 1867, "inder": 1868, "schri": 1869, "rijd": 1870, "nni": 1871, "ermi": 1872, "zaak": 1873, "eta": 1874, "legg": 1875, "ater": 1876, "delen": 1877, "idin": 1878, "rach": 1879, "obl": 1880, "teke": 1881, "iding": 1882, "dige": 1883, "derin": 1884, "iser": 1885, "oni": 1886, "inf": 1887, "zak": 1888, "liti": 1889, "nkom": 1890, "eeld": 1891, "nr": 1892, "zette": 1893, "orgen": 1894, "dering": 1895, "voorb": 1896, "robl": 1897, "teken": 1898, "racht": 1899, "oble": 1900, "aant": 1901, "eidi": 1902, "roble": 1903, "proc": 1904, "opa": 1905, "probl": 1906, "proble": 1907, "eidin": 1908, "erla": 1909, "eiding": 1910, "denk": 1911, "chil": 1912, "rea": 1913, "iets": 1914, "olit": 1915, "reid": 1916, "opl": 1917, "sere": 1918, "roce": 1919, "rmin": 1920, "beel": 1921, "iene": 1922, "proce": 1923, "rand": 1924, "ooi": 1925, "iee": 1926, "polit": 1927, "zetten": 1928, "anta": 1929, "beeld": 1930, "las": 1931, "rvan": 1932, "eran": 1933, "seren": 1934, "**<vnw><vb><adv-pron><obl><vol><3o><getal>**": 1935, "ssin": 1936, "enig": 1937, "rwi": 1938, "gie": 1939, "ess": 1940, "ue": 1941, "oliti": 1942, "politi": 1943, "ruike": 1944, "lite": 1945, "werken": 1946, "iging": 1947, "schil": 1948, "**<vnw><pers><pron><nomin><vol><3p><mv>**": 1949, "ssing": 1950, "binn": 1951, "binne": 1952, "binnen": 1953, "erwi": 1954, "indi": 1955, "happ": 1956, "spo": 1957, "ita": 1958, "...": 1959, "dru": 1960, "idel": 1961, "hoog": 1962, "naam": 1963, "orma": 1964, "bruike": 1965, "tionaa": 1966, "tionaal": 1967, "lijn": 1968, "ationaa": 1969, "ationaal": 1970, "nationaa": 1971, "nationaal": 1972, "rre": 1973, "two": 1974, "erschi": 1975, "rha": 1976, "eval": 1977, "rdel": 1978, "ideli": 1979, "log": 1980, "idelij": 1981, "idelijk": 1982, "ume": 1983, "begr": 1984, "chapp": 1985, "schapp": 1986, "ardi": 1987, "eind": 1988, "verschi": 1989, "leem": 1990, "lec": 1991, "veran": 1992, "diene": 1993, "leven": 1994, "ropa": 1995, "201": 1996, "blee": 1997, "litie": 1998, "kie": 1999, "enken": 2000, "antw": 2001, "inz": 2002, "duid": 2003, "orbe": 2004, "anke": 2005, "oei": 2006, "**<ww><vd><prenom><zonder>**": 2007, "nom": 2008, "duct": 2009, "bleem": 2010, "ieel": 2011, "rso": 2012, "oblee": 2013, "roblee": 2014, "obleem": 2015, "problee": 2016, "robleem": 2017, "probleem": 2018, "rda": 2019, "ciaa": 2020, "twoo": 2021, "ciaal": 2022, "ult": 2023, "ienen": 2024, "stre": 2025, "twoor": 2026, "twoord": 2027, "erha": 2028, "kkin": 2029, "dienen": 2030, "kking": 2031, "ebruike": 2032, "gebruike": 2033, "alis": 2034, "ntern": 2035, "uropa": 2036, "europa": 2037, "intern": 2038, "mark": 2039, "zw": 2040, "bez": 2041, "kelin": 2042, "noe": 2043, "nfo": 2044, "vas": 2045, "keling": 2046, "ikkeli": 2047, "19": 2048, "iter": 2049, "orga": 2050, "ezo": 2051, "nel": 2052, "oduct": 2053, "roduct": 2054, "duide": 2055, "erso": 2056, "ow": 2057, "weer": 2058, "etref": 2059, "zeer": 2060, "olitie": 2061, "politie": 2062, "uidel": 2063, "betref": 2064, "etreff": 2065, "betreff": 2066, "etreffe": 2067, "betreffe": 2068, "etreffen": 2069, "betreffen": 2070, "oorbe": 2071, "drij": 2072, "uideli": 2073, "eving": 2074, "uidelij": 2075, "uidelijk": 2076, "kenn": 2077, "ntwo": 2078, "uwen": 2079, "eers": 2080, "**<vnw><onbep><det><stan><prenom><met-e><rest>**": 2081, "nders": 2082, "aardi": 2083, "erne": 2084, "oeken": 2085, "denke": 2086, "luite": 2087, "tur": 2088, "econ": 2089, "lijken": 2090, "derz": 2091, "boe": 2092, "antwo": 2093, "dank": 2094, "ntwoo": 2095, "antwoo": 2096, "ntwoor": 2097, "antwoor": 2098, "voorbe": 2099, "ntwoord": 2100, "antwoord": 2101, "oren": 2102, "litei": 2103, "umen": 2104, "liteit": 2105, "zake": 2106, "bui": 2107, "ana": 2108, "les": 2109, "derh": 2110, "edig": 2111, "the": 2112, "erle": 2113, "sluite": 2114, "denken": 2115, "rwij": 2116, "erwij": 2117, "ument": 2118, "asse": 2119, "cl": 2120, "eek": 2121, "ys": 2122, "**<vnw><pr><pron><obl><vol><1><ev>**": 2123, "anti": 2124, "luiten": 2125, "preke": 2126, "ilig": 2127, "werp": 2128, "kkelin": 2129, "kkeling": 2130, "spreke": 2131, "nal": 2132, "eilig": 2133, "ouwe": 2134, "ehe": 2135, "lijv": 2136, "lega": 2137, "ikkelin": 2138, "ikkeling": 2139, "wikkeli": 2140, "wikkelin": 2141, "wikkeling": 2142, "lijve": 2143, "ichte": 2144, "product": 2145, "sluiten": 2146, "lijven": 2147, "bew": 2148, "lere": 2149, "deme": 2150, "vast": 2151, "blijv": 2152, "blijve": 2153, "ppel": 2154, "besta": 2155, "blijven": 2156, "enko": 2157, "twikkeli": 2158, "ntwikkeli": 2159, "twikkelin": 2160, "ntwikkelin": 2161, "twikkeling": 2162, "ntwikkeling": 2163, "ontwikkeli": 2164, "ontwikkelin": 2165, "ontwikkeling": 2166, "vei": 2167, "duidel": 2168, "duideli": 2169, "duidelij": 2170, "duidelijk": 2171, "atr": 2172, "onom": 2173, "oere": 2174, "rap": 2175, "ndie": 2176, "ardig": 2177, "ogr": 2178, "veil": 2179, "dis": 2180, "ichti": 2181, "aardig": 2182, "rekke": 2183, "evol": 2184, "ieden": 2185, "e-": 2186, "eerd": 2187, "aris": 2188, "odig": 2189, "zek": 2190, "nomi": 2191, "itiek": 2192, "demen": 2193, "eks": 2194, "lope": 2195, "elde": 2196, "atuu": 2197, "zig": 2198, "veili": 2199, "zeke": 2200, "vis": 2201, "zeker": 2202, "bete": 2203, "atief": 2204, "ora": 2205, "ntal": 2206, "anis": 2207, "soc": 2208, "rhei": 2209, "trekke": 2210, "amm": 2211, "daarom": 2212, "ands": 2213, "etrek": 2214, "legge": 2215, "etrekk": 2216, "ndien": 2217, "**<spec><afgebr>**": 2218, "esp": 2219, "werki": 2220, "werkin": 2221, "betrek": 2222, "betrekk": 2223, "rheid": 2224, "atis": 2225, "opee": 2226, "werking": 2227, "peli": 2228, "estaa": 2229, "begi": 2230, "onc": 2231, "begin": 2232, "urge": 2233, "nan": 2234, "mend": 2235, "nod": 2236, "mili": 2237, "htin": 2238, "rwa": 2239, "sy": 2240, "onomi": 2241, "ruk": 2242, "oci": 2243, "chtin": 2244, "fu": 2245, "ogra": 2246, "veilig": 2247, "hting": 2248, "omd": 2249, "sme": 2250, "chting": 2251, "onge": 2252, "erhe": 2253, "kij": 2254, "eru": 2255, "att": 2256, "oos": 2257, "dement": 2258, "nsp": 2259, "teli": 2260, "nodi": 2261, "nodig": 2262, "eschi": 2263, "ndem": 2264, "iste": 2265, "estaan": 2266, "pees": 2267, "perso": 2268, "soci": 2269, "info": 2270, "ges": 2271, "sol": 2272, "ebe": 2273, "ense": 2274, "leggen": 2275, "lopen": 2276, "paa": 2277, "**<adj><prenom><comp><met-e><stan>**": 2278, "mon": 2279, "cono": 2280, "sle": 2281, "mda": 2282, "econo": 2283, "rkt": 2284, "rschil": 2285, "tz": 2286, "itu": 2287, "ropee": 2288, "uropee": 2289, "europee": 2290, "opees": 2291, "ropees": 2292, "uropees": 2293, "europees": 2294, "erschil": 2295, "endem": 2296, "verschil": 2297, "ndig": 2298, "omda": 2299, "mdat": 2300, "omdat": 2301, "sne": 2302, "cons": 2303, "ingen": 2304, "ndeme": 2305, "endeme": 2306, "ndemen": 2307, "ndement": 2308, "rijf": 2309, "endemen": 2310, "endement": 2311, "conom": 2312, "econom": 2313, "druk": 2314, "oeren": 2315, "rgan": 2316, "mende": 2317, "coll": 2318, "echts": 2319, "rmee": 2320, "drie": 2321, "conomi": 2322, "economi": 2323, "mmer": 2324, "ces": 2325, "aanta": 2326, "conc": 2327, "gron": 2328, "alt": 2329, "nderz": 2330, "aas": 2331, "ocia": 2332, "socia": 2333, "rbij": 2334, "aart": 2335, "vang": 2336, "mev": 2337, "huis": 2338, "rc": 2339, "evro": 2340, "amend": 2341, "los": 2342, "vrag": 2343, "enwe": 2344, "amende": 2345, "db": 2346, "mevr": 2347, "cher": 2348, "akke": 2349, "vrage": 2350, "orte": 2351, "evrou": 2352, "evrouw": 2353, "ichten": 2354, "atuur": 2355, "mevro": 2356, "mevrou": 2357, "mevrouw": 2358, "toc": 2359, "zoeke": 2360, "arv": 2361, "vaard": 2362, "rger": 2363, "emo": 2364, "were": 2365, "rug": 2366, "sis": 2367, "rekken": 2368, "colle": 2369, "nfor": 2370, "mendem": 2371, "amendem": 2372, "mendeme": 2373, "amendeme": 2374, "mendemen": 2375, "amendemen": 2376, "mendement": 2377, "amendement": 2378, "drijf": 2379, "meens": 2380, "zicht": 2381, "geld": 2382, "vragen": 2383, "pelij": 2384, "pelijk": 2385, "elo": 2386, "emeens": 2387, "sk": 2388, "waaro": 2389, "itv": 2390, "reden": 2391, "bevo": 2392, "nform": 2393, "eho": 2394, "rog": 2395, "trekken": 2396, "waarde": 2397, "aarv": 2398, "oti": 2399, "eensc": 2400, "eensch": 2401, "nve": 2402, "matie": 2403, "eenscha": 2404, "eo": 2405, "burge": 2406, "taal": 2407, "gemeens": 2408, "eenschap": 2409, "meensc": 2410, "emeensc": 2411, "meensch": 2412, "gemeensc": 2413, "emeensch": 2414, "meenscha": 2415, "gemeensch": 2416, "emeenscha": 2417, "meenschap": 2418, "gemeenscha": 2419, "emeenschap": 2420, "gemeenschap": 2421, "tse": 2422, "leu": 2423, "uitv": 2424, "edri": 2425, "derl": 2426, "gang": 2427, "fer": 2428, "eci": 2429, "tair": 2430, "bepa": 2431, "veree": 2432, "rlan": 2433, "rming": 2434, "antal": 2435, "overe": 2436, "vereen": 2437, "ica": 2438, "**<vnw><onbep><grad><stan><prenom><zonder><agr><basis>**": 2439, "preken": 2440, "rnem": 2441, "spreken": 2442, "plo": 2443, "enkom": 2444, "gis": 2445, "berei": 2446, "keu": 2447, "aantal": 2448, "digen": 2449, "cat": 2450, "rmat": 2451, "eter": 2452, "olk": 2453, "grond": 2454, "bedri": 2455, "anci": 2456, "oev": 2457, "dv": 2458, "iez": 2459, "merk": 2460, "ordel": 2461, "kor": 2462, "edrij": 2463, "bedrij": 2464, "amer": 2465, "kend": 2466, "t-": 2467, "lleg": 2468, "sbe": 2469, "kee": 2470, "tvo": 2471, "nhei": 2472, "scher": 2473, "infor": 2474, "oop": 2475, "inform": 2476, "**<vnw><onbep><grad><stan><prenom><zonder><agr><comp>**": 2477, "dhe": 2478, "oordel": 2479, "issa": 2480, "eis": 2481, "gl": 2482, "uiken": 2483, "eraa": 2484, "voere": 2485, "enli": 2486, "voeren": 2487, "nit": 2488, "enb": 2489, "litiek": 2490, "erel": 2491, "olitiek": 2492, "politiek": 2493, "gu": 2494, "ieder": 2495, "regi": 2496, "bek": 2497, "nheid": 2498, "buit": 2499, "uch": 2500, "biede": 2501, "uist": 2502, "bestaa": 2503, "omis": 2504, "bestaan": 2505, "spel": 2506, "bas": 2507, "dhei": 2508, "urger": 2509, "enhe": 2510, "dheid": 2511, "nzi": 2512, "burger": 2513, "erlan": 2514, "**<n><soort><mv><dim>**": 2515, "ncie": 2516, "dur": 2517, "stru": 2518, "angen": 2519, "ouwen": 2520, "sar": 2521, "site": 2522, "erna": 2523, "edrijf": 2524, "bedrijf": 2525, "omp": 2526, "wes": 2527, "rvoo": 2528, "rvoor": 2529, "rus": 2530, "arkt": 2531, "markt": 2532, "erste": 2533, "happe": 2534, "gram": 2535, "amel": 2536, "ole": 2537, "nkoms": 2538, "enlij": 2539, "treg": 2540, "nkomst": 2541, "forma": 2542, "fina": 2543, "np": 2544, "appel": 2545, "andi": 2546, "eenk": 2547, "enhei": 2548, "trege": 2549, "chappe": 2550, "vie": 2551, "schappe": 2552, "sat": 2553, "eenko": 2554, "enheid": 2555, "geval": 2556, "kant": 2557, "eha": 2558, "tregel": 2559, "war": 2560, "oss": 2561, ";": 2562, "deb": 2563, "gst": 2564, "leren": 2565, "sg": 2566, "overee": 2567, "overeen": 2568, "trij": 2569, "hem": 2570, "reld": 2571, "buite": 2572, "leide": 2573, "werel": 2574, "ereld": 2575, "wereld": 2576, "ontr": 2577, "eenkom": 2578, "ruiken": 2579, "keer": 2580, "nanc": 2581, "anv": 2582, "buiten": 2583, "koo": 2584, "inan": 2585, "assen": 2586, "ck": 2587, "eko": 2588, "aatr": 2589, "atre": 2590, "uto": 2591, "hor": 2592, "mma": 2593, "rland": 2594, "**<vnw><aanw><pron><stan><vol><3><getal>**": 2595, "edin": 2596, "kwe": 2597, "lend": 2598, "aatre": 2599, "organ": 2600, "bruiken": 2601, "ib": 2602, "ppeli": 2603, "nstel": 2604, "pan": 2605, "west": 2606, "lege": 2607, "hul": 2608, "rite": 2609, "fun": 2610, "eet": 2611, "gevo": 2612, "bieden": 2613, "**<vnw><onbep><grad><stan><vrij><zonder><basis>**": 2614, "zorge": 2615, "atreg": 2616, "aatreg": 2617, "atrege": 2618, "aatrege": 2619, "prog": 2620, "lm": 2621, "atregel": 2622, "aatregel": 2623, "graa": 2624, "maatr": 2625, "maatre": 2626, "maatreg": 2627, "maatrege": 2628, "maatregel": 2629, "isse": 2630, "stie": 2631, "aanv": 2632, "rogr": 2633, "drage": 2634, "volk": 2635, "llega": 2636, "misc": 2637, "seri": 2638, "verst": 2639, "twer": 2640, "hen": 2641, "onderz": 2642, "heids": 2643, "misch": 2644, "isa": 2645, "disc": 2646, "enlijk": 2647, "cc": 2648, "finan": 2649, "ichtin": 2650, "snel": 2651, "inanc": 2652, "financ": 2653, "rik": 2654, "progr": 2655, "ters": 2656, "ichting": 2657, "nanci": 2658, "inanci": 2659, "financi": 2660, "10": 2661, "ancie": 2662, "strij": 2663, "rko": 2664, "eleg": 2665, "ramm": 2666, "derzo": 2667, "eding": 2668, "tli": 2669, "ogram": 2670, "nderzo": 2671, "kind": 2672, "onderzo": 2673, "ormat": 2674, "derzoe": 2675, "nderzoe": 2676, "onderzoe": 2677, "derzoek": 2678, "nderzoek": 2679, "onderzoek": 2680, "verm": 2681, "hrij": 2682, "chrij": 2683, "schrij": 2684, "rmati": 2685, "udi": 2686, "stat": 2687, "ilie": 2688, "nvo": 2689, "itvo": 2690, "format": 2691, "inv": 2692, "asi": 2693, "aarb": 2694, "ndaa": 2695, "uitvo": 2696, "lti": 2697, "lands": 2698, "rogra": 2699, "rwer": 2700, "bat": 2701, "eure": 2702, "erte": 2703, "beho": 2704, "inste": 2705, "rogram": 2706, "ves": 2707, "tijde": 2708, "gramm": 2709, "ebruiken": 2710, "gebruiken": 2711, "progra": 2712, "program": 2713, "**<vnw><pers><pron><nomin><red><3p><ev><masc>**": 2714, "ormati": 2715, "terr": 2716, "dens": 2717, "ppelij": 2718, "ppelijk": 2719, "erland": 2720, "happel": 2721, "teur": 2722, "appeli": 2723, "chappel": 2724, "happeli": 2725, "schappel": 2726, "chappeli": 2727, "schappeli": 2728, "appelij": 2729, "happelij": 2730, "appelijk": 2731, "chappelij": 2732, "happelijk": 2733, "schappelij": 2734, "chappelijk": 2735, "schappelijk": 2736, "ogramm": 2737, "zorgen": 2738, "rogramm": 2739, "rbee": 2740, "programm": 2741, "gani": 2742, "milie": 2743, "lv": 2744, "dw": 2745, "formati": 2746, "uat": 2747, "hik": 2748, "\u00e9": 2749, "**<vnw><bez><det><stan><red><2v><ev><prenom><zonder><agr>**": 2750, "ener": 2751, "herm": 2752, "auto": 2753, "nwer": 2754, "hill": 2755, "ract": 2756, "emb": 2757, "enne": 2758, "natu": 2759, "uim": 2760, "chik": 2761, "rbeel": 2762, "rbeeld": 2763, "ganis": 2764, "nad": 2765, "alit": 2766, "schik": 2767, "oem": 2768, "rent": 2769, "ekki": 2770, "nstell": 2771, "ppo": 2772, "vat": 2773, "rgani": 2774, "rmatie": 2775, "ormatie": 2776, "amma": 2777, "neel": 2778, "tec": 2779, "rijv": 2780, "ruc": 2781, "organi": 2782, "evoe": 2783, "derw": 2784, "dam": 2785, "rijs": 2786, "iens": 2787, "lever": 2788, "formatie": 2789, "nforma": 2790, "erder": 2791, "ucht": 2792, "hop": 2793, "rapp": 2794, "informa": 2795, "ogi": 2796, "rganis": 2797, "organis": 2798, "tlij": 2799, "nformat": 2800, "ice": 2801, "telij": 2802, "eau": 2803, "informat": 2804, "nformati": 2805, "itb": 2806, "kijk": 2807, "isere": 2808, "euren": 2809, "informati": 2810, "afs": 2811, "iel": 2812, "sr": 2813, "orbee": 2814, "enkoms": 2815, "enkomst": 2816, "iseren": 2817, "chill": 2818, "raf": 2819, "oorbee": 2820, "voorbee": 2821, "orbeel": 2822, "orbeeld": 2823, "oorbeel": 2824, "voorbeel": 2825, "oorbeeld": 2826, "voorbeeld": 2827, "kene": 2828, "tui": 2829, "pal": 2830, "kos": 2831, "ehee": 2832, "enkel": 2833, "ukk": 2834, "kort": 2835, "eba": 2836, "jzen": 2837, "rdeli": 2838, "telijk": 2839, "ijzen": 2840, "rtij": 2841, "natuu": 2842, "schill": 2843, "pos": 2844, "uti": 2845, "natuur": 2846, "geri": 2847, "uati": 2848, "htl": 2849, "aren": 2850, "pli": 2851, "chtl": 2852, "gevi": 2853, "vero": 2854, "aari": 2855, "andaa": 2856, "ewo": 2857, "tva": 2858, "ramma": 2859, "lden": 2860, "gramma": 2861, "derd": 2862, "aarin": 2863, "ligh": 2864, "ged": 2865, "ici": 2866, "ogramma": 2867, "rogramma": 2868, "programma": 2869, "toch": 2870, "jui": 2871, "gre": 2872, "gere": 2873, "kenen": 2874, "nformatie": 2875, "sd": 2876, "uatie": 2877, "informatie": 2878, "tlijn": 2879, "cto": 2880, "nbe": 2881, "llend": 2882, "trijd": 2883, "eslu": 2884, "cre": 2885, "rdr": 2886, "plan": 2887, "eslui": 2888, "isi": 2889, "hille": 2890, "beslu": 2891, "beslui": 2892, "esluit": 2893, "gevin": 2894, "besluit": 2895, "eenkoms": 2896, "olleg": 2897, "eenkomst": 2898, "ichtl": 2899, "nsen": 2900, "strijd": 2901, "colleg": 2902, "geving": 2903, "htli": 2904, "kb": 2905, "chtli": 2906, "chille": 2907, "nwerk": 2908, "htlij": 2909, "chtlij": 2910, "sli": 2911, "dp": 2912, "rschill": 2913, "erschill": 2914, "verschill": 2915, "nla": 2916, "lein": 2917, "ienst": 2918, "dia": 2919, "diens": 2920, "hillen": 2921, "vest": 2922, "chillen": 2923, "dienst": 2924, "schille": 2925, "schillen": 2926, "erwer": 2927, "htlijn": 2928, "chtlijn": 2929, "zoeken": 2930, "ichtli": 2931, "ichtlij": 2932, "ichtlijn": 2933, "sari": 2934, "richtl": 2935, "richtli": 2936, "richtlij": 2937, "richtlijn": 2938, "ekkin": 2939, "ekking": 2940, "q": 2941, "ssar": 2942, "comp": 2943, "ssari": 2944, "missa": 2945, "issar": 2946, "missar": 2947, "issari": 2948, "missari": 2949, "mmissa": 2950, "ommissa": 2951, "mmissar": 2952, "commissa": 2953, "ommissar": 2954, "mmissari": 2955, "commissar": 2956, "ommissari": 2957, "commissari": 2958, "nderw": 2959, "neer": 2960, "nancie": 2961, "inancie": 2962, "financie": 2963, "saris": 2964, "tste": 2965, "rsoo": 2966, "ersoo": 2967, "top": 2968, "ssaris": 2969, "bov": 2970, "issaris": 2971, "missaris": 2972, "mmissaris": 2973, "ommissaris": 2974, "commissaris": 2975, "sati": 2976, "ote": 2977, "erlij": 2978, "kwa": 2979, "rschille": 2980, "erschille": 2981, "rschillen": 2982, "verschille": 2983, "erschillen": 2984, "verschillen": 2985, "tvoe": 2986, "ociaa": 2987, "sociaa": 2988, "ociaal": 2989, "sociaal": 2990, "eschik": 2991, "mede": 2992, "ernem": 2993, "kra": 2994, "ekene": 2995, "bove": 2996, "pak": 2997, "verle": 2998, "ekenen": 2999, "kop": 3000, "erbe": 3001, "oof": 3002, "einde": 3003, "vu": 3004, "boven": 3005, "verwe": 3006, "enwer": 3007, "nsta": 3008, "parti": 3009, "welk": 3010, "soon": 3011, "grot": 3012, "onderw": 3013, "cherm": 3014, "scherm": 3015, "lighe": 3016, "lighei": 3017, "ligheid": 3018, "erhei": 3019, "rsoon": 3020, "ersoon": 3021, "persoo": 3022, "persoon": 3023, "atte": 3024, "erheid": 3025, "ruim": 3026, "kijke": 3027, "etg": 3028, "igg": 3029, "dure": 3030, "tvoer": 3031, "fic": 3032, "oora": 3033, "eerde": 3034, "ned": 3035, "satie": 3036, "rmen": 3037, "zaam": 3038, "contr": 3039, "mini": 3040, "htig": 3041, "chtig": 3042, "tik": 3043, "rekki": 3044, "tar": 3045, "ton": 3046, "voora": 3047, "lek": 3048, "ister": 3049, "mani": 3050, "rza": 3051, "ivi": 3052, "kaar": 3053, "aang": 3054, "antie": 3055, "ppor": 3056, "fel": 3057, "pport": 3058, "meli": 3059, "uitb": 3060, "eger": 3061, "rba": 3062, "enwerk": 3063, "kijken": 3064, "etge": 3065, "ligg": 3066, "itvoe": 3067, "itvoer": 3068, "nderd": 3069, "uitvoe": 3070, "uitvoer": 3071, "tijden": 3072, "omisc": 3073, "nschapp": 3074, "isat": 3075, "enschapp": 3076, "nschappe": 3077, "eest": 3078, "omisch": 3079, "enschappe": 3080, "teed": 3081, "steed": 3082, "jl": 3083, "spra": 3084, "jdens": 3085, "nlan": 3086, "ijdens": 3087, "bei": 3088, "nomis": 3089, "teeds": 3090, "steeds": 3091, "onomis": 3092, "ione": 3093, "wijzen": 3094, "akel": 3095, "mmen": 3096, "nomisc": 3097, "nomisch": 3098, "onomisc": 3099, "onomisch": 3100, "nor": 3101, "tbr": 3102, "und": 3103, "mente": 3104, "lar": 3105, "olu": 3106, "tijdens": 3107, "ijl": 3108, "url": 3109, "nede": 3110, "bsi": 3111, "mun": 3112, "lst": 3113, "loe": 3114, "elden": 3115, "rekkin": 3116, "rekking": 3117, "trekki": 3118, "trekkin": 3119, "trekking": 3120, "web": 3121, "eerst": 3122, "achter": 3123, "vervo": 3124, "terna": 3125, "olo": 3126, "ekend": 3127, "fie": 3128, "conomis": 3129, "economis": 3130, "beha": 3131, "conomisc": 3132, "economisc": 3133, "conomisch": 3134, "economisch": 3135, "igge": 3136, "ollega": 3137, "collega": 3138, "vel": 3139, "dern": 3140, "menw": 3141, "erme": 3142, "ndelin": 3143, "ndeling": 3144, "juis": 3145, "juist": 3146, "esche": 3147, "erdr": 3148, "gend": 3149, "ndere": 3150, "onl": 3151, "uri": 3152, "tit": 3153, "sec": 3154, "amenw": 3155, "samenw": 3156, "last": 3157, "andeli": 3158, "deba": 3159, "ctu": 3160, "anb": 3161, "erda": 3162, "tua": 3163, "des": 3164, "ligge": 3165, "cer": 3166, "ism": 3167, "ebat": 3168, "lgens": 3169, "menwe": 3170, "olgens": 3171, "volgens": 3172, "toek": 3173, "kost": 3174, "nderh": 3175, "debat": 3176, "mind": 3177, "amp": 3178, "teru": 3179, "menwer": 3180, "alite": 3181, "amenwe": 3182, "samenwe": 3183, "ecti": 3184, "mom": 3185, "old": 3186, "amenwer": 3187, "td": 3188, "menwerk": 3189, "samenwer": 3190, "amenwerk": 3191, "samenwerk": 3192, "boek": 3193, "illend": 3194, "pele": 3195, "iggen": 3196, "woorde": 3197, "liggen": 3198, "dz": 3199, "geh": 3200, "cri": 3201, "ika": 3202, "chie": 3203, "ire": 3204, "mmin": 3205, "nist": 3206, "achten": 3207, "imm": 3208, "estie": 3209, "alg": 3210, "mming": 3211, "cra": 3212, "rnat": 3213, "tti": 3214, "tsc": 3215, "iligh": 3216, "ilighe": 3217, "ilighei": 3218, "iligheid": 3219, "eiligh": 3220, "eilighe": 3221, "eilighei": 3222, "eiligheid": 3223, "dre": 3224, "tens": 3225, "rdo": 3226, "luc": 3227, "ernat": 3228, "yst": 3229, "uurl": 3230, "ntro": 3231, "son": 3232, "legen": 3233, "tati": 3234, "ternat": 3235, "alitei": 3236, "aliteit": 3237, "ieze": 3238, "isati": 3239, "rnati": 3240, "nderen": 3241, "rstell": 3242, "oto": 3243, "ndh": 3244, "ernati": 3245, "erbi": 3246, "vre": 3247, "appo": 3248, "rans": 3249, "ternati": 3250, "veiligh": 3251, "veilighe": 3252, "veilighei": 3253, "veiligheid": 3254, "rande": 3255, "isatie": 3256, "onee": 3257, "fde": 3258, "arme": 3259, "appor": 3260, "apport": 3261, "rappo": 3262, "iem": 3263, "rappor": 3264, "rapport": 3265, "hillend": 3266, "chillend": 3267, "schillend": 3268, "rschillend": 3269, "erschillend": 3270, "verschillend": 3271, "99": 3272, "spro": 3273, "minde": 3274, "terk": 3275, "rio": 3276, "ctor": 3277, "endi": 3278, "onders": 3279, "hn": 3280, "reed": 3281, "prak": 3282, "ameli": 3283, "lema": 3284, "pres": 3285, "minder": 3286, "tgev": 3287, "entr": 3288, "porte": 3289, "igd": 3290, "**<vnw><onbep><pron><stan><vol><3p><ev>**": 3291, "nschappel": 3292, "enschappel": 3293, "nschappeli": 3294, "enschappeli": 3295, "nschappelij": 3296, "enschappelij": 3297, "nschappelijk": 3298, "enschappelijk": 3299, "aring": 3300, "n-": 3301, "emmi": 3302, "tbre": 3303, "mome": 3304, "vall": 3305, "emaa": 3306, "ledi": 3307, "emme": 3308, "oment": 3309, "lez": 3310, "momen": 3311, "moment": 3312, "reenk": 3313, "reenko": 3314, "reenkom": 3315, "ereenk": 3316, "vereenk": 3317, "ereenko": 3318, "vereenko": 3319, "ereenkom": 3320, "vereenkom": 3321, "overeenk": 3322, "overeenko": 3323, "overeenkom": 3324, "besche": 3325, "mod": 3326, "ordeli": 3327, "pect": 3328, "nts": 3329, "ritei": 3330, "spect": 3331, "riteit": 3332, "emmin": 3333, "temmi": 3334, "stemmi": 3335, "emming": 3336, "vend": 3337, "rscha": 3338, "oordeli": 3339, "racti": 3340, "hrijv": 3341, "chrijv": 3342, "schrijv": 3343, "oeve": 3344, "aanb": 3345, "melij": 3346, "melijk": 3347, "som": 3348, "erug": 3349, "orl": 3350, "temmin": 3351, "temming": 3352, "alge": 3353, "stemmin": 3354, "stemming": 3355, "peci": 3356, "terug": 3357, "speci": 3358, "oes": 3359, "arn": 3360, "tike": 3361, "yste": 3362, "ensen": 3363, "nere": 3364, "pn": 3365, "ikel": 3366, "loss": 3367, "passe": 3368, "via": 3369, "situ": 3370, "rum": 3371, "kn": 3372, "twoorde": 3373, "up": 3374, "ntwoorde": 3375, "ciee": 3376, "antwoorde": 3377, "derla": 3378, "edu": 3379, "cieel": 3380, "angs": 3381, "eti": 3382, "verdr": 3383, "itua": 3384, "erscha": 3385, "rkl": 3386, "vent": 3387, "kiez": 3388, "ifi": 3389, "demo": 3390, "tsch": 3391, "neder": 3392, "tuat": 3393, "urli": 3394, "tuati": 3395, "anie": 3396, "sys": 3397, "uurli": 3398, "ractie": 3399, "situa": 3400, "ituat": 3401, "situat": 3402, "ituati": 3403, "situati": 3404, "itg": 3405, "tuatie": 3406, "anse": 3407, "xt": 3408, "dk": 3409, "erga": 3410, "klei": 3411, "beid": 3412, "erzi": 3413, "ermin": 3414, "qu": 3415, "allen": 3416, "tuurl": 3417, "ituatie": 3418, "situatie": 3419, "amelij": 3420, "amelijk": 3421, "mbe": 3422, "ldi": 3423, "urlij": 3424, "uurlij": 3425, "oste": 3426, "urlijk": 3427, "uurlijk": 3428, "richte": 3429, "kad": 3430, "ture": 3431, "escher": 3432, "derlan": 3433, "derland": 3434, "tuurli": 3435, "vaardi": 3436, "syst": 3437, "rve": 3438, "orme": 3439, "keni": 3440, "nsi": 3441, "erlijk": 3442, "ops": 3443, "tuurlij": 3444, "tuurlijk": 3445, "escherm": 3446, "bescher": 3447, "erkl": 3448, "syste": 3449, "egro": 3450, "000": 3451, "**<ww><od><vrij><zonder>**": 3452, "isme": 3453, "raal": 3454, "uitg": 3455, "gewo": 3456, "ennen": 3457, "eik": 3458, "verzo": 3459, "uig": 3460, "bescherm": 3461, "etrekki": 3462, "betrekki": 3463, "etrekkin": 3464, "betrekkin": 3465, "etrekking": 3466, "betrekking": 3467, "roti": 3468, "arbi": 3469, "ror": 3470, "lieu": 3471, "klein": 3472, "reni": 3473, "akt": 3474, "ule": 3475, "nwerki": 3476, "nwerkin": 3477, "tof": 3478, "nwerking": 3479, "luch": 3480, "valle": 3481, "ima": 3482, "assi": 3483, "gio": 3484, "ereni": 3485, "ilieu": 3486, "milieu": 3487, "wal": 3488, "trou": 3489, "ork": 3490, "rijve": 3491, "renig": 3492, "erenig": 3493, "rgel": 3494, "lfs": 3495, "ext": 3496, "lucht": 3497, "env": 3498, "opn": 3499, "beu": 3500, "gene": 3501, "rf": 3502, "ederl": 3503, "**<vnw><bez><det><stan><vol><1><mv><prenom><zonder><evon>**": 3504, "vaardig": 3505, "nier": 3506, "oj": 3507, "oneel": 3508, "rmo": 3509, "aarbi": 3510, "ppen": 3511, "tech": 3512, "mig": 3513, "ctief": 3514, "toen": 3515, "s-": 3516, "neren": 3517, "prij": 3518, "ave": 3519, "wens": 3520, "rander": 3521, "iep": 3522, "aarm": 3523, "lech": 3524, "ltij": 3525, "sma": 3526, "ltijd": 3527, "ekom": 3528, "tuk": 3529, "erba": 3530, "trouw": 3531, "ederla": 3532, "lecht": 3533, "sterk": 3534, "gerin": 3535, "sw": 3536, "enr": 3537, "kade": 3538, "kenne": 3539, "ehan": 3540, "nederl": 3541, "nstelli": 3542, "nstellin": 3543, "nstelling": 3544, "nederla": 3545, "out": 3546, "bro": 3547, "centr": 3548, "tho": 3549, "richten": 3550, "stuk": 3551, "atuurl": 3552, "tic": 3553, "schie": 3554, "**<vnw><onbep><det><stan><prenom><met-e><evz>**": 3555, "natuurl": 3556, "atuurli": 3557, "ectie": 3558, "natuurli": 3559, "bri": 3560, "voort": 3561, "geno": 3562, "verte": 3563, "beste": 3564, "atuurlij": 3565, "oede": 3566, "natuurlij": 3567, "atuurlijk": 3568, "natuurlijk": 3569, "tori": 3570, "egio": 3571, "tiv": 3572, "andelin": 3573, "andeling": 3574, "init": 3575, "ederlan": 3576, "ederland": 3577, "oda": 3578, "slo": 3579, "gering": 3580, "ekeni": 3581, "nau": 3582, "nederlan": 3583, "nederland": 3584, "elfs": 3585, "trat": 3586, "leidi": 3587, "leidin": 3588, "leiding": 3589, "want": 3590, "alti": 3591, "passen": 3592, "tran": 3593, "ehand": 3594, "vens": 3595, "nzie": 3596, "rstelle": 3597, "gezi": 3598, "zelfs": 3599, "eerder": 3600, "derha": 3601, "oplo": 3602, "lise": 3603, "jec": 3604, "oeko": 3605, "plic": 3606, "regio": 3607, "fei": 3608, "rstellen": 3609, "nood": 3610, "vereni": 3611, "kwes": 3612, "kwest": 3613, "westi": 3614, "rtr": 3615, "kwesti": 3616, "westie": 3617, "kwestie": 3618, "verenig": 3619, "zwa": 3620, "rdra": 3621, "voeg": 3622, "arbij": 3623, "aarbij": 3624, "onen": 3625, "ald": 3626, "oorl": 3627, "tn": 3628, "beur": 3629, "waari": 3630, "waarin": 3631, "kader": 3632, "vallen": 3633, "ocr": 3634, "brei": 3635, "**<vnw><onbep><det><stan><prenom><zonder><evon>**": 3636, "altij": 3637, "rad": 3638, "altijd": 3639, "enwerki": 3640, "enwerkin": 3641, "lgem": 3642, "une": 3643, "too": 3644, "enwerking": 3645, "ntere": 3646, "pz": 3647, "zod": 3648, "var": 3649, "itten": 3650, "nze": 3651, "iezen": 3652, "ial": 3653, "namel": 3654, "lot": 3655, "nameli": 3656, "grat": 3657, "namelij": 3658, "namelijk": 3659, "genh": 3660, "rer": 3661, "natie": 3662, "reenkoms": 3663, "ereenkoms": 3664, "reenkomst": 3665, "vereenkoms": 3666, "ereenkomst": 3667, "vereenkomst": 3668, "overeenkoms": 3669, "overeenkomst": 3670, "orw": 3671, "nzien": 3672, "ervan": 3673, "band": 3674, "menwerki": 3675, "amenwerki": 3676, "menwerkin": 3677, "samenwerki": 3678, "amenwerkin": 3679, "samenwerkin": 3680, "menwerking": 3681, "amenwerking": 3682, "samenwerking": 3683, "cati": 3684, "emaal": 3685, "slec": 3686, "won": 3687, "chn": 3688, "niti": 3689, "toeko": 3690, "frac": 3691, "oekom": 3692, "toekom": 3693, "tred": 3694, "chu": 3695, "grati": 3696, "fract": 3697, "fracti": 3698, "truc": 3699, "enla": 3700, "fractie": 3701, "slech": 3702, "slecht": 3703, "gsp": 3704, "dza": 3705, "erant": 3706, "ergel": 3707, "rov": 3708, "rgi": 3709, "dac": 3710, "tm": 3711, "fv": 3712, "rijven": 3713, "blo": 3714, "ratis": 3715, "lgeme": 3716, "oef": 3717, "wac": 3718, "rzie": 3719, "handeli": 3720, "nisa": 3721, "elg": 3722, "vange": 3723, "ontro": 3724, "oorw": 3725, "beschi": 3726, "mber": 3727, "begro": 3728, "hore": 3729, "cul": 3730, "nnin": 3731, "echn": 3732, "noem": 3733, "oral": 3734, "lemaa": 3735, "achti": 3736, "techn": 3737, "erdra": 3738, "rneme": 3739, "ool": 3740, "iz": 3741, "wach": 3742, "nten": 3743, "wacht": 3744, "eda": 3745, "mt": 3746, "nisat": 3747, "armee": 3748, "**<vnw><pr><pron><obl><vol><2><getal>**": 3749, "gelijkh": 3750, "gelijkhe": 3751, "choo": 3752, "algem": 3753, "onderh": 3754, "algeme": 3755, "aarme": 3756, "nning": 3757, "trol": 3758, "opp": 3759, "mmu": 3760, "handelin": 3761, "schoo": 3762, "vand": 3763, "handeling": 3764, "para": 3765, "boo": 3766, "beschik": 3767, "rtik": 3768, "verdra": 3769, "aarmee": 3770, "solu": 3771, "artik": 3772, "otin": 3773, "tikel": 3774, "breid": 3775, "rgeli": 3776, "rtike": 3777, "artike": 3778, "rtikel": 3779, "artikel": 3780, "leiden": 3781, "contro": 3782, "rgelij": 3783, "rgelijk": 3784, "get": 3785, "emmen": 3786, "teel": 3787, "crat": 3788, "reik": 3789, "ooral": 3790, "vooral": 3791, "tim": 3792, "catie": 3793, "initi": 3794, "gelijkhei": 3795, "gelijkheid": 3796, "rika": 3797, "ocra": 3798, "rtu": 3799, "rze": 3800, "prijs": 3801, "lemaal": 3802, "gt": 3803, "ergeli": 3804, "ergelij": 3805, "ergelijk": 3806, "niv": 3807, "opt": 3808, "evere": 3809, "oting": 3810, "norm": 3811, "moo": 3812, "anken": 3813, "groti": 3814, "lj": 3815, "pelen": 3816, "ldo": 3817, "rzien": 3818, "liser": 3819, "nce": 3820, "plos": 3821, "lla": 3822, "mmun": 3823, "embe": 3824, "feit": 3825, "nive": 3826, "rotin": 3827, "roting": 3828, "grotin": 3829, "groting": 3830, "lb": 3831, "adi": 3832, "itbr": 3833, "mul": 3834, "nre": 3835, "verant": 3836, "ngsp": 3837, "uitbr": 3838, "euk": 3839, "oeme": 3840, "graag": 3841, "sve": 3842, "rend": 3843, "rantw": 3844, "indie": 3845, "off": 3846, "erantw": 3847, "rantwo": 3848, "verantw": 3849, "erantwo": 3850, "rantwoo": 3851, "verantwo": 3852, "erantwoo": 3853, "rantwoor": 3854, "verantwoo": 3855, "erantwoor": 3856, "verantwoor": 3857, "egev": 3858, "rantwoord": 3859, "erantwoord": 3860, "verantwoord": 3861, "nterna": 3862, "interna": 3863, "jzi": 3864, "ijzi": 3865, "anier": 3866, "ruit": 3867, "mpe": 3868, "ekoms": 3869, "iver": 3870, "ntrol": 3871, "ekomst": 3872, "manie": 3873, "terin": 3874, "tev": 3875, "oekoms": 3876, "toekoms": 3877, "oekomst": 3878, "toekomst": 3879, "ontrol": 3880, "manier": 3881, "nct": 3882, "reger": 3883, "control": 3884, "lgemee": 3885, "lgemeen": 3886, "onv": 3887, "iat": 3888, "egeri": 3889, "indien": 3890, "ruct": 3891, "rlo": 3892, "zitten": 3893, "groep": 3894, "nsti": 3895, "egrot": 3896, "struc": 3897, "truct": 3898, "moc": 3899, "crati": 3900, "begrot": 3901, "rnatio": 3902, "ernatio": 3903, "rnation": 3904, "ernation": 3905, "struct": 3906, "rnationa": 3907, "ernationa": 3908, "ffi": 3909, "nternat": 3910, "internat": 3911, "obe": 3912, "elege": 3913, "nternati": 3914, "ternatio": 3915, "internati": 3916, "nternatio": 3917, "ternation": 3918, "internatio": 3919, "nternation": 3920, "internation": 3921, "gar": 3922, "ternationa": 3923, "nternationa": 3924, "internationa": 3925, "agi": 3926, "rschap": 3927, "ail": 3928, "enlan": 3929, "logi": 3930, "ember": 3931, "emer": 3932, "gde": 3933, "geg": 3934, "nnee": 3935, "instel": 3936, "ept": 3937, "kennen": 3938, "sge": 3939, "enta": 3940, "lac": 3941, "strat": 3942, "evolg": 3943, "gevol": 3944, "vanda": 3945, "artij": 3946, "nisati": 3947, "gevolg": 3948, "ject": 3949, "algemee": 3950, "algemeen": 3951, "egerin": 3952, "verp": 3953, "mocr": 3954, "role": 3955, "egroti": 3956, "begroti": 3957, "egrotin": 3958, "begrotin": 3959, "egroting": 3960, "begroting": 3961, "anw": 3962, "ria": 3963, "emoc": 3964, "democ": 3965, "nisatie": 3966, "emocr": 3967, "democr": 3968, "mocra": 3969, "alin": 3970, "schu": 3971, "emocra": 3972, "democra": 3973, "erschap": 3974, "itbre": 3975, "uitbre": 3976, "ndu": 3977, "danke": 3978, "beta": 3979, "danken": 3980, "onf": 3981, "aran": 3982, "geleg": 3983, "oplos": 3984, "egering": 3985, "instell": 3986, "ebs": 3987, "egenh": 3988, "mense": 3989, "vandaa": 3990, "horen": 3991, "aange": 3992, "pporte": 3993, "webs": 3994, "meni": 3995, "teem": 3996, "partij": 3997, "vangen": 3998, "tekene": 3999, "ecto": 4000, "regeri": 4001, "regerin": 4002, "regering": 4003, "tekenen": 4004, "woon": 4005, "ystee": 4006, "steem": 4007, "ysteem": 4008, "ensi": 4009, "systee": 4010, "systeem": 4011, "onli": 4012, "elegen": 4013, "egeve": 4014, "gelege": 4015, "gelegen": 4016, "rdee": 4017, "opz": 4018, "ukke": 4019, "kam": 4020, "ndb": 4021, "lus": 4022, "ommu": 4023, "ploss": 4024, "%": 4025, "oploss": 4026, "verga": 4027, "ezel": 4028, "commu": 4029, "ommun": 4030, "nva": 4031, "commun": 4032, "veri": 4033, "bijv": 4034, "oemen": 4035, "eper": 4036, "egeven": 4037, "isti": 4038, "kenin": 4039, "lati": 4040, "zing": 4041, "kening": 4042, "tga": 4043, "wann": 4044, "tap": 4045, "oudi": 4046, "oele": 4047, "rdeel": 4048, "trole": 4049, "npa": 4050, "rechts": 4051, "conf": 4052, "wanne": 4053, "tione": 4054, "nneer": 4055, "tscha": 4056, "annee": 4057, "eenschapp": 4058, "meenschapp": 4059, "emeenschapp": 4060, "gemeenschapp": 4061, "eenschappe": 4062, "meenschappe": 4063, "emeenschappe": 4064, "gemeenschappe": 4065, "spele": 4066, "wannee": 4067, "anneer": 4068, "wanneer": 4069, "ntrole": 4070, "apporte": 4071, "eenschappel": 4072, "meenschappel": 4073, "eenschappeli": 4074, "emeenschappel": 4075, "meenschappeli": 4076, "eenschappelij": 4077, "gemeenschappel": 4078, "emeenschappeli": 4079, "meenschappelij": 4080, "eenschappelijk": 4081, "gemeenschappeli": 4082, "emeenschappelij": 4083, "meenschappelijk": 4084, "gemeenschappelij": 4085, "emeenschappelijk": 4086, "gemeenschappelijk": 4087, "ontrole": 4088, "rapporte": 4089, "hoev": 4090, "lles": 4091, "atisc": 4092, "ledig": 4093, "atisch": 4094, "controle": 4095, "hoeve": 4096, "hope": 4097, "etal": 4098, "sul": 4099, "verbe": 4100, "rteu": 4101, "jp": 4102, "rteur": 4103, "ector": 4104, "orteu": 4105, "porteu": 4106, "orteur": 4107, "porteur": 4108, "ndr": 4109, "nwo": 4110, "elp": 4111, "rdelij": 4112, "evens": 4113, "15": 4114, "voll": 4115, "rdelijk": 4116, "temme": 4117, "gehe": 4118, "lka": 4119, "ncti": 4120, "keur": 4121, "nsu": 4122, "nsel": 4123, "span": 4124, "genhe": 4125, "stemme": 4126, "alise": 4127, "nstr": 4128, "ilit": 4129, "lled": 4130, "ofd": 4131, "ars": 4132, "wijzi": 4133, "genhei": 4134, "genheid": 4135, "volle": 4136, "ekenin": 4137, "ekening": 4138, "ndelij": 4139, "ndelijk": 4140, "osi": 4141, "temmen": 4142, "wez": 4143, "edo": 4144, "emin": 4145, "stemmen": 4146, "aarn": 4147, "gege": 4148, "spor": 4149, "epal": 4150, "nland": 4151, "wijs": 4152, "oofd": 4153, "ije": 4154, "egenhe": 4155, "rect": 4156, "everen": 4157, "tali": 4158, "behan": 4159, "bra": 4160, "uiter": 4161, "dach": 4162, "rnationaa": 4163, "ernationaa": 4164, "rnationaal": 4165, "ternationaa": 4166, "ernationaal": 4167, "nternationaa": 4168, "ternationaal": 4169, "internationaa": 4170, "nternationaal": 4171, "internationaal": 4172, "epas": 4173, "egenhei": 4174, "egenheid": 4175, "legenh": 4176, "legenhe": 4177, "anz": 4178, "egeli": 4179, "verge": 4180, "dacht": 4181, "tuig": 4182, "ijp": 4183, "hrijve": 4184, "chrijve": 4185, "schrijve": 4186, "legenhei": 4187, "legenheid": 4188, "bil": 4189, "ller": 4190, "ehande": 4191, "ehandel": 4192, "uz": 4193, "pporteu": 4194, "apporteu": 4195, "pporteur": 4196, "rapporteu": 4197, "apporteur": 4198, "rapporteur": 4199, "elegenh": 4200, "gelegenh": 4201, "verhe": 4202, "elegenhe": 4203, "gelegenhe": 4204, "alles": 4205, "kst": 4206, "gn": 4207, "ewi": 4208, "vul": 4209, "asti": 4210, "mac": 4211, "ekt": 4212, "ced": 4213, "inis": 4214, "elegenhei": 4215, "gelegenhei": 4216, "elegenheid": 4217, "gelegenheid": 4218, "daad": 4219, "rto": 4220, "atten": 4221, "kba": 4222, "vit": 4223, "rpl": 4224, "rdrag": 4225, "ester": 4226, "edur": 4227, "pij": 4228, "oces": 4229, "roces": 4230, "proces": 4231, "inc": 4232, "aast": 4233, "owe": 4234, "behand": 4235, "ordi": 4236, "behande": 4237, "behandel": 4238, "basi": 4239, "edure": 4240, "hoof": 4241, "tsl": 4242, "lings": 4243, "mate": 4244, "olled": 4245, "jvo": 4246, "\u00ebn": 4247, "akeli": 4248, "lledi": 4249, "ijvo": 4250, "uee": 4251, "tera": 4252, "daag": 4253, "olledi": 4254, "lledig": 4255, "olledig": 4256, "volled": 4257, "volledi": 4258, "volledig": 4259, "ilj": 4260, "levere": 4261, "leveren": 4262, "ndele": 4263, "anisa": 4264, "anisat": 4265, "tab": 4266, "nemer": 4267, "ntee": 4268, "hoofd": 4269, "afv": 4270, "bijvo": 4271, "pd": 4272, "aliser": 4273, "traa": 4274, "ndelen": 4275, "pv": 4276, "ndern": 4277, "ganisa": 4278, "rganisa": 4279, "organisa": 4280, "ganisat": 4281, "rganisat": 4282, "organisat": 4283, "bepal": 4284, "erdrag": 4285, "ocrat": 4286, "bezo": 4287, "verzoe": 4288, "toep": 4289, "eso": 4290, "nov": 4291, "ertr": 4292, "jvoo": 4293, "verdrag": 4294, "ijvoo": 4295, "jvoor": 4296, "ijvoor": 4297, "ime": 4298, "arva": 4299, "erij": 4300, "orit": 4301, "dic": 4302, "lfd": 4303, "ikken": 4304, "bijvoo": 4305, "lta": 4306, "jvoorb": 4307, "jvoorbe": 4308, "bijvoor": 4309, "jvoorbee": 4310, "ezin": 4311, "week": 4312, "jvoorbeel": 4313, "jvoorbeeld": 4314, "ijvoorb": 4315, "bijvoorb": 4316, "ijvoorbe": 4317, "bijvoorbe": 4318, "ijvoorbee": 4319, "bijvoorbee": 4320, "ijvoorbeel": 4321, "bijvoorbeel": 4322, "ijvoorbeeld": 4323, "bijvoorbeeld": 4324, "asis": 4325, "oeri": 4326, "eac": 4327, "elfd": 4328, "ueel": 4329, "jds": 4330, "ijds": 4331, "erpl": 4332, "orstell": 4333, "maan": 4334, "ezig": 4335, "rere": 4336, "rantwoorde": 4337, "erantwoorde": 4338, "verantwoorde": 4339, "zelfd": 4340, "oorstell": 4341, "voorstell": 4342, "dent": 4343, "lede": 4344, "aarva": 4345, "oepa": 4346, "arvan": 4347, "nger": 4348, "ereik": 4349, "toepa": 4350, "aarvan": 4351, "ossi": 4352, "oepas": 4353, "toepas": 4354, "lfde": 4355, "bor": 4356, "elfde": 4357, "cere": 4358, "rsp": 4359, "rho": 4360, "zelfde": 4361, "meer": 4362, "ulp": 4363, "basis": 4364, "ntra": 4365, "naf": 4366, "eike": 4367, "ordelij": 4368, "ordelijk": 4369, "ezie": 4370, "eune": 4371, "entee": 4372, "tatie": 4373, "reren": 4374, "tering": 4375, "unc": 4376, "oordelij": 4377, "ogelijkh": 4378, "mogelijkh": 4379, "ogelijkhe": 4380, "mogelijkhe": 4381, "oordelijk": 4382, "wali": 4383, "aling": 4384, "kbaa": 4385, "unen": 4386, "pti": 4387, "kbaar": 4388, "rwerp": 4389, "adv": 4390, "nkeli": 4391, "kwal": 4392, "erze": 4393, "stij": 4394, "blijk": 4395, "sho": 4396, "ane": 4397, "rdoo": 4398, "ezon": 4399, "deni": 4400, "derst": 4401, "mie": 4402, "ket": 4403, "kwali": 4404, "ocrati": 4405, "ubl": 4406, "nteel": 4407, "eunen": 4408, "noeme": 4409, "derne": 4410, "hale": 4411, "digh": 4412, "epass": 4413, "nderne": 4414, "epen": 4415, "dighe": 4416, "enteel": 4417, "vertr": 4418, "lte": 4419, "oepass": 4420, "toepass": 4421, "hrijven": 4422, "chrijven": 4423, "schrijven": 4424, "rbet": 4425, "iu": 4426, "mocrat": 4427, "gezo": 4428, "12": 4429, "ogelijkhei": 4430, "mogelijkhei": 4431, "ogelijkheid": 4432, "mogelijkheid": 4433, "andb": 4434, "emocrat": 4435, "democrat": 4436, "erwa": 4437, "verkl": 4438, "tschap": 4439, "ase": 4440, "nderst": 4441, "ondern": 4442, "ervoo": 4443, "ervoor": 4444, "onderne": 4445, "ece": 4446, "rdige": 4447, "sect": 4448, "dernem": 4449, "ndernem": 4450, "ondernem": 4451, "vold": 4452, "etgev": 4453, "espr": 4454, "stis": 4455, "pakk": 4456, "inist": 4457, "usi": 4458, "ober": 4459, "nisc": 4460, "ezond": 4461, "enni": 4462, "wetg": 4463, "wetge": 4464, "wetgev": 4465, "onderd": 4466, "erec": 4467, "erre": 4468, "odz": 4469, "eiken": 4470, "tbrei": 4471, "hulp": 4472, "menin": 4473, "mocrati": 4474, "gezon": 4475, "mening": 4476, "itbrei": 4477, "tbreid": 4478, "uitbrei": 4479, "itbreid": 4480, "uitbreid": 4481, "utie": 4482, "gegev": 4483, "emocrati": 4484, "democrati": 4485, "gegeve": 4486, "gegeven": 4487, "mers": 4488, "ndaag": 4489, "anisati": 4490, "oldo": 4491, "stisc": 4492, "renti": 4493, "stisch": 4494, "gezond": 4495, "dighei": 4496, "digheid": 4497, "sum": 4498, "noemen": 4499, "pm": 4500, "iati": 4501, "cor": 4502, "adr": 4503, "ldoe": 4504, "trum": 4505, "anisatie": 4506, "voldo": 4507, "onds": 4508, "ganisati": 4509, "rganisati": 4510, "organisati": 4511, "igde": 4512, "fec": 4513, "bsit": 4514, "bsite": 4515, "gisc": 4516, "mentee": 4517, "etek": 4518, "ebsi": 4519, "websi": 4520, "ebsit": 4521, "websit": 4522, "nkelij": 4523, "nkelijk": 4524, "oodz": 4525, "akelij": 4526, "ebsite": 4527, "website": 4528, "iger": 4529, "ganisatie": 4530, "rganisatie": 4531, "organisatie": 4532, "voord": 4533, "sco": 4534, "minis": 4535, "teune": 4536, "ldoen": 4537, "steune": 4538, "osten": 4539, "akelijk": 4540, "perk": 4541, "18": 4542, "nisch": 4543, "tk": 4544, "oldoe": 4545, "voldoe": 4546, "oldoen": 4547, "voldoen": 4548, "halen": 4549, "beve": 4550, "verzoek": 4551, "enland": 4552, "ubli": 4553, "fect": 4554, "teunen": 4555, "zoda": 4556, "steunen": 4557, "gisch": 4558, "onderst": 4559, "menteel": 4560, "minist": 4561, "bijz": 4562, "mode": 4563, "rwaa": 4564, "rdoor": 4565, "odza": 4566, "plich": 4567, "oodza": 4568, "plicht": 4569, "kg": 4570, "leden": 4571, "noodz": 4572, "rake": 4573, "noodza": 4574, "reike": 4575, "reiken": 4576, "sver": 4577, "stap": 4578, "moed": 4579, "eteke": 4580, "arte": 4581, "eteken": 4582, "rwaar": 4583, "pale": 4584, "jon": 4585, "ndp": 4586, "**<adj><nom><basis><met-e><zonder-n><stan>**": 4587, "nnem": 4588, "daarv": 4589, "rsta": 4590, "dragen": 4591, "lant": 4592, "moei": 4593, "erbet": 4594, "andele": 4595, "ute": 4596, "siti": 4597, "term": 4598, "andelen": 4599, "nle": 4600, "elst": 4601, "nho": 4602, "evoeg": 4603, "fil": 4604, "erech": 4605, "beter": 4606, "rev": 4607, "erecht": 4608, "ormi": 4609, "rkel": 4610, "erwerp": 4611, "posi": 4612, "onta": 4613, "**<vnw><aanw><det><stan><nom><met-e><zonder-n>**": 4614, "ngev": 4615, "betek": 4616, "beteke": 4617, "beteken": 4618, "krac": 4619, "rvoe": 4620, "verba": 4621, "krach": 4622, "risi": 4623, "ceren": 4624, "kracht": 4625, "**<vnw><pers><pron><stan><red><3><ev><fem>**": 4626, "ucti": 4627, "woordel": 4628, "lut": 4629, "tele": 4630, "secto": 4631, "sector": 4632, "woordeli": 4633, "woordelij": 4634, "maand": 4635, "vatt": 4636, "woordelijk": 4637, "let": 4638, "rukk": 4639, "ndhe": 4640, "mmig": 4641, "osit": 4642, "dbo": 4643, "tad": 4644, "verbet": 4645, "cce": 4646, "lve": 4647, "erho": 4648, "twoordel": 4649, "ntwoordel": 4650, "antwoordel": 4651, "rantwoordel": 4652, "erantwoordel": 4653, "verantwoordel": 4654, "roj": 4655, "itga": 4656, "rkla": 4657, "twoordeli": 4658, "ntwoordeli": 4659, "twoordelij": 4660, "antwoordeli": 4661, "ntwoordelij": 4662, "rantwoordeli": 4663, "antwoordelij": 4664, "erantwoordeli": 4665, "rantwoordelij": 4666, "verantwoordeli": 4667, "erantwoordelij": 4668, "verantwoordelij": 4669, "twoordelijk": 4670, "ntwoordelijk": 4671, "antwoordelijk": 4672, "rantwoordelijk": 4673, "erantwoordelijk": 4674, "verantwoordelijk": 4675, "rakt": 4676, "andaag": 4677, "vandaag": 4678, "uitga": 4679, "nza": 4680, "rbete": 4681, "erbete": 4682, "verbete": 4683, "redi": 4684, "efe": 4685, "huid": 4686, "ebo": 4687, "ingsp": 4688, "hart": 4689, "erkla": 4690, "trans": 4691, "rbeter": 4692, "orstelle": 4693, "oorstelle": 4694, "orstellen": 4695, "voorstelle": 4696, "oorstellen": 4697, "voorstellen": 4698, "erbeter": 4699, "verbeter": 4700, "\u00ebr": 4701, "vern": 4702, "uut": 4703, "onin": 4704, "jks": 4705, "voorw": 4706, "ijks": 4707, "sult": 4708, "tend": 4709, "derg": 4710, "uder": 4711, "posit": 4712, "nciee": 4713, "anciee": 4714, "nanciee": 4715, "inanciee": 4716, "financiee": 4717, "ncieel": 4718, "ancieel": 4719, "nancieel": 4720, "inancieel": 4721, "financieel": 4722, "rri": 4723, "az": 4724, "edel": 4725, "jzo": 4726, "ijzo": 4727, "jzon": 4728, "ijzon": 4729, "i\u00ebn": 4730, "ndhei": 4731, "auw": 4732, "ndheid": 4733, "wei": 4734, "orite": 4735, "reidi": 4736, "reidin": 4737, "erie": 4738, "acc": 4739, "bijzo": 4740, "jzond": 4741, "bijzon": 4742, "ijzond": 4743, "jzonde": 4744, "bijzond": 4745, "ijzonde": 4746, "jzonder": 4747, "bijzonde": 4748, "ijzonder": 4749, "bijzonder": 4750, "reiding": 4751, "rbo": 4752, "rten": 4753, "rentie": 4754, "ositi": 4755, "betal": 4756, "positi": 4757, "erneme": 4758, "**<adj><nom><basis><zonder><zonder-n>**": 4759, "ginn": 4760, "oritei": 4761, "oriteit": 4762, "sitie": 4763, "geren": 4764, "drukk": 4765, "elka": 4766, "ewel": 4767, "icat": 4768, "vaak": 4769, "egri": 4770, "kkelij": 4771, "kkelijk": 4772, "wate": 4773, "hin": 4774, "ginne": 4775, "ergi": 4776, "edra": 4777, "hopen": 4778, "esu": 4779, "water": 4780, "rouwe": 4781, "tp": 4782, "ami": 4783, "iev": 4784, "clu": 4785, "mte": 4786, "instelli": 4787, "instellin": 4788, "instelling": 4789, "enaa": 4790, "eginn": 4791, "beginn": 4792, "bereik": 4793, "eginne": 4794, "beginne": 4795, "elem": 4796, "anp": 4797, "kli": 4798, "pte": 4799, "jst": 4800, "elu": 4801, "afl": 4802, "ijst": 4803, "rate": 4804, "tstel": 4805, "vlo": 4806, "aanda": 4807, "oordi": 4808, "enis": 4809, "duu": 4810, "stad": 4811, "xi": 4812, "dse": 4813, "estr": 4814, "duur": 4815, "jong": 4816, "kieze": 4817, "vla": 4818, "oork": 4819, "rest": 4820, "erve": 4821, "pub": 4822, "liss": 4823, "oelen": 4824, "verze": 4825, "lach": 4826, "milj": 4827, "doc": 4828, "bal": 4829, "tac": 4830, "ositie": 4831, "positie": 4832, "olog": 4833, "erkel": 4834, "rove": 4835, "ionee": 4836, "oom": 4837, "andp": 4838, "elt": 4839, "unct": 4840, "wie": 4841, "ginnen": 4842, "rnemen": 4843, "verpl": 4844, "eginnen": 4845, "beginnen": 4846, "ctiv": 4847, "199": 4848, "aanp": 4849, "raak": 4850, "woordi": 4851, "rekeni": 4852, "rekenin": 4853, "rekening": 4854, "anwe": 4855, "11": 4856, "zijd": 4857, "ewoo": 4858, "sts": 4859, "onsu": 4860, "consu": 4861, "uctie": 4862, "kte": 4863, "**<ww><od><prenom><zonder>**": 4864, "rens": 4865, "sio": 4866, "klar": 4867, "jou": 4868, "kele": 4869, "raat": 4870, "nsl": 4871, "inig": 4872, "stere": 4873, "iatie": 4874, "serv": 4875, "ereike": 4876, "ereiken": 4877, "andig": 4878, "publ": 4879, "vormi": 4880, "verkla": 4881, "odat": 4882, "publi": 4883, "fte": 4884, "dir": 4885, "rein": 4886, "resu": 4887, "cus": 4888, "esi": 4889, "naas": 4890, "rim": 4891, "oma": 4892, "urk": 4893, "abi": 4894, "nderha": 4895, "brek": 4896, "rep": 4897, "ida": 4898, "imme": 4899, "aald": 4900, "nic": 4901, "ngel": 4902, "achtig": 4903, "verwa": 4904, "esul": 4905, "eerl": 4906, "resul": 4907, "ulta": 4908, "passi": 4909, "tsp": 4910, "esult": 4911, "result": 4912, "ras": 4913, "kelen": 4914, "hav": 4915, "slan": 4916, "naast": 4917, "dpu": 4918, "50": 4919, "rkeli": 4920, "ologi": 4921, "agin": 4922, "erkeli": 4923, "rkelij": 4924, "erkelij": 4925, "dpun": 4926, "dpunt": 4927, "rkelijk": 4928, "erkelijk": 4929, "oest": 4930, "avo": 4931, "bar": 4932, "**<vnw><pers><pron><nomin><vol><3v><ev><fem>**": 4933, "enste": 4934, "enm": 4935, "enwo": 4936, "bod": 4937, "rklar": 4938, "erklar": 4939, "verklar": 4940, "jur": 4941, "ukken": 4942, "tsen": 4943, "sser": 4944, "andere": 4945, "rwaard": 4946, "ople": 4947, "ormen": 4948, "ngst": 4949, "ndbo": 4950, "voork": 4951, "waarb": 4952, "**<vnw><vb><det><stan><prenom><met-e><rest>**": 4953, "zow": 4954, "kope": 4955, "arna": 4956, "voel": 4957, "erig": 4958, "aanse": 4959, "tandp": 4960, "wege": 4961, "vea": 4962, "anpa": 4963, "begri": 4964, "ags": 4965, "anderen": 4966, "lkaa": 4967, "aanpa": 4968, "standp": 4969, "nerg": 4970, "tze": 4971, "edrag": 4972, "sulta": 4973, "elaa": 4974, "kz": 4975, "andbo": 4976, "oje": 4977, "ium": 4978, "eini": 4979, "**<adj><nom><basis><met-e><mv-n>**": 4980, "rkom": 4981, "eming": 4982, "rmij": 4983, "ivea": 4984, "stin": 4985, "mooi": 4986, "steren": 4987, "genw": 4988, "medi": 4989, "veau": 4990, "eperk": 4991, "bepe": 4992, "beper": 4993, "beperk": 4994, "ermij": 4995, "nivea": 4996, "rwaarde": 4997, "oris": 4998, "iveau": 4999, "niveau": 5000, "ioneel": 5001, "rust": 5002, "oru": 5003, "fh": 5004, "owel": 5005, "roje": 5006, "**<tw><rang><nom><zonder-n>**": 5007, "derwe": 5008, "luti": 5009, "tba": 5010, "soor": 5011, "sport": 5012, "ustr": 5013, "fva": 5014, "olut": 5015, "oluti": 5016, "slot": 5017, "ringe": 5018, "ssc": 5019, "voed": 5020, "ewoon": 5021, "proj": 5022, "nneme": 5023, "rover": 5024, "afva": 5025, "ormin": 5026, "uncti": 5027, "proje": 5028, "paal": 5029, "oost": 5030, "orming": 5031, "ojec": 5032, "rojec": 5033, "projec": 5034, "oject": 5035, "roject": 5036, "project": 5037, "ndpu": 5038, "opm": 5039, "ndpun": 5040, "ndpunt": 5041, "oedi": 5042, "spelen": 5043, "orwa": 5044, "vormin": 5045, "vorming": 5046, "orn": 5047, "eus": 5048, "erf": 5049, "ansp": 5050, "enre": 5051, "zowe": 5052, "gewoo": 5053, "gewoon": 5054, "ntwe": 5055, "zowel": 5056, "lkaar": 5057, "rijp": 5058, "behe": 5059, "rvoer": 5060, "hermi": 5061, "elkaa": 5062, "rings": 5063, "raan": 5064, "tia": 5065, "walit": 5066, "kwalit": 5067, "anva": 5068, "elkaar": 5069, "leze": 5070, "meri": 5071, "ape": 5072, "tent": 5073, "peri": 5074, "ntv": 5075, "andpu": 5076, "func": 5077, "dame": 5078, "gad": 5079, "andpun": 5080, "andpunt": 5081, "wed": 5082, "tige": 5083, "twerp": 5084, "ttin": 5085, "oced": 5086, "roced": 5087, "proced": 5088, "tivi": 5089, "pakke": 5090, "ntwer": 5091, "fw": 5092, "itst": 5093, "funct": 5094, "oorwa": 5095, "dire": 5096, "ossin": 5097, "erko": 5098, "functi": 5099, "irec": 5100, "cedu": 5101, "order": 5102, "voorwa": 5103, "ocedu": 5104, "cedur": 5105, "rocedu": 5106, "ocedur": 5107, "cedure": 5108, "procedu": 5109, "rocedur": 5110, "ocedure": 5111, "procedur": 5112, "rocedure": 5113, "procedure": 5114, "ossing": 5115, "orwaa": 5116, "orwaar": 5117, "ntwerp": 5118, "tandpu": 5119, "standpu": 5120, "tandpun": 5121, "standpun": 5122, "tandpunt": 5123, "standpunt": 5124, "tstell": 5125, "oorwaa": 5126, "voorwaa": 5127, "oorwaar": 5128, "voorwaar": 5129, "onve": 5130, "30": 5131, "vull": 5132, "aderi": 5133, "sid": 5134, "ervoe": 5135, "egenw": 5136, "tgevi": 5137, "tgevin": 5138, "tgeving": 5139, "handele": 5140, "handelen": 5141, "lste": 5142, "nba": 5143, "direc": 5144, "inza": 5145, "irect": 5146, "direct": 5147, "spi": 5148, "oit": 5149, "elings": 5150, "ret": 5151, "nderi": 5152, "tting": 5153, "rban": 5154, "tale": 5155, "ringen": 5156, "mor": 5157, "ateg": 5158, "soort": 5159, "nto": 5160, "assin": 5161, "ln": 5162, "gelu": 5163, "hermin": 5164, "chermi": 5165, "erming": 5166, "schermi": 5167, "chermin": 5168, "schermin": 5169, "kti": 5170, "ssch": 5171, "onderha": 5172, "herming": 5173, "cherming": 5174, "scherming": 5175, "esulta": 5176, "resulta": 5177, "oppe": 5178, "lossi": 5179, "lossin": 5180, "lossing": 5181, "vite": 5182, "nrec": 5183, "uctu": 5184, "ereid": 5185, "rhan": 5186, "ltaa": 5187, "bereid": 5188, "mand": 5189, "dbou": 5190, "ph": 5191, "aderin": 5192, "adering": 5193, "aanva": 5194, "erti": 5195, "nmi": 5196, "nrech": 5197, "nrecht": 5198, "hol": 5199, "kiezen": 5200, "etgevi": 5201, "wetgevi": 5202, "etgevin": 5203, "wetgevin": 5204, "etgeving": 5205, "wetgeving": 5206, "div": 5207, "ivit": 5208, "rhand": 5209, "eschermi": 5210, "beschermi": 5211, "eschermin": 5212, "beschermin": 5213, "escherming": 5214, "bescherming": 5215, "reide": 5216, "uidi": 5217, "icati": 5218, "vorme": 5219, "assing": 5220, "ructu": 5221, "tructu": 5222, "structu": 5223, "verde": 5224, "insp": 5225, "tegenw": 5226, "rzaa": 5227, "landb": 5228, "ronde": 5229, "**<vnw><recip><pron><obl><vol><persoon><mv>**": 5230, "blijke": 5231, "gesc": 5232, "cte": 5233, "uitst": 5234, "gesch": 5235, "lak": 5236, "nga": 5237, "seli": 5238, "arop": 5239, "gebe": 5240, "vitei": 5241, "viteit": 5242, "dbouw": 5243, "stof": 5244, "ndbou": 5245, "andbou": 5246, "ndbouw": 5247, "andbouw": 5248, "nsum": 5249, "luk": 5250, "erand": 5251, "toes": 5252, "plossi": 5253, "plossin": 5254, "plossing": 5255, "onsum": 5256, "consum": 5257, "oplossi": 5258, "oplossin": 5259, "oplossing": 5260, "landbo": 5261, "landbou": 5262, "landbouw": 5263, "jdi": 5264, "tien": 5265, "ijdi": 5266, "-l": 5267, "jzig": 5268, "ijzig": 5269, "aarop": 5270, "nderin": 5271, "ivite": 5272, "verke": 5273, "enz": 5274, "ivitei": 5275, "iviteit": 5276, "lasti": 5277, "imi": 5278, "lutie": 5279, "14": 5280, "olutie": 5281, "rijde": 5282, "zodat": 5283, "ly": 5284, "02": 5285, "nemi": 5286, "stit": 5287, "lon": 5288, "jpe": 5289, "pann": 5290, "pin": 5291, "cur": 5292, "edere": 5293, "verand": 5294, "omb": 5295, "ijpe": 5296, "rpe": 5297, "eerli": 5298, "nwoo": 5299, "ultaa": 5300, "wijzig": 5301, "uld": 5302, "blijken": 5303, "verwi": 5304, "genwo": 5305, "fst": 5306, "tings": 5307, "elste": 5308, "tivit": 5309, "stst": 5310, "ltaat": 5311, "sultaa": 5312, "ultaat": 5313, "esultaa": 5314, "sultaat": 5315, "resultaa": 5316, "esultaat": 5317, "resultaat": 5318, "ordig": 5319, "egenwo": 5320, "leur": 5321, "hon": 5322, "bon": 5323, "aars": 5324, "nderwe": 5325, "nemin": 5326, "neming": 5327, "nnemen": 5328, "enwoo": 5329, "ndering": 5330, "stek": 5331, "gehee": 5332, "inke": 5333, "fran": 5334, "eheel": 5335, "geheel": 5336, "gade": 5337, "erop": 5338, "jdr": 5339, "ijdr": 5340, "lpe": 5341, "onderwe": 5342, "nwoor": 5343, "nwoord": 5344, "reiden": 5345, "activ": 5346, "zakel": 5347, "icatie": 5348, "erande": 5349, "zakeli": 5350, "zakelij": 5351, "zakelijk": 5352, "aarna": 5353, "erander": 5354, "vormen": 5355, "ty": 5356, "rgie": 5357, "verande": 5358, "verander": 5359, "tivite": 5360, "tivitei": 5361, "tiviteit": 5362, "latie": 5363, "enwoor": 5364, "enwoord": 5365, "genwoo": 5366, "egenwoo": 5367, "16": 5368, "oordig": 5369, "tegenwo": 5370, "genwoor": 5371, "woordig": 5372, "tegenwoo": 5373, "egenwoor": 5374, "wit": 5375, "nwoordi": 5376, "genwoord": 5377, "enwoordi": 5378, "tegenwoor": 5379, "egenwoord": 5380, "genwoordi": 5381, "egenwoordi": 5382, "arbe": 5383, "rukke": 5384, "nwoordig": 5385, "enwoordig": 5386, "tegenwoord": 5387, "genwoordig": 5388, "tegenwoordi": 5389, "egenwoordig": 5390, "tegenwoordig": 5391, "lad": 5392, "bereike": 5393, "bereiken": 5394, "edk": 5395, "ala": 5396, "einig": 5397, "eki": 5398, "amens": 5399, "fon": 5400, "werkel": 5401, "orwaard": 5402, "orwaarde": 5403, "rof": 5404, "oorwaard": 5405, "voorwaard": 5406, "oorwaarde": 5407, "voorwaarde": 5408, "ontv": 5409, "tigen": 5410, "lim": 5411, "drin": 5412, "etekene": 5413, "betekene": 5414, "etekenen": 5415, "betekenen": 5416, "nspa": 5417, "endie": 5418, "immer": 5419, "lari": 5420, "itz": 5421, "list": 5422, "ankel": 5423, "aanz": 5424, "nver": 5425, "tne": 5426, "una": 5427, "mbi": 5428, "digi": 5429, "vendi": 5430, "loos": 5431, "inat": 5432, "rsi": 5433, "mensen": 5434, "erban": 5435, "ewer": 5436, "joe": 5437, "sst": 5438, "nhou": 5439, "werkeli": 5440, "werkelij": 5441, "werkelijk": 5442, "reso": 5443, "ebeu": 5444, "ndin": 5445, "rleg": 5446, "elas": 5447, "ded": 5448, "ebeur": 5449, "zui": 5450, "ile": 5451, "rkee": 5452, "endien": 5453, "rkeer": 5454, "gader": 5455, "iema": 5456, "lijks": 5457, "san": 5458, "ezien": 5459, "estel": 5460, "ergie": 5461, "elast": 5462, "bijd": 5463, "onts": 5464, "roei": 5465, "nstru": 5466, "gren": 5467, "ctivi": 5468, "maats": 5469, "d-": 5470, "sf": 5471, "rgad": 5472, "idig": 5473, "imt": 5474, "ergad": 5475, "rgade": 5476, "vergad": 5477, "ergade": 5478, "vergade": 5479, "rgader": 5480, "ergader": 5481, "vergader": 5482, "uidig": 5483, "bijdr": 5484, "drukke": 5485, "cit": 5486, "jdra": 5487, "ijdra": 5488, "gelde": 5489, "bijdra": 5490, "jdrag": 5491, "jdrage": 5492, "ijdrag": 5493, "bijdrag": 5494, "ijdrage": 5495, "bijdrage": 5496, "spann": 5497, "imte": 5498, "gebeu": 5499, "kenni": 5500, "ress": 5501, "ldig": 5502, "gebeur": 5503, "enoe": 5504, "passin": 5505, "passing": 5506, "ziek": 5507, "nzak": 5508, "anni": 5509, "eft": 5510, "uimt": 5511, "praa": 5512, "lpen": 5513, "erhan": 5514, "ruimt": 5515, "tle": 5516, "uimte": 5517, "ruimte": 5518, "ankeli": 5519, "lezen": 5520, "ankelij": 5521, "ankelijk": 5522, "sting": 5523, "lichti": 5524, "ssel": 5525, "mees": 5526, "derge": 5527, "lacht": 5528, "rkg": 5529, "ovend": 5530, "gara": 5531, "amb": 5532, "insta": 5533, "istis": 5534, "erhand": 5535, "pst": 5536, "eth": 5537, "erkg": 5538, "vier": 5539, "indel": 5540, "istisc": 5541, "001": 5542, "vred": 5543, "istisch": 5544, "energ": 5545, "pb": 5546, "mpl": 5547, "ardo": 5548, "oels": 5549, "nteg": 5550, "ivers": 5551, "kon": 5552, "help": 5553, "fere": 5554, "gelo": 5555, ".0": 5556, "ndac": 5557, "randere": 5558, "rouwen": 5559, "nzake": 5560, "randeren": 5561, "flo": 5562, "teraa": 5563, "iend": 5564, "fee": 5565, "svo": 5566, "inzak": 5567, "fg": 5568, "overh": 5569, "mmers": 5570, "werkg": 5571, "**<vnw><pr><pron><obl><red><1><ev>**": 5572, "ndach": 5573, "ico": 5574, "terd": 5575, "ndacht": 5576, "inzake": 5577, "lder": 5578, "ische": 5579, "andac": 5580, "\u00ebre": 5581, "lstel": 5582, "derwer": 5583, "\u00ebren": 5584, "grijp": 5585, "uli": 5586, "elstel": 5587, "opr": 5588, "aandac": 5589, "andach": 5590, "andacht": 5591, "aandach": 5592, "aandacht": 5593, "rlen": 5594, "mei": 5595, "dier": 5596, "esol": 5597, "voeri": 5598, "yp": 5599, "jfe": 5600, "ijfe": 5601, "koop": 5602, "wachte": 5603, "rband": 5604, "nergi": 5605, "chij": 5606, "ontwe": 5607, "**<vnw><pers><pron><obl><vol><3><ev><masc>**": 5608, "sj": 5609, "nergie": 5610, "erlen": 5611, "herv": 5612, "oelst": 5613, "dels": 5614, "kge": 5615, "ontwer": 5616, "ontwerp": 5617, "kame": 5618, "resol": 5619, "schij": 5620, "rijpe": 5621, "bla": 5622, "erband": 5623, "doels": 5624, "orzie": 5625, "oorzie": 5626, "oepe": 5627, "oelste": 5628, "lstell": 5629, "eug": 5630, "elstell": 5631, "oege": 5632, "doelst": 5633, "lstelli": 5634, "elstelli": 5635, "lstellin": 5636, "elstellin": 5637, "lstelling": 5638, "elstelling": 5639, "akken": 5640, "doelste": 5641, "oelstel": 5642, "doelstel": 5643, "oelstell": 5644, "doelstell": 5645, "esolu": 5646, "oelstelli": 5647, "doelstelli": 5648, "oelstellin": 5649, "doelstellin": 5650, "oelstelling": 5651, "doelstelling": 5652, "enba": 5653, "resolu": 5654, "orzien": 5655, "voorzie": 5656, "oorzien": 5657, "ondh": 5658, "onst": 5659, "aanw": 5660, "huidi": 5661, "sent": 5662, "voorzien": 5663, "alv": 5664, "huidig": 5665, "verlen": 5666, "nhoud": 5667, "ctivit": 5668, "vervoe": 5669, "oedk": 5670, "afh": 5671, "ots": 5672, "uler": 5673, "walite": 5674, "kwalite": 5675, "etw": 5676, "pens": 5677, "vij": 5678, "walitei": 5679, "kwalitei": 5680, "waliteit": 5681, "kwaliteit": 5682, "uta": 5683, "espre": 5684, "mit": 5685, "erpe": 5686, "grijpe": 5687, "orr": 5688, "solut": 5689, "soluti": 5690, "kamer": 5691, "ervoer": 5692, "goedk": 5693, "atsc": 5694, "sume": 5695, "o-": 5696, "beke": 5697, "ctivite": 5698, "ctivitei": 5699, "ctiviteit": 5700, "rzoeke": 5701, "wachten": 5702, "spar": 5703, "pme": 5704, "-a": 5705, "verban": 5706, "lichtin": 5707, "nderwer": 5708, "ondhe": 5709, "elijke": 5710, "vendie": 5711, "vendien": 5712, "lect": 5713, "edoe": 5714, "vervoer": 5715, "ondhei": 5716, "sland": 5717, "onderwer": 5718, "nsume": 5719, "onsume": 5720, "consume": 5721, "htv": 5722, "chtv": 5723, "prin": 5724, "rijden": 5725, "rbei": 5726, "aatsc": 5727, "ieg": 5728, "energi": 5729, "ieb": 5730, "derwerp": 5731, "ndo": 5732, "tiat": 5733, "nderwerp": 5734, "onderwerp": 5735, "ondheid": 5736, "energie": 5737, "pat": 5738, "rse": 5739, "slaa": 5740, "erzoeke": 5741, "\u00f6": 5742, "talen": 5743, "vord": 5744, "vorde": 5745, "zondh": 5746, "ezondh": 5747, "gezondh": 5748, "venti": 5749, "inati": 5750, "lechts": 5751, "slechts": 5752, "ato": 5753, "lichting": 5754, "zondhe": 5755, "ezondhe": 5756, "gezondhe": 5757, "epaa": 5758, "zondhei": 5759, "ezondhei": 5760, "zondheid": 5761, "gezondhei": 5762, "ezondheid": 5763, "gezondheid": 5764, "mach": 5765, "tiati": 5766, "xtr": 5767, "tersc": 5768, "rbeid": 5769, "line": 5770, "eal": 5771, "aller": 5772, "ift": 5773, "opme": 5774, "itsl": 5775, "gelden": 5776, "g-": 5777, "tiatie": 5778, "uitz": 5779, "lage": 5780, "vorder": 5781, "bovend": 5782, "immers": 5783, "elpe": 5784, "17": 5785, "plei": 5786, "extr": 5787, "verband": 5788, "itia": 5789, "ota": 5790, "kere": 5791, "conta": 5792, "atsch": 5793, "reeds": 5794, "orig": 5795, "ecia": 5796, "aatsch": 5797, "paald": 5798, "ovendi": 5799, "hikk": 5800, "esolut": 5801, "esoluti": 5802, "trede": 5803, "bovendi": 5804, "chikk": 5805, "schikk": 5806, "resolut": 5807, "resoluti": 5808, "arbei": 5809, "ovendie": 5810, "bovendie": 5811, "ovendien": 5812, "bovendien": 5813, "tact": 5814, "**<vnw><onbep><det><stan><vrij><zonder>**": 5815, "meest": 5816, "erings": 5817, "solutie": 5818, "nteren": 5819, "epaal": 5820, "esolutie": 5821, "resolutie": 5822, "atscha": 5823, "aatscha": 5824, "epaald": 5825, "pecia": 5826, "bepaa": 5827, "maatsc": 5828, "atschap": 5829, "aatschap": 5830, "nitia": 5831, "ntva": 5832, "bepaal": 5833, "bepaald": 5834, "maatsch": 5835, "maatscha": 5836, "initia": 5837, "tvan": 5838, "rkome": 5839, "maatschap": 5840, "rts": 5841, "ontva": 5842, "specia": 5843, "bili": 5844, "vana": 5845, "arbeid": 5846, "coo": 5847, "ntvan": 5848, "ontvan": 5849, "dec": 5850, "issc": 5851, "erik": 5852, "estig": 5853, "itiat": 5854, "nitiat": 5855, "initiat": 5856, "issch": 5857, "tate": 5858, "mas": 5859, "spraa": 5860, "don": 5861, "ibe": 5862, "tersch": 5863, "trouwe": 5864, "ernemen": 5865, "\u201d": 5866, "laan": 5867, "lov": 5868, "rteg": 5869, "nbaa": 5870, "itiati": 5871, "nitiati": 5872, "rra": 5873, "initiati": 5874, "eman": 5875, "rkomen": 5876, "esprek": 5877, "vatte": 5878, "uitsl": 5879, "dsc": 5880, "ooit": 5881, "gewe": 5882, "ngeve": 5883, "laar": 5884, "trie": 5885, "itiatie": 5886, "nitiatie": 5887, "initiatie": 5888, "praak": 5889, "elpen": 5890, "spraak": 5891, "helpe": 5892, "twerk": 5893, "vatten": 5894, "gb": 5895, "bank": 5896, "vari": 5897, "sumen": 5898, "nsumen": 5899, "sument": 5900, "onsumen": 5901, "nsument": 5902, "consumen": 5903, "onsument": 5904, "consument": 5905, "fend": 5906, "opd": 5907, "iete": 5908, "aardo": 5909, "def": 5910, "&": 5911, "vrie": 5912, "fle": 5913, "feren": 5914, "uige": 5915, "ersi": 5916, "nes": 5917, "kker": 5918, "waarv": 5919, "helpen": 5920, "mh": 5921, "dzak": 5922, "nbaar": 5923, "ezelf": 5924, "sre": 5925, "denin": 5926, "pmer": 5927, "opmer": 5928, "pmerk": 5929, "opmerk": 5930, "mot": 5931, "dzake": 5932, "daarn": 5933, "kopen": 5934, "rien": 5935, "teen": 5936, "iatief": 5937, "vesti": 5938, "ekst": 5939, "akti": 5940, "en-": 5941, "treden": 5942, "ffend": 5943, "dergel": 5944, "stste": 5945, "garan": 5946, "rpli": 5947, "rplic": 5948, "rtege": 5949, "rplich": 5950, "rplicht": 5951, "tters": 5952, "avi": 5953, "ouder": 5954, "meld": 5955, "dergeli": 5956, "dergelij": 5957, "dergelijk": 5958, "cam": 5959, "urs": 5960, "uin": 5961, "oh": 5962, "erpli": 5963, "erplic": 5964, "pie": 5965, "erplich": 5966, "erplicht": 5967, "jh": 5968, "tiatief": 5969, "eldi": 5970, "rni": 5971, "serin": 5972, "itiatief": 5973, "nitiatief": 5974, "initiatief": 5975, "terscha": 5976, "effend": 5977, "reffend": 5978, "treffend": 5979, "vloe": 5980, "belas": 5981, "belast": 5982, "\u00ebnt": 5983, "dg": 5984, "ehoe": 5985, "ststel": 5986, "rstr": 5987, "ststell": 5988, "rtegen": 5989, "indeli": 5990, "ijh": 5991, "prakt": 5992, "chen": 5993, "2001": 5994, "rakti": 5995, "llig": 5996, "prakti": 5997, "keren": 5998, "13": 5999, "verpli": 6000, "verplic": 6001, "verplich": 6002, "verplicht": 6003, "beure": 6004, "beuren": 6005, "sering": 6006, "rhande": 6007, "tvang": 6008, "ntvang": 6009, "ontvang": 6010, "i\u00ebnt": 6011, "jpen": 6012, "ctuu": 6013, "ctuur": 6014, "ersta": 6015, "ijpen": 6016, "uns": 6017, "had": 6018, "kko": 6019, "enrec": 6020, "eie": 6021, "stal": 6022, "terschap": 6023, "activi": 6024, "esli": 6025, "egan": 6026, "daarna": 6027, "enrech": 6028, "enrecht": 6029, "grens": 6030, "rdeni": 6031, "asts": 6032, "ardoo": 6033, "dening": 6034, "aardoo": 6035, "ardoor": 6036, "aardoor": 6037, "rdenin": 6038, "tionee": 6039, "rdening": 6040, "ordeni": 6041, "merke": 6042, "ordenin": 6043, "ordening": 6044, "evee": 6045, "rif": 6046, "urt": 6047, "toeg": 6048, "laag": 6049, "rschr": 6050, "nha": 6051, "ict": 6052, "estu": 6053, "arc": 6054, "lande": 6055, "dzakel": 6056, "indu": 6057, "mete": 6058, "dzakeli": 6059, "dzakelij": 6060, "dzakelijk": 6061, "tioneel": 6062, "hijn": 6063, "chijn": 6064, "schijn": 6065, "niste": 6066, "itters": 6067, "jt": 6068, "tsta": 6069, "egd": 6070, "inh": 6071, "state": 6072, "cult": 6073, "ams": 6074, "rnaa": 6075, "love": 6076, "reis": 6077, "ific": 6078, "erc": 6079, "ntac": 6080, "ltu": 6081, "beren": 6082, "zitters": 6083, "tandi": 6084, "aann": 6085, "imaa": 6086, "deree": 6087, "vasts": 6088, "astst": 6089, "standi": 6090, "xp": 6091, "rtel": 6092, "iedere": 6093, "**<n><soort><ev><basis><genus><stan>**": 6094, "vastst": 6095, "rzitters": 6096, "orzitters": 6097, "oorzitters": 6098, "voorzitters": 6099, "oner": 6100, "-e": 6101, "-s": 6102, "rvi": 6103, "dden": 6104, "opst": 6105, "oerin": 6106, "ederee": 6107, "ijt": 6108, "rschri": 6109, "traf": 6110, "dereen": 6111, "geschi": 6112, "reve": 6113, "iederee": 6114, "edereen": 6115, "iedereen": 6116, "imp": 6117, "-p": 6118, "tud": 6119, "vrede": 6120, "kleu": 6121, "erkee": 6122, "erkeer": 6123, "nade": 6124, "mal": 6125, "verkee": 6126, "verkeer": 6127, "gat": 6128, "dvi": 6129, "ntact": 6130, "annem": 6131, "itief": 6132, "ndus": 6133, "tandig": 6134, "standig": 6135, "stor": 6136, "ttersc": 6137, "ttersch": 6138, "tterscha": 6139, "sic": 6140, "llem": 6141, "ittersc": 6142, "ittersch": 6143, "itterscha": 6144, "zittersc": 6145, "rzittersc": 6146, "zittersch": 6147, "tterschap": 6148, "orzittersc": 6149, "rzittersch": 6150, "zitterscha": 6151, "itterschap": 6152, "oorzittersc": 6153, "orzittersch": 6154, "rzitterscha": 6155, "zitterschap": 6156, "voorzittersc": 6157, "oorzittersch": 6158, "orzitterscha": 6159, "rzitterschap": 6160, "voorzittersch": 6161, "oorzitterscha": 6162, "orzitterschap": 6163, "voorzitterscha": 6164, "oorzitterschap": 6165, "voorzitterschap": 6166, "evel": 6167, "iniste": 6168, "oering": 6169, "dust": 6170, "overhe": 6171, "alo": 6172, "opv": 6173, "nister": 6174, "hni": 6175, "inister": 6176, "nwi": 6177, "erma": 6178, "rro": 6179, "indus": 6180, "ndust": 6181, "eindel": 6182, "behoe": 6183, "dustr": 6184, "ndustr": 6185, "iseri": 6186, "inzi": 6187, "indust": 6188, "industr": 6189, "hool": 6190, "-m": 6191, "ministe": 6192, "minister": 6193, "ontac": 6194, "verwij": 6195, "contac": 6196, "eheer": 6197, "lh": 6198, "ustri": 6199, "iserin": 6200, "link": 6201, "isering": 6202, "ontact": 6203, "contact": 6204, "erika": 6205, "groei": 6206, "ljo": 6207, "voerin": 6208, "odzak": 6209, "stud": 6210, "tant": 6211, "oodzak": 6212, "slis": 6213, "voering": 6214, "behee": 6215, "chni": 6216, "odzake": 6217, "noodzak": 6218, "dustri": 6219, "ndustri": 6220, "terre": 6221, "beheer": 6222, "afr": 6223, "oodzake": 6224, "noodzake": 6225, "industri": 6226, "-b": 6227, "besli": 6228, "eslis": 6229, "beslis": 6230, "aanne": 6231, "beken": 6232, "aai": 6233, "aannem": 6234, "erhande": 6235, "e\u00eb": 6236, "eln": 6237, "echni": 6238, "techni": 6239, "activit": 6240, "straf": 6241, "iljo": 6242, "ducti": 6243, "erteg": 6244, "erent": 6245, "rvar": 6246, "trouwen": 6247, "delijkh": 6248, "ertege": 6249, "delijkhe": 6250, "erstr": 6251, "delijkhei": 6252, "delijkheid": 6253, "astste": 6254, "vastste": 6255, "aststel": 6256, "vaststel": 6257, "aststell": 6258, "vaststell": 6259, "vulle": 6260, "inatie": 6261, "nove": 6262, "robe": 6263, "enbaa": 6264, "exp": 6265, "rkge": 6266, "ertegen": 6267, "erkge": 6268, "cier": 6269, "ameri": 6270, "fha": 6271, "joen": 6272, "sschi": 6273, "nding": 6274, "ljoe": 6275, "bewe": 6276, "ljoen": 6277, "verli": 6278, "vullen": 6279, "iljoe": 6280, "iljoen": 6281, "arvo": 6282, "anzi": 6283, "abe": 6284, "ervar": 6285, "verr": 6286, "activite": 6287, "activitei": 6288, "activiteit": 6289, "gm": 6290, "lisere": 6291, "liseren": 6292, "enbaar": 6293, "lok": 6294, "aarvo": 6295, "ted": 6296, "zam": 6297, "von": 6298, "afha": 6299, "2000": 6300, "arvoo": 6301, "envo": 6302, "arvoor": 6303, "dm": 6304, "orko": 6305, "tschapp": 6306, "aarvoo": 6307, "aarvoor": 6308, "advi": 6309, "werkge": 6310, "ilite": 6311, "zov": 6312, "chool": 6313, "school": 6314, "bestr": 6315, "fot": 6316, "tstelle": 6317, "tstellen": 6318, "nise": 6319, "hien": 6320, "zend": 6321, "aanzi": 6322, "ertu": 6323, "bezi": 6324, "unst": 6325, "chien": 6326, "rzoeken": 6327, "ultu": 6328, "nnis": 6329, "ident": 6330, "vak": 6331, "esse": 6332, "schien": 6333, "atschapp": 6334, "aatschapp": 6335, "maatschapp": 6336, "vestig": 6337, "miljo": 6338, "etrekke": 6339, "reven": 6340, "rijpen": 6341, "derhan": 6342, "sschie": 6343, "oki": 6344, "estri": 6345, "derhand": 6346, "rhandel": 6347, "erhandel": 6348, "sschien": 6349, "isschi": 6350, "viss": 6351, "lik": 6352, "missc": 6353, "missch": 6354, "misschi": 6355, "isschie": 6356, "misschie": 6357, "isschien": 6358, "misschien": 6359, "oorko": 6360, "odzakel": 6361, "cultu": 6362, "oodzakel": 6363, "noodzakel": 6364, "strie": 6365, "odzakeli": 6366, "odzakelij": 6367, "odzakelijk": 6368, "oodzakeli": 6369, "noodzakeli": 6370, "oodzakelij": 6371, "noodzakelij": 6372, "oodzakelijk": 6373, "noodzakelijk": 6374, "rese": 6375, "mg": 6376, "erzoeken": 6377, "entra": 6378, "foto": 6379, "genoe": 6380, "miljoe": 6381, "miljoen": 6382, "raar": 6383, "ussi": 6384, "rvor": 6385, "verbi": 6386, "**<vnw><onbep><grad><stan><vrij><zonder><sup>**": 6387, "\u201c": 6388, "prof": 6389, "chad": 6390, "lam": 6391, "grijpen": 6392, "betrekke": 6393, "edeli": 6394, "riend": 6395, "gist": 6396, "ws": 6397, "ezoe": 6398, "paar": 6399, "verwer": 6400, "gezie": 6401, "gezien": 6402, "ustrie": 6403, "dustrie": 6404, "ndustrie": 6405, "industrie": 6406, "epte": 6407, "arant": 6408, "schad": 6409, "iner": 6410, "rvorm": 6411, ".00": 6412, "orkom": 6413, "besp": 6414, "oorkom": 6415, "bezoe": 6416, "ervor": 6417, "epr": 6418, "our": 6419, "nderhan": 6420, "nderhand": 6421, "atig": 6422, "ervi": 6423, "ezoek": 6424, "bezoek": 6425, "aags": 6426, "rweg": 6427, "indelij": 6428, "rip": 6429, "indelijk": 6430, "ervorm": 6431, "rober": 6432, "voorko": 6433, "ffic": 6434, "mai": 6435, "kleur": 6436, "nzet": 6437, "voorkom": 6438, "vori": 6439, "oegen": 6440, "senr": 6441, "overi": 6442, "istr": 6443, "star": 6444, "jar": 6445, "annin": 6446, "ilitei": 6447, "iliteit": 6448, "gspr": 6449, "eindeli": 6450, "verteg": 6451, "vertege": 6452, "vertegen": 6453, "eindelij": 6454, "rwijs": 6455, "rtegenw": 6456, "ertegenw": 6457, "rtegenwo": 6458, "vertegenw": 6459, "ertegenwo": 6460, "rtegenwoo": 6461, "vertegenwo": 6462, "ertegenwoo": 6463, "vertegenwoo": 6464, "eindelijk": 6465, "dwi": 6466, "erwijs": 6467, "tone": 6468, "rtegenwoor": 6469, "ertegenwoor": 6470, "rtegenwoord": 6471, "vertegenwoor": 6472, "ertegenwoord": 6473, "rtegenwoordi": 6474, "vertegenwoord": 6475, "ertegenwoordi": 6476, "rtegenwoordig": 6477, "vertegenwoordi": 6478, "ertegenwoordig": 6479, "vertegenwoordig": 6480, "bekend": 6481, "senre": 6482, "onis": 6483, "derste": 6484, "menl": 6485, "riv": 6486, "bestu": 6487, "enu": 6488, "rmijn": 6489, "ermijn": 6490, "anning": 6491, "senrec": 6492, "fac": 6493, "senrech": 6494, "senrecht": 6495, "nderste": 6496, "venw": 6497, "pag": 6498, "onderhan": 6499, "onderhand": 6500, "disch": 6501, "ventie": 6502, "eschikk": 6503, "beschikk": 6504, "eror": 6505, "rijh": 6506, "wein": 6507, "merik": 6508, "dring": 6509, "anzie": 6510, "nsenr": 6511, "verko": 6512, "waarop": 6513, "ensenr": 6514, "mensenr": 6515, "usie": 6516, "amerik": 6517, "nsenre": 6518, "nsenrec": 6519, "amenl": 6520, "aven": 6521, "onderste": 6522, "aanzie": 6523, "ensenre": 6524, "mensenre": 6525, "ensenrec": 6526, "nsenrech": 6527, "mensenrec": 6528, "ensenrech": 6529, "nsenrecht": 6530, "mensenrech": 6531, "ensenrecht": 6532, "mensenrecht": 6533, "merika": 6534, "amerika": 6535, "anzien": 6536, "aanzien": 6537, "etrekken": 6538, "oducti": 6539, "roducti": 6540, "itai": 6541, "koor": 6542, "eien": 6543, "vrien": 6544, "levi": 6545, "terw": 6546, "weini": 6547, "weinig": 6548, "jan": 6549, "vriend": 6550, "rtui": 6551, "derhande": 6552, "verig": 6553, "nderhande": 6554, "itair": 6555, "moede": 6556, "derhandel": 6557, "nderhandel": 6558, "vrijh": 6559, "uigen": 6560, "gte": 6561, "fhan": 6562, "wijl": 6563, "liek": 6564, "gaderi": 6565, "gaderin": 6566, "rgaderi": 6567, "ergaderi": 6568, "rgaderin": 6569, "vergaderi": 6570, "ergaderin": 6571, "vergaderin": 6572, "betrekken": 6573, "rdin": 6574, "gadering": 6575, "rgadering": 6576, "ergadering": 6577, "vergadering": 6578, "afhan": 6579, "msti": 6580, "namen": 6581, "bedo": 6582, "deg": 6583, "centra": 6584, "rvol": 6585, "okk": 6586, "epale": 6587, "tes": 6588, "zame": 6589, "**<n><soort><ev><basis><gen>**": 6590, "tue": 6591, "atse": 6592, "iere": 6593, "anden": 6594, "palen": 6595, "hervo": 6596, "ppi": 6597, "vijf": 6598, "omsti": 6599, "rem": 6600, "ngspr": 6601, "dringe": 6602, "hervor": 6603, "hervorm": 6604, "oning": 6605, "aflo": 6606, "ervol": 6607, "gv": 6608, "bind": 6609, "komsti": 6610, "ffec": 6611, "onderhande": 6612, "rord": 6613, "elasti": 6614, "ondi": 6615, "mstig": 6616, "omstig": 6617, "komstig": 6618, "onderhandel": 6619, "ffect": 6620, "fici": 6621, "oeil": 6622, "vid": 6623, "aatse": 6624, "ocht": 6625, "ductie": 6626, "eerlij": 6627, "stuu": 6628, "bepale": 6629, "urr": 6630, "event": 6631, "rbr": 6632, "terda": 6633, "erord": 6634, "rpen": 6635, "rpr": 6636, "ingspr": 6637, "effec": 6638, "epalen": 6639, "bepalen": 6640, "effect": 6641, "overig": 6642, "veror": 6643, "daarb": 6644, "rorde": 6645, "onn": 6646, "erorde": 6647, "asp": 6648, "larin": 6649, "digd": 6650, "verord": 6651, "rechte": 6652, "bouwe": 6653, "klari": 6654, "klarin": 6655, "ncier": 6656, "orkome": 6657, "orkomen": 6658, "gle": 6659, "oorkome": 6660, "oorkomen": 6661, "vou": 6662, "rorden": 6663, "verorde": 6664, "erorden": 6665, "ilij": 6666, "richti": 6667, "jne": 6668, "cep": 6669, "verorden": 6670, "eerlijk": 6671, "fond": 6672, "radi": 6673, "edoel": 6674, "visse": 6675, "richtin": 6676, "oeili": 6677, "eilij": 6678, "ilijk": 6679, "oeilij": 6680, "eilijk": 6681, "oeilijk": 6682, "weli": 6683, "eraar": 6684, "rordeni": 6685, "erordeni": 6686, "rordenin": 6687, "erordenin": 6688, "rordening": 6689, "erordening": 6690, "richting": 6691, "ott": 6692, "verordeni": 6693, "verordenin": 6694, "verordening": 6695, "termi": 6696, "laring": 6697, "nbo": 6698, "overl": 6699, "klaring": 6700, "ancier": 6701, "nlands": 6702, "etale": 6703, "dringen": 6704, "niser": 6705, "inse": 6706, "tvaa": 6707, "clus": 6708, "estrij": 6709, "probe": 6710, "orlo": 6711, "tvaar": 6712, "evenw": 6713, "matig": 6714, "oega": 6715, "rklari": 6716, "erklari": 6717, "rklarin": 6718, "verklari": 6719, "erklarin": 6720, "rklaring": 6721, "verklarin": 6722, "erklaring": 6723, "verklaring": 6724, "poo": 6725, "voorkome": 6726, "voorkomen": 6727, "moeil": 6728, "moeili": 6729, "moeilij": 6730, "moeilijk": 6731, "ooki": 6732, "reu": 6733, "namens": 6734, "epassi": 6735, "loven": 6736, "teks": 6737, "obere": 6738, "gea": 6739, "derwi": 6740, "gratie": 6741, "inds": 6742, "oepassi": 6743, "epassin": 6744, "toepassi": 6745, "oepassin": 6746, "epassing": 6747, "toepassin": 6748, "oepassing": 6749, "toepassing": 6750, "enlands": 6751, "rhal": 6752, "ateri": 6753, "ider": 6754, "derwij": 6755, "oberen": 6756, "ennis": 6757, "dwe": 6758, "tekst": 6759, "efen": 6760, "prober": 6761, "robere": 6762, "steke": 6763, "probere": 6764, "roberen": 6765, "proberen": 6766, "llema": 6767, "rid": 6768, "offe": 6769, "rachti": 6770, "erhal": 6771, "isser": 6772, "oeie": 6773, "ijne": 6774, "naut": 6775, "nstig": 6776, "astin": 6777, "eging": 6778, "menta": 6779, "breidi": 6780, "breidin": 6781, "breiding": 6782, "ermo": 6783, "versi": 6784, "allem": 6785, "sor": 6786, "enad": 6787, "anders": 6788, "asting": 6789, "fli": 6790, "alist": 6791, "rwac": 6792, "erwac": 6793, "rwach": 6794, "erwach": 6795, "rwacht": 6796, "erwacht": 6797, "merken": 6798, "dro": 6799, "bevoe": 6800, "bevoeg": 6801, "gspro": 6802, "allema": 6803, "laatse": 6804, "rta": 6805, "llemaa": 6806, "reek": 6807, "bestri": 6808, "plaatse": 6809, "bestrij": 6810, "llemaal": 6811, "tbreidi": 6812, "itbreidi": 6813, "tbreidin": 6814, "uitbreidi": 6815, "itbreidin": 6816, "tbreiding": 6817, "uitbreidin": 6818, "itbreiding": 6819, "uitbreiding": 6820, "blie": 6821, "allemaa": 6822, "allemaal": 6823, "toest": 6824, "oegd": 6825, "verwac": 6826, "verwach": 6827, "verwacht": 6828, "erpen": 6829, "sliss": 6830, "esliss": 6831, "besliss": 6832, "lusi": 6833, "niets": 6834, "dsch": 6835, "car": 6836, "oeli": 6837, "waarom": 6838, "evaa": 6839, "evaar": 6840, "tom": 6841, "ewerk": 6842, "bedoe": 6843, "voegd": 6844, "rtn": 6845, "nderwi": 6846, "hang": 6847, "iod": 6848, "kkele": 6849, "evoegd": 6850, "nderwij": 6851, "auta": 6852, "loed": 6853, "verhei": 6854, "ezing": 6855, "erat": 6856, "verheid": 6857, "jhe": 6858, "kkelen": 6859, "bedoel": 6860, "ijhe": 6861, "oeien": 6862, "bevoegd": 6863, "erse": 6864, "cratis": 6865, "sso": 6866, "nme": 6867, "draa": 6868, "instr": 6869, "ay": 6870, "oegan": 6871, "tve": 6872, "ublie": 6873, "erro": 6874, "sprak": 6875, "tsv": 6876, "ocu": 6877, "steken": 6878, "ngspro": 6879, "toega": 6880, "lma": 6881, "estrijd": 6882, "ktij": 6883, "anaf": 6884, "jhei": 6885, "ijhei": 6886, "jheid": 6887, "ijheid": 6888, "ingspro": 6889, "rtuig": 6890, "integ": 6891, "artn": 6892, "eenv": 6893, "ffici": 6894, "vanaf": 6895, "bena": 6896, "rist": 6897, "somm": 6898, "rwijl": 6899, "erwijl": 6900, "cces": 6901, "arr": 6902, "toegan": 6903, "jul": 6904, "roepe": 6905, "stur": 6906, "mule": 6907, "assa": 6908, "dings": 6909, "inho": 6910, "haal": 6911, "ize": 6912, "onderwi": 6913, "onderwij": 6914, "hard": 6915, "cite": 6916, "nks": 6917, "onte": 6918, "ecte": 6919, "rdigen": 6920, "dom": 6921, "cook": 6922, "trate": 6923, "ila": 6924, "**<tsw>**": 6925, "urz": 6926, "rachtig": 6927, "kans": 6928, "tenl": 6929, "cip": 6930, "rkenn": 6931, "koord": 6932, "scu": 6933, "rtne": 6934, "ieman": 6935, "oductie": 6936, "roductie": 6937, "ffer": 6938, "ooru": 6939, "pne": 6940, "daarbi": 6941, "elm": 6942, "ola": 6943, "tner": 6944, "-v": 6945, "rzaam": 6946, "overhei": 6947, "overheid": 6948, "lse": 6949, "waarm": 6950, "essi": 6951, "waarbi": 6952, "ieve": 6953, "gent": 6954, "**<ww><vd><nom><met-e><mv-n>**": 6955, "rok": 6956, "cy": 6957, "artne": 6958, "ain": 6959, "ikb": 6960, "evor": 6961, "merki": 6962, "okie": 6963, "bestrijd": 6964, "rtner": 6965, "merkin": 6966, "merking": 6967, "derwijs": 6968, "artner": 6969, "cooki": 6970, "nderwijs": 6971, "sz": 6972, "ookie": 6973, "alisere": 6974, "aliseren": 6975, "bran": 6976, "partn": 6977, "isen": 6978, "daarbij": 6979, "partne": 6980, "partner": 6981, "rzij": 6982, "cum": 6983, "anneme": 6984, "nctie": 6985, "etere": 6986, "aanneme": 6987, "cookie": 6988, "afg": 6989, "strate": 6990, "werpe": 6991, "ordee": 6992, "muna": 6993, "orui": 6994, "sind": 6995, "oruit": 6996, "mmuna": 6997, "ommuna": 6998, "enter": 6999, "opti": 7000, "rijhe": 7001, "lastin": 7002, "communa": 7003, "ordeel": 7004, "erkenn": 7005, "rukken": 7006, "nkr": 7007, "**<vnw><vb><pron><stan><vol><3p><getal>**": 7008, "lasting": 7009, "nauta": 7010, "oorui": 7011, "elov": 7012, "vooru": 7013, "voorui": 7014, "ooruit": 7015, "vooruit": 7016, "vrijhe": 7017, "daat": 7018, "eteren": 7019, "sief": 7020, "unau": 7021, "his": 7022, "unaut": 7023, "eite": 7024, "enda": 7025, "kkoo": 7026, "munau": 7027, "mmunau": 7028, "munaut": 7029, "unauta": 7030, "ommunau": 7031, "mmunaut": 7032, "communau": 7033, "ommunaut": 7034, "communaut": 7035, "zwe": 7036, "munauta": 7037, "mmunauta": 7038, "ommunauta": 7039, "communauta": 7040, "ikkele": 7041, "ikkelen": 7042, "jnen": 7043, "kkoor": 7044, "uurz": 7045, "derda": 7046, "ijnen": 7047, "elastin": 7048, "kkoord": 7049, "urza": 7050, "oordee": 7051, "elasting": 7052, "verste": 7053, "uurza": 7054, "tuee": 7055, "belasti": 7056, "belastin": 7057, "belasting": 7058, "oordeel": 7059, "akko": 7060, "rijhei": 7061, "vrijhei": 7062, "rijheid": 7063, "vrijheid": 7064, "duurz": 7065, "duurza": 7066, "rali": 7067, "itin": 7068, "oorlo": 7069, "rvormi": 7070, "rzijd": 7071, "ior": 7072, "betale": 7073, "akkoo": 7074, "akkoor": 7075, "akkoord": 7076, "ikba": 7077, "opne": 7078, "teve": 7079, "ervormi": 7080, "eenvo": 7081, "penb": 7082, "ax": 7083, "rvormin": 7084, "rvorming": 7085, "onderwijs": 7086, "pnem": 7087, "opnem": 7088, "sub": 7089, "xtra": 7090, "enem": 7091, "inci": 7092, "voud": 7093, "utai": 7094, "inhou": 7095, "ieri": 7096, "genl": 7097, "vervol": 7098, "selij": 7099, "eluk": 7100, "wijd": 7101, "cept": 7102, "geluk": 7103, "ervormin": 7104, "ervorming": 7105, "selijk": 7106, "termij": 7107, "termijn": 7108, "inhoud": 7109, "meerd": 7110, "uiti": 7111, "iting": 7112, "emand": 7113, "noeg": 7114, "extra": 7115, "lki": 7116, "gins": 7117, "gdh": 7118, "dve": 7119, "utair": 7120, "rateg": 7121, "trateg": 7122, "strateg": 7123, "lusie": 7124, "imu": 7125, "oonl": 7126, "aden": 7127, "tbe": 7128, "tueel": 7129, "riaa": 7130, "waarme": 7131, "terwi": 7132, "rsteu": 7133, "rsteun": 7134, "enoeg": 7135, "genoeg": 7136, "bilit": 7137, "vermi": 7138, "tegi": 7139, "ersteu": 7140, "ersteun": 7141, "ikbaa": 7142, "ikbaar": 7143, "dersteu": 7144, "dersteun": 7145, "visser": 7146, "ategi": 7147, "rategi": 7148, "trategi": 7149, "ndersteu": 7150, "ondersteu": 7151, "ndersteun": 7152, "ondersteun": 7153, "kies": 7154, "rnemi": 7155, "strategi": 7156, "rnemin": 7157, "rneming": 7158, "producti": 7159, "prake": 7160, "stro": 7161, "kne": 7162, "waarmee": 7163, "nderda": 7164, "instru": 7165, "iemand": 7166, "eeln": 7167, "erzij": 7168, "autai": 7169, "nautai": 7170, "autair": 7171, "unautai": 7172, "nautair": 7173, "unautair": 7174, "cial": 7175, "chin": 7176, "munautai": 7177, "mmunautai": 7178, "munautair": 7179, "ommunautai": 7180, "mmunautair": 7181, "communautai": 7182, "ommunautair": 7183, "communautair": 7184, "elove": 7185, "lkin": 7186, "sprake": 7187, "gdhe": 7188, "wikkele": 7189, "wikkelen": 7190, "deeln": 7191, "urzaa": 7192, "uurzaa": 7193, "rgr": 7194, "overt": 7195, "drukken": 7196, "tc": 7197, "lib": 7198, "eent": 7199, "uitin": 7200, "urzaam": 7201, "duurzaa": 7202, "uurzaam": 7203, "duurzaam": 7204, "onal": 7205, "erio": 7206, "uiting": 7207, "waardi": 7208, "koe": 7209, "rvolg": 7210, "ervolg": 7211, "each": 7212, "chei": 7213, "tiep": 7214, "hervormi": 7215, "hervormin": 7216, "hervorming": 7217, "waardig": 7218, "schei": 7219, "hele": 7220, "nvaa": 7221, "hot": 7222, "ewij": 7223, "bevol": 7224, "drac": 7225, "terwij": 7226, "\u2026": 7227, "nvaar": 7228, "pze": 7229, "sommi": 7230, "ersp": 7231, "oonli": 7232, "lking": 7233, "aanwe": 7234, "oez": 7235, "bliek": 7236, "ubliek": 7237, "lgi": 7238, "**<vnw><onbep><grad><stan><prenom><met-e><agr><basis>**": 7239, "publie": 7240, "publiek": 7241, "ststelle": 7242, "fri": 7243, "ertui": 7244, "ststellen": 7245, "erzijd": 7246, "api": 7247, "erni": 7248, "ieten": 7249, "ager": 7250, "tha": 7251, "wezi": 7252, "clusi": 7253, "openb": 7254, "terwijl": 7255, "rdele": 7256, "erenti": 7257, "wezig": 7258, "ezelfd": 7259, "ezelfde": 7260, "beide": 7261, "ncl": 7262, "onlij": 7263, "oonlij": 7264, "rker": 7265, "itse": 7266, "drach": 7267, "gdhei": 7268, "gdheid": 7269, "evolk": 7270, "edse": 7271, "olki": 7272, "wone": 7273, "gelin": 7274, "opze": 7275, "bevolk": 7276, "penba": 7277, "vervolg": 7278, "voudi": 7279, "ratisc": 7280, "ratisch": 7281, "flop": 7282, "udig": 7283, "oudig": 7284, "voudig": 7285, "onlijk": 7286, "oonlijk": 7287, "ry": 7288, "olkin": 7289, "mv": 7290, "erpr": 7291, "fsp": 7292, "dge": 7293, "dracht": 7294, "oeven": 7295, "cratisc": 7296, "cratisch": 7297, "tver": 7298, "leer": 7299, "openba": 7300, "tonen": 7301, "duren": 7302, "dege": 7303, "ieni": 7304, "eente": 7305, "waarbij": 7306, "ransp": 7307, "transp": 7308, "\u00f3": 7309, "egins": 7310, "flope": 7311, "flopen": 7312, "begins": 7313, "etalen": 7314, "tvange": 7315, "aflop": 7316, "aflope": 7317, "aflopen": 7318, "ntvange": 7319, "ontvange": 7320, "meerde": 7321, "tuige": 7322, "cheid": 7323, "scheid": 7324, "mater": 7325, "uar": 7326, "terec": 7327, "rdelen": 7328, "lichte": 7329, "insel": 7330, "akkel": 7331, "aarl": 7332, "ante": 7333, "olking": 7334, "weld": 7335, "terech": 7336, "terecht": 7337, "pneme": 7338, "opneme": 7339, "meent": 7340, "emeent": 7341, "gemeent": 7342, "ierv": 7343, "icer": 7344, "mond": 7345, "langs": 7346, "uctuu": 7347, "uctuur": 7348, "meente": 7349, "emeente": 7350, "gemeente": 7351, "pnemen": 7352, "opnemen": 7353, "ructuu": 7354, "tructuu": 7355, "ructuur": 7356, "structuu": 7357, "tructuur": 7358, "structuur": 7359, "klo": 7360, "zove": 7361, "vorig": 7362, "ginse": 7363, "perio": 7364, "erleg": 7365, "abo": 7366, "ommig": 7367, "ooste": 7368, "makk": 7369, "verva": 7370, "leuk": 7371, "eria": 7372, "eginse": 7373, "ginsel": 7374, "beginse": 7375, "eginsel": 7376, "beginsel": 7377, "wic": 7378, "materi": 7379, "sommig": 7380, "tgan": 7381, "tgang": 7382, "ni\u00eb": 7383, "gevaa": 7384, "gevaar": 7385, "eits": 7386, "geni": 7387, "nigd": 7388, "trati": 7389, "eraal": 7390, "nvaard": 7391, "anvaa": 7392, "aanvaa": 7393, "anvaar": 7394, "aanvaar": 7395, "nma": 7396, "rstan": 7397, "nali": 7398, "trac": 7399, "genli": 7400, "geling": 7401, "erbo": 7402, "onda": 7403, "nvoe": 7404, "enigd": 7405, "itd": 7406, "aci": 7407, "anvaard": 7408, "aanvaard": 7409, "twikkele": 7410, "ntwikkele": 7411, "twikkelen": 7412, "ontwikkele": 7413, "ntwikkelen": 7414, "ontwikkelen": 7415, "htva": 7416, "chtva": 7417, "renigd": 7418, "erenigd": 7419, "verenigd": 7420, "avon": 7421, "rstand": 7422, "igr": 7423, "makke": 7424, "usti": 7425, "itera": 7426, "benad": 7427, "invo": 7428, "oten": 7429, "ctio": 7430, "riod": 7431, "beids": 7432, "rbeids": 7433, "arbeids": 7434, "aaf": 7435, "turen": 7436, "bilite": 7437, "tma": 7438, "oorden": 7439, "volki": 7440, "volkin": 7441, "volking": 7442, "ction": 7443, "htvaa": 7444, "chtvaa": 7445, "htvaar": 7446, "chtvaar": 7447, "uge": 7448, "verho": 7449, "roor": 7450, "bilitei": 7451, "biliteit": 7452, "annemen": 7453, "aannemen": 7454, "hank": 7455, "clusie": 7456, "nkome": 7457, "genlij": 7458, "rgaa": 7459, "rschij": 7460, "eloven": 7461, "stati": 7462, "ordige": 7463, "oordige": 7464, "woordige": 7465, "nwoordige": 7466, "enwoordige": 7467, "genwoordige": 7468, "egenwoordige": 7469, "tegenwoordige": 7470, "lw": 7471, "teits": 7472, "rtegenwoordige": 7473, "ertegenwoordige": 7474, "vertegenwoordige": 7475, "nkomen": 7476, "pste": 7477, "eriod": 7478, "period": 7479, "digin": 7480, "-o": 7481, "dl": 7482, "diging": 7483, "opb": 7484, "penbaa": 7485, "openbaa": 7486, "penbaar": 7487, "openbaar": 7488, "agst": 7489, "makkel": 7490, "akkeli": 7491, "erdi": 7492, "anm": 7493, "twij": 7494, "troo": 7495, "makkeli": 7496, "akkelij": 7497, "akkelijk": 7498, "iscu": 7499, "eroe": 7500, "ferent": 7501, "makkelij": 7502, "makkelijk": 7503, "sinds": 7504, "itenl": 7505, "ocratis": 7506, "eral": 7507, "elat": 7508, "evolki": 7509, "bevolki": 7510, "evolkin": 7511, "bevolkin": 7512, "evolking": 7513, "bevolking": 7514, "kennis": 7515, "uitd": 7516, "ebeure": 7517, "gebeure": 7518, "ebeuren": 7519, "gebeuren": 7520, "ertuig": 7521, "rschijn": 7522, "fvaa": 7523, "ogis": 7524, "wich": 7525, "lijs": 7526, "fvaar": 7527, "iteits": 7528, "riek": 7529, "tari": 7530, "afvaa": 7531, "itste": 7532, "lz": 7533, "gstu": 7534, "afvaar": 7535, "fvaard": 7536, "fvaardi": 7537, "fvaardig": 7538, "stige": 7539, "fonds": 7540, "afvaard": 7541, "afvaardi": 7542, "afvaardig": 7543, "rgaan": 7544, "rift": 7545, "cif": 7546, "sted": 7547, "ntu": 7548, "gena": 7549, "tein": 7550, "risc": 7551, "verla": 7552, "tratie": 7553, "rror": 7554, "elic": 7555, "lijst": 7556, "hanke": 7557, "hankel": 7558, "sproc": 7559, "eled": 7560, "hankeli": 7561, "hankelij": 7562, "hankelijk": 7563, "sproce": 7564, "cuss": 7565, "tenla": 7566, "nooi": 7567, "kaan": 7568, "sico": 7569, "doele": 7570, "l-": 7571, "afw": 7572, "ulere": 7573, "uleren": 7574, "zwaa": 7575, "fhank": 7576, "afhank": 7577, "fhanke": 7578, "afhanke": 7579, "fhankel": 7580, "afhankel": 7581, "alve": 7582, "isic": 7583, "aststelle": 7584, "vaststelle": 7585, "aststellen": 7586, "vaststellen": 7587, "fhankeli": 7588, "afhankeli": 7589, "fhankelij": 7590, "afhankelij": 7591, "fhankelijk": 7592, "afhankelijk": 7593, "risic": 7594, "risch": 7595, "uitenl": 7596, "cifi": 7597, "ira": 7598, "steri": 7599, "roen": 7600, "reet": 7601, "nvou": 7602, "utor": 7603, "isico": 7604, "risico": 7605, "aagst": 7606, "eroo": 7607, "rtoe": 7608, "scr": 7609, "ferenti": 7610, "cree": 7611, "nvoud": 7612, "envou": 7613, "tree": 7614, "buitenl": 7615, "sex": 7616, "mocratis": 7617, "emocratis": 7618, "democratis": 7619, "envoud": 7620, "brie": 7621, "meerder": 7622, "efi": 7623, "mhe": 7624, "wense": 7625, "iker": 7626, "vies": 7627, "ties": 7628, "werpen": 7629, "toel": 7630, "i\u00ebr": 7631, "eenvou": 7632, "eenvoud": 7633, "eric": 7634, "wicht": 7635, "eacht": 7636, "klan": 7637, "25": 7638, "rijdi": 7639, "nisere": 7640, "niseren": 7641, "lier": 7642, "uitste": 7643, "lau": 7644, "bera": 7645, "wis": 7646, "daarm": 7647, "daarme": 7648, "lex": 7649, "soonl": 7650, "onm": 7651, "stuur": 7652, "rsoonl": 7653, "ersoonl": 7654, "soonli": 7655, "soonlij": 7656, "soonlijk": 7657, "rsoonli": 7658, "persoonl": 7659, "ersoonli": 7660, "rsoonlij": 7661, "ersoonlij": 7662, "rsoonlijk": 7663, "ersoonlijk": 7664, "ace": 7665, "error": 7666, "scus": 7667, "persoonli": 7668, "persoonlij": 7669, "persoonlijk": 7670, "tart": 7671, "ntre": 7672, "productie": 7673, "erentie": 7674, "betere": 7675, "daarmee": 7676, "kelings": 7677, "**<vnw><pers><pron><obl><vol><3p><mv>**": 7678, "overs": 7679, "ranti": 7680, "imen": 7681, "have": 7682, "nstem": 7683, "armo": 7684, "urre": 7685, "beteren": 7686, "iscus": 7687, "stigen": 7688, "geac": 7689, "hrif": 7690, "hrift": 7691, "ienin": 7692, "iening": 7693, "chrif": 7694, "schrif": 7695, "chrift": 7696, "schrift": 7697, "noor": 7698, "utori": 7699, "perke": 7700, "rori": 7701, "raags": 7702, "perken": 7703, "idee": 7704, "htel": 7705, "chtel": 7706, "rbetere": 7707, "erbetere": 7708, "rbeteren": 7709, "verbetere": 7710, "erbeteren": 7711, "verbeteren": 7712, "iode": 7713, "opste": 7714, "tegr": 7715, "erbr": 7716, "autor": 7717, "itenla": 7718, "tenlan": 7719, "uitenla": 7720, "buitenla": 7721, "uze": 7722, "sture": 7723, "sturen": 7724, "geach": 7725, "geacht": 7726, "nkri": 7727, "lichten": 7728, "rantie": 7729, "egelin": 7730, "tenland": 7731, "elijks": 7732, "koste": 7733, "riode": 7734, "kkelings": 7735, "eise": 7736, "ieus": 7737, "nvoudi": 7738, "erri": 7739, "ikkelings": 7740, "wikkelings": 7741, "lko": 7742, "nvoudig": 7743, "icere": 7744, "twikkelings": 7745, "ntwikkelings": 7746, "ontwikkelings": 7747, "egeling": 7748, "envoudi": 7749, "eriode": 7750, "periode": 7751, "bero": 7752, "envoudig": 7753, "sda": 7754, "iceren": 7755, "itenlan": 7756, "uitenlan": 7757, "itenland": 7758, "buitenlan": 7759, "uitenland": 7760, "buitenland": 7761, "voorl": 7762, "ergr": 7763, "ecif": 7764, "pecif": 7765, "ecifi": 7766, "specif": 7767, "pecifi": 7768, "specifi": 7769, "offer": 7770, "nstemm": 7771, "nfe": 7772, "migr": 7773, "edan": 7774, "genlijk": 7775, "emp": 7776, "terro": 7777, "npak": 7778, "igenl": 7779, "raagst": 7780, "rber": 7781, "igenli": 7782, "igenlij": 7783, "igenlijk": 7784, "varin": 7785, "eenvoudi": 7786, "eenvoudig": 7787, "eigenl": 7788, "eigenli": 7789, "eigenlij": 7790, "eigenlijk": 7791, "vraags": 7792, "vraagst": 7793, "betalen": 7794, "tvangen": 7795, "rzek": 7796, "terror": 7797, "ntvangen": 7798, "ontvangen": 7799, "pzet": 7800, "opzet": 7801, "dt": 7802, "rzeke": 7803, "rzeker": 7804, "ndiene": 7805, "swa": 7806, "varing": 7807, "erzek": 7808, "rrori": 7809, "roris": 7810, "errori": 7811, "rroris": 7812, "terrori": 7813, "erroris": 7814, "terroris": 7815, "verzek": 7816, "erzeke": 7817, "erzeker": 7818, "rlegg": 7819, "verzeke": 7820, "verzeker": 7821, "inve": 7822, "adru": 7823, "discu": 7824, "nstan": 7825, "oepen": 7826, "autori": 7827, "appi": 7828, "nadr": 7829, "eroor": 7830, "vlak": 7831, "hade": 7832, "gstuk": 7833, "rkn": 7834, "cussi": 7835, "bedra": 7836, "toet": 7837, "ermee": 7838, "mste": 7839, "rvari": 7840, "aank": 7841, "real": 7842, "nj": 7843, "ervari": 7844, "rdelijkh": 7845, "rdelijkhe": 7846, "docu": 7847, "rdelijkhei": 7848, "rdelijkheid": 7849, "adruk": 7850, "uiker": 7851, "nadru": 7852, "nadruk": 7853, "cume": 7854, "cumen": 7855, "laas": 7856, "ordelijkh": 7857, "ordelijkhe": 7858, "rvarin": 7859, "ervarin": 7860, "ordelijkhei": 7861, "ordelijkheid": 7862, "rige": 7863, "dek": 7864, "dke": 7865, "rvaring": 7866, "ervaring": 7867, "oordelijkh": 7868, "woordelijkh": 7869, "oordelijkhe": 7870, "twoordelijkh": 7871, "woordelijkhe": 7872, "ntwoordelijkh": 7873, "twoordelijkhe": 7874, "antwoordelijkh": 7875, "ntwoordelijkhe": 7876, "rantwoordelijkh": 7877, "antwoordelijkhe": 7878, "erantwoordelijkh": 7879, "rantwoordelijkhe": 7880, "verantwoordelijkh": 7881, "erantwoordelijkhe": 7882, "verantwoordelijkhe": 7883, "**<adj><vrij><sup><zonder>**": 7884, "ogie": 7885, "ntegr": 7886, "oordelijkhei": 7887, "woordelijkhei": 7888, "oordelijkheid": 7889, "twoordelijkhei": 7890, "woordelijkheid": 7891, "ntwoordelijkhei": 7892, "twoordelijkheid": 7893, "antwoordelijkhei": 7894, "ntwoordelijkheid": 7895, "rantwoordelijkhei": 7896, "antwoordelijkheid": 7897, "erantwoordelijkhei": 7898, "rantwoordelijkheid": 7899, "verantwoordelijkhei": 7900, "erantwoordelijkheid": 7901, "verantwoordelijkheid": 7902, "breke": 7903, "start": 7904, "curr": 7905, "ectief": 7906, "ocum": 7907, "docum": 7908, "ocume": 7909, "docume": 7910, "ocumen": 7911, "cument": 7912, "documen": 7913, "ocument": 7914, "document": 7915, "/2": 7916, "rren": 7917, "berg": 7918, "enie": 7919, "nauw": 7920, "ekij": 7921, "indiene": 7922, "iva": 7923, "nclu": 7924, "orda": 7925, "igra": 7926, "muler": 7927, "etreffend": 7928, "betreffend": 7929, "bedrag": 7930, "iali": 7931, "sje": 7932, "aff": 7933, "discus": 7934, "oper": 7935, "ilm": 7936, "ama": 7937, "muni": 7938, "egrij": 7939, "scuss": 7940, "roepen": 7941, "iscuss": 7942, "discuss": 7943, "ekijk": 7944, "scussi": 7945, "iscussi": 7946, "discussi": 7947, "egele": 7948, "rhandeli": 7949, "erhandeli": 7950, "rhandelin": 7951, "erhandelin": 7952, "rhandeling": 7953, "erhandeling": 7954, "bouwen": 7955, "teraar": 7956, "gewel": 7957, "eeu": 7958, "ompl": 7959, ".n": 7960, "ntru": 7961, "ofi": 7962, "panni": 7963, "eweld": 7964, "geweld": 7965, "gas": 7966, "brand": 7967, "ngi": 7968, "rster": 7969, "spanni": 7970, "ods": 7971, "effi": 7972, "eded": 7973, "huld": 7974, "egrijp": 7975, "dive": 7976, "begrij": 7977, "begrijp": 7978, "erkn": 7979, "aste": 7980, "pannin": 7981, "taak": 7982, "gsc": 7983, "panning": 7984, "pstel": 7985, "enha": 7986, "spannin": 7987, "iebe": 7988, "egrijpe": 7989, "spanning": 7990, "idden": 7991, "begrijpe": 7992, "gratis": 7993, "aspe": 7994, "meded": 7995, "aande": 7996, "eloo": 7997, "rtro": 7998, "anto": 7999, "compl": 8000, "apa": 8001, "derhandeli": 8002, "nderhandeli": 8003, "derhandelin": 8004, "onderhandeli": 8005, "nderhandelin": 8006, "derhandeling": 8007, "onderhandelin": 8008, "nderhandeling": 8009, "onderhandeling": 8010, "ekijke": 8011, "ww": 8012, "-c": 8013, "dkeu": 8014, "ware": 8015, "lom": 8016, "kgel": 8017, "ncu": 8018, "dezel": 8019, "chade": 8020, "tijk": 8021, "migra": 8022, "schade": 8023, "-d": 8024, "reel": 8025, "erster": 8026, "torit": 8027, "riaal": 8028, "logie": 8029, "loop": 8030, "alf": 8031, "aktij": 8032, "integr": 8033, "niek": 8034, "dezelf": 8035, "tag": 8036, "agstu": 8037, "aagstu": 8038, "agstuk": 8039, "raagstu": 8040, "aagstuk": 8041, "vraagstu": 8042, "raagstuk": 8043, "vraagstuk": 8044, "dezelfd": 8045, "dezelfde": 8046, "atsen": 8047, "aatsen": 8048, "raard": 8049, "raktij": 8050, "praktij": 8051, "ula": 8052, "ferentie": 8053, "utorit": 8054, "autorit": 8055, "nol": 8056, "ktijk": 8057, "aktijk": 8058, "raktijk": 8059, "praktijk": 8060, "edke": 8061, "eraard": 8062, "opstel": 8063, "kgele": 8064, "kgeleg": 8065, "nwez": 8066, "itsp": 8067, "oedke": 8068, "dkeur": 8069, "ji": 8070, "edkeu": 8071, "goedke": 8072, "oedkeu": 8073, "edkeur": 8074, "goedkeu": 8075, "oedkeur": 8076, "goedkeur": 8077, "logis": 8078, "ikaa": 8079, "gebo": 8080, "pakken": 8081, "ekijken": 8082, "anwez": 8083, "aanwez": 8084, "uari": 8085, "pni": 8086, "evord": 8087, "evorde": 8088, "eland": 8089, "derde": 8090, "beki": 8091, "zijds": 8092, "ombi": 8093, "curre": 8094, "egens": 8095, "pstell": 8096, "diver": 8097, "eeuw": 8098, "const": 8099, "amh": 8100, "regeli": 8101, "hteli": 8102, "chteli": 8103, "nwezi": 8104, "anwezi": 8105, "nwezig": 8106, "aanwezi": 8107, "anwezig": 8108, "aanwezig": 8109, "nkrij": 8110, "regelin": 8111, "ntst": 8112, "daarva": 8113, "nooit": 8114, "regeling": 8115, "kgelege": 8116, "kgelegen": 8117, "daarvan": 8118, "ieren": 8119, "ertro": 8120, "kgelegenh": 8121, "kgelegenhe": 8122, "imin": 8123, "rzijds": 8124, "erzijds": 8125, "ndienen": 8126, "dert": 8127, "ppa": 8128, "kgelegenhei": 8129, "kgelegenheid": 8130, "ocratisc": 8131, "ocratisch": 8132, "opni": 8133, "uil": 8134, "oeder": 8135, "rkgel": 8136, "erkgel": 8137, "werkgel": 8138, "omie": 8139, "lief": 8140, "eperke": 8141, "beperke": 8142, "eperken": 8143, "beperken": 8144, "\u2013": 8145, "evorder": 8146, "prec": 8147, "r-": 8148, "breken": 8149, "geled": 8150, "wb": 8151, "nth": 8152, "rkgele": 8153, "erkgele": 8154, "rkgeleg": 8155, "werkgele": 8156, "erkgeleg": 8157, "rkgelege": 8158, "werkgeleg": 8159, "erkgelege": 8160, "rkgelegen": 8161, "werkgelege": 8162, "erkgelegen": 8163, "werkgelegen": 8164, "opstell": 8165, "rkgelegenh": 8166, "erkgelegenh": 8167, "rkgelegenhe": 8168, "werkgelegenh": 8169, "erkgelegenhe": 8170, "rkgelegenhei": 8171, "werkgelegenhe": 8172, "erkgelegenhei": 8173, "rkgelegenheid": 8174, "werkgelegenhei": 8175, "erkgelegenheid": 8176, "werkgelegenheid": 8177, "uitera": 8178, "iteraa": 8179, "uiteraa": 8180, "teraard": 8181, "ierin": 8182, "ngez": 8183, "derhe": 8184, "iteraar": 8185, "uiteraar": 8186, "iteraard": 8187, "uiteraard": 8188, "ngaa": 8189, "arh": 8190, "wijf": 8191, "nner": 8192, "chaa": 8193, "veroo": 8194, "inzie": 8195, "rderi": 8196, "elema": 8197, "fund": 8198, "veroor": 8199, "divers": 8200, "vertro": 8201, "slac": 8202, "gal": 8203, "arke": 8204, "inze": 8205, "otings": 8206, "rotings": 8207, "grotings": 8208, "was": 8209, "mmuni": 8210, "inzien": 8211, "egrotings": 8212, "begrotings": 8213, "slach": 8214, "ncr": 8215, "krijk": 8216, "zwaar": 8217, "rkne": 8218, "ernemi": 8219, "ernemin": 8220, "erneming": 8221, "vermo": 8222, "aamh": 8223, "estige": 8224, "pleg": 8225, "film": 8226, "opi": 8227, "-i": 8228, "chul": 8229, "ci\u00eb": 8230, "emak": 8231, "ura": 8232, "ito": 8233, "daard": 8234, "nkrijk": 8235, "slacht": 8236, "schul": 8237, "nancier": 8238, "indienen": 8239, "ncur": 8240, "inancier": 8241, "financier": 8242, "rce": 8243, "eali": 8244, "werkn": 8245, "sep": 8246, "vond": 8247, "lukk": 8248, "laatsen": 8249, "plaatsen": 8250, "midden": 8251, "tiee": 8252, "bevor": 8253, "fsta": 8254, "oncu": 8255, "concu": 8256, "dernemi": 8257, "ndernemi": 8258, "dernemin": 8259, "ondernemi": 8260, "ndernemin": 8261, "derneming": 8262, "ondernemin": 8263, "nderneming": 8264, "onderneming": 8265, "pnie": 8266, "pnieu": 8267, "pnieuw": 8268, "dba": 8269, "erkne": 8270, "rns": 8271, "duit": 8272, "tas": 8273, "bevord": 8274, "bevorde": 8275, "oncur": 8276, "concur": 8277, "ologie": 8278, "rsterk": 8279, "ersterk": 8280, "bevorder": 8281, "nsie": 8282, "odel": 8283, "slaan": 8284, "mocratisc": 8285, "emocratisc": 8286, "mocratisch": 8287, "democratisc": 8288, "emocratisch": 8289, "democratisch": 8290, "she": 8291, "unda": 8292, "nvoer": 8293, "werkne": 8294, "opnie": 8295, "opnieu": 8296, "opnieuw": 8297, "nomie": 8298, "ncurr": 8299, "oncurr": 8300, "ncurre": 8301, "concurr": 8302, "oncurre": 8303, "concurre": 8304, "onomie": 8305, "jns": 8306, "hema": 8307, "u-": 8308, "elede": 8309, "aarh": 8310, "ey": 8311, "ijns": 8312, "ialis": 8313, "pg": 8314, "kaans": 8315, "bekij": 8316, "bekijk": 8317, "twa": 8318, "nigde": 8319, "ogisc": 8320, "ogisch": 8321, "enigde": 8322, "renigde": 8323, "erenigde": 8324, "verenigde": 8325, "proe": 8326, "eleden": 8327, "tvoere": 8328, "tvoeren": 8329, "estuu": 8330, "gelede": 8331, "rven": 8332, "ping": 8333, "tuigen": 8334, "estuur": 8335, "uce": 8336, "rtrou": 8337, "orie": 8338, "geleden": 8339, "enor": 8340, "tstaa": 8341, "izen": 8342, "rbin": 8343, "vene": 8344, "nlin": 8345, "jfel": 8346, "ijfel": 8347, "fb": 8348, "illi": 8349, "ertrou": 8350, "amhe": 8351, "torite": 8352, "utorite": 8353, "toritei": 8354, "autorite": 8355, "utoritei": 8356, "toriteit": 8357, "autoritei": 8358, "utoriteit": 8359, "autoriteit": 8360, "rtrouw": 8361, "ertrouw": 8362, "juri": 8363, "levin": 8364, "stant": 8365, "knem": 8366, "aamhe": 8367, "leving": 8368, "helem": 8369, "rank": 8370, "ipe": 8371, "appen": 8372, "twijf": 8373, "wijfe": 8374, "wijfel": 8375, "bekijke": 8376, "bekijken": 8377, "twijfe": 8378, "twijfel": 8379, "vaart": 8380, "groen": 8381, "mhei": 8382, "verster": 8383, "istere": 8384, "aranti": 8385, "arantie": 8386, "pdr": 8387, "rknem": 8388, "kneme": 8389, "erknem": 8390, "rkneme": 8391, "knemer": 8392, "erkneme": 8393, "rknemer": 8394, "erknemer": 8395, "elemaa": 8396, "tieel": 8397, "eisen": 8398, "jfs": 8399, "oorn": 8400, "ucc": 8401, "helema": 8402, "elemaal": 8403, "omme": 8404, "helemaa": 8405, "helemaal": 8406, "mail": 8407, "ijfs": 8408, "werknem": 8409, "werkneme": 8410, "werknemer": 8411, "versterk": 8412, "vestige": 8413, "estigen": 8414, "vestigen": 8415, "strum": 8416, "not": 8417, "vertrou": 8418, "fini": 8419, "mere": 8420, "beo": 8421, "vertrouw": 8422, "isteren": 8423, "trijdi": 8424, "strijdi": 8425, "ontst": 8426, "eef": 8427, "rism": 8428, "vig": 8429, "onver": 8430, "ansl": 8431, "iori": 8432, "etti": 8433, "ronder": 8434, "lne": 8435, "voorde": 8436, "bestuu": 8437, "suc": 8438, "fti": 8439, "bestuur": 8440, "tvoeri": 8441, "sion": 8442, "igens": 8443, "opdr": 8444, "etai": 8445, "arli": 8446, "verne": 8447, "kosten": 8448, "ego": 8449, "gelei": 8450, "creet": 8451, "zuid": 8452, "rume": 8453, "resp": 8454, "ehandele": 8455, "behandele": 8456, "ehandelen": 8457, "behandelen": 8458, "nmid": 8459, "okies": 8460, "pac": 8461, "nmidd": 8462, "ookies": 8463, "rumen": 8464, "vic": 8465, "cookies": 8466, "trume": 8467, "beroe": 8468, "arhe": 8469, "gati": 8470, "nstrum": 8471, "strume": 8472, "trumen": 8473, "rument": 8474, "trument": 8475, "egelij": 8476, "egelijk": 8477, "nstrume": 8478, "strumen": 8479, "nstrumen": 8480, "strument": 8481, "nstrument": 8482, "nno": 8483, "edie": 8484, "dea": 8485, "dsm": 8486, "udin": 8487, "instrum": 8488, "instrume": 8489, "instrumen": 8490, "instrument": 8491, "imaal": 8492, "duce": 8493, "inb": 8494, "derhei": 8495, "nvu": 8496, "rspr": 8497, "prio": 8498, "chuld": 8499, "schuld": 8500, "efin": 8501, "derheid": 8502, "mheid": 8503, "ional": 8504, "geleid": 8505, "nvul": 8506, "risme": 8507, "itvoere": 8508, "uitvoere": 8509, "itvoeren": 8510, "uitvoeren": 8511, "rwerk": 8512, "gelijke": 8513, "nsio": 8514, "gheids": 8515, ".nl": 8516, "traal": 8517, "kar": 8518, "enaar": 8519, "ebre": 8520, "gsb": 8521, "macht": 8522, "once": 8523, "igheids": 8524, "rmu": 8525, "aarhe": 8526, "oorda": 8527, "ehandeli": 8528, "ehandelin": 8529, "beda": 8530, "ehandeling": 8531, "apen": 8532, "rhou": 8533, "rdam": 8534, "haven": 8535, "rior": 8536, "espe": 8537, "lett": 8538, "nvull": 8539, "eron": 8540, "behandeli": 8541, "behandelin": 8542, "behandeling": 8543, "osse": 8544, "poe": 8545, "euz": 8546, "rlands": 8547, "defi": 8548, "arg": 8549, "oudin": 8550, "reali": 8551, "ament": 8552, "aspec": 8553, "ngaan": 8554, "houdi": 8555, "rver": 8556, "gatie": 8557, "did": 8558, "amhei": 8559, "aamhei": 8560, "houdin": 8561, "nline": 8562, "rgro": 8563, "genaa": 8564, "uv": 8565, "amheid": 8566, "aamheid": 8567, "uding": 8568, "voet": 8569, "taten": 8570, "sno": 8571, "wegen": 8572, "klant": 8573, "erto": 8574, "lagen": 8575, "aspect": 8576, "orti": 8577, "onlin": 8578, "egis": 8579, "thou": 8580, "ensio": 8581, "rnst": 8582, "efo": 8583, "ront": 8584, "nbi": 8585, "omg": 8586, "succ": 8587, "ucce": 8588, "succe": 8589, "ucces": 8590, "succes": 8591, "aansl": 8592, "online": 8593, "egang": 8594, "ouding": 8595, "houding": 8596, "erlands": 8597, "erns": 8598, "fiek": 8599, "hierv": 8600, "melde": 8601, "jdin": 8602, "ijdin": 8603, "ild": 8604, "avond": 8605, "tspr": 8606, "inkel": 8607, "ncre": 8608, "gevoe": 8609, "wink": 8610, "edank": 8611, "rson": 8612, "itgan": 8613, "uitgan": 8614, "itgang": 8615, "uitgang": 8616, "ulli": 8617, "tstaan": 8618, "elma": 8619, "ekker": 8620, "yo": 8621, "ieke": 8622, "straa": 8623, "arnaa": 8624, "sov": 8625, "ndam": 8626, "jding": 8627, "ijding": 8628, "gema": 8629, "nac": 8630, "angst": 8631, "aging": 8632, "rdere": 8633, "voege": 8634, "arhei": 8635, "lene": 8636, "veste": 8637, "priv": 8638, "bedan": 8639, "-g": 8640, "hoeven": 8641, "else": 8642, "bedank": 8643, "ndigh": 8644, "kaart": 8645, "overw": 8646, "arheid": 8647, "issen": 8648, "utt": 8649, "voegen": 8650, "ndighe": 8651, "ensie": 8652, "conce": 8653, "noord": 8654, "belg": 8655, "ernst": 8656, "waarva": 8657, "itvoeri": 8658, "uitvoeri": 8659, "actief": 8660, "waarvan": 8661, "erdam": 8662, "veer": 8663, "zaamh": 8664, "zaamhe": 8665, "afe": 8666, "dvie": 8667, "titu": 8668, "rief": 8669, "anpak": 8670, "strati": 8671, "aarhei": 8672, "oncr": 8673, "oncre": 8674, "rote": 8675, "aanpak": 8676, "concr": 8677, "concre": 8678, "taf": 8679, "aarheid": 8680, "hikb": 8681, "chikb": 8682, "hikba": 8683, "schikb": 8684, "chikba": 8685, "eschikb": 8686, "schikba": 8687, "beschikb": 8688, "eschikba": 8689, "beschikba": 8690, "ggi": 8691, "turk": 8692, "hikbaa": 8693, "chikbaa": 8694, "hikbaar": 8695, "schikbaa": 8696, "chikbaar": 8697, "eschikbaa": 8698, "schikbaar": 8699, "beschikbaa": 8700, "eschikbaar": 8701, "beschikbaar": 8702, "elig": 8703, "evoel": 8704, "tota": 8705, "ril": 8706, "etho": 8707, "cratie": 8708, "sig": 8709, "advie": 8710, "lette": 8711, "dvies": 8712, "advies": 8713, "gevoel": 8714, "eneme": 8715, "ifie": 8716, "ae": 8717, "ttel": 8718, "mge": 8719, "araa": 8720, "defin": 8721, "winke": 8722, "tabi": 8723, "sele": 8724, "dida": 8725, "dio": 8726, "40": 8727, "winkel": 8728, "ator": 8729, "duits": 8730, "ikaan": 8731, "ogt": 8732, "anen": 8733, "stab": 8734, "inu": 8735, "derlands": 8736, "aarli": 8737, "halv": 8738, "erhou": 8739, "edanke": 8740, "bedanke": 8741, "edanken": 8742, "bedanken": 8743, "aarnaa": 8744, "tijds": 8745, "levens": 8746, "inl": 8747, "rdie": 8748, "halve": 8749, "fre": 8750, "riori": 8751, "thu": 8752, "inere": 8753, "afst": 8754, "ndighei": 8755, "ndigheid": 8756, "euze": 8757, "sra": 8758, "enemen": 8759, "icu": 8760, "arlij": 8761, "toez": 8762, "morg": 8763, "abs": 8764, "otte": 8765, "nso": 8766, "chou": 8767, "hikke": 8768, "fspr": 8769, "rrei": 8770, "chikke": 8771, "schikke": 8772, "ktr": 8773, "lita": 8774, "ewa": 8775, "rikaa": 8776, "melden": 8777, "rstre": 8778, "teria": 8779, "**<vnw><pr><pron><obl><red><2v><getal>**": 8780, "soms": 8781, "aarlij": 8782, "rdigd": 8783, "iero": 8784, "rderen": 8785, "ngezi": 8786, "ineren": 8787, "schou": 8788, "iber": 8789, "kings": 8790, "inzet": 8791, "rikaan": 8792, "pzett": 8793, "opzett": 8794, "prior": 8795, "eres": 8796, "arlijk": 8797, "aarlijk": 8798, "km": 8799, "erstre": 8800, "iorit": 8801, "rhoud": 8802, "-r": 8803, "rdaa": 8804, "estan": 8805, "priori": 8806, "riorit": 8807, "eider": 8808, "hikken": 8809, "oegang": 8810, "toegang": 8811, "chikken": 8812, "schikken": 8813, "rela": 8814, "sitief": 8815, "okke": 8816, "stratie": 8817, "ederlands": 8818, "nederlands": 8819, "edige": 8820, "erson": 8821, "pensi": 8822, "stitu": 8823, "elh": 8824, "arov": 8825, "elev": 8826, "ean": 8827, "cla": 8828, "logisc": 8829, "logisch": 8830, "elne": 8831, "egie": 8832, "wing": 8833, "ikaans": 8834, "rai": 8835, "nclus": 8836, "annen": 8837, "kza": 8838, "nclusi": 8839, "wede": 8840, "arsc": 8841, "pdra": 8842, "zigi": 8843, "kand": 8844, "priorit": 8845, "hela": 8846, "etens": 8847, "ubs": 8848, "ifiek": 8849, "pmerki": 8850, "opmerki": 8851, "pmerkin": 8852, "opmerkin": 8853, "pmerking": 8854, "opmerking": 8855, "opdra": 8856, "til": 8857, "fsc": 8858, "jzigi": 8859, "ijzigi": 8860, "wijzigi": 8861, "erich": 8862, "ositief": 8863, "positief": 8864, "-f": 8865, "zigin": 8866, "jzigin": 8867, "ziging": 8868, "ijzigin": 8869, "jziging": 8870, "wijzigin": 8871, "ijziging": 8872, "wijziging": 8873, "rlie": 8874, "zaamhei": 8875, "zaamheid": 8876, "rikaans": 8877, "derli": 8878, "efini": 8879, "defini": 8880, "fas": 8881, "erdee": 8882, "erker": 8883, "nderde": 8884, "uwb": 8885, "onk": 8886, "derneme": 8887, "nderneme": 8888, "onderneme": 8889, "terst": 8890, "jw": 8891, "olie": 8892, "rdat": 8893, "tensc": 8894, "sseri": 8895, "tif": 8896, "ardigd": 8897, "aardigd": 8898, "tensch": 8899, "diti": 8900, "teven": 8901, "ommuni": 8902, "communi": 8903, "gsv": 8904, "cifie": 8905, "ecifie": 8906, "cifiek": 8907, "pecifie": 8908, "ecifiek": 8909, "specifie": 8910, "pecifiek": 8911, "specifiek": 8912, "....": 8913, "pensio": 8914, "mass": 8915, "vaardigd": 8916, "angez": 8917, "aangez": 8918, "riti": 8919, "ptie": 8920, "conomie": 8921, "economie": 8922, "nves": 8923, "stabi": 8924, "arsch": 8925, "nvest": 8926, "elek": 8927, "ormu": 8928, "meren": 8929, "errei": 8930, "strek": 8931, "rmul": 8932, "formu": 8933, "helaa": 8934, "ericht": 8935, "ormul": 8936, "formul": 8937, "inves": 8938, "ijw": 8939, "wegi": 8940, "elaas": 8941, "weze": 8942, "angezi": 8943, "aangezi": 8944, "oca": 8945, "invest": 8946, "wegin": 8947, "ncree": 8948, "oncree": 8949, "sbel": 8950, "ncreet": 8951, "concree": 8952, "oncreet": 8953, "concreet": 8954, "rijdin": 8955, "verdi": 8956, "schen": 8957, "erdeel": 8958, "erhoud": 8959, "mba": 8960, "agend": 8961, "rijding": 8962, "model": 8963, "gings": 8964, "abel": 8965, "rtrouwe": 8966, "ertrouwe": 8967, "terdam": 8968, "lekt": 8969, "room": 8970, "bespr": 8971, "tsb": 8972, "eza": 8973, "jna": 8974, "bure": 8975, "itaa": 8976, "mple": 8977, "nclusie": 8978, "nolo": 8979, "vertrouwe": 8980, "pzette": 8981, "opzette": 8982, "staten": 8983, "erdie": 8984, "ijna": 8985, "oogt": 8986, "erbin": 8987, "elb": 8988, "wezen": 8989, "subs": 8990, "arden": 8991, "euri": 8992, "zieni": 8993, "ngezie": 8994, "enee": 8995, "rzieni": 8996, "crim": 8997, "ngezien": 8998, "ggin": 8999, "**<vnw><bez><det><stan><vol><2v><ev><prenom><zonder><agr>**": 9000, "oeft": 9001, "oduce": 9002, "roduce": 9003, "issin": 9004, "ppij": 9005, "erbij": 9006, "lnem": 9007, "elnem": 9008, "zienin": 9009, "ziening": 9010, "verbin": 9011, "ektr": 9012, "rzienin": 9013, "rziening": 9014, "itein": 9015, "aarsc": 9016, "tstek": 9017, "issing": 9018, "weging": 9019, "oew": 9020, "kandi": 9021, "ntsta": 9022, "helaas": 9023, "wensen": 9024, "gging": 9025, "elekt": 9026, "rimi": 9027, "nige": 9028, "ndid": 9029, "num": 9030, "tslu": 9031, "fsch": 9032, "oend": 9033, "bloe": 9034, "itw": 9035, "andid": 9036, "tslui": 9037, "ital": 9038, "bestel": 9039, "lektr": 9040, "elektr": 9041, "hno": 9042, "hoef": 9043, "ndv": 9044, "angezie": 9045, "aangezie": 9046, "rdag": 9047, "idis": 9048, "angezien": 9049, "aangezien": 9050, "re\u00eb": 9051, "happi": 9052, "ontsta": 9053, "anbi": 9054, "ndida": 9055, "andida": 9056, "eam": 9057, "kandid": 9058, "hiero": 9059, "ntstaa": 9060, "nolog": 9061, "aarov": 9062, "arove": 9063, "aarove": 9064, "arover": 9065, "aarover": 9066, "terrei": 9067, "ack": 9068, "chno": 9069, "ontstaa": 9070, "spl": 9071, "ntstaan": 9072, "ontstaan": 9073, "erweg": 9074, "eelt": 9075, "urea": 9076, "buu": 9077, "kandida": 9078, "tgeve": 9079, "echno": 9080, "techno": 9081, "rijfs": 9082, "aarsch": 9083, "evene": 9084, "funda": 9085, "kzaa": 9086, "eut": 9087, "rrein": 9088, "rece": 9089, "morge": 9090, "morgen": 9091, "onderde": 9092, "nfl": 9093, "invoe": 9094, "idisc": 9095, "damen": 9096, "ag-": 9097, "toev": 9098, "tbaa": 9099, "ogte": 9100, "matis": 9101, "errein": 9102, "03": 9103, "ergro": 9104, "itere": 9105, "eciaa": 9106, "peciaa": 9107, "speciaa": 9108, "ata": 9109, "nlo": 9110, "terrein": 9111, "onfe": 9112, "fende": 9113, "eciaal": 9114, "peciaal": 9115, "speciaal": 9116, "appij": 9117, "chappi": 9118, "happij": 9119, "schappi": 9120, "chappij": 9121, "schappij": 9122, "nveste": 9123, "edigen": 9124, "eu-": 9125, "landen": 9126, "reau": 9127, "oogte": 9128, "iteren": 9129, "erlie": 9130, "investe": 9131, "eriaa": 9132, "vernem": 9133, "ndee": 9134, "ndame": 9135, "ordat": 9136, "prom": 9137, "ndamen": 9138, "dament": 9139, "ndament": 9140, "rimin": 9141, "ussie": 9142, "serij": 9143, "undam": 9144, "crimi": 9145, "crimin": 9146, "eiz": 9147, "fundam": 9148, "undame": 9149, "fundame": 9150, "undamen": 9151, "fundamen": 9152, "undament": 9153, "fundament": 9154, "pleid": 9155, "egene": 9156, "confe": 9157, "edia": 9158, "eelne": 9159, "ci\u00ebn": 9160, "deelne": 9161, "tegie": 9162, "ategie": 9163, "rategie": 9164, "trategie": 9165, "oordat": 9166, "strategie": 9167, "ureau": 9168, "rnet": 9169, "verneme": 9170, "burea": 9171, "bureau": 9172, "ligheids": 9173, "cussie": 9174, "pdrac": 9175, "opdrac": 9176, "pdrach": 9177, "opdrach": 9178, "pdracht": 9179, "opdracht": 9180, "ikt": 9181, "mpa": 9182, "keri": 9183, "ateria": 9184, "materia": 9185, "erra": 9186, "enorm": 9187, "mina": 9188, "diep": 9189, "bus": 9190, "aanbi": 9191, "bijn": 9192, "gden": 9193, "kzaam": 9194, "ign": 9195, "sserij": 9196, "servi": 9197, "eelnem": 9198, "deelnem": 9199, "temb": 9200, "vernemen": 9201, "nologi": 9202, "abil": 9203, "gsproc": 9204, "ngsproc": 9205, "iligheids": 9206, "eiligheids": 9207, "veiligheids": 9208, "efte": 9209, "epro": 9210, "teind": 9211, "gsproce": 9212, "ngsproce": 9213, "uitei": 9214, "nctio": 9215, "nction": 9216, "binde": 9217, "tbaar": 9218, "teinde": 9219, "isseri": 9220, "tsluit": 9221, "dece": 9222, "enp": 9223, "wetens": 9224, "visseri": 9225, "isserij": 9226, "visserij": 9227, "toer": 9228, "neg": 9229, "llere": 9230, "ingsproc": 9231, "otaa": 9232, "lks": 9233, "breide": 9234, "**<adj><prenom><comp><zonder>**": 9235, "enwi": 9236, "ehoef": 9237, "hoeft": 9238, "jker": 9239, "ijker": 9240, "ingsproce": 9241, "htb": 9242, "**<adj><nom><sup><met-e><zonder-n><stan>**": 9243, "icit": 9244, "ffende": 9245, "behoef": 9246, "ehoeft": 9247, "behoeft": 9248, "ehou": 9249, "emd": 9250, "effende": 9251, "ngin": 9252, "test": 9253, "waars": 9254, "verdie": 9255, "reffende": 9256, "treffende": 9257, "rderin": 9258, "rdering": 9259, "ube": 9260, "chtb": 9261, "totaa": 9262, "verlie": 9263, "libe": 9264, "tschappi": 9265, "atschappi": 9266, "tschappij": 9267, "aatschappi": 9268, "atschappij": 9269, "maatschappi": 9270, "aatschappij": 9271, "maatschappij": 9272, "scussie": 9273, "iscussie": 9274, "discussie": 9275, "**<vnw><onbep><grad><stan><prenom><met-e><mv><basis>**": 9276, "traat": 9277, "otaal": 9278, "doend": 9279, "vlu": 9280, "etwe": 9281, "esluite": 9282, "besluite": 9283, "totaal": 9284, "eroep": 9285, "uitein": 9286, "bespre": 9287, "iteind": 9288, "uiteind": 9289, "iteinde": 9290, "uiteinde": 9291, "hers": 9292, "elgi": 9293, "etreffende": 9294, "betreffende": 9295, "waarsc": 9296, "waarsch": 9297, "ridi": 9298, "drijfs": 9299, "oefte": 9300, "bree": 9301, "lekk": 9302, "hoefte": 9303, "ehoefte": 9304, "behoefte": 9305, "erwerk": 9306, "derdee": 9307, "nri": 9308, "pva": 9309, "uldi": 9310, "foo": 9311, "pzi": 9312, "oosten": 9313, "comb": 9314, "uldig": 9315, "eto": 9316, "acce": 9317, "unctio": 9318, "unction": 9319, "abili": 9320, "alu": 9321, "rnaas": 9322, "rnaast": 9323, "aka": 9324, "functio": 9325, "function": 9326, "rigen": 9327, "edrijfs": 9328, "bedrijfs": 9329, "oorg": 9330, "binden": 9331, "rgo": 9332, "digde": 9333, "neen": 9334, "hnis": 9335, "nbie": 9336, "hnisc": 9337, "hnisch": 9338, "post": 9339, "pot": 9340, "eriaal": 9341, "nut": 9342, "keure": 9343, "keuren": 9344, "esluiten": 9345, "besluiten": 9346, "/20": 9347, "urid": 9348, "echten": 9349, "liber": 9350, "hnol": 9351, "chnol": 9352, "echnol": 9353, "technol": 9354, "gelov": 9355, "belgi": 9356, "chnis": 9357, "echnis": 9358, "chnisc": 9359, "technis": 9360, "echnisc": 9361, "chnisch": 9362, "technisc": 9363, "echnisch": 9364, "technisch": 9365, "ridis": 9366, "idisch": 9367, "hnolo": 9368, "chnolo": 9369, "echnolo": 9370, "technolo": 9371, "tzi": 9372, "invoer": 9373, "person": 9374, "nderdee": 9375, "onderdee": 9376, "uridi": 9377, "derdeel": 9378, "jurid": 9379, "ridisc": 9380, "netw": 9381, "nderdeel": 9382, "onderdeel": 9383, "andigh": 9384, "andighe": 9385, "uridis": 9386, "uridisc": 9387, "ridisch": 9388, "gun": 9389, "scri": 9390, "nfer": 9391, "nim": 9392, "anbie": 9393, "juridi": 9394, "juridis": 9395, "juridisc": 9396, "uridisch": 9397, "juridisch": 9398, "teriaa": 9399, "ateriaa": 9400, "teriaal": 9401, "materiaa": 9402, "ateriaal": 9403, "materiaal": 9404, "hnolog": 9405, "chnolog": 9406, "echnolog": 9407, "technolog": 9408, "bijna": 9409, "poor": 9410, "dial": 9411, "xe": 9412, "rvolge": 9413, "ervolge": 9414, "wu": 9415, "tenscha": 9416, "fes": 9417, "dend": 9418, "nbied": 9419, "aanbie": 9420, "anbied": 9421, "aanbied": 9422, "dsel": 9423, "sup": 9424, "aus": 9425, "hod": 9426, "tenschap": 9427, "nspan": 9428, "ecen": 9429, "heu": 9430, "ezic": 9431, "ezich": 9432, "ongev": 9433, "ezicht": 9434, "bevel": 9435, "keuz": 9436, "keuze": 9437, "emid": 9438, "ermen": 9439, "ngsv": 9440, "msta": 9441, "egrijpen": 9442, "rvolgen": 9443, "ervolgen": 9444, "begrijpen": 9445, "enbe": 9446, "emidd": 9447, "nag": 9448, "dell": 9449, "pzetten": 9450, "opzetten": 9451, "titi": 9452, "oeds": 9453, "ehoud": 9454, "nspann": 9455, "liseri": 9456, "liserin": 9457, "lisering": 9458, "thi": 9459, "fro": 9460, "erati": 9461, "sca": 9462, "ndels": 9463, "oefe": 9464, "-t": 9465, "terne": 9466, "loog": 9467, "eeg": 9468, "emidde": 9469, "kers": 9470, "nderl": 9471, "tall": 9472, "cel": 9473, "etensc": 9474, "wetensc": 9475, "eat": 9476, "rkz": 9477, "sept": 9478, "etensch": 9479, "wetensch": 9480, "etenscha": 9481, "wetenscha": 9482, "etenschap": 9483, "wetenschap": 9484, "tevens": 9485, "hoogt": 9486, "onb": 9487, "erkz": 9488, "lkom": 9489, "tleg": 9490, "orza": 9491, "teindel": 9492, "iteindel": 9493, "uiteindel": 9494, "winn": 9495, "teindeli": 9496, "iteindeli": 9497, "teindelij": 9498, "uiteindeli": 9499, "iteindelij": 9500, "uiteindelij": 9501, "dersc": 9502, "teindelijk": 9503, "iteindelijk": 9504, "uiteindelijk": 9505, "beva": 9506, "appa": 9507, "rdigde": 9508, "-0": 9509, "oefen": 9510, "lekke": 9511, "hnologi": 9512, "chnologi": 9513, "echnologi": 9514, "technologi": 9515, "opzi": 9516, "besprek": 9517, "waardo": 9518, "camp": 9519, "onfer": 9520, "confer": 9521, "obi": 9522, "ardigde": 9523, "aardigde": 9524, "vaardigde": 9525, "nfere": 9526, "onfere": 9527, "nferen": 9528, "confere": 9529, "onferen": 9530, "conferen": 9531, "waardoo": 9532, "waardoor": 9533, "rlog": 9534, "rnsti": 9535, "ernsti": 9536, "rnstig": 9537, "ernstig": 9538, "lag-": 9539, "egdh": 9540, "oegdh": 9541, "egdhe": 9542, "voegdh": 9543, "oegdhe": 9544, "voegdhe": 9545, "media": 9546, "tandigh": 9547, "standigh": 9548, "tandighe": 9549, "standighe": 9550, "slag-": 9551, "evoegdh": 9552, "bevoegdh": 9553, "evoegdhe": 9554, "bevoegdhe": 9555, "nigi": 9556, "deu": 9557, "andels": 9558, "dersch": 9559, "hog": 9560, "andighei": 9561, "andigheid": 9562, "vervolge": 9563, "koni": 9564, "ossen": 9565, "nigin": 9566, "niging": 9567, "bak": 9568, "elz": 9569, "tegel": 9570, "atsv": 9571, "daarvo": 9572, "daarvoo": 9573, "daarvoor": 9574, "nmidde": 9575, "nmiddel": 9576, "tenlands": 9577, "itenlands": 9578, "uitenlands": 9579, "buitenlands": 9580, "aatsv": 9581, "bewi": 9582, "vervolgen": 9583, "toor": 9584, "uwel": 9585, "omsta": 9586, "oedin": 9587, "igden": 9588, "ngsb": 9589, "olks": 9590, "orlog": 9591, "ndeel": 9592, "ernet": 9593, "swaa": 9594, "alb": 9595, "emiddel": 9596, "combi": 9597, "umm": 9598, "uree": 9599, "genda": 9600, "elv": 9601, "beroep": 9602, "gemak": 9603, "eeks": 9604, "daarnaa": 9605, "volks": 9606, "kaanse": 9607, "gsl": 9608, "rkenne": 9609, "erkenne": 9610, "lba": 9611, "rslag-": 9612, "erslag-": 9613, "verslag-": 9614, "werkz": 9615, "ikaanse": 9616, "rikaanse": 9617, "lmat": 9618, "gina": 9619, "egaa": 9620, "hoogte": 9621, "erige": 9622, "itslu": 9623, "itslui": 9624, "breiden": 9625, "iege": 9626, "uitslu": 9627, "uitslui": 9628, "itsluit": 9629, "redin": 9630, "itali": 9631, "pit": 9632, "uitsluit": 9633, "vluc": 9634, "vluch": 9635, "vlucht": 9636, "cter": 9637, "reding": 9638, "ptem": 9639, "tembe": 9640, "wart": 9641, "egdhei": 9642, "oegdhei": 9643, "egdheid": 9644, "voegdhei": 9645, "oegdheid": 9646, "voegdheid": 9647, "evoegdhei": 9648, "bevoegdhei": 9649, "evoegdheid": 9650, "bevoegdheid": 9651, "gever": 9652, "caa": 9653, "tea": 9654, "tember": 9655, "oeding": 9656, "afsp": 9657, "vertu": 9658, "itstek": 9659, "doelen": 9660, "straat": 9661, "idaa": 9662, "ptemb": 9663, "swaar": 9664, "ros": 9665, "etz": 9666, "septe": 9667, "eptem": 9668, "verige": 9669, "septem": 9670, "eptemb": 9671, "septemb": 9672, "kuns": 9673, "anbe": 9674, "jee": 9675, "uitstek": 9676, "nferent": 9677, "onferent": 9678, "nferenti": 9679, "conferent": 9680, "onferenti": 9681, "conferenti": 9682, "overige": 9683, "estem": 9684, "nferentie": 9685, "onferentie": 9686, "conferentie": 9687, "rkza": 9688, "erkza": 9689, "gelove": 9690, "vertui": 9691, "rkzaa": 9692, "erkzaa": 9693, "overtu": 9694, "overtui": 9695, "digden": 9696, "inspa": 9697, "thod": 9698, "ptembe": 9699, "vertuig": 9700, "overtuig": 9701, "erigen": 9702, "mstan": 9703, "inspan": 9704, "inspann": 9705, "kunst": 9706, "estand": 9707, "geloven": 9708, "itspr": 9709, "rkzaam": 9710, "erkzaam": 9711, "rigens": 9712, "mstand": 9713, "tandighei": 9714, "standighei": 9715, "tandigheid": 9716, "standigheid": 9717, "tijn": 9718, "eptembe": 9719, "ptember": 9720, "septembe": 9721, "rks": 9722, "verigen": 9723, "erigens": 9724, "verigens": 9725, "svi": 9726, "o'": 9727, "isb": 9728, "overigen": 9729, "overigens": 9730, "eptember": 9731, "september": 9732, "dzaa": 9733, "hak": 9734, "omstan": 9735, "omstand": 9736, "elder": 9737, "oplei": 9738, "anise": 9739, "rdigden": 9740, "ardigden": 9741, "aardigden": 9742, "vaardigden": 9743, "002": 9744, "meth": 9745, "netwe": 9746, "etwer": 9747, "ntb": 9748, "ngsc": 9749, "rkennen": 9750, "erkennen": 9751, "titie": 9752, "inko": 9753, "tvoerin": 9754, "tvoering": 9755, "egat": 9756, "\u00f6r": 9757, "oorza": 9758, "opleid": 9759, "entru": 9760, "ruiker": 9761, "bruiker": 9762, "ian": 9763, "idaat": 9764, "ergen": 9765, "didaa": 9766, "ndidaa": 9767, "andidaa": 9768, "ocratie": 9769, "jun": 9770, "etwerk": 9771, "nav": 9772, "didaat": 9773, "ndidaat": 9774, "kandidaa": 9775, "andidaat": 9776, "vli": 9777, "netwer": 9778, "smi": 9779, "arnaas": 9780, "aarnaas": 9781, "arnaast": 9782, "aarnaast": 9783, "kandidaat": 9784, "daarnaas": 9785, "daarnaast": 9786, "erdaa": 9787, "mstandi": 9788, "omstandi": 9789, "mstandig": 9790, "omstandig": 9791, "bije": 9792, "pstelle": 9793, "bso": 9794, "wiss": 9795, "netwerk": 9796, "gewi": 9797, "vester": 9798, "eteri": 9799, "oz": 9800, "wak": 9801, "erschr": 9802, "mstandigh": 9803, "omstandigh": 9804, "mstandighe": 9805, "omstandighe": 9806, "nvester": 9807, "anl": 9808, "invester": 9809, "houw": 9810, "ingsb": 9811, "werkza": 9812, "elmat": 9813, "a-": 9814, "nhan": 9815, "werkzaa": 9816, "werkzaam": 9817, "ingsv": 9818, "nterne": 9819, "hange": 9820, "ternet": 9821, "opstelle": 9822, "enden": 9823, "rch": 9824, "urren": 9825, "mbin": 9826, "mulere": 9827, "muleren": 9828, "21": 9829, "rrent": 9830, "curren": 9831, "ngeven": 9832, "handels": 9833, "interne": 9834, "dew": 9835, "euge": 9836, "neu": 9837, "estell": 9838, "ralis": 9839, "bezig": 9840, "aniser": 9841, "ested": 9842, "eterin": 9843, "escho": 9844, "mocratie": 9845, "kap": 9846, "ureel": 9847, "emocratie": 9848, "democratie": 9849, "iorite": 9850, "trijdin": 9851, "strijdin": 9852, "laatsv": 9853, "opva": 9854, "riorite": 9855, "ntrum": 9856, "estrijdi": 9857, "trijding": 9858, "bestrijdi": 9859, "estrijdin": 9860, "strijding": 9861, "bestrijdin": 9862, "estrijding": 9863, "bestrijding": 9864, "tren": 9865, "anderi": 9866, "uiz": 9867, "centru": 9868, "entrum": 9869, "centrum": 9870, "ombin": 9871, "tsla": 9872, "bested": 9873, "lmati": 9874, "astr": 9875, "etro": 9876, "lecti": 9877, "vati": 9878, "breed": 9879, "pper": 9880, "nzett": 9881, "noc": 9882, "o\u00f6": 9883, "rtijd": 9884, "tede": 9885, "losse": 9886, "bio": 9887, "vice": 9888, "itaal": 9889, "combin": 9890, "urrent": 9891, "herme": 9892, "kund": 9893, "current": 9894, "anisere": 9895, "aniseren": 9896, "etin": 9897, "jeen": 9898, "ioritei": 9899, "ioriteit": 9900, "agenda": 9901, "ibera": 9902, "plaatsv": 9903, "rioritei": 9904, "rioriteit": 9905, "ierb": 9906, "base": 9907, "sidi": 9908, "gss": 9909, "libera": 9910, "gma": 9911, "priorite": 9912, "ganise": 9913, "rganise": 9914, "organise": 9915, "erschri": 9916, "verzoeke": 9917, "mstandighei": 9918, "omstandighei": 9919, "mstandigheid": 9920, "omstandigheid": 9921, "oods": 9922, "metho": 9923, "rtrouwen": 9924, "ertrouwen": 9925, "nternet": 9926, "que": 9927, "egati": 9928, "ppar": 9929, "ethod": 9930, "method": 9931, "internet": 9932, "pstellen": 9933, "aanm": 9934, "rmoe": 9935, "wisse": 9936, "luid": 9937, "uweli": 9938, "lia": 9939, "stl": 9940, "elge": 9941, "rwachte": 9942, "erwachte": 9943, "vergel": 9944, "ardige": 9945, "aardige": 9946, "vertrouwen": 9947, "rbind": 9948, "relat": 9949, "prioritei": 9950, "prioriteit": 9951, "hat": 9952, "ioe": 9953, "tral": 9954, "ano": 9955, "rmaa": 9956, "buur": 9957, "verzoeken": 9958, "cap": 9959, "nderli": 9960, "lossen": 9961, "elmati": 9962, "ordele": 9963, "lmatig": 9964, "elmatig": 9965, "egatie": 9966, "ordelen": 9967, "erbind": 9968, "verbind": 9969, "oordele": 9970, "oordelen": 9971, "teres": 9972, "opstellen": 9973, "eggi": 9974, "reci": 9975, "anu": 9976, "verwachte": 9977, "li\u00eb": 9978, "et-": 9979, "ganiser": 9980, "rganiser": 9981, "organiser": 9982, "elec": 9983, "nlev": 9984, "ganisere": 9985, "rganisere": 9986, "ganiseren": 9987, "organisere": 9988, "rganiseren": 9989, "organiseren": 9990, "espec": 9991, "lezi": 9992, "kwi": 9993, "gk": 9994, "anal": 9995, "appar": 9996, "exi": 9997, "esen": 9998, "stede": 9999, "lter": 10000, "elati": 10001, "eweg": 10002, "rwachten": 10003, "erwachten": 10004, "verwachten": 10005, "dich": 10006, "nitie": 10007, "rbere": 10008, "kas": 10009, "ioen": 10010, "ardigen": 10011, "aardigen": 10012, "**<vnw><pers><pron><obl><vol><3><getal><fem>**": 10013, "rinc": 10014, "dor": 10015, "diger": 10016, "lissi": 10017, "ncurren": 10018, "oncurren": 10019, "concurren": 10020, "enc": 10021, "gla": 10022, "ncurrent": 10023, "oncurrent": 10024, "concurrent": 10025, "aliseri": 10026, "aliserin": 10027, "alisering": 10028, "lissin": 10029, "eggin": 10030, "iever": 10031, "hoon": 10032, "lissing": 10033, "egging": 10034, "ngew": 10035, "ingsc": 10036, "uitsp": 10037, "gsm": 10038, "lict": 10039, "orber": 10040, "ntiee": 10041, "itvoerin": 10042, "uitvoerin": 10043, "itvoering": 10044, "uitvoering": 10045, "itl": 10046, "unctie": 10047, "randeri": 10048, "tut": 10049, "ukki": 10050, "terie": 10051, "enstel": 10052, "anderin": 10053, "dicht": 10054, "tredi": 10055, "derdaa": 10056, "nderdaa": 10057, "tredin": 10058, "treding": 10059, "co\u00f6": 10060, "egra": 10061, "hond": 10062, "konin": 10063, "verwerk": 10064, "onere": 10065, "ioner": 10066, "cherme": 10067, "scherme": 10068, "arit": 10069, "aie": 10070, "lneme": 10071, "elneme": 10072, "sbele": 10073, "oneren": 10074, "plat": 10075, "serie": 10076, "verbo": 10077, "eranderi": 10078, "randerin": 10079, "andering": 10080, "veranderi": 10081, "eranderin": 10082, "randering": 10083, "veranderin": 10084, "erandering": 10085, "verandering": 10086, "onderl": 10087, "thui": 10088, "hef": 10089, "vergeli": 10090, "eschikke": 10091, "beschikke": 10092, "eschikken": 10093, "beschikken": 10094, "rkie": 10095, "vergelij": 10096, "vergelijk": 10097, "versta": 10098, "det": 10099, "omente": 10100, "momente": 10101, "choon": 10102, "schoon": 10103, "verha": 10104, "bos": 10105, "pon": 10106, "mgev": 10107, "aanbe": 10108, "tvaard": 10109, "ncip": 10110, "lenen": 10111, "ents": 10112, "pzic": 10113, "opzic": 10114, "pzich": 10115, "opzich": 10116, "side": 10117, "chouw": 10118, "schouw": 10119, "slissi": 10120, "eslissi": 10121, "beslissi": 10122, "ldin": 10123, "slissin": 10124, "eslissin": 10125, "slissing": 10126, "beslissin": 10127, "eslissing": 10128, "beslissing": 10129, "vaardige": 10130, "llo": 10131, "\u20ac": 10132, "tenti": 10133, "tda": 10134, "tvaardi": 10135, "tvaardig": 10136, "fz": 10137, "dy": 10138, "stree": 10139, "reeks": 10140, "orbere": 10141, "bestell": 10142, "pzicht": 10143, "opzicht": 10144, "aanl": 10145, "princ": 10146, "vaardigen": 10147, "omentee": 10148, "momentee": 10149, "omenteel": 10150, "momenteel": 10151, "welij": 10152, "uwelij": 10153, "arand": 10154, "yc": 10155, "tanti": 10156, "lekker": 10157, "turee": 10158, "rlene": 10159, "ebruiker": 10160, "gebruiker": 10161, "arande": 10162, "welijk": 10163, "uwelijk": 10164, "ntieel": 10165, "ngss": 10166, "oedse": 10167, "tekend": 10168, "oler": 10169, "jus": 10170, "kto": 10171, "svin": 10172, "angev": 10173, "ciali": 10174, "preci": 10175, "ndige": 10176, "erlene": 10177, "verlene": 10178, "verki": 10179, "sal": 10180, "stanti": 10181, "anko": 10182, "yn": 10183, "garand": 10184, "garande": 10185, "toff": 10186, "alig": 10187, "erkie": 10188, "nstit": 10189, "ontb": 10190, "ngsl": 10191, "tsteke": 10192, "tsteken": 10193, "aangev": 10194, "matisc": 10195, "matisch": 10196, "thuis": 10197, "aaie": 10198, "nstitu": 10199, "ijee": 10200, "ubsi": 10201, "subsi": 10202, "angeve": 10203, "gor": 10204, "git": 10205, "bijee": 10206, "ijeen": 10207, "bijeen": 10208, "bsid": 10209, "ubsid": 10210, "subsid": 10211, "i\u00ebre": 10212, "umme": 10213, "omv": 10214, "nteres": 10215, "bewij": 10216, "bsidi": 10217, "ubsidi": 10218, "subsidi": 10219, "**<vnw><onbep><det><stan><nom><met-e><mv-n>**": 10220, "i\u00ebren": 10221, "offi": 10222, "rende": 10223, "tsvi": 10224, "tail": 10225, "aangeve": 10226, "spoo": 10227, "heri": 10228, "svind": 10229, "rnie": 10230, "24": 10231, "drei": 10232, "atsvi": 10233, "verkie": 10234, "intere": 10235, "produce": 10236, "voeds": 10237, "edsel": 10238, "oedsel": 10239, "aatsvi": 10240, "tureel": 10241, "eelneme": 10242, "deelneme": 10243, "svinde": 10244, "svinden": 10245, "espect": 10246, "rtre": 10247, "voedse": 10248, "voedsel": 10249, "uitw": 10250, "tsvin": 10251, "atsvin": 10252, "tsvind": 10253, "atsvind": 10254, "npas": 10255, "oka": 10256, "laatsvi": 10257, "aatsvin": 10258, "tsvinde": 10259, "plaatsvi": 10260, "laatsvin": 10261, "aatsvind": 10262, "atsvinde": 10263, "tsvinden": 10264, "plaatsvin": 10265, "laatsvind": 10266, "atsvinden": 10267, "plaatsvind": 10268, "-ma": 10269, "evend": 10270, "lding": 10271, "aatsvinde": 10272, "laatsvinde": 10273, "aatsvinden": 10274, "plaatsvinde": 10275, "laatsvinden": 10276, "plaatsvinden": 10277, "respe": 10278, "nstant": 10279, "rkiez": 10280, "respec": 10281, "functie": 10282, "oorlog": 10283, "gete": 10284, "respect": 10285, "visi": 10286, "aarden": 10287, "dres": 10288, "ebel": 10289, "gion": 10290, "roni": 10291, "toffe": 10292, "erkiez": 10293, "bt": 10294, "angeven": 10295, "aangeven": 10296, "rheids": 10297, "gebre": 10298, "onderli": 10299, "itsteke": 10300, "uitsteke": 10301, "itsteken": 10302, "uitsteken": 10303, "5-": 10304, "resi": 10305, "tiem": 10306, "baarh": 10307, "baarhe": 10308, "neens": 10309, "pera": 10310, "genie": 10311, "hermen": 10312, "nseli": 10313, "isd": 10314, "ealis": 10315, "sbelei": 10316, "sbeleid": 10317, "ingss": 10318, "baarhei": 10319, "verkiez": 10320, "eact": 10321, "baarheid": 10322, "arander": 10323, "garander": 10324, "arandere": 10325, "garandere": 10326, "aranderen": 10327, "garanderen": 10328, "just": 10329, "hof": 10330, "oedig": 10331, "sba": 10332, "aser": 10333, "cris": 10334, "egion": 10335, "ulie": 10336, "eveel": 10337, "eleide": 10338, "edoele": 10339, "sign": 10340, "dewe": 10341, "r.": 10342, "moti": 10343, "tiev": 10344, "borg": 10345, "gne": 10346, "tels": 10347, "omin": 10348, "massa": 10349, "erstan": 10350, "nka": 10351, "lass": 10352, "adrukk": 10353, "nadrukk": 10354, "adrukke": 10355, "nadrukke": 10356, "tentie": 10357, "erstand": 10358, "lici": 10359, "baan": 10360, "chermen": 10361, "schermen": 10362, "trev": 10363, "2002": 10364, "-la": 10365, "leider": 10366, "woorden": 10367, "ummer": 10368, "hto": 10369, "dsl": 10370, "dscha": 10371, "romi": 10372, "hip": 10373, "inner": 10374, "erzie": 10375, "nale": 10376, "geza": 10377, "enle": 10378, "fis": 10379, "gener": 10380, "fstan": 10381, "oorber": 10382, "oorbere": 10383, "fstand": 10384, "fees": 10385, "rinci": 10386, "incip": 10387, "princi": 10388, "rincip": 10389, "princip": 10390, "lr": 10391, "llie": 10392, "vlie": 10393, "resta": 10394, "ingsl": 10395, "kp": 10396, "amst": 10397, "talin": 10398, "hode": 10399, "nica": 10400, "nings": 10401, "conv": 10402, "eniet": 10403, "interes": 10404, "ctere": 10405, "loc": 10406, "cteren": 10407, "zes": 10408, "terv": 10409, "prese": 10410, "rschrij": 10411, "iedi": 10412, "thode": 10413, "ntraa": 10414, "nader": 10415, "conve": 10416, "ie-": 10417, "chto": 10418, "fsl": 10419, "voele": 10420, "region": 10421, "dedi": 10422, "stekend": 10423, "realis": 10424, "ethode": 10425, "methode": 10426, "entraa": 10427, "lectie": 10428, "voordee": 10429, "entu": 10430, "erlo": 10431, "giona": 10432, "tstekend": 10433, "itstekend": 10434, "uitstekend": 10435, "voordeel": 10436, "rbie": 10437, "klaa": 10438, "eress": 10439, "plichti": 10440, "voelen": 10441, "egiona": 10442, "niem": 10443, "eq": 10444, "ada": 10445, "nmer": 10446, "teress": 10447, "ltuu": 10448, "ultuu": 10449, "feest": 10450, "regiona": 10451, "tabil": 10452, "ltuur": 10453, "ultuur": 10454, "luu": 10455, "treve": 10456, "inderd": 10457, "zige": 10458, "tabili": 10459, "riu": 10460, "edoelen": 10461, "ocen": 10462, "'s": 10463, "vloed": 10464, "cialis": 10465, "finit": 10466, "nteress": 10467, "ocent": 10468, "uws": 10469, "strev": 10470, "escherme": 10471, "kerin": 10472, "bescherme": 10473, "esent": 10474, "enten": 10475, "streve": 10476, "uter": 10477, "derb": 10478, "uitspr": 10479, "orsp": 10480, "cultuu": 10481, "cultuur": 10482, "fron": 10483, "vle": 10484, "erstel": 10485, "orgaa": 10486, "resen": 10487, "verei": 10488, "terke": 10489, "isis": 10490, "-in": 10491, "treven": 10492, "streven": 10493, "oppen": 10494, "pul": 10495, "bedoele": 10496, "bedoelen": 10497, "ertij": 10498, "orgaan": 10499, "degen": 10500, "presen": 10501, "abso": 10502, "erbie": 10503, "dbaa": 10504, "etering": 10505, "kering": 10506, "rfe": 10507, "resent": 10508, "present": 10509, "aly": 10510, "aanko": 10511, "ensel": 10512, "ols": 10513, "tage": 10514, "rberei": 10515, "wek": 10516, "rsche": 10517, "icite": 10518, "npass": 10519, "dsb": 10520, "agina": 10521, "raai": 10522, "vac": 10523, "rbereid": 10524, "ticu": 10525, "initie": 10526, "evat": 10527, "crisi": 10528, "sof": 10529, "luut": 10530, "by": 10531, "ewerke": 10532, "rkr": 10533, "voorber": 10534, "orberei": 10535, "voorbere": 10536, "oorberei": 10537, "orbereid": 10538, "voorberei": 10539, "oorbereid": 10540, "voorbereid": 10541, "aud": 10542, "goo": 10543, "equ": 10544, "ertijd": 10545, "herin": 10546, "ntraal": 10547, "entraal": 10548, "sterke": 10549, "instan": 10550, "centraa": 10551, "tafe": 10552, "russ": 10553, "reac": 10554, "ox": 10555, "issel": 10556, "warm": 10557, "e\u00ebr": 10558, "rdigh": 10559, "nach": 10560, "agr": 10561, "nselij": 10562, "nselijk": 10563, "oluu": 10564, "dica": 10565, "krit": 10566, "oder": 10567, "enseli": 10568, "mali": 10569, "enselij": 10570, "enselijk": 10571, "ctione": 10572, "nzette": 10573, "anpas": 10574, "chan": 10575, "nspanni": 10576, "nspannin": 10577, "nspanning": 10578, "nzetten": 10579, "rget": 10580, "aanpas": 10581, "rlin": 10582, "soluu": 10583, "oluut": 10584, "soluut": 10585, "ddell": 10586, "iddell": 10587, "middell": 10588, "ii": 10589, "itut": 10590, "afel": 10591, "istra": 10592, "estemm": 10593, "hierb": 10594, "rwijz": 10595, "titut": 10596, "stitut": 10597, "oorsp": 10598, "dwer": 10599, "bevat": 10600, "ehor": 10601, "rdighe": 10602, "rbied": 10603, "erbied": 10604, "kriti": 10605, "max": 10606, "bron": 10607, "pali": 10608, "tko": 10609, "rijw": 10610, "inspanni": 10611, "inspannin": 10612, "inspanning": 10613, "nging": 10614, "evatt": 10615, "oft": 10616, "ads": 10617, "bevatt": 10618, "evatte": 10619, "taling": 10620, "esid": 10621, "oeste": 10622, "geleide": 10623, "sone": 10624, "erwijz": 10625, "tantie": 10626, "bevatte": 10627, "\u00f6rd": 10628, "dbaar": 10629, "ock": 10630, "o\u00f6r": 10631, "co\u00f6r": 10632, "o\u00f6rd": 10633, "\u00f6rdi": 10634, "co\u00f6rd": 10635, "o\u00f6rdi": 10636, "co\u00f6rdi": 10637, "\u00f6rdin": 10638, "o\u00f6rdin": 10639, "co\u00f6rdin": 10640, "dso": 10641, "\u00ef": 10642, "rhaa": 10643, "stantie": 10644, "evatten": 10645, "bevatten": 10646, "kre": 10647, "ewu": 10648, "lieg": 10649, "rrenti": 10650, "ehore": 10651, "ehoren": 10652, "ovee": 10653, "zer": 10654, "pric": 10655, "rofi": 10656, "use": 10657, "nvl": 10658, "ulier": 10659, "urrenti": 10660, "currenti": 10661, "ncurrenti": 10662, "oncurrenti": 10663, "concurrenti": 10664, "omple": 10665, "entere": 10666, "wus": 10667, "bewu": 10668, "ewus": 10669, "wust": 10670, "bewus": 10671, "ewust": 10672, "bewust": 10673, "tifi": 10674, "nement": 10675, "beteri": 10676, "beterin": 10677, "betering": 10678, "tip": 10679, "evan": 10680, "oke": 10681, "at-": 10682, "behor": 10683, "behore": 10684, "behoren": 10685, "rium": 10686, "interess": 10687, "erhaa": 10688, "ordere": 10689, "palin": 10690, "anvu": 10691, "aanvu": 10692, "rrentie": 10693, "urrentie": 10694, "currentie": 10695, "ncurrentie": 10696, "oncurrentie": 10697, "concurrentie": 10698, "erandere": 10699, "numm": 10700, "centraal": 10701, "rbeteri": 10702, "erbeteri": 10703, "rbeterin": 10704, "verbeteri": 10705, "erbeterin": 10706, "rbetering": 10707, "verbeterin": 10708, "erbetering": 10709, "verbetering": 10710, "anvul": 10711, "aanvul": 10712, "verandere": 10713, "eranderen": 10714, "veranderen": 10715, "kaal": 10716, "etred": 10717, "eoo": 10718, "nua": 10719, "orderen": 10720, "100": 10721, "wijk": 10722, "spoor": 10723, "anks": 10724, "llec": 10725, "efinit": 10726, "definit": 10727, "paling": 10728, "anvull": 10729, "aanvull": 10730, "uke": 10731, "numme": 10732, "nummer": 10733, "rdighei": 10734, "finiti": 10735, "efiniti": 10736, "definiti": 10737, "unic": 10738, "04": 10739, "gesp": 10740, "eschermen": 10741, "tific": 10742, "anpass": 10743, "rdigheid": 10744, "cipe": 10745, "beschermen": 10746, "aanpass": 10747, "nop": 10748, "gedr": 10749, "ardigh": 10750, "ardighe": 10751, "react": 10752, "aardigh": 10753, "aardighe": 10754, "niete": 10755, "98": 10756, "onden": 10757, "amste": 10758, "stabil": 10759, "stabili": 10760, "pleidi": 10761, "pleidin": 10762, "pleiding": 10763, "tional": 10764, "nweg": 10765, "andr": 10766, "nigen": 10767, "undi": 10768, "nwic": 10769, "enwic": 10770, "nwich": 10771, "enwich": 10772, "resid": 10773, "dschap": 10774, "verme": 10775, "mpo": 10776, "behou": 10777, "arts": 10778, "ndan": 10779, "oveel": 10780, "fice": 10781, "epali": 10782, "bepali": 10783, "epalin": 10784, "bepalin": 10785, "epaling": 10786, "bepaling": 10787, "kanti": 10788, "comple": 10789, "enteren": 10790, "llect": 10791, "wissel": 10792, "sag": 10793, "qua": 10794, "nmerk": 10795, "finitie": 10796, "efinitie": 10797, "definitie": 10798, "nwicht": 10799, "enwicht": 10800, "moni": 10801, "vordere": 10802, "vorderen": 10803, "nacht": 10804, "gede": 10805, "eldin": 10806, "ionere": 10807, "ioneren": 10808, "zovee": 10809, "zoveel": 10810, "amente": 10811, "zaken": 10812, "tgaa": 10813, "iezi": 10814, "tude": 10815, "cke": 10816, "eoor": 10817, "reig": 10818, "erdag": 10819, "aloo": 10820, "jnl": 10821, "beri": 10822, "prot": 10823, "dstr": 10824, "behoud": 10825, "rdaad": 10826, "hetz": 10827, "egl": 10828, "/200": 10829, "stic": 10830, "dha": 10831, "nieten": 10832, "tzel": 10833, "tuti": 10834, "boeke": 10835, "istrat": 10836, "geniet": 10837, "eniete": 10838, "ijnl": 10839, "park": 10840, "opleidi": 10841, "opleidin": 10842, "opleiding": 10843, "geniete": 10844, "ituti": 10845, "sgr": 10846, "ardighei": 10847, "ardigheid": 10848, "tituti": 10849, "stituti": 10850, "entiee": 10851, "ugd": 10852, "ecie": 10853, "aardighei": 10854, "aardigheid": 10855, "wap": 10856, "damente": 10857, "ndamente": 10858, "undamente": 10859, "fundamente": 10860, "venwi": 10861, "herz": 10862, "sha": 10863, "amentee": 10864, "amenteel": 10865, "ptr": 10866, "jij": 10867, "damentee": 10868, "ndamentee": 10869, "damenteel": 10870, "undamentee": 10871, "ndamenteel": 10872, "fundamentee": 10873, "undamenteel": 10874, "fundamenteel": 10875, "risis": 10876, "crisis": 10877, "fvaardigd": 10878, "afvaardigd": 10879, "fvaardigde": 10880, "afvaardigde": 10881, "fvaardigden": 10882, "afvaardigden": 10883, "teni": 10884, "22": 10885, "tafel": 10886, "cies": 10887, "dal": 10888, "nij": 10889, "ldoend": 10890, "oldoend": 10891, "voldoend": 10892, "keuri": 10893, "cod": 10894, "onbe": 10895, "mbu": 10896, "evenwi": 10897, "nar": 10898, "lso": 10899, "anle": 10900, "rdelin": 10901, "rdeling": 10902, "rmoed": 10903, "vrijw": 10904, "jb": 10905, "nlei": 10906, "grip": 10907, "tstr": 10908, "rpa": 10909, "nage": 10910, "afz": 10911, "enieten": 10912, "dwerk": 10913, "pagi": 10914, "hy": 10915, "oene": 10916, "graf": 10917, "nleid": 10918, "genieten": 10919, "uitl": 10920, "kwij": 10921, "erov": 10922, "llan": 10923, "pagin": 10924, "erdo": 10925, "mpr": 10926, "elding": 10927, "endin": 10928, "tob": 10929, "immi": 10930, "aals": 10931, "opg": 10932, "pagina": 10933, "erikaa": 10934, "dekk": 10935, "aien": 10936, "**<vnw><onbep><adv-pron><obl><vol><3o><getal>**": 10937, "aki": 10938, "cem": 10939, "akan": 10940, "merikaa": 10941, "erikaan": 10942, "amerikaa": 10943, "overle": 10944, "spu": 10945, "venwic": 10946, "evenwic": 10947, "venwich": 10948, "evenwich": 10949, "venwicht": 10950, "evenwicht": 10951, "merikaan": 10952, "amerikaan": 10953, "aaien": 10954, "lhe": 10955, "e\u00ebre": 10956, "e\u00ebren": 10957, "ance": 10958, "cre\u00eb": 10959, "erkr": 10960, "nbr": 10961, "icie": 10962, "aloog": 10963, "lef": 10964, "lsel": 10965, "rdien": 10966, "re\u00ebr": 10967, "ouwb": 10968, "ecies": 10969, "bsol": 10970, "cre\u00ebr": 10971, "enlev": 10972, "rman": 10973, "prich": 10974, "tgee": 10975, "rade": 10976, "recie": 10977, "mings": 10978, "tric": 10979, "stude": 10980, "optr": 10981, "pricht": 10982, "dede": 10983, "oewe": 10984, "iering": 10985, "precie": 10986, "recies": 10987, "precies": 10988, "aanle": 10989, "rdiger": 10990, "engel": 10991, "ogin": 10992, "asie": 10993, "tuin": 10994, "re\u00ebre": 10995, "cre\u00ebre": 10996, "re\u00ebren": 10997, "cre\u00ebren": 10998, "onne": 10999, "entieel": 11000, "rsterke": 11001, "ersterke": 11002, "gp": 11003, "mpi": 11004, "sdi": 11005, "versterke": 11006, "verweg": 11007, "rsone": 11008, "ersone": 11009, "persone": 11010, "flic": 11011, "shi": 11012, "ologis": 11013, "erove": 11014, "nera": 11015, "absol": 11016, "bsolu": 11017, "meter": 11018, "iezin": 11019, "iezing": 11020, "tzelf": 11021, "absolu": 11022, ".000": 11023, "prac": 11024, "tzelfd": 11025, "tzelfde": 11026, "gou": 11027, "istrati": 11028, "'n": 11029, "verstr": 11030, "azi": 11031, "erven": 11032, "eacti": 11033, "nvulle": 11034, "afspr": 11035, "rmoede": 11036, "erikaans": 11037, "relati": 11038, "merikaans": 11039, "amerikaans": 11040, "jnli": 11041, "ijnli": 11042, "akant": 11043, "abilit": 11044, "ptre": 11045, "ici\u00eb": 11046, "onfl": 11047, "etter": 11048, "vaka": 11049, "jnlij": 11050, "ijnlij": 11051, "fiet": 11052, "ologisc": 11053, "ologisch": 11054, "ernie": 11055, "overwe": 11056, "omge": 11057, "jnlijk": 11058, "ijnlijk": 11059, "can": 11060, "euke": 11061, "vakan": 11062, "vakant": 11063, "ersche": 11064, "ementa": 11065, "akanti": 11066, "kantie": 11067, "vakanti": 11068, "nctione": 11069, "ordiger": 11070, "oordiger": 11071, "woordiger": 11072, "nwoordiger": 11073, "enwoordiger": 11074, "genwoordiger": 11075, "egenwoordiger": 11076, "tegenwoordiger": 11077, "rtegenwoordiger": 11078, "ertegenwoordiger": 11079, "vertegenwoordiger": 11080, "iepr": 11081, "akantie": 11082, "vakantie": 11083, "stels": 11084, "rbl": 11085, "lc": 11086, "team": 11087, "edd": 11088, "**<vnw><onbep><grad><stan><prenom><met-e><agr><sup>**": 11089, "nvullen": 11090, "dreig": 11091, "isie": 11092, "kzaamh": 11093, "kzaamhe": 11094, "bsoluu": 11095, "absoluu": 11096, "bsoluut": 11097, "absoluut": 11098, "tou": 11099, "**<vnw><pers><pron><nomin><vol><2v><ev>**": 11100, "eschou": 11101, "eschouw": 11102, "nfli": 11103, "aat-": 11104, "mster": 11105, "nbev": 11106, "profi": 11107, "erzien": 11108, "tegeli": 11109, "optre": 11110, "cou": 11111, "confl": 11112, "onfli": 11113, "nflic": 11114, "flict": 11115, "confli": 11116, "onflic": 11117, "nflict": 11118, "conflic": 11119, "onflict": 11120, "conflict": 11121, "tegelij": 11122, "tegelijk": 11123, "gsbe": 11124, "stop": 11125, "istratie": 11126, "60": 11127, "ijb": 11128, "afb": 11129, "plichtin": 11130, "plichting": 11131, "strekk": 11132, "ah": 11133, "telse": 11134, "ovi": 11135, "gionaa": 11136, "egionaa": 11137, "regionaa": 11138, "terken": 11139, "nstemmi": 11140, "nvlo": 11141, "gionaal": 11142, "egionaal": 11143, "regionaal": 11144, "luiti": 11145, "sterken": 11146, "nvloe": 11147, "immig": 11148, "siden": 11149, "haf": 11150, "ialo": 11151, "giste": 11152, "ntoo": 11153, "luitin": 11154, "luiting": 11155, "igrat": 11156, "cas": 11157, "listi": 11158, "erget": 11159, "-pr": 11160, "migrat": 11161, "plek": 11162, "ntai": 11163, "lementa": 11164, "vermin": 11165, "igrati": 11166, "lige": 11167, "mgevi": 11168, "mgevin": 11169, "nuu": 11170, "gezin": 11171, "wape": 11172, "wapen": 11173, "migrati": 11174, "oetr": 11175, "echtv": 11176, "unctione": 11177, "functione": 11178, "mgeving": 11179, "asere": 11180, "gw": 11181, "elsel": 11182, "dkeure": 11183, "edkeure": 11184, "dkeuren": 11185, "oedkeure": 11186, "edkeuren": 11187, "goedkeure": 11188, "oedkeuren": 11189, "goedkeuren": 11190, "upe": 11191, "adw": 11192, "idsm": 11193, "lijker": 11194, "toffer": 11195, "voorn": 11196, "etgee": 11197, "tgeen": 11198, "etgeen": 11199, "zamen": 11200, "aseren": 11201, "hetg": 11202, "hetge": 11203, "hetgee": 11204, "hetgeen": 11205, "edede": 11206, "medede": 11207, "them": 11208, "igratie": 11209, "migratie": 11210, "dedel": 11211, "orp": 11212, "isr": 11213, "htvaard": 11214, "chtvaard": 11215, "vlieg": 11216, "fiets": 11217, "htvaardi": 11218, "chtvaardi": 11219, "htvaardig": 11220, "chtvaardig": 11221, "kiezi": 11222, "rkiezi": 11223, "kiezin": 11224, "erkiezi": 11225, "rkiezin": 11226, "kiezing": 11227, "verkiezi": 11228, "erkiezin": 11229, "rkiezing": 11230, "verkiezin": 11231, "erkiezing": 11232, "verkiezing": 11233, "inga": 11234, "**<tw><hoofd><nom><zonder-n><basis>**": 11235, "eves": 11236, "echtva": 11237, "rplichti": 11238, "erplichti": 11239, "ecter": 11240, "tj": 11241, "ededel": 11242, "mededel": 11243, "stelse": 11244, "shop": 11245, "telsel": 11246, "rechtv": 11247, "fwe": 11248, "06": 11249, "inderda": 11250, "stelsel": 11251, "gister": 11252, "alte": 11253, "eurt": 11254, "oetre": 11255, "sluiti": 11256, "sluitin": 11257, "sluiting": 11258, "plichte": 11259, "lai": 11260, "rtic": 11261, "fisc": 11262, "spaa": 11263, "echtvaa": 11264, "echtvaar": 11265, "echtvaard": 11266, "ialoo": 11267, "ialoog": 11268, "uize": 11269, "bea": 11270, "stv": 11271, "sterd": 11272, "rechtva": 11273, "rechtvaa": 11274, "rechtvaar": 11275, "rechtvaard": 11276, "echtvaardi": 11277, "echtvaardig": 11278, "rplichtin": 11279, "verplichti": 11280, "erplichtin": 11281, "rplichting": 11282, "verplichtin": 11283, "erplichting": 11284, "verplichting": 11285, "ectere": 11286, "ndag": 11287, "rechtvaardi": 11288, "rechtvaardig": 11289, "ecteren": 11290, "rvolgens": 11291, "ervolgens": 11292, "vervolgens": 11293, "elijker": 11294, "eside": 11295, "eps": 11296, "erdien": 11297, "derzi": 11298, "munic": 11299, "erheids": 11300, "nvr": 11301, "heide": 11302, "mmigr": 11303, "immigr": 11304, "achto": 11305, "frans": 11306, "]": 11307, "sident": 11308, "**<vnw><bez><det><gen><vol><1><ev><prenom><zonder><evmo>**": 11309, "okt": 11310, "gav": 11311, "rhaal": 11312, "dage": 11313, "ruitg": 11314, "oeker": 11315, "toetr": 11316, "toetre": 11317, "hit": 11318, "erend": 11319, "erhaal": 11320, "rekene": 11321, "non": 11322, "inee": 11323, "effic": 11324, "oezi": 11325, "nvloed": 11326, "effici": 11327, "erdaad": 11328, "**<vnw><aanw><det><stan><nom><met-e><mv-n>**": 11329, "anspa": 11330, "ezoeke": 11331, "kelijkh": 11332, "rekenen": 11333, "bezoeke": 11334, "[": 11335, "kelijkhe": 11336, "kelijkhei": 11337, "kelijkheid": 11338, "mmunic": 11339, "aga": 11340, "essen": 11341, "orsc": 11342, "ommunic": 11343, "communic": 11344, "nstemmin": 11345, "nstemming": 11346, "lachto": 11347, "erlin": 11348, "rric": 11349, "senti": 11350, "dewer": 11351, "kern": 11352, "utio": 11353, "oging": 11354, "dialo": 11355, "ution": 11356, "rkzaamh": 11357, "erkzaamh": 11358, "rkzaamhe": 11359, "erkzaamhe": 11360, "mva": 11361, "likk": 11362, "mmigra": 11363, "immigra": 11364, "inten": 11365, "ortu": 11366, "ella": 11367, "esten": 11368, "kije": 11369, "likke": 11370, "ondan": 11371, "chaf": 11372, "oetred": 11373, "\u00ebl": 11374, "orsch": 11375, "degene": 11376, "rinn": 11377, "rieu": 11378, "amil": 11379, "|": 11380, "urig": 11381, "schaf": 11382, "klas": 11383, "elte": 11384, "toetred": 11385, "ndank": 11386, "ondank": 11387, "mpel": 11388, "zo'": 11389, "o'n": 11390, "zo'n": 11391, "akte": 11392, "reside": 11393, "htof": 11394, "chtof": 11395, "htoff": 11396, "achtof": 11397, "chtoff": 11398, "slachto": 11399, "achtoff": 11400, "juni": 11401, "htoffe": 11402, "lachtof": 11403, "chtoffe": 11404, "htoffer": 11405, "slachtof": 11406, "lachtoff": 11407, "achtoffe": 11408, "chtoffer": 11409, "slachtoff": 11410, "lachtoffe": 11411, "achtoffer": 11412, "slachtoffe": 11413, "lachtoffer": 11414, "slachtoffer": 11415, "wijn": 11416, "hani": 11417, "bescho": 11418, "**<vnw><aanw><det><stan><prenom><zonder><agr>**": 11419, "esiden": 11420, "residen": 11421, "werkzaamh": 11422, "werkzaamhe": 11423, "**<adj><postnom><basis><met-s>**": 11424, "a.": 11425, "comi": 11426, "axi": 11427, "vore": 11428, "rter": 11429, "arch": 11430, "edew": 11431, "roeg": 11432, "svoo": 11433, "weed": 11434, "ruitga": 11435, "svoor": 11436, "rgete": 11437, "voren": 11438, "ndersc": 11439, "rj": 11440, "rvic": 11441, "afd": 11442, "dwij": 11443, "gedra": 11444, "rvice": 11445, "eerb": 11446, "tlegg": 11447, "bem": 11448, "ose": 11449, "ervic": 11450, "servic": 11451, "dko": 11452, "ici\u00ebn": 11453, "ndersch": 11454, "edewe": 11455, "ervice": 11456, "service": 11457, "enov": 11458, "kzaamhei": 11459, "kzaamheid": 11460, "rzic": 11461, "rzich": 11462, "danks": 11463, "dialoo": 11464, "dialoog": 11465, "presi": 11466, "rling": 11467, "affe": 11468, "tzo": 11469, "rzicht": 11470, "inkom": 11471, "ndanks": 11472, "ondanks": 11473, "ergete": 11474, "presid": 11475, "epasse": 11476, "rbre": 11477, "medew": 11478, "put": 11479, "urend": 11480, "eoord": 11481, "linge": 11482, "ettin": 11483, "ichtig": 11484, "medewe": 11485, "ezam": 11486, "ezame": 11487, "80": 11488, "hec": 11489, "ntel": 11490, "agn": 11491, "stb": 11492, "erza": 11493, "oepasse": 11494, "toepasse": 11495, "beschou": 11496, "beschouw": 11497, "dsbe": 11498, "mob": 11499, "ergo": 11500, "zenl": 11501, "orism": 11502, "erover": 11503, "nspar": 11504, "nologie": 11505, "ung": 11506, "ym": 11507, "houwe": 11508, "orisme": 11509, "elatie": 11510, "eoorde": 11511, "bit": 11512, "oco": 11513, "elko": 11514, "esident": 11515, "resident": 11516, "verdien": 11517, "rorism": 11518, "rrorism": 11519, "errorism": 11520, "terrorism": 11521, "rsterken": 11522, "ersterken": 11523, "versterken": 11524, "verwijz": 11525, "omva": 11526, "relatie": 11527, "rtuige": 11528, "rtuigen": 11529, "paran": 11530, "rorisme": 11531, "rrorisme": 11532, "errorisme": 11533, "terrorisme": 11534, "lijd": 11535, "lees": 11536, "ewor": 11537, "tam": 11538, "itgaa": 11539, "uitgaa": 11540, "beweg": 11541, "ezenl": 11542, "boeken": 11543, "derdaad": 11544, "nderdaad": 11545, "wezenl": 11546, "ventu": 11547, "abilite": 11548, "ieken": 11549, "tite": 11550, "moder": 11551, "baser": 11552, "basere": 11553, "baseren": 11554, "inderdaa": 11555, "inderdaad": 11556, "ifice": 11557, "etb": 11558, "cij": 11559, "emakk": 11560, "etting": 11561, "emakke": 11562, "zenli": 11563, "gelen": 11564, "ecent": 11565, "prach": 11566, "omit": 11567, "nover": 11568, "ezenli": 11569, "zenlij": 11570, "rinne": 11571, "orderi": 11572, "orderin": 11573, "ordering": 11574, "wezenli": 11575, "ezenlij": 11576, "zenlijk": 11577, "wezenlij": 11578, "ezenlijk": 11579, "wezenlijk": 11580, "amster": 11581, "dsma": 11582, "abilitei": 11583, "abiliteit": 11584, "esla": 11585, "plichten": 11586, "nmo": 11587, "tbreide": 11588, "itbreide": 11589, "uitbreide": 11590, "nfr": 11591, "herst": 11592, "naan": 11593, "tbreiden": 11594, "itbreiden": 11595, "uitbreiden": 11596, "gemakk": 11597, "spara": 11598, "reacti": 11599, "gemakke": 11600, "pracht": 11601, "ilita": 11602, "dewerk": 11603, "justi": 11604, "eting": 11605, "allere": 11606, "emakkel": 11607, "gemakkel": 11608, "emakkeli": 11609, "gemakkeli": 11610, "emakkelij": 11611, "gemakkelij": 11612, "emakkelijk": 11613, "gemakkelijk": 11614, "gsr": 11615, "enhan": 11616, "hoew": 11617, "ierm": 11618, "sni": 11619, "anger": 11620, "vorderi": 11621, "vorderin": 11622, "vordering": 11623, "sbr": 11624, "rlenen": 11625, "erlenen": 11626, "verlenen": 11627, "oewel": 11628, "*": 11629, "tsluite": 11630, "tsluiten": 11631, "vatie": 11632, "beoo": 11633, "hoewe": 11634, "hoewel": 11635, "likken": 11636, "durend": 11637, "listis": 11638, "feli": 11639, "kig": 11640, "nven": 11641, "nleidi": 11642, "nleidin": 11643, "nleiding": 11644, "leni": 11645, "dood": 11646, "vem": 11647, "ezamen": 11648, "beoor": 11649, "beoord": 11650, "beoorde": 11651, "listisc": 11652, "listisch": 11653, "opri": 11654, "lap": 11655, "ncipe": 11656, "eoordel": 11657, "erinn": 11658, "erinne": 11659, "herzi": 11660, "herzie": 11661, "herzien": 11662, "ilo": 11663, "siel": 11664, "rinner": 11665, "fici\u00eb": 11666, "ci\u00ebnt": 11667, "instant": 11668, "egrip": 11669, "begrip": 11670, "rain": 11671, "thema": 11672, "verget": 11673, "vergete": 11674, "terl": 11675, "beurt": 11676, "onse": 11677, "werker": 11678, "ick": 11679, "erinner": 11680, "imul": 11681, "erschrij": 11682, "derzij": 11683, "overweg": 11684, "herinn": 11685, "herinne": 11686, "herinner": 11687, "fam": 11688, "espreke": 11689, "beoordel": 11690, "hake": 11691, "ertuige": 11692, "ertuigen": 11693, "derzijd": 11694, "tf": 11695, "sioe": 11696, "sioen": 11697, "stim": 11698, "fica": 11699, "comit": 11700, "regis": 11701, "alk": 11702, "leids": 11703, "ranspa": 11704, "transpa": 11705, "here": 11706, "espreken": 11707, "ffici\u00eb": 11708, "fici\u00ebn": 11709, "ici\u00ebnt": 11710, "fici\u00ebnt": 11711, "ierbi": 11712, "hierbi": 11713, "ondersc": 11714, "ondersch": 11715, "eactie": 11716, "wijt": 11717, "vroe": 11718, "erric": 11719, "hanis": 11720, "opo": 11721, "eratie": 11722, "rhog": 11723, "erhog": 11724, "verhog": 11725, "zoeker": 11726, "deo": 11727, "hnologie": 11728, "chnologie": 11729, "echnologie": 11730, "technologie": 11731, "gste": 11732, "smaa": 11733, "lys": 11734, "t\u00e9": 11735, "ffici\u00ebn": 11736, "ffici\u00ebnt": 11737, "anspar": 11738, "ierbij": 11739, "hierbij": 11740, "gewor": 11741, "frank": 11742, "nstanti": 11743, "tkom": 11744, "uzi": 11745, "incipe": 11746, "rincipe": 11747, "principe": 11748, "erieu": 11749, "mobi": 11750, "rkzaamhei": 11751, "erkzaamhei": 11752, "rkzaamheid": 11753, "erkzaamheid": 11754, "ranspar": 11755, "transpar": 11756, "uf": 11757, "coh": 11758, "lhei": 11759, "parant": 11760, "soe": 11761, "nspara": 11762, "anspara": 11763, "ranspara": 11764, "transpara": 11765, "ssent": 11766, "afri": 11767, "stori": 11768, "ondig": 11769, "samenl": 11770, "eep": 11771, "rrich": 11772, "sparan": 11773, "nsparan": 11774, "sparant": 11775, "ansparan": 11776, "nsparant": 11777, "ransparan": 11778, "ansparant": 11779, "transparan": 11780, "ransparant": 11781, "transparant": 11782, "noch": 11783, "ifica": 11784, "rricht": 11785, "abon": 11786, "nch": 11787, "oorsc": 11788, "uizen": 11789, "ngsm": 11790, "lheid": 11791, "oorsch": 11792, "rplichte": 11793, "erplichte": 11794, "verplichte": 11795, "errich": 11796, "erricht": 11797, "edewer": 11798, "medewer": 11799, "sterda": 11800, "itr": 11801, "oph": 11802, "nsioe": 11803, "ensioe": 11804, "nsioen": 11805, "pensioe": 11806, "ensioen": 11807, "pensioen": 11808, "edewerk": 11809, "medewerk": 11810, "lijde": 11811, "pron": 11812, "enstell": 11813, "oncl": 11814, "undig": 11815, "werkzaamhei": 11816, "werkzaamheid": 11817, "eenst": 11818, "milit": 11819, "omgev": 11820, "trai": 11821, "elhe": 11822, "onclu": 11823, "fk": 11824, "ruitgan": 11825, "ruitgang": 11826, "biedi": 11827, "reactie": 11828, "erbl": 11829, "epl": 11830, "tena": 11831, "dwerke": 11832, "oun": 11833, "etze": 11834, "ptred": 11835, "ptrede": 11836, "-lan": 11837, "msterd": 11838, "amsterd": 11839, "msterda": 11840, "amsterda": 11841, "itsluite": 11842, "uitsluite": 11843, "itsluiten": 11844, "uitsluiten": 11845, "naly": 11846, "optred": 11847, "optrede": 11848, "uve": 11849, "eword": 11850, "sterdam": 11851, "msterdam": 11852, "amsterdam": 11853, "analy": 11854, "concl": 11855, "conclu": 11856, "ptreden": 11857, "optreden": 11858, "perat": 11859, "rsie": 11860, "vroeg": 11861, "enma": 11862, "geword": 11863, "eworde": 11864, "geworde": 11865, "eworden": 11866, "geworden": 11867, "amme": 11868, "dda": 11869, "ngere": 11870, "estij": 11871, "nism": 11872, "effici\u00eb": 11873, "effici\u00ebn": 11874, "effici\u00ebnt": 11875, "derzijds": 11876, "uchtv": 11877, "rmule": 11878, "ormule": 11879, "formule": 11880, "lke": 11881, "gest": 11882, "mag": 11883, "minu": 11884, "arite": 11885, "stle": 11886, "wonen": 11887, "rdb": 11888, "erfe": 11889, "sek": 11890, "ovem": 11891, "uken": 11892, "erikaanse": 11893, "prachti": 11894, "prachtig": 11895, "-k": 11896, "merikaanse": 11897, "amerikaanse": 11898, "ssenti": 11899, "olere": 11900, "stiti": 11901, "menle": 11902, "preside": 11903, "presiden": 11904, "president": 11905, "ntue": 11906, "ntat": 11907, "nlang": 11908, "elef": 11909, "entue": 11910, "broe": 11911, "ezor": 11912, "ezorg": 11913, "toezi": 11914, "dina": 11915, "forme": 11916, "rplichten": 11917, "erplichten": 11918, "verplichten": 11919, "erver": 11920, "rmel": 11921, "vertuige": 11922, "overtuige": 11923, "vertuigen": 11924, "overtuigen": 11925, "ofe": 11926, "loka": 11927, "amenle": 11928, "menlev": 11929, "samenle": 11930, "amenlev": 11931, "samenlev": 11932, "ntin": 11933, "luchtv": 11934, "ista": 11935, "chouwe": 11936, "schouwe": 11937, "ndst": 11938, "corr": 11939, "lijden": 11940, "aron": 11941, "instanti": 11942, "nstantie": 11943, "instantie": 11944, "aps": 11945, "ustit": 11946, "justit": 11947, "ustiti": 11948, "justiti": 11949, "mine": 11950, "aadw": 11951, "nslu": 11952, "018": 11953, "arbo": 11954, "verin": 11955, "timu": 11956, "jder": 11957, "adre": 11958, "nent": 11959, "23": 11960, "ijder": 11961, "heiden": 11962, "lefo": 11963, "etzel": 11964, "telef": 11965, "rmind": 11966, "ermind": 11967, "etali": 11968, "euken": 11969, "visie": 11970, "ndigen": 11971, "isto": 11972, "rminde": 11973, "erminde": 11974, "afi": 11975, "vering": 11976, "milita": 11977, "lenin": 11978, "vermind": 11979, "stitie": 11980, "uchte": 11981, "rminder": 11982, "verminde": 11983, "erminder": 11984, "verminder": 11985, "stimu": 11986, "timul": 11987, "stimul": 11988, "weder": 11989, "ustitie": 11990, "justitie": 11991, "tum": 11992, "elefo": 11993, "edelin": 11994, "edeling": 11995, "derhal": 11996, "eaa": 11997, "telefo": 11998, "veli": 11999, "kundi": 12000, "kundig": 12001, "nvent": 12002, "roeie": 12003, "aritei": 12004, "ariteit": 12005, "t-l": 12006, "ierme": 12007, "ham": 12008, "ova": 12009, "ttig": 12010, "derzoeke": 12011, "nderzoeke": 12012, "onderzoeke": 12013, "oevo": 12014, "ngsr": 12015, "leggi": 12016, "eurs": 12017, "dver": 12018, "bezor": 12019, "bezorg": 12020, "jeenk": 12021, "nslui": 12022, "twoorden": 12023, "leggin": 12024, "vemb": 12025, "novem": 12026, "ovemb": 12027, "novemb": 12028, "hetze": 12029, "ebrek": 12030, "geze": 12031, "legging": 12032, "amili": 12033, "gebrek": 12034, "iervo": 12035, "hangen": 12036, "ntwoorden": 12037, "mf": 12038, "jeenko": 12039, "jeenkom": 12040, "erling": 12041, "citei": 12042, "citeit": 12043, "verri": 12044, "urin": 12045, "antwoorden": 12046, "frik": 12047, "frika": 12048, "ijeenk": 12049, "bijeenk": 12050, "ijeenko": 12051, "bijeenko": 12052, "ijeenkom": 12053, "bijeenkom": 12054, "elhei": 12055, "oesta": 12056, "-land": 12057, "houder": 12058, "eiten": 12059, "pk": 12060, "liteits": 12061, "ficer": 12062, "ardb": 12063, "aks": 12064, "woni": 12065, "vembe": 12066, "ovembe": 12067, "vember": 12068, "novembe": 12069, "ovember": 12070, "november": 12071, "bevi": 12072, "adwe": 12073, "okaa": 12074, "apr": 12075, "elheid": 12076, "lbe": 12077, "jdig": 12078, "ijdig": 12079, "oevoe": 12080, "zom": 12081, "afrik": 12082, "afrika": 12083, "cemb": 12084, "wonin": 12085, "anbev": 12086, "toesta": 12087, "hetzel": 12088, "loof": 12089, "valu": 12090, "gedrag": 12091, "ekte": 12092, "woning": 12093, "estere": 12094, "oevee": 12095, "hoevee": 12096, "oeveel": 12097, "hoeveel": 12098, "toevo": 12099, "toevoe": 12100, "tla": 12101, "ecem": 12102, "decem": 12103, "ecemb": 12104, "decemb": 12105, "vide": 12106, "etzelf": 12107, "hetzelf": 12108, "aadwe": 12109, "riva": 12110, "enve": 12111, "etzelfd": 12112, "hetzelfd": 12113, "etzelfde": 12114, "hetzelfde": 12115, "teden": 12116, "steden": 12117, "aardb": 12118, "ingsm": 12119, "aanbev": 12120, "adwer": 12121, "aadwer": 12122, "adwerk": 12123, "aadwerk": 12124, "slage": 12125, "iermee": 12126, "cal": 12127, "daadw": 12128, "daadwe": 12129, "daadwer": 12130, "daadwerk": 12131, "eldig": 12132, "adwerke": 12133, "dwerkel": 12134, "aadwerke": 12135, "adwerkel": 12136, "dwerkeli": 12137, "daadwerke": 12138, "aadwerkel": 12139, "adwerkeli": 12140, "dwerkelij": 12141, "daadwerkel": 12142, "aadwerkeli": 12143, "adwerkelij": 12144, "daadwerkeli": 12145, "aadwerkelij": 12146, "daadwerkelij": 12147, "ltr": 12148, "tzet": 12149, "roeien": 12150, "wijde": 12151, "belo": 12152, "sbes": 12153, "dwerkelijk": 12154, "adwerkelijk": 12155, "aadwerkelijk": 12156, "daadwerkelijk": 12157, "dmi": 12158, ">": 12159, "ntuee": 12160, "entuee": 12161, "ntueel": 12162, "entueel": 12163, "ssag": 12164, "htba": 12165, "betali": 12166, "etalin": 12167, "betalin": 12168, "etaling": 12169, "betaling": 12170, "odern": 12171, "modern": 12172, "tieb": 12173, "**<vnw><betr><det><stan><nom><zonder><zonder-n>**": 12174, "wint": 12175, "rno": 12176, "sab": 12177, "ml": 12178, "empe": 12179, "pecti": 12180, "isl": 12181, "cembe": 12182, "ecembe": 12183, "cember": 12184, "decembe": 12185, "ecember": 12186, "december": 12187, "chtba": 12188, "omgevi": 12189, "omgevin": 12190, "adres": 12191, "lja": 12192, "nsluit": 12193, "litai": 12194, "andh": 12195, "specti": 12196, "reur": 12197, "litair": 12198, "oruitg": 12199, "omgeving": 12200, "sove": 12201, "itzo": 12202, "hine": 12203, "ificer": 12204, "brit": 12205, "eventu": 12206, "vree": 12207, "kket": 12208, "ooruitg": 12209, "vooruitg": 12210, "alisti": 12211, "rlop": 12212, "erpa": 12213, "enigi": 12214, "enigin": 12215, "eniging": 12216, "rood": 12217, "heen": 12218, "tlegge": 12219, "thoud": 12220, "emie": 12221, "bespreke": 12222, "bespreken": 12223, "elect": 12224, "verbr": 12225, "smo": 12226, "omat": 12227, "tleggen": 12228, "verlo": 12229, "onisc": 12230, "onisch": 12231, "hied": 12232, "overn": 12233, "enige": 12234, "fami": 12235, "klik": 12236, "enera": 12237, "ventue": 12238, "eventue": 12239, "dera": 12240, "uitzo": 12241, "ales": 12242, "genera": 12243, "nstitut": 12244, "akket": 12245, "chied": 12246, "schied": 12247, "inw": 12248, "nlevi": 12249, "nlevin": 12250, "nleving": 12251, "nna": 12252, "ventuee": 12253, "eventuee": 12254, "ventueel": 12255, "eventueel": 12256, "eschie": 12257, "typ": 12258, "rtin": 12259, "soli": 12260, "pectie": 12261, "st-": 12262, "pakket": 12263, "sterin": 12264, "maart": 12265, "voorsc": 12266, "voorsch": 12267, "esteri": 12268, "spectie": 12269, "iepro": 12270, "egem": 12271, "famil": 12272, "evre": 12273, "oie": 12274, "nbeve": 12275, "klaar": 12276, "onke": 12277, "rlegge": 12278, "raken": 12279, "oruitga": 12280, "eleids": 12281, "ooruitga": 12282, "vooruitga": 12283, "kat": 12284, "sover": 12285, "tzett": 12286, "geten": 12287, "overg": 12288, "grie": 12289, "evest": 12290, "tsj": 12291, "muz": 12292, "08": 12293, "anbeve": 12294, "enaam": 12295, "oth": 12296, "spla": 12297, "epassen": 12298, "oepassen": 12299, "toepassen": 12300, "ronds": 12301, "evordere": 12302, "evorderen": 12303, "reer": 12304, "hijnl": 12305, "chijnl": 12306, "hijnli": 12307, "schijnl": 12308, "chijnli": 12309, "hijnlij": 12310, "schijnli": 12311, "chijnlij": 12312, "hijnlijk": 12313, "schijnlij": 12314, "chijnlijk": 12315, "schijnlijk": 12316, "seks": 12317, "beric": 12318, "beleids": 12319, "stering": 12320, "tmo": 12321, "bevordere": 12322, "bevorderen": 12323, "uiden": 12324, "artic": 12325, "cheide": 12326, "scheide": 12327, "urki": 12328, "jurk": 12329, "zog": 12330, "berich": 12331, "bericht": 12332, "aara": 12333, "acto": 12334, "swe": 12335, "05": 12336, "well": 12337, "aanbeve": 12338, "ndre": 12339, "rgeten": 12340, "ous": 12341, "rsteune": 12342, "ersteune": 12343, "dersteune": 12344, "ndersteune": 12345, "ondersteune": 12346, "okaal": 12347, "bad": 12348, "nbevel": 12349, "anbevel": 12350, "aanbevel": 12351, "**<adj><nom><comp><met-e><mv-n>**": 12352, "affen": 12353, "eveli": 12354, "evesti": 12355, "evestig": 12356, "inim": 12357, "stall": 12358, "enlevi": 12359, "menlevi": 12360, "enlevin": 12361, "amenlevi": 12362, "menlevin": 12363, "enleving": 12364, "samenlevi": 12365, "amenlevin": 12366, "menleving": 12367, "samenlevin": 12368, "amenleving": 12369, "samenleving": 12370, "dar": 12371, "minim": 12372, "nker": 12373, "ender": 12374, "houwen": 12375, "ergeten": 12376, "vergeten": 12377, "haff": 12378, "garant": 12379, "remi": 12380, "rleggen": 12381, "egle": 12382, "isra": 12383, "hote": 12384, "epp": 12385, "esteren": 12386, "assag": 12387, "ertel": 12388, "pet": 12389, "sfe": 12390, "bewer": 12391, "lokaa": 12392, "gezam": 12393, "gezame": 12394, "rvang": 12395, "chaff": 12396, "sproces": 12397, "sus": 12398, "kkig": 12399, "asso": 12400, "zigen": 12401, "tegra": 12402, "cieri": 12403, "ncieri": 12404, "cierin": 12405, "ancieri": 12406, "ncierin": 12407, "ciering": 12408, "nancieri": 12409, "ancierin": 12410, "nciering": 12411, "inancieri": 12412, "nancierin": 12413, "anciering": 12414, "financieri": 12415, "inancierin": 12416, "nanciering": 12417, "financierin": 12418, "inanciering": 12419, "financiering": 12420, "schaff": 12421, "lokaal": 12422, "boer": 12423, "edelij": 12424, "ervang": 12425, "rbli": 12426, "eschouwe": 12427, "reem": 12428, "geschie": 12429, "kinde": 12430, "dsp": 12431, "gronds": 12432, "wand": 12433, "oevoeg": 12434, "toevoeg": 12435, "tudi": 12436, "cheiden": 12437, "scheiden": 12438, "eschied": 12439, "geschied": 12440, "tegens": 12441, "opric": 12442, "oprich": 12443, "opricht": 12444, "rgu": 12445, "esk": 12446, "mper": 12447, "egist": 12448, "famili": 12449, "partic": 12450, "ntegra": 12451, "promi": 12452, "rsteunen": 12453, "ersteunen": 12454, "dersteunen": 12455, "ndersteunen": 12456, "ondersteunen": 12457, "studi": 12458, "oruitgan": 12459, "ooruitgan": 12460, "oruitgang": 12461, "vooruitgan": 12462, "ooruitgang": 12463, "vooruitgang": 12464, "regist": 12465, "kinder": 12466, "chine": 12467, "gespr": 12468, "zwar": 12469, "erlegg": 12470, "held": 12471, "nstal": 12472, "time": 12473, "menli": 12474, "mpro": 12475, "orre": 12476, "menlij": 12477, "indr": 12478, "genst": 12479, "fact": 12480, "nsla": 12481, "ndert": 12482, "beves": 12483, "muzi": 12484, "otel": 12485, "nstituti": 12486, "tatu": 12487, "bevest": 12488, "bevesti": 12489, "bevestig": 12490, "harm": 12491, "alys": 12492, "tenschapp": 12493, "etenschapp": 12494, "tenschappe": 12495, "wetenschapp": 12496, "etenschappe": 12497, "wetenschappe": 12498, "0.": 12499, "lening": 12500, "tak": 12501, "tioner": 12502, "unica": 12503, "slagen": 12504, "chouwen": 12505, "schouwen": 12506, "bbel": 12507, "hout": 12508, "oleren": 12509, "sonee": 12510, "rsonee": 12511, "soneel": 12512, "ersonee": 12513, "rsoneel": 12514, "personee": 12515, "ersoneel": 12516, "personeel": 12517, "deur": 12518, "ash": 12519, "amenli": 12520, "amenlij": 12521, "bevin": 12522, "nspr": 12523, "mpu": 12524, "afsc": 12525, "afsch": 12526, "dub": 12527, "nui": 12528, "daat-": 12529, "rab": 12530, "vare": 12531, "ellig": 12532, "menlijk": 12533, "amenlijk": 12534, "icha": 12535, "zamenl": 12536, "gezamen": 12537, "ezamenl": 12538, "gezamenl": 12539, "eugd": 12540, "vanw": 12541, "i-": 12542, "eneen": 12543, "zamenli": 12544, "ezamenli": 12545, "zamenlij": 12546, "gezamenli": 12547, "ezamenlij": 12548, "zamenlijk": 12549, "gezamenlij": 12550, "ezamenlijk": 12551, "gezamenlijk": 12552, "iters": 12553, "vena": 12554, "alistis": 12555, "chat": 12556, "idaat-": 12557, "didaat-": 12558, "ndidaat-": 12559, "andidaat-": 12560, "kandidaat-": 12561, "ersie": 12562, "renigi": 12563, "erenigi": 12564, "renigin": 12565, "erenigin": 12566, "reniging": 12567, "ereniging": 12568, "anj": 12569, "e-m": 12570, "oversc": 12571, "huu": 12572, "alistisc": 12573, "alistisch": 12574, "ubb": 12575, "nai": 12576, "iekt": 12577, "oversch": 12578, "draai": 12579, "amilie": 12580, "familie": 12581, "tdag": 12582, "ermel": 12583, "yse": 12584, "hierm": 12585, "ntati": 12586, "veld": 12587, "erdel": 12588, "ath": 12589, "hiede": 12590, "chiede": 12591, "hieden": 12592, "schiede": 12593, "chieden": 12594, "eschiede": 12595, "schieden": 12596, "geschiede": 12597, "eschieden": 12598, "geschieden": 12599, "zoge": 12600, "uper": 12601, "nicat": 12602, "arten": 12603, "stoe": 12604, "nstelle": 12605, "uiters": 12606, "vervan": 12607, "vervang": 12608, "oots": 12609, "dedeli": 12610, "enadr": 12611, "imina": 12612, "gels": 12613, "aba": 12614, "ziekt": 12615, "nje": 12616, "benadr": 12617, "enadru": 12618, "benadru": 12619, "enadruk": 12620, "benadruk": 12621, "enadrukk": 12622, "benadrukk": 12623, "munica": 12624, "adrukken": 12625, "enadrukke": 12626, "nadrukken": 12627, "benadrukke": 12628, "enadrukken": 12629, "benadrukken": 12630, "nicati": 12631, "ededeli": 12632, "dedelin": 12633, "mededeli": 12634, "ededelin": 12635, "dedeling": 12636, "mededelin": 12637, "ededeling": 12638, "mededeling": 12639, "integra": 12640, "unicat": 12641, "mmunica": 12642, "municat": 12643, "leef": 12644, "ehal": 12645, "edelijk": 12646, "ngo": 12647, "rokk": 12648, "oers": 12649, "ommunica": 12650, "mmunicat": 12651, "communica": 12652, "rocen": 12653, "rocent": 12654, "lade": 12655, "genaam": 12656, "ugen": 12657, "teme": 12658, "estede": 12659, "ommunicat": 12660, "communicat": 12661, "ankr": 12662, "pbo": 12663, "arto": 12664, "pir": 12665, "unicati": 12666, "municati": 12667, "etail": 12668, "eub": 12669, "tigi": 12670, "versie": 12671, "nsa": 12672, "hierme": 12673, "huur": 12674, "mmunicati": 12675, "ilitai": 12676, "temp": 12677, "brief": 12678, "vs": 12679, "bestede": 12680, "ommunicati": 12681, "communicati": 12682, "deta": 12683, "ilitair": 12684, "vertel": 12685, "rtell": 12686, "iekte": 12687, "a\u00eb": 12688, "gevee": 12689, "015": 12690, "rkij": 12691, "chel": 12692, "andv": 12693, "ziekte": 12694, "evred": 12695, "iterst": 12696, "uiterst": 12697, "lver": 12698, "terg": 12699, "rblij": 12700, "heff": 12701, "ctur": 12702, "rsen": 12703, "tutio": 12704, "tution": 12705, "ongel": 12706, "eneens": 12707, "kerk": 12708, "itutio": 12709, "titutio": 12710, "itution": 12711, "stitutio": 12712, "titution": 12713, "stitution": 12714, "ndaar": 12715, "deelt": 12716, "rka": 12717, "nstitutio": 12718, "nstitution": 12719, "half": 12720, "liez": 12721, "tabilit": 12722, "esteden": 12723, "ideo": 12724, "rmog": 12725, "xim": 12726, "venee": 12727, "evenee": 12728, "veneen": 12729, "eveneen": 12730, "heren": 12731, "eeste": 12732, "tobe": 12733, "taand": 12734, "rimina": 12735, "crimina": 12736, "verhaa": 12737, "enstem": 12738, "veneens": 12739, "eveneens": 12740, "ertell": 12741, "ermog": 12742, "besteden": 12743, "esb": 12744,
[...]
