{"byte_pairs": {"__sow": 5, "__eow": 6, "e": 7, "n": 8, "i": 9, "a": 10, "t": 11, "r": 12, "o": 13, "d": 14, "en": 15, "l": 16, "s": 17, "g": 18, "v": 19, "de": 20, "**<vz><init>**": 21, "m": 22, "er": 23, "h": 24, "k": 25, "u": 26, "**<n><soort><ev><basis><zijd><stan>**": 27, "an": 28, "b": 29, "**<let>**": 30, "j": 31, "ij": 32, "z": 33, "te": 34, "p": 35, "in": 36, "**<lid><bep><stan><rest>**": 37, "w": 38, "c": 39, "et": 40, "aa": 41, "ie": 42, "he": 43, "el": 44, "ee": 45, "**<bw>**": 46, "or": 47, "**<n><soort><mv><basis>**": 48, "ge": 49, "**<n><soort><ev><basis><onz><stan>**": 50, "ve": 51, "va": 52, "at": 53, "oo": 54, "re": 55, "be": 56, "st": 57, "**<ww><inf><vrij><zonder>**": 58, "me": 59, "ng": 60, ".": 61, "le": 62, "van": 63, "**<adj><prenom><basis><met-e><stan>**": 64, "zi": 65, "nd": 66, "li": 67, "ar": 68, "it": 69, "vo": 70, "da": 71, "ch": 72, ",": 73, "het": 74, "on": 75, "ti": 76, "ing": 77, "oe": 78, "oor": 79, "jn": 80, "ijn": 81, "ver": 82, "f": 83, "di": 84, "**<ww><pv><tgw><ev>**": 85, "**<vg><neven>**": 86, "al": 87, "een": 88, "ro": 89, "ri": 90, "op": 91, "zij": 92, "om": 93, "**<lid><bep><stan><evon>**": 94, "nt": 95, "ke": 96, "we": 97, "zijn": 98, "**<ww><vd><vrij><zonder>**": 99, "aar": 100, "ni": 101, "mi": 102, "is": 103, "ra": 104, "**<adj><vrij><basis><zonder>**": 105, "**<ww><pv><tgw><mv>**": 106, "ei": 107, "voo": 108, "voor": 109, "den": 110, "ne": 111, "**<vg><onder>**": 112, "rd": 113, "**<spec><deeleigen>**": 114, "ll": 115, "gen": 116, "ns": 117, "men": 118, "**<ww><pv><tgw><met-t>**": 119, "dat": 120, "id": 121, "la": 122, "aan": 123, "es": 124, "eg": 125, "em": 126, "len": 127, "lle": 128, "ten": 129, "**<lid><onbep><stan><agr>**": 130, "nde": 131, "jk": 132, "ijk": 133, "wi": 134, "lij": 135, "ui": 136, "ed": 137, "ze": 138, "ig": 139, "ur": 140, "der": 141, "pe": 142, "ta": 143, "eu": 144, "ma": 145, "ren": 146, "and": 147, "tie": 148, "un": 149, "na": 150, "eb": 151, "sc": 152, "co": 153, "ken": 154, "ik": 155, "se": 156, "ter": 157, "ord": 158, "ste": 159, "rde": 160, "ere": 161, "eli": 162, "llen": 163, "ht": 164, "cht": 165, "lijk": 166, "sch": 167, "to": 168, "mo": 169, "ek": 170, "ev": 171, "tr": 172, "nie": 173, "wo": 174, "rs": 175, "orde": 176, "ss": 177, "die": 178, "eid": 179, "ec": 180, "si": 181, "wa": 182, "nen": 183, "pr": 184, "ent": 185, "ben": 186, "eel": 187, "ol": 188, "ha": 189, "rden": 190, "bb": 191, "uit": 192, "bbe": 193, "orden": 194, "pa": 195, "ebb": 196, "ebbe": 197, "heb": 198, "hebb": 199, "hebbe": 200, "bben": 201, "ebben": 202, "hebben": 203, "eme": 204, "nder": 205, "ag": 206, "elij": 207, "elijk": 208, "ov": 209, "eren": 210, "ens": 211, "bi": 212, "wor": 213, "gr": 214, "nn": 215, "word": 216, "ove": 217, "worde": 218, "worden": 219, "mm": 220, "wij": 221, "rk": 222, "eur": 223, "il": 224, "**<vnw><pers><pron><nomin><vol><1><ev>**": 225, "ete": 226, "ond": 227, "ul": 228, "ez": 229, "lan": 230, "zo": 231, "sta": 232, "**<adj><prenom><basis><zonder>**": 233, "ers": 234, "am": 235, "eer": 236, "ic": 237, "do": 238, "og": 239, "ak": 240, "no": 241, "met": 242, "iet": 243, "ati": 244, "over": 245, "ot": 246, "nne": 247, "ls": 248, "eten": 249, "rt": 250, "ho": 251, "emen": 252, "tel": 253, "-": 254, "ven": 255, "erk": 256, "niet": 257, "mis": 258, "sl": 259, "moe": 260, "ga": 261, "ege": 262, "rop": 263, "ope": 264, "gel": 265, "oet": 266, "ts": 267, "del": 268, "rij": 269, "ko": 270, "aat": 271, "uro": 272, "ds": 273, "euro": 274, "nnen": 275, "iss": 276, "com": 277, "hei": 278, "ct": 279, "heid": 280, "ac": 281, "tt": 282, "mmi": 283, "ad": 284, "ou": 285, "rl": 286, "moet": 287, "sp": 288, "rz": 289, "ment": 290, "rg": 291, "eri": 292, "oete": 293, "rin": 294, "oeten": 295, "moete": 296, "moeten": 297, "urop": 298, "europ": 299, "als": 300, "omm": 301, "onde": 302, "zu": 303, "ull": 304, "maa": 305, "**<vnw><pers><pron><stan><red><3><ev><onz>**": 306, "ele": 307, "eve": 308, "**<vz><fin>**": 309, "ang": 310, "**<vnw><betr><pron><stan><vol><persoon><getal>**": 311, "rm": 312, "ulle": 313, "ullen": 314, "eze": 315, "ssi": 316, "taa": 317, "stel": 318, "ech": 319, "ich": 320, "aal": 321, "tu": 322, "**<vnw><pers><pron><nomin><vol><1><mv>**": 323, "onder": 324, "ien": 325, "raa": 326, "comm": 327, "zul": 328, "wer": 329, "ok": 330, "uw": 331, "zull": 332, "zulle": 333, "zullen": 334, "end": 335, "sie": 336, "tre": 337, "waa": 338, "tte": 339, "ite": 340, "pro": 341, "lo": 342, "miss": 343, "ef": 344, "ru": 345, "gi": 346, "hee": 347, "dit": 348, "0": 349, "waar": 350, "hi": 351, "ommi": 352, "vr": 353, "lin": 354, "daa": 355, "atie": 356, "as": 357, "vi": 358, "kk": 359, "mij": 360, "echt": 361, "ku": 362, "**<ww><pv><verl><ev>**": 363, "bel": 364, "us": 365, "du": 366, "dr": 367, "nk": 368, "commi": 369, "mmis": 370, "ommis": 371, "commis": 372, "mmiss": 373, "ommiss": 374, "commiss": 375, "ook": 376, "ede": 377, "kun": 378, "ling": 379, "unn": 380, "ind": 381, "dig": 382, "**<vnw><aanw><pron><stan><vol><3o><ev>**": 383, "bij": 384, "unne": 385, "ons": 386, "unnen": 387, "ba": 388, "naa": 389, "kunn": 390, "kunne": 391, "kunnen": 392, "bes": 393, "ap": 394, "est": 395, "tw": 396, "dez": 397, "deze": 398, "con": 399, "ande": 400, "rope": 401, "ring": 402, "ell": 403, "urope": 404, "europe": 405, "**<vnw><aanw><adv-pron><stan><red><3><getal>**": 406, "ame": 407, "ki": 408, "ssie": 409, "staa": 410, "fe": 411, "gev": 412, "eke": 413, "ld": 414, "ill": 415, "issi": 416, "br": 417, "isc": 418, "af": 419, "toe": 420, "land": 421, "od": 422, "**<vnw><aanw><det><stan><prenom><zonder><evon>**": 423, "even": 424, "vers": 425, "pl": 426, "**<vnw><aanw><det><stan><prenom><met-e><rest>**": 427, "nge": 428, "kom": 429, "rb": 430, "ement": 431, "so": 432, "kel": 433, "missi": 434, "issie": 435, "missie": 436, "oc": 437, "par": 438, "tell": 439, "ep": 440, "ille": 441, "rst": 442, "jd": 443, "ijd": 444, "mijn": 445, "vol": 446, "gro": 447, "ant": 448, "sa": 449, "str": 450, "pen": 451, "mmissi": 452, "ommissi": 453, "commissi": 454, "mmissie": 455, "ommissie": 456, "commissie": 457, "**<tw><hoofd><vrij>**": 458, "po": 459, "rzi": 460, "heer": 461, "stell": 462, "erin": 463, "ont": 464, "**<vnw><pers><pron><nomin><red><1><mv>**": 465, "lu": 466, "ci": 467, "min": 468, "rv": 469, "ese": 470, "illen": 471, "werk": 472, "isch": 473, "**<tw><hoofd><prenom><stan>**": 474, "of": 475, "daar": 476, "ier": 477, "ene": 478, "icht": 479, "bet": 480, "nh": 481, "hte": 482, "chte": 483, "io": 484, "oed": 485, "vee": 486, "kke": 487, "gs": 488, "orz": 489, "oorz": 490, "sti": 491, "rec": 492, "rek": 493, "rle": 494, "deli": 495, "lem": 496, "ering": 497, "wil": 498, "doo": 499, "sen": 500, "ce": 501, "sla": 502, "ake": 503, "tot": 504, "cha": 505, "eni": 506, "eken": 507, "itt": 508, "nem": 509, "veel": 510, "nte": 511, "ige": 512, "ela": 513, "nst": 514, "dan": 515, "pes": 516, "egen": 517, "will": 518, "reg": 519, "voorz": 520, "orzi": 521, "oorzi": 522, "opes": 523, "pese": 524, "ropes": 525, "uropes": 526, "europes": 527, "opese": 528, "ropese": 529, "uropese": 530, "europese": 531, "zit": 532, "doe": 533, "gg": 534, "zitt": 535, "door": 536, "voorzi": 537, "maar": 538, "lang": 539, "rn": 540, "ide": 541, "wille": 542, "mee": 543, "itte": 544, "ka": 545, "go": 546, "kin": 547, "willen": 548, "ach": 549, "scha": 550, "bl": 551, "ome": 552, "zitte": 553, "za": 554, "bo": 555, "tter": 556, "lei": 557, "acht": 558, "iti": 559, "oord": 560, "oen": 561, "ard": 562, "amen": 563, "leg": 564, "omen": 565, "gge": 566, "hu": 567, "han": 568, "itter": 569, "rzit": 570, "orzit": 571, "oorzit": 572, "rzitt": 573, "orzitt": 574, "oorzitt": 575, "eit": 576, "ids": 577, "voorzit": 578, "eld": 579, "rzitte": 580, "voorzitt": 581, "orzitte": 582, "oorzitte": 583, "voorzitte": 584, "neme": 585, "zitter": 586, "wel": 587, "2": 588, "rzitter": 589, "orzitter": 590, "oorzitter": 591, "voorzitter": 592, "nhe": 593, "elin": 594, "gaa": 595, "eling": 596, "ia": 597, "ngs": 598, "ouw": 599, "ari": 600, "leme": 601, "lemen": 602, "igen": 603, "king": 604, "lement": 605, "voe": 606, "os": 607, "teg": 608, "inde": 609, "ggen": 610, "rech": 611, "recht": 612, "ger": 613, "ud": 614, "tij": 615, "ort": 616, "gin": 617, "arl": 618, "rge": 619, "erv": 620, "elle": 621, "sse": 622, "ree": 623, "erd": 624, "cti": 625, "aard": 626, "ellen": 627, "1": 628, "lag": 629, "tin": 630, "aad": 631, "bela": 632, "nc": 633, "ern": 634, "telle": 635, "lg": 636, "gaan": 637, "rw": 638, "geli": 639, "uni": 640, "geb": 641, "egg": 642, "nin": 643, "din": 644, "ili": 645, "nemen": 646, "tellen": 647, "all": 648, "keli": 649, "ander": 650, "ff": 651, "im": 652, "pp": 653, "etr": 654, "taat": 655, "ntw": 656, "arle": 657, "parl": 658, "rlem": 659, "arlem": 660, "parle": 661, "rleme": 662, "parlem": 663, "arleme": 664, "rlemen": 665, "parleme": 666, "arlemen": 667, "rlement": 668, "parlemen": 669, "arlement": 670, "parlement": 671, "zie": 672, "ran": 673, "rste": 674, "orm": 675, "elan": 676, "nke": 677, "leid": 678, "stelle": 679, "ate": 680, "ut": 681, "age": 682, "ied": 683, "stellen": 684, "rke": 685, "oge": 686, "goe": 687, "lee": 688, "goed": 689, "slag": 690, "ning": 691, "nti": 692, "kome": 693, "tei": 694, "erg": 695, "fi": 696, "komen": 697, "rh": 698, "ins": 699, "enk": 700, "ting": 701, "ings": 702, "egge": 703, "lid": 704, "hap": 705, "rag": 706, "bu": 707, "chap": 708, "etre": 709, "schap": 710, "oek": 711, "ngen": 712, "eggen": 713, "art": 714, "uc": 715, "rei": 716, "spr": 717, "itei": 718, "alle": 719, "elang": 720, "ber": 721, "belan": 722, "gelij": 723, "gelijk": 724, "ding": 725, "ors": 726, "belang": 727, "vin": 728, "nv": 729, "rege": 730, "ieu": 731, "oud": 732, "erke": 733, "zic": 734, "zich": 735, "laa": 736, "ist": 737, "delij": 738, "delijk": 739, "zien": 740, "era": 741, "iek": 742, "oors": 743, "tra": 744, "ndi": 745, "nu": 746, "nat": 747, "pre": 748, "uite": 749, "betr": 750, "nis": 751, "hie": 752, "bre": 753, "eden": 754, "her": 755, "chi": 756, "oer": 757, "uu": 758, "ctie": 759, "staat": 760, "au": 761, "teit": 762, "erh": 763, "ali": 764, "eens": 765, "lk": 766, "egi": 767, "iteit": 768, "lit": 769, "nl": 770, "tege": 771, "ion": 772, "ris": 773, "rsc": 774, "itie": 775, "hand": 776, "mer": 777, "aken": 778, "ect": 779, "aag": 780, "elen": 781, "org": 782, "nog": 783, "rsch": 784, "erw": 785, "taan": 786, "ffe": 787, "betre": 788, "int": 789, "hou": 790, "ming": 791, "raad": 792, "vere": 793, "voors": 794, "ja": 795, "00": 796, "gri": 797, "**<ww><vd><prenom><met-e>**": 798, "nhee": 799, "unie": 800, "tan": 801, "jnh": 802, "ijnh": 803, "jnhe": 804, "ijnhe": 805, "ief": 806, "gee": 807, "nheer": 808, "mijnh": 809, "mijnhe": 810, "jnhee": 811, "ijnhee": 812, "jnheer": 813, "mijnhee": 814, "ijnheer": 815, "mijnheer": 816, "staan": 817, "eh": 818, "erz": 819, "ir": 820, "roo": 821, "wat": 822, "erl": 823, "tig": 824, "erb": 825, "act": 826, "mog": 827, "rat": 828, "rstel": 829, "enen": 830, "per": 831, "teu": 832, "rsl": 833, "dien": 834, "app": 835, "moge": 836, "aro": 837, "nw": 838, "nse": 839, "wet": 840, "jz": 841, "ijz": 842, "egel": 843, "woo": 844, "aak": 845, "geen": 846, "evo": 847, "orst": 848, "ms": 849, "ersl": 850, "wee": 851, "cr": 852, "eff": 853, "rsla": 854, "res": 855, "schi": 856, "che": 857, "mak": 858, "oorst": 859, "ssen": 860, "dst": 861, "ure": 862, "versl": 863, "ndel": 864, "ea": 865, "voorst": 866, "ging": 867, "ew": 868, "naar": 869, "nden": 870, "ersla": 871, "rslag": 872, "doen": 873, "edi": 874, "fen": 875, "rie": 876, "tegen": 877, "rui": 878, "versla": 879, "stan": 880, "beg": 881, "vor": 882, "erm": 883, "aaro": 884, "ans": 885, "pu": 886, "ona": 887, "ric": 888, "erslag": 889, "lli": 890, "inte": 891, "kr": 892, "ende": 893, "rou": 894, "verslag": 895, "rijk": 896, "ron": 897, "tijd": 898, "tere": 899, "houd": 900, "um": 901, "gra": 902, "oms": 903, "erst": 904, "bie": 905, "ank": 906, "pla": 907, "lig": 908, "geve": 909, "tio": 910, "ntie": 911, "ersc": 912, "orste": 913, "tion": 914, "orstel": 915, "kt": 916, "oorste": 917, "voorste": 918, "tee": 919, "oorstel": 920, "voorstel": 921, "ein": 922, "rouw": 923, "ersch": 924, "open": 925, "uur": 926, "**<vnw><bez><det><stan><vol><3><ev><prenom><zonder><agr>**": 927, "mens": 928, "ser": 929, "ast": 930, "lge": 931, "nter": 932, "enin": 933, "ade": 934, "rr": 935, "rich": 936, "make": 937, "**<vnw><aanw><adv-pron><obl><vol><3o><getal>**": 938, "y": 939, "dra": 940, "richt": 941, "dem": 942, "oot": 943, "**<vz><versm>**": 944, "rdi": 945, "tem": 946, "bli": 947, "zen": 948, "**<adj><vrij><comp><zonder>**": 949, "maken": 950, "nati": 951, "bied": 952, "nz": 953, "ening": 954, "ob": 955, "gem": 956, "vra": 957, "twe": 958, "**<ww><inf><nom><zonder><zonder-n>**": 959, "rvo": 960, "lf": 961, "**<ww><pv><verl><mv>**": 962, "agen": 963, "hier": 964, "**<vnw><onbep><det><stan><prenom><zonder><agr>**": 965, "ert": 966, "olg": 967, "ks": 968, "ai": 969, "grij": 970, "volg": 971, "tief": 972, "uid": 973, "woor": 974, "woord": 975, "voer": 976, "vaa": 977, "mst": 978, "effe": 979, "ude": 980, "elei": 981, "hter": 982, "chter": 983, "regel": 984, "ker": 985, "best": 986, "kken": 987, "gh": 988, "rbe": 989, "**<ww><od><prenom><met-e>**": 990, "oel": 991, "red": 992, "rte": 993, "zaa": 994, "lt": 995, "sche": 996, "zon": 997, "idi": 998, "tten": 999, "idst": 1000, "dd": 1001, "su": 1002, "**<vnw><bez><det><stan><vol><1><mv><prenom><met-e><rest>**": 1003, "ats": 1004, "iten": 1005, "eleid": 1006, "geven": 1007, "ikk": 1008, "ekk": 1009, "nda": 1010, "bele": 1011, "omst": 1012, "dri": 1013, "lui": 1014, "ster": 1015, "rki": 1016, "dee": 1017, "**<vnw><refl><pron><obl><red><3><getal>**": 1018, "rom": 1019, "\u00eb": 1020, "reke": 1021, "twi": 1022, "dsta": 1023, "lie": 1024, "laat": 1025, "ini": 1026, "aats": 1027, "kkel": 1028, "idsta": 1029, "eem": 1030, "pel": 1031, "tal": 1032, "zeg": 1033, "eng": 1034, "dstaa": 1035, "lids": 1036, "lidst": 1037, "lidsta": 1038, "idstaa": 1039, "ero": 1040, "dstaat": 1041, "lidstaa": 1042, "idstaat": 1043, "lidstaat": 1044, "esc": 1045, "bev": 1046, "zel": 1047, "ffen": 1048, "tand": 1049, "ees": 1050, "rken": 1051, "stand": 1052, "fr": 1053, "acti": 1054, "ontw": 1055, "zegg": 1056, "baa": 1057, "elf": 1058, "ngr": 1059, "vro": 1060, "lis": 1061, "esch": 1062, "rp": 1063, "echte": 1064, "zond": 1065, "rme": 1066, "roe": 1067, "**<vnw><vb><pron><stan><vol><3o><ev>**": 1068, "tv": 1069, "elli": 1070, "val": 1071, "oli": 1072, "ikke": 1073, "tg": 1074, "omi": 1075, "euw": 1076, "reken": 1077, "kelij": 1078, "kelijk": 1079, "ani": 1080, "zegge": 1081, "zeggen": 1082, "hten": 1083, "chten": 1084, "erken": 1085, "uiten": 1086, "spe": 1087, "enti": 1088, "inn": 1089, "geme": 1090, "iona": 1091, "uk": 1092, "rmi": 1093, "ett": 1094, "stem": 1095, "teren": 1096, "wijz": 1097, "ori": 1098, "oude": 1099, "eva": 1100, "root": 1101, "groo": 1102, "groot": 1103, "belei": 1104, "beleid": 1105, "nig": 1106, "trek": 1107, "rati": 1108, "andel": 1109, "zelf": 1110, "erp": 1111, "igh": 1112, "enl": 1113, "slu": 1114, "hande": 1115, "ner": 1116, "lat": 1117, "20": 1118, "raag": 1119, "meen": 1120, "je": 1121, "tis": 1122, "sm": 1123, "hoe": 1124, "emee": 1125, "jaa": 1126, "fo": 1127, "**<vnw><pers><pron><nomin><vol><2b><getal>**": 1128, "erki": 1129, "ghe": 1130, "naal": 1131, "beh": 1132, "verb": 1133, "vrou": 1134, "vrouw": 1135, "inst": 1136, "jaar": 1137, "dde": 1138, "unt": 1139, "mid": 1140, "ieuw": 1141, "nieu": 1142, "onaa": 1143, "rac": 1144, "uss": 1145, "handel": 1146, "kw": 1147, "ezi": 1148, "cu": 1149, "houde": 1150, "jv": 1151, "ijv": 1152, "**<tw><rang><prenom><stan>**": 1153, "nieuw": 1154, "gemee": 1155, "emeen": 1156, "rekk": 1157, "ega": 1158, "koms": 1159, "komst": 1160, "gemeen": 1161, "ngri": 1162, "ngrij": 1163, "aam": 1164, "enw": 1165, "ref": 1166, "slui": 1167, "effen": 1168, "kl": 1169, "tro": 1170, "luit": 1171, "vaar": 1172, "trekk": 1173, "idd": 1174, "sluit": 1175, "rli": 1176, "gan": 1177, "**<vnw><aanw><det><stan><prenom><zonder><rest>**": 1178, "midd": 1179, "inter": 1180, "ghei": 1181, "gheid": 1182, "ina": 1183, "lev": 1184, "ike": 1185, "ighe": 1186, "nta": 1187, "ighei": 1188, "igheid": 1189, "iv": 1190, "**<vnw><pr><pron><obl><vol><1><mv>**": 1191, "inden": 1192, "lic": 1193, "rage": 1194, "enke": 1195, "drag": 1196, "nken": 1197, "uden": 1198, "sin": 1199, "tor": 1200, "one": 1201, "angr": 1202, "egr": 1203, ":": 1204, "hun": 1205, "angri": 1206, "angrij": 1207, "jke": 1208, "ijke": 1209, "ppe": 1210, "ervo": 1211, "idde": 1212, "bed": 1213, "midde": 1214, "nsc": 1215, "pun": 1216, "punt": 1217, "gd": 1218, "9": 1219, "grijk": 1220, "ngrijk": 1221, "angrijk": 1222, "baar": 1223, "oa": 1224, "nee": 1225, "ssa": 1226, "nsch": 1227, "deel": 1228, "zoe": 1229, "**<vnw><bez><det><stan><vol><3><mv><prenom><zonder><agr>**": 1230, "eide": 1231, "ouden": 1232, "**<n><soort><ev><basis><dat>**": 1233, "tri": 1234, "sel": 1235, "houden": 1236, "ikkel": 1237, "onaal": 1238, "rit": 1239, "mil": 1240, "langr": 1241, "elangr": 1242, "langri": 1243, "belangr": 1244, "elangri": 1245, "langrij": 1246, "belangri": 1247, "elangrij": 1248, "belangrij": 1249, "langrijk": 1250, "elangrijk": 1251, "belangrijk": 1252, "dui": 1253, "besc": 1254, "besch": 1255, "blij": 1256, "atio": 1257, "entie": 1258, "ation": 1259, "iden": 1260, "llin": 1261, "its": 1262, "ionaa": 1263, "ionaal": 1264, "reff": 1265, "reffe": 1266, "inne": 1267, "tref": 1268, "treff": 1269, "treffe": 1270, "lling": 1271, "telli": 1272, "hoo": 1273, "rti": 1274, "man": 1275, "rob": 1276, "enge": 1277, "actie": 1278, "ale": 1279, "reffen": 1280, "zoek": 1281, "treffen": 1282, "tek": 1283, "oll": 1284, "tl": 1285, "ann": 1286, "maat": 1287, "**<vnw><onbep><det><stan><prenom><met-e><agr>**": 1288, "wik": 1289, "wikk": 1290, "wikke": 1291, "wikkel": 1292, "oep": 1293, "**<vnw><bez><det><stan><vol><1><ev><prenom><zonder><agr>**": 1294, "tiona": 1295, "rdig": 1296, "eil": 1297, "oal": 1298, "oog": 1299, "eun": 1300, "prob": 1301, "aten": 1302, "200": 1303, "doel": 1304, "steu": 1305, "**<vnw><betr><pron><stan><vol><3><ev>**": 1306, "verd": 1307, "ca": 1308, "teun": 1309, "mp": 1310, "steun": 1311, "rkin": 1312, "ette": 1313, "stelli": 1314, "eed": 1315, "tb": 1316, "ju": 1317, "rking": 1318, "zoa": 1319, "zoal": 1320, "oals": 1321, "zoals": 1322, "?": 1323, "erkin": 1324, "nds": 1325, "por": 1326, "kkeli": 1327, "erking": 1328, "air": 1329, "tisc": 1330, "tisch": 1331, "rga": 1332, "echter": 1333, "mu": 1334, "sam": 1335, "vind": 1336, "ntwi": 1337, "eree": 1338, "zet": 1339, "ensc": 1340, "ationa": 1341, "same": 1342, "nwe": 1343, "ono": 1344, "samen": 1345, "esti": 1346, "mme": 1347, "nscha": 1348, "ogen": 1349, "dere": 1350, "rond": 1351, "epa": 1352, "natio": 1353, "nation": 1354, "emm": 1355, "verw": 1356, "nationa": 1357, "ab": 1358, "ellin": 1359, "elling": 1360, "5": 1361, "eids": 1362, "vinde": 1363, "rva": 1364, "ensch": 1365, "ontwi": 1366, "iaa": 1367, "vinden": 1368, "ntr": 1369, "twik": 1370, "ntwik": 1371, "twikk": 1372, "ntwikk": 1373, "ontwik": 1374, "twikke": 1375, "ontwikk": 1376, "ntwikke": 1377, "twikkel": 1378, "ontwikke": 1379, "ntwikkel": 1380, "ontwikkel": 1381, "opa": 1382, "pol": 1383, "ise": 1384, "ropa": 1385, "fin": 1386, "nf": 1387, "gez": 1388, "tiek": 1389, "tellin": 1390, "telling": 1391, "ler": 1392, "tuu": 1393, "stellin": 1394, "stelling": 1395, "bur": 1396, "nschap": 1397, "olle": 1398, "ader": 1399, "uropa": 1400, "europa": 1401, "enscha": 1402, "**<vnw><onbep><grad><stan><vrij><zonder><comp>**": 1403, "enschap": 1404, "arom": 1405, "kri": 1406, "nb": 1407, "ddel": 1408, "oorde": 1409, "aarom": 1410, "jde": 1411, "ijde": 1412, "iddel": 1413, "kh": 1414, "middel": 1415, "eco": 1416, "iede": 1417, "jf": 1418, "ijf": 1419, "roc": 1420, "eili": 1421, "heel": 1422, "oce": 1423, "sit": 1424, "twee": 1425, "wen": 1426, "mat": 1427, "els": 1428, "rede": 1429, "i\u00eb": 1430, "vorm": 1431, "spre": 1432, "jze": 1433, "ijze": 1434, "evr": 1435, "weg": 1436, "stri": 1437, "eds": 1438, "rzo": 1439, "fs": 1440, "jken": 1441, "ijken": 1442, "haa": 1443, "port": 1444, "temm": 1445, "stemm": 1446, "esl": 1447, "dus": 1448, "uide": 1449, "proc": 1450, "ebr": 1451, "waard": 1452, "nam": 1453, "oeg": 1454, "ema": 1455, "tern": 1456, "elk": 1457, "ogel": 1458, "roce": 1459, "proce": 1460, "3": 1461, "pee": 1462, "ebi": 1463, "ass": 1464, "bru": 1465, "verk": 1466, "ebie": 1467, "ebied": 1468, "gebi": 1469, "tionaa": 1470, "ationaa": 1471, "tionaal": 1472, "ationaal": 1473, "nationaa": 1474, "nationaal": 1475, "gebie": 1476, "gebied": 1477, "x": 1478, "evi": 1479, "arin": 1480, "ua": 1481, "uct": 1482, "plaa": 1483, "laats": 1484, "llee": 1485, "ogeli": 1486, "ogelij": 1487, "ogelijk": 1488, "tst": 1489, "olge": 1490, "mogel": 1491, "mogeli": 1492, "mogelij": 1493, "mogelijk": 1494, "mar": 1495, "bep": 1496, "volge": 1497, "leen": 1498, "verg": 1499, "bere": 1500, "poli": 1501, "reen": 1502, "**<vnw><onbep><pron><stan><vol><3o><ev>**": 1503, "reng": 1504, "zee": 1505, "esta": 1506, "plaat": 1507, "lleen": 1508, "allee": 1509, "alleen": 1510, "rhe": 1511, "sb": 1512, "leve": 1513, "daaro": 1514, "erzo": 1515, "plaats": 1516, "lgen": 1517, "zonde": 1518, "th": 1519, "tuur": 1520, "usse": 1521, "cia": 1522, "opee": 1523, "ereen": 1524, "pri": 1525, "olgen": 1526, "nste": 1527, "volgen": 1528, "zonder": 1529, "tus": 1530, "khe": 1531, "enh": 1532, "besl": 1533, "dh": 1534, "khei": 1535, "kheid": 1536, "engen": 1537, "jkh": 1538, "ijkh": 1539, "jkhe": 1540, "ijkhe": 1541, "pees": 1542, "ropee": 1543, "uropee": 1544, "europee": 1545, "opees": 1546, "ropees": 1547, "uropees": 1548, "europees": 1549, "lijkh": 1550, "lijkhe": 1551, "fra": 1552, "rzoe": 1553, "hti": 1554, "erzoe": 1555, "ange": 1556, "jkhei": 1557, "ijkhei": 1558, "jkheid": 1559, "ijkheid": 1560, "iaal": 1561, "chti": 1562, "rwe": 1563, "liti": 1564, "lijkhei": 1565, "lijkheid": 1566, "tai": 1567, "cie": 1568, "eder": 1569, "ragen": 1570, "wijze": 1571, "stee": 1572, "geva": 1573, "idel": 1574, "rna": 1575, "olit": 1576, "verl": 1577, "polit": 1578, "innen": 1579, "zaak": 1580, "ble": 1581, "rmin": 1582, "begr": 1583, "vert": 1584, "ideli": 1585, "idelij": 1586, "idelijk": 1587, "delin": 1588, "kki": 1589, "rlij": 1590, "deling": 1591, "err": 1592, "rzoek": 1593, "erzoek": 1594, "oliti": 1595, "politi": 1596, "rbi": 1597, "name": 1598, "md": 1599, "urg": 1600, "erei": 1601, "aris": 1602, "ug": 1603, "obl": 1604, "anc": 1605, "nom": 1606, "enst": 1607, "arm": 1608, "issa": 1609, "arb": 1610, "oble": 1611, "robl": 1612, "roble": 1613, "nci": 1614, "ara": 1615, "nli": 1616, "werke": 1617, "**<adj><prenom><sup><met-e><stan>**": 1618, "nko": 1619, "lijn": 1620, "probl": 1621, "proble": 1622, "reid": 1623, "versc": 1624, "versch": 1625, "dele": 1626, "happ": 1627, "chapp": 1628, "schapp": 1629, "lega": 1630, "duid": 1631, "ving": 1632, "bren": 1633, "pi": 1634, "erde": 1635, "onom": 1636, "jve": 1637, "ijve": 1638, "prek": 1639, "litie": 1640, "sing": 1641, "veren": 1642, "ust": 1643, "sprek": 1644, "ente": 1645, "zin": 1646, "deri": 1647, "econ": 1648, "breng": 1649, "anda": 1650, "bin": 1651, "gebr": 1652, "ikkeli": 1653, "itiek": 1654, "uidel": 1655, "uideli": 1656, "uidelij": 1657, "uidelijk": 1658, "gele": 1659, "late": 1660, "gens": 1661, "noo": 1662, "nomi": 1663, "etref": 1664, "betref": 1665, "egin": 1666, "etreff": 1667, "betreff": 1668, "etreffe": 1669, "betreffe": 1670, "etreffen": 1671, "betreffen": 1672, "nlij": 1673, "zett": 1674, "rlijk": 1675, "kelin": 1676, "keling": 1677, "achte": 1678, "dige": 1679, "duide": 1680, "eig": 1681, "elijkh": 1682, "elijkhe": 1683, "onomi": 1684, "vraa": 1685, "vraag": 1686, "enig": 1687, "elijkhei": 1688, "elijkheid": 1689, "vri": 1690, "burg": 1691, "nkel": 1692, "ermi": 1693, "olitie": 1694, "politie": 1695, "lijke": 1696, "rot": 1697, "nlijk": 1698, "uik": 1699, "mend": 1700, "ong": 1701, "uren": 1702, "ussen": 1703, "deme": 1704, "cono": 1705, "econo": 1706, "jven": 1707, "ijven": 1708, "demen": 1709, "iee": 1710, "tge": 1711, "leem": 1712, "meens": 1713, "derin": 1714, "appe": 1715, "rak": 1716, "ndem": 1717, "rgen": 1718, "emeens": 1719, "conom": 1720, "dering": 1721, "econom": 1722, "kkelin": 1723, "kkeling": 1724, "zak": 1725, "wikkeli": 1726, "ikkelin": 1727, "ikkeling": 1728, "wikkelin": 1729, "wikkeling": 1730, "conomi": 1731, "economi": 1732, "duidel": 1733, "duideli": 1734, "duidelij": 1735, "duidelijk": 1736, "rder": 1737, "mende": 1738, "blee": 1739, "dement": 1740, "eensc": 1741, "eensch": 1742, "eenscha": 1743, "meensc": 1744, "meensch": 1745, "meenscha": 1746, "eenschap": 1747, "meenschap": 1748, "gemeens": 1749, "emeensc": 1750, "gemeensc": 1751, "emeensch": 1752, "gemeensch": 1753, "emeenscha": 1754, "gemeenscha": 1755, "emeenschap": 1756, "gemeenschap": 1757, "bleem": 1758, "endem": 1759, "oblee": 1760, "roblee": 1761, "obleem": 1762, "problee": 1763, "robleem": 1764, "probleem": 1765, "pas": 1766, "twikkeli": 1767, "ntwikkeli": 1768, "twikkelin": 1769, "ntwikkelin": 1770, "twikkeling": 1771, "ntwikkeling": 1772, "ontwikkeli": 1773, "ontwikkelin": 1774, "ontwikkeling": 1775, "amend": 1776, "amende": 1777, "etrek": 1778, "etrekk": 1779, "renge": 1780, "col": 1781, "krij": 1782, "betrek": 1783, "betrekk": 1784, "tuss": 1785, "tusse": 1786, "tussen": 1787, "derh": 1788, "legg": 1789, "ieel": 1790, "ndeme": 1791, "endeme": 1792, "ndemen": 1793, "endemen": 1794, "ndement": 1795, "endement": 1796, "peli": 1797, "pec": 1798, "etten": 1799, "mev": 1800, "'": 1801, "**<vnw><pers><pron><nomin><vol><3p><mv>**": 1802, "zake": 1803, "rant": 1804, "evro": 1805, "mevr": 1806, "evrou": 1807, "evrouw": 1808, "brenge": 1809, "mevro": 1810, "mevrou": 1811, "mevrouw": 1812, "rengen": 1813, "brengen": 1814, "ratie": 1815, "spec": 1816, "evin": 1817, "mendem": 1818, "amendem": 1819, "mendeme": 1820, "amendeme": 1821, "mendemen": 1822, "amendemen": 1823, "mendement": 1824, "amendement": 1825, "deren": 1826, "cen": 1827, "tat": 1828, "zor": 1829, "kkin": 1830, "mb": 1831, "kking": 1832, "ardi": 1833, "arti": 1834, "stig": 1835, "sv": 1836, "hts": 1837, "aand": 1838, "rne": 1839, "chts": 1840, "eeds": 1841, "tru": 1842, "zorg": 1843, "sar": 1844, "jden": 1845, "ijden": 1846, "omis": 1847, "inz": 1848, "ndeli": 1849, "ruik": 1850, "loo": 1851, ")": 1852, "aans": 1853, "uis": 1854, "ram": 1855, "ntern": 1856, "intern": 1857, "daarom": 1858, "stra": 1859, "jg": 1860, "tair": 1861, "for": 1862, "brui": 1863, "ijg": 1864, "erwe": 1865, "wete": 1866, "vera": 1867, "weten": 1868, "aardi": 1869, "bruik": 1870, "anke": 1871, "js": 1872, "ijs": 1873, "iene": 1874, "two": 1875, "dank": 1876, "(": 1877, "ub": 1878, "pra": 1879, "vaard": 1880, "rol": 1881, "kan": 1882, "oort": 1883, "wan": 1884, "ssin": 1885, "emi": 1886, "ssing": 1887, "ena": 1888, "hij": 1889, "ardig": 1890, "aardig": 1891, "pelij": 1892, "pelijk": 1893, "twoo": 1894, "ppel": 1895, "ntwo": 1896, "eiden": 1897, "antw": 1898, "twoor": 1899, "twoord": 1900, "eige": 1901, "ntwoo": 1902, "ntwoor": 1903, "ntwoord": 1904, "antwo": 1905, "antwoo": 1906, "antwoor": 1907, "antwoord": 1908, "rel": 1909, "cent": 1910, "rvan": 1911, "nan": 1912, "ral": 1913, "verv": 1914, "diene": 1915, "sari": 1916, "ssar": 1917, "missa": 1918, "ssari": 1919, "mmissa": 1920, "ommissa": 1921, "issar": 1922, "missar": 1923, "issari": 1924, "mmissar": 1925, "missari": 1926, "commissa": 1927, "ommissar": 1928, "mmissari": 1929, "ommissari": 1930, "commissar": 1931, "commissari": 1932, "erhe": 1933, "ciaa": 1934, "ciaal": 1935, "rdel": 1936, "saris": 1937, "ssaris": 1938, "issaris": 1939, "missaris": 1940, "mmissaris": 1941, "ommissaris": 1942, "commissaris": 1943, "igi": 1944, "bevo": 1945, "rming": 1946, "spa": 1947, "ienen": 1948, "ume": 1949, "rod": 1950, "dienen": 1951, "litiek": 1952, "olitiek": 1953, "politiek": 1954, "evol": 1955, "urge": 1956, "aant": 1957, "este": 1958, "if": 1959, "rha": 1960, "preke": 1961, "spreke": 1962, "rre": 1963, "ekke": 1964, "erge": 1965, "onc": 1966, "ark": 1967, "laten": 1968, "eval": 1969, "odi": 1970, "delen": 1971, "sol": 1972, "stu": 1973, "orb": 1974, "uwe": 1975, "nkom": 1976, "epe": 1977, "edig": 1978, "edr": 1979, "ebru": 1980, "rger": 1981, "teri": 1982, "lleg": 1983, "conc": 1984, "zette": 1985, "umen": 1986, "ument": 1987, "iken": 1988, "rhei": 1989, "jge": 1990, "ijge": 1991, "erha": 1992, "rheid": 1993, "iser": 1994, "ilig": 1995, "eilig": 1996, "mati": 1997, "itu": 1998, "eran": 1999, "lich": 2000, "verz": 2001, "mogen": 2002, "bou": 2003, "anne": 2004, "vei": 2005, "eving": 2006, "fd": 2007, "ex": 2008, "veil": 2009, "vl": 2010, "orge": 2011, "sten": 2012, "ood": 2013, "soc": 2014, "uits": 2015, "ets": 2016, "veili": 2017, "mili": 2018, "zetten": 2019, "zeer": 2020, "emo": 2021, "atr": 2022, "oorb": 2023, "av": 2024, "\"": 2025, "llega": 2026, "burge": 2027, "gron": 2028, "vrij": 2029, "mel": 2030, "grond": 2031, "dhe": 2032, "oci": 2033, "olk": 2034, "veilig": 2035, "mark": 2036, "ppeli": 2037, "eker": 2038, "urger": 2039, "burger": 2040, "veree": 2041, "vereen": 2042, "ense": 2043, "rma": 2044, "**<vnw><pr><pron><obl><vol><1><ev>**": 2045, "ple": 2046, "dhei": 2047, "dheid": 2048, "arde": 2049, "soci": 2050, "ekken": 2051, "4": 2052, "teke": 2053, "deb": 2054, "duc": 2055, "gie": 2056, "prod": 2057, "happe": 2058, "med": 2059, "chappe": 2060, "schappe": 2061, "part": 2062, "veran": 2063, "pt": 2064, "teken": 2065, "ita": 2066, "gebru": 2067, "ebrui": 2068, "gebrui": 2069, "ebruik": 2070, "gebruik": 2071, "jgen": 2072, "ijgen": 2073, "rite": 2074, "orte": 2075, "kwe": 2076, "licht": 2077, "iter": 2078, "enko": 2079, "ocia": 2080, "socia": 2081, "treg": 2082, "enwe": 2083, "tli": 2084, "haar": 2085, "**<vnw><onbep><det><stan><prenom><met-e><rest>**": 2086, "rschi": 2087, "anta": 2088, "inge": 2089, "eigen": 2090, "trege": 2091, "bete": 2092, "rap": 2093, "oere": 2094, "tregel": 2095, "igin": 2096, "hr": 2097, "rkt": 2098, "cont": 2099, "ost": 2100, "cons": 2101, "idin": 2102, "nr": 2103, "iding": 2104, "legge": 2105, "aatr": 2106, "htl": 2107, "chtl": 2108, "atre": 2109, "orgen": 2110, "nve": 2111, "aarde": 2112, "aatre": 2113, "opl": 2114, "tlij": 2115, "appel": 2116, "ichtl": 2117, "oon": 2118, "atreg": 2119, "atrege": 2120, "tlijn": 2121, "aatreg": 2122, "aatrege": 2123, "bouw": 2124, "iging": 2125, "odu": 2126, "naam": 2127, "voorb": 2128, "aut": 2129, "maatr": 2130, "atregel": 2131, "aatregel": 2132, "maatre": 2133, "maatreg": 2134, "maatrege": 2135, "maatregel": 2136, "ban": 2137, "werp": 2138, "rijd": 2139, "htli": 2140, "chtli": 2141, "htlij": 2142, "chtlij": 2143, "enn": 2144, "htlijn": 2145, "chtlijn": 2146, "noe": 2147, "richtl": 2148, "ichtli": 2149, "richtli": 2150, "ichtlij": 2151, "richtlij": 2152, "ichtlijn": 2153, "richtlijn": 2154, "eidi": 2155, "denk": 2156, "eidin": 2157, "eiding": 2158, "derz": 2159, "misc": 2160, "misch": 2161, "berei": 2162, "ppelij": 2163, "ppelijk": 2164, "happel": 2165, "appeli": 2166, "chappel": 2167, "happeli": 2168, "chappeli": 2169, "appelij": 2170, "schappel": 2171, "happelij": 2172, "appelijk": 2173, "schappeli": 2174, "chappelij": 2175, "happelijk": 2176, "chappelijk": 2177, "schappelij": 2178, "schappelijk": 2179, "**<vnw><pers><pron><stan><red><3><mv>**": 2180, "atief": 2181, "gew": 2182, "leggen": 2183, "verh": 2184, "volk": 2185, "rodu": 2186, "oduc": 2187, "roduc": 2188, "roep": 2189, "dru": 2190, "anci": 2191, "overe": 2192, "nanc": 2193, "arv": 2194, "led": 2195, "vas": 2196, "ip": 2197, "preken": 2198, "spreken": 2199, "aarv": 2200, "oei": 2201, "sn": 2202, "form": 2203, "inan": 2204, "heids": 2205, "chr": 2206, "sme": 2207, "nni": 2208, "vast": 2209, "db": 2210, "fina": 2211, "nm": 2212, "hel": 2213, "nhei": 2214, "ewe": 2215, "finan": 2216, "lijken": 2217, "**<spec><vreemd>**": 2218, "inanc": 2219, "nanci": 2220, "financ": 2221, "inanci": 2222, "financi": 2223, "alis": 2224, "estaa": 2225, "stre": 2226, "reden": 2227, "luite": 2228, "inder": 2229, "digen": 2230, "werki": 2231, "werkin": 2232, "sluite": 2233, "omd": 2234, "dis": 2235, "pass": 2236, "wes": 2237, "enken": 2238, "ult": 2239, "rig": 2240, "oven": 2241, "werking": 2242, "coll": 2243, "alen": 2244, "luiten": 2245, "stie": 2246, "ore": 2247, "west": 2248, "lite": 2249, "eno": 2250, "oti": 2251, "ever": 2252, "enhe": 2253, "sluiten": 2254, "echts": 2255, "waaro": 2256, "nheid": 2257, "overee": 2258, "overeen": 2259, "oeren": 2260, "besta": 2261, "ive": 2262, "mda": 2263, "rijg": 2264, "omda": 2265, "mdat": 2266, "omdat": 2267, "eind": 2268, "enhei": 2269, "enheid": 2270, "akk": 2271, "etg": 2272, "estaan": 2273, "arkt": 2274, "markt": 2275, "rnem": 2276, "colle": 2277, "erne": 2278, "nit": 2279, "ndie": 2280, "grot": 2281, "ft": 2282, "ntal": 2283, "enkom": 2284, "ndien": 2285, "maal": 2286, "produ": 2287, "produc": 2288, "etge": 2289, "orbe": 2290, "krijg": 2291, "ordel": 2292, "erle": 2293, "bedr": 2294, "rapp": 2295, "fl": 2296, "aanta": 2297, "rijge": 2298, "litei": 2299, "liteit": 2300, "erna": 2301, "ichte": 2302, "ncie": 2303, "gang": 2304, "sere": 2305, "erva": 2306, "rmee": 2307, "ekki": 2308, "stru": 2309, "vis": 2310, "oordel": 2311, "seren": 2312, "bat": 2313, "ppo": 2314, "**<ww><vd><prenom><zonder>**": 2315, "itv": 2316, "rwi": 2317, "begi": 2318, "begin": 2319, "denke": 2320, "eers": 2321, "erwi": 2322, "krijge": 2323, "eba": 2324, "rijgen": 2325, "krijgen": 2326, "seri": 2327, "ligh": 2328, "nschapp": 2329, "enschapp": 2330, "amm": 2331, "nschappe": 2332, "enschappe": 2333, "were": 2334, "lde": 2335, "ancie": 2336, "ogr": 2337, "uitv": 2338, "lighe": 2339, "lighei": 2340, "ligheid": 2341, "ders": 2342, "eks": 2343, "bee": 2344, "oorbe": 2345, "eko": 2346, "uat": 2347, "denken": 2348, "eenk": 2349, "eenko": 2350, "uti": 2351, "voere": 2352, "voeren": 2353, "voorbe": 2354, "omisc": 2355, "nomis": 2356, "onomis": 2357, "omisch": 2358, "nsp": 2359, "nomisc": 2360, "nomisch": 2361, "onomisc": 2362, "onomisch": 2363, "dur": 2364, "conomis": 2365, "economis": 2366, "eenkom": 2367, "conomisc": 2368, "economisc": 2369, "conomisch": 2370, "economisch": 2371, "nancie": 2372, "inancie": 2373, "financie": 2374, "ps": 2375, "ehe": 2376, "bui": 2377, "estie": 2378, "har": 2379, "ogra": 2380, "olleg": 2381, "colleg": 2382, "ode": 2383, "jo": 2384, "ekkin": 2385, "ekking": 2386, "ichten": 2387, "ezen": 2388, "itb": 2389, "atu": 2390, "nzi": 2391, "odig": 2392, "deba": 2393, "bepa": 2394, "rekki": 2395, "nderz": 2396, "ebat": 2397, "debat": 2398, "schr": 2399, "uati": 2400, "uatie": 2401, "**<adj><prenom><comp><met-e><stan>**": 2402, "geri": 2403, "nschappel": 2404, "enschappel": 2405, "nschappeli": 2406, "enschappeli": 2407, "teur": 2408, "nschappelij": 2409, "enschappelij": 2410, "nschappelijk": 2411, "enschappelijk": 2412, "enli": 2413, "rog": 2414, "nkoms": 2415, "nkomst": 2416, "**<vnw><vb><adv-pron><obl><vol><3o><getal>**": 2417, "indi": 2418, "enlij": 2419, "cra": 2420, "/": 2421, "antal": 2422, "tvo": 2423, "aantal": 2424, "ollega": 2425, "collega": 2426, "regi": 2427, "anis": 2428, "cher": 2429, "ebe": 2430, "ppor": 2431, "pport": 2432, "lijv": 2433, "iligh": 2434, "ilighe": 2435, "ilighei": 2436, "iligheid": 2437, "eiligh": 2438, "eilighe": 2439, "eilighei": 2440, "eiligheid": 2441, "lijve": 2442, "orga": 2443, "lijven": 2444, "igd": 2445, "hil": 2446, "ingen": 2447, "erschi": 2448, "nod": 2449, "veiligh": 2450, "veilighe": 2451, "veilighei": 2452, "veiligheid": 2453, "rvoo": 2454, "rvoor": 2455, "blijv": 2456, "blijve": 2457, "blijven": 2458, "trekki": 2459, "rekkin": 2460, "trekkin": 2461, "rekking": 2462, "trekking": 2463, "enlijk": 2464, "leven": 2465, "rdr": 2466, "eslu": 2467, "eslui": 2468, "rekke": 2469, "beslu": 2470, "beslui": 2471, "esluit": 2472, "besluit": 2473, "sbe": 2474, "teli": 2475, "kenn": 2476, "nodi": 2477, "nodig": 2478, "geval": 2479, "trekke": 2480, "oeke": 2481, "net": 2482, "rea": 2483, "ces": 2484, "jzen": 2485, "ijzen": 2486, "disc": 2487, "verschi": 2488, "sto": 2489, "zig": 2490, "erhei": 2491, "erheid": 2492, "nwer": 2493, "esp": 2494, "appo": 2495, "rappo": 2496, "appor": 2497, "rappor": 2498, "apport": 2499, "rapport": 2500, "bestaa": 2501, "bestaan": 2502, "porte": 2503, "ichti": 2504, "ract": 2505, "rent": 2506, "sle": 2507, "scher": 2508, "att": 2509, "chil": 2510, "sis": 2511, "rwij": 2512, "erwij": 2513, "drie": 2514, "**<spec><symb>**": 2515, "rscha": 2516, "ociaa": 2517, "sociaa": 2518, "ociaal": 2519, "sociaal": 2520, "gevo": 2521, "erel": 2522, "nsen": 2523, "lop": 2524, "egro": 2525, "**<vnw><pers><pron><nomin><vol><3><ev><masc>**": 2526, "iste": 2527, "los": 2528, "groe": 2529, "binn": 2530, "binne": 2531, "binnen": 2532, "vrag": 2533, "eleg": 2534, "erli": 2535, "vrage": 2536, "plo": 2537, "vero": 2538, "rbij": 2539, "ouwe": 2540, "zek": 2541, "zeke": 2542, "zeker": 2543, "mente": 2544, "demo": 2545, "fer": 2546, "trij": 2547, "eger": 2548, "ritei": 2549, "ruk": 2550, "riteit": 2551, "vragen": 2552, "lege": 2553, "terr": 2554, "enkoms": 2555, "enkomst": 2556, "erscha": 2557, "kaa": 2558, "erdr": 2559, "inste": 2560, "prog": 2561, "itvo": 2562, "strij": 2563, "uitvo": 2564, "kwes": 2565, "kwest": 2566, "druk": 2567, "reld": 2568, "werel": 2569, "ereld": 2570, "wereld": 2571, "westi": 2572, "kwesti": 2573, "westie": 2574, "kwestie": 2575, "terna": 2576, "nwerk": 2577, "schil": 2578, "rogr": 2579, "uwen": 2580, "ilie": 2581, "ters": 2582, "uitb": 2583, "tz": 2584, "ontr": 2585, "hui": 2586, "buit": 2587, "**<vnw><pers><pron><nomin><red><3p><ev><masc>**": 2588, "kla": 2589, "fu": 2590, "gram": 2591, "eenkoms": 2592, "eenkomst": 2593, "progr": 2594, "lere": 2595, "milie": 2596, "rekken": 2597, "hri": 2598, "ocr": 2599, "geld": 2600, "rnat": 2601, "ernat": 2602, "rnati": 2603, "ernati": 2604, "rdeli": 2605, "leide": 2606, "ternat": 2607, "chri": 2608, "ternati": 2609, "eraa": 2610, "elo": 2611, "trekken": 2612, "cto": 2613, "soo": 2614, "tbr": 2615, "mma": 2616, "ezo": 2617, "ogram": 2618, "ramm": 2619, "aarb": 2620, "rogra": 2621, "rogram": 2622, "gramm": 2623, "progra": 2624, "program": 2625, "aari": 2626, "ogramm": 2627, "rogramm": 2628, "toek": 2629, "programm": 2630, "dure": 2631, "aarin": 2632, "dw": 2633, "eure": 2634, "ys": 2635, "log": 2636, "eta": 2637, "hal": 2638, "wijzen": 2639, "enwer": 2640, "begro": 2641, "nders": 2642, "ora": 2643, "lp": 2644, "stat": 2645, "eeld": 2646, "ies": 2647, "**<vnw><aanw><pron><stan><vol><3><getal>**": 2648, "etrekki": 2649, "betrekki": 2650, "etrekkin": 2651, "betrekkin": 2652, "etrekking": 2653, "betrekking": 2654, "andi": 2655, "rand": 2656, "gevi": 2657, "olu": 2658, "ocra": 2659, "otin": 2660, "oss": 2661, "roti": 2662, "euren": 2663, "groti": 2664, "nla": 2665, "eho": 2666, "drage": 2667, "oting": 2668, "rotin": 2669, "grotin": 2670, "roting": 2671, "groting": 2672, "enwerk": 2673, "ernem": 2674, "nad": 2675, "och": 2676, "tur": 2677, "anti": 2678, "verdr": 2679, "nal": 2680, "eerd": 2681, "rwa": 2682, "amma": 2683, "bew": 2684, "htin": 2685, "chtin": 2686, "nstel": 2687, "gevin": 2688, "dp": 2689, "geving": 2690, "hting": 2691, "chting": 2692, "buite": 2693, "tbre": 2694, "sy": 2695, "isse": 2696, "fa": 2697, "crat": 2698, "egrot": 2699, "begrot": 2700, "buiten": 2701, "uist": 2702, "trijd": 2703, "menw": 2704, "oeken": 2705, "ramma": 2706, "gramma": 2707, "rstell": 2708, "inv": 2709, "ogramma": 2710, "rogramma": 2711, "programma": 2712, "strijd": 2713, "tua": 2714, "menwe": 2715, "cho": 2716, "amenw": 2717, "samenw": 2718, "rgan": 2719, "racti": 2720, "menwer": 2721, "egroti": 2722, "begroti": 2723, "egrotin": 2724, "begrotin": 2725, "egroting": 2726, "begroting": 2727, "onge": 2728, "6": 2729, "amenwe": 2730, "samenwe": 2731, "amenwer": 2732, "menwerk": 2733, "samenwer": 2734, "amenwerk": 2735, "samenwerk": 2736, "rschil": 2737, "erschil": 2738, "verschil": 2739, "ndig": 2740, "duct": 2741, "beel": 2742, "beeld": 2743, "lec": 2744, "vaardi": 2745, "moc": 2746, "ractie": 2747, "ruc": 2748, "mocr": 2749, "emoc": 2750, "democ": 2751, "rach": 2752, "emocr": 2753, "democr": 2754, "dag": 2755, "mocra": 2756, "emocra": 2757, "democra": 2758, "rteu": 2759, "waarde": 2760, "rteur": 2761, "tste": 2762, "orteu": 2763, "porteu": 2764, "orteur": 2765, "porteur": 2766, "oren": 2767, "nlan": 2768, "pporte": 2769, "racht": 2770, "gerin": 2771, "gering": 2772, "ndh": 2773, "nderh": 2774, "fun": 2775, "anv": 2776, "apporte": 2777, "rapporte": 2778, "dz": 2779, "esche": 2780, "derha": 2781, "oduct": 2782, "roduct": 2783, "aanv": 2784, "vaardig": 2785, "crati": 2786, "frac": 2787, "fract": 2788, "fracti": 2789, "mon": 2790, "sr": 2791, "fractie": 2792, "kad": 2793, "nvo": 2794, "iets": 2795, "amel": 2796, "pporteu": 2797, "pporteur": 2798, "apporteu": 2799, "rapporteu": 2800, "apporteur": 2801, "rapporteur": 2802, "besche": 2803, "ror": 2804, "erste": 2805, "elde": 2806, "inf": 2807, "gde": 2808, "jui": 2809, "situ": 2810, "kade": 2811, "herm": 2812, "tuat": 2813, "tuati": 2814, "rik": 2815, "tuatie": 2816, "nzie": 2817, "tgev": 2818, "sat": 2819, "itua": 2820, "situa": 2821, "ituat": 2822, "situat": 2823, "ituati": 2824, "situati": 2825, "ituatie": 2826, "situatie": 2827, "paa": 2828, "mmen": 2829, "8": 2830, "atis": 2831, "reni": 2832, "ole": 2833, "meli": 2834, "emme": 2835, "ctor": 2836, "ereni": 2837, "ensen": 2838, "gst": 2839, "renig": 2840, "erenig": 2841, "spo": 2842, "eenschapp": 2843, "meenschapp": 2844, "schri": 2845, "emeenschapp": 2846, "gemeenschapp": 2847, "eenschappe": 2848, "meenschappe": 2849, "rstelle": 2850, "emeenschappe": 2851, "gemeenschappe": 2852, "nstell": 2853, "oos": 2854, "kader": 2855, "eenschappel": 2856, "meenschappel": 2857, "eenschappeli": 2858, "meenschappeli": 2859, "eenschappelij": 2860, "meenschappelij": 2861, "eenschappelijk": 2862, "meenschappelijk": 2863, "emeenschappel": 2864, "gemeenschappel": 2865, "emeenschappeli": 2866, "gemeenschappeli": 2867, "emeenschappelij": 2868, "gemeenschappelij": 2869, "emeenschappelijk": 2870, "gemeenschappelijk": 2871, "imm": 2872, "rstellen": 2873, "product": 2874, "ism": 2875, "werken": 2876, "nzien": 2877, "ieden": 2878, "7": 2879, "cherm": 2880, "scherm": 2881, "**<vnw><onbep><grad><stan><prenom><zonder><agr><comp>**": 2882, "rdra": 2883, "mmin": 2884, "mming": 2885, "rus": 2886, "eschi": 2887, "rschap": 2888, "lieu": 2889, "ilieu": 2890, "milieu": 2891, "onderz": 2892, "lst": 2893, "ndaa": 2894, "solu": 2895, "pal": 2896, "legen": 2897, "woorde": 2898, "vre": 2899, "lope": 2900, "derzo": 2901, "emmi": 2902, "erdra": 2903, "nderzo": 2904, "onderzo": 2905, "hoog": 2906, "derzoe": 2907, "nderzoe": 2908, "derzoek": 2909, "onderzoe": 2910, "nderzoek": 2911, "onderzoek": 2912, "verdra": 2913, "eru": 2914, "ands": 2915, "sec": 2916, "escher": 2917, "enkel": 2918, "bescher": 2919, "temmi": 2920, "stemmi": 2921, "ouwen": 2922, "erschap": 2923, "verst": 2924, "emmin": 2925, "emming": 2926, "mun": 2927, "andaa": 2928, "rmen": 2929, "lopen": 2930, "escherm": 2931, "bescherm": 2932, "hul": 2933, "reenk": 2934, "ereenk": 2935, "reenko": 2936, "vereenk": 2937, "ereenko": 2938, "reenkom": 2939, "overeenk": 2940, "vereenko": 2941, "ereenkom": 2942, "overeenko": 2943, "vereenkom": 2944, "overeenkom": 2945, "tvoe": 2946, "ici": 2947, "tvoer": 2948, "temmin": 2949, "stemmin": 2950, "temming": 2951, "stemming": 2952, "tred": 2953, "gre": 2954, "nau": 2955, "aang": 2956, "ekom": 2957, "evoe": 2958, "isme": 2959, "ciee": 2960, "eau": 2961, "cieel": 2962, "melij": 2963, "melijk": 2964, "eha": 2965, "ib": 2966, "ameli": 2967, "beho": 2968, "init": 2969, "rtij": 2970, "ndelin": 2971, "ndeling": 2972, "mense": 2973, "ordeli": 2974, "reger": 2975, "kene": 2976, "oordeli": 2977, "atuu": 2978, "merk": 2979, "ehee": 2980, "zicht": 2981, "bez": 2982, "igde": 2983, "bas": 2984, "zw": 2985, "nwerki": 2986, "nwerkin": 2987, "nwerking": 2988, "mmer": 2989, "ocrat": 2990, "contr": 2991, "egeri": 2992, "ermin": 2993, "itvoe": 2994, "itvoer": 2995, "uitvoe": 2996, "uitvoer": 2997, "dza": 2998, "ogi": 2999, "pers": 3000, "oeko": 3001, "nterna": 3002, "interna": 3003, "vereni": 3004, "verenig": 3005, "egerin": 3006, "egering": 3007, "twoorde": 3008, "ntwoorde": 3009, "amelij": 3010, "amelijk": 3011, "antwoorde": 3012, "ves": 3013, "toeko": 3014, "oekom": 3015, "toekom": 3016, "vent": 3017, "t-": 3018, "brei": 3019, "pli": 3020, "spro": 3021, "regeri": 3022, "regerin": 3023, "regering": 3024, "rnatio": 3025, "ernatio": 3026, "rnation": 3027, "ernation": 3028, "rnationa": 3029, "ernationa": 3030, "kenen": 3031, "breid": 3032, "nternat": 3033, "internat": 3034, "nternati": 3035, "ternatio": 3036, "internati": 3037, "nternatio": 3038, "ternation": 3039, "internatio": 3040, "nternation": 3041, "ternationa": 3042, "internation": 3043, "nternationa": 3044, "internationa": 3045, "edu": 3046, "edin": 3047, "gis": 3048, "iens": 3049, "itbr": 3050, "uitbr": 3051, "**<spec><afgebr>**": 3052, "uch": 3053, "pect": 3054, "spect": 3055, "ue": 3056, "iez": 3057, "nood": 3058, "orma": 3059, "isi": 3060, "scho": 3061, "meni": 3062, "gio": 3063, "einde": 3064, "fei": 3065, "keu": 3066, "gene": 3067, "mede": 3068, "voort": 3069, "mani": 3070, "diens": 3071, "ienst": 3072, "dienst": 3073, "telij": 3074, "telijk": 3075, "derw": 3076, "rwer": 3077, "oni": 3078, "cri": 3079, "ntro": 3080, "mocrat": 3081, "egio": 3082, "emocrat": 3083, "democrat": 3084, "are": 3085, "verwe": 3086, "oev": 3087, "niti": 3088, "ucht": 3089, "regio": 3090, "ocrati": 3091, "eding": 3092, "etgev": 3093, "wetg": 3094, "wetge": 3095, "wetgev": 3096, "**<vnw><onbep><grad><stan><prenom><zonder><agr><basis>**": 3097, "vest": 3098, "onv": 3099, "ener": 3100, "toc": 3101, "rba": 3102, "vervo": 3103, "verle": 3104, "kor": 3105, "itbre": 3106, "uitbre": 3107, "ekene": 3108, "ekenen": 3109, "organ": 3110, "rnationaa": 3111, "ernationaa": 3112, "rnationaal": 3113, "ternationaa": 3114, "ernationaal": 3115, "nternationaa": 3116, "ternationaal": 3117, "internationaa": 3118, "nternationaal": 3119, "internationaal": 3120, "ekoms": 3121, "ekomst": 3122, "oekoms": 3123, "toekoms": 3124, "oekomst": 3125, "toekomst": 3126, "nel": 3127, "ukk": 3128, "nderw": 3129, "enwerki": 3130, "enwerkin": 3131, "enwerking": 3132, "mocrati": 3133, "ieder": 3134, "emocrati": 3135, "democrati": 3136, "**<vnw><onbep><grad><stan><vrij><zonder><basis>**": 3137, "np": 3138, "graa": 3139, "orl": 3140, "erwer": 3141, "rbee": 3142, "initi": 3143, "vat": 3144, "onderw": 3145, "rbeel": 3146, "rbeeld": 3147, "genh": 3148, "ater": 3149, "arme": 3150, "menwerki": 3151, "amenwerki": 3152, "menwerkin": 3153, "samenwerki": 3154, "amenwerkin": 3155, "menwerking": 3156, "samenwerkin": 3157, "amenwerking": 3158, "samenwerking": 3159, "namel": 3160, "teel": 3161, "nameli": 3162, "namelij": 3163, "namelijk": 3164, "rdrag": 3165, "emmen": 3166, "nbe": 3167, "erbe": 3168, "enr": 3169, "aart": 3170, "oi": 3171, "sg": 3172, "mig": 3173, "rug": 3174, "isa": 3175, "orbee": 3176, "oorbee": 3177, "orbeel": 3178, "voorbee": 3179, "oorbeel": 3180, "orbeeld": 3181, "voorbeel": 3182, "oorbeeld": 3183, "voorbeeld": 3184, "feit": 3185, "erdrag": 3186, "drij": 3187, "verdrag": 3188, "bei": 3189, "gend": 3190, "atte": 3191, "hop": 3192, "eter": 3193, "twer": 3194, "anken": 3195, "nsel": 3196, "les": 3197, "prak": 3198, "parti": 3199, "eik": 3200, "itg": 3201, "nsti": 3202, "gere": 3203, "danke": 3204, "oorl": 3205, "sati": 3206, "uitg": 3207, "reenkoms": 3208, "ereenkoms": 3209, "reenkomst": 3210, "vereenkoms": 3211, "ereenkomst": 3212, "overeenkoms": 3213, "vereenkomst": 3214, "overeenkomst": 3215, "juis": 3216, "juist": 3217, "danken": 3218, "loss": 3219, "andeli": 3220, "oora": 3221, "temme": 3222, "stemme": 3223, "satie": 3224, "ione": 3225, "vang": 3226, "nre": 3227, "voora": 3228, "eci": 3229, "temmen": 3230, "stemmen": 3231, "tit": 3232, "ilit": 3233, "zaam": 3234, "reed": 3235, "enb": 3236, "erant": 3237, "nist": 3238, "nfo": 3239, "aarm": 3240, "onf": 3241, "gani": 3242, "spra": 3243, "une": 3244, "sh": 3245, "gevol": 3246, "oem": 3247, "evolg": 3248, "gevolg": 3249, "rgani": 3250, "hope": 3251, "ecto": 3252, "ichtin": 3253, "mom": 3254, "ichting": 3255, "renti": 3256, "verm": 3257, "conf": 3258, "ika": 3259, "teed": 3260, "steed": 3261, "handeli": 3262, "ine": 3263, "organi": 3264, "ector": 3265, "teeds": 3266, "steeds": 3267, "ganis": 3268, "bs": 3269, "fic": 3270, "dern": 3271, "vend": 3272, "rganis": 3273, "organis": 3274, "lar": 3275, "elege": 3276, "erzi": 3277, "orme": 3278, "beid": 3279, "kend": 3280, "eis": 3281, "ister": 3282, "terk": 3283, "egenh": 3284, "orit": 3285, "ntee": 3286, "ndb": 3287, "lands": 3288, "onderh": 3289, "andelin": 3290, "andeling": 3291, "terin": 3292, "handelin": 3293, "handeling": 3294, "anse": 3295, "waari": 3296, "waarin": 3297, "menin": 3298, "mening": 3299, "erga": 3300, "eerst": 3301, "asi": 3302, "enla": 3303, "reik": 3304, "kee": 3305, "tsc": 3306, "nsi": 3307, "geleg": 3308, "verant": 3309, "leren": 3310, "udi": 3311, "entee": 3312, "gelege": 3313, "elegen": 3314, "gelegen": 3315, "alt": 3316, "isat": 3317, "gsp": 3318, "angen": 3319, "rio": 3320, "gu": 3321, "sterk": 3322, "mome": 3323, "oment": 3324, "momen": 3325, "moment": 3326, "pres": 3327, "yst": 3328, "rantw": 3329, "erantw": 3330, "rantwo": 3331, "verantw": 3332, "erantwo": 3333, "rantwoo": 3334, "verantwo": 3335, "erantwoo": 3336, "rantwoor": 3337, "verantwoo": 3338, "erantwoor": 3339, "rantwoord": 3340, "verantwoor": 3341, "erantwoord": 3342, "verantwoord": 3343, "cre": 3344, "zorge": 3345, "nor": 3346, "ced": 3347, "armee": 3348, "biede": 3349, "tga": 3350, "fv": 3351, "ontro": 3352, "nteel": 3353, "eo": 3354, "enteel": 3355, "aarme": 3356, "yste": 3357, "natie": 3358, "tijde": 3359, "aarmee": 3360, "sli": 3361, "nstelli": 3362, "nstellin": 3363, "nstelling": 3364, "gezi": 3365, "ica": 3366, "contro": 3367, "tva": 3368, "trat": 3369, "oplo": 3370, "tbrei": 3371, "itbrei": 3372, "tbreid": 3373, "uitbrei": 3374, "itbreid": 3375, "uitbreid": 3376, "achten": 3377, "isere": 3378, "iseren": 3379, "mmu": 3380, "matie": 3381, "edur": 3382, "tti": 3383, "tori": 3384, "eso": 3385, "rkl": 3386, "uri": 3387, "ctu": 3388, "derd": 3389, "genhe": 3390, "edure": 3391, "mentee": 3392, "genhei": 3393, "genheid": 3394, "mmun": 3395, "sys": 3396, "rentie": 3397, "syst": 3398, "syste": 3399, "hill": 3400, "erkl": 3401, "pos": 3402, "keer": 3403, "erba": 3404, "zorgen": 3405, "egenhe": 3406, "orstell": 3407, "oorstell": 3408, "voorstell": 3409, "ctief": 3410, "rda": 3411, "egenhei": 3412, "egenheid": 3413, "menteel": 3414, "atuur": 3415, "nfor": 3416, "enlan": 3417, "legenh": 3418, "legenhe": 3419, "legenhei": 3420, "legenheid": 3421, "arbi": 3422, "erte": 3423, "ngsp": 3424, "taal": 3425, "isati": 3426, "elegenh": 3427, "gelegenh": 3428, "elegenhe": 3429, "gelegenhe": 3430, "dam": 3431, "erder": 3432, "elegenhei": 3433, "gelegenhei": 3434, "elegenheid": 3435, "gelegenheid": 3436, "bieden": 3437, "mini": 3438, "isatie": 3439, "nform": 3440, "hen": 3441, "tsch": 3442, "dia": 3443, "nland": 3444, "ges": 3445, "rgel": 3446, "richte": 3447, "e-": 3448, "orstelle": 3449, "oorstelle": 3450, "orstellen": 3451, "voorstelle": 3452, "oorstellen": 3453, "voorstellen": 3454, "chill": 3455, "lgens": 3456, "olgens": 3457, "volgens": 3458, "sect": 3459, "akel": 3460, "rdelij": 3461, "rdelijk": 3462, "beha": 3463, "schill": 3464, "aarbi": 3465, "reidi": 3466, "reidin": 3467, "reiding": 3468, "onee": 3469, "rso": 3470, "trol": 3471, "secto": 3472, "sector": 3473, "lings": 3474, "rneme": 3475, "uike": 3476, "odz": 3477, "ntrol": 3478, "ontrol": 3479, "alg": 3480, "control": 3481, "omp": 3482, "richten": 3483, "plos": 3484, "uig": 3485, "lech": 3486, "nere": 3487, "andb": 3488, "oodz": 3489, "asse": 3490, "lecht": 3491, "rschill": 3492, "erschill": 3493, "verschill": 3494, "lend": 3495, "endi": 3496, "anie": 3497, "fel": 3498, "neel": 3499, "ndp": 3500, "rijf": 3501, "noodz": 3502, "erso": 3503, "dens": 3504, "odza": 3505, "oodza": 3506, "noodza": 3507, "utie": 3508, "geh": 3509, "win": 3510, "verzo": 3511, "alge": 3512, "ergel": 3513, "ormi": 3514, "info": 3515, "role": 3516, "drijf": 3517, "rgeli": 3518, "rgelij": 3519, "rgelijk": 3520, "rans": 3521, "orite": 3522, "hille": 3523, "chille": 3524, "ifi": 3525, "rande": 3526, "ndere": 3527, "19": 3528, "trole": 3529, "oritei": 3530, "oriteit": 3531, "eike": 3532, "hillen": 3533, "schille": 3534, "chillen": 3535, "schillen": 3536, "bil": 3537, "ntrole": 3538, "ontrole": 3539, "controle": 3540, "ommu": 3541, "commu": 3542, "ommun": 3543, "commun": 3544, "rika": 3545, "ule": 3546, "kort": 3547, "hik": 3548, "ergeli": 3549, "ergelij": 3550, "ergelijk": 3551, "infor": 3552, "nnin": 3553, "chik": 3554, "schik": 3555, "inform": 3556, "ndu": 3557, "nning": 3558, "tgevi": 3559, "tgevin": 3560, "tgeving": 3561, "enne": 3562, "dpu": 3563, "dpun": 3564, "dpunt": 3565, "rla": 3566, "eiken": 3567, "reike": 3568, "reiken": 3569, "rmat": 3570, "oplos": 3571, "eerde": 3572, "arbij": 3573, "aarbij": 3574, "truc": 3575, "slo": 3576, "lden": 3577, "boe": 3578, "ruit": 3579, "etgevi": 3580, "wetgevi": 3581, "etgevin": 3582, "wetgevin": 3583, "etgeving": 3584, "wetgeving": 3585, "mind": 3586, "nderd": 3587, "eek": 3588, "edri": 3589, "daad": 3590, "zoeke": 3591, "afv": 3592, "luc": 3593, "erbi": 3594, "rdige": 3595, "nderen": 3596, "nderha": 3597, "andp": 3598, "rschille": 3599, "erschille": 3600, "rschillen": 3601, "verschille": 3602, "erschillen": 3603, "verschillen": 3604, "plic": 3605, "ereik": 3606, "cl": 3607, "raal": 3608, "las": 3609, "pn": 3610, "und": 3611, "leiden": 3612, "pz": 3613, "ploss": 3614, "oploss": 3615, "ruct": 3616, "struc": 3617, "truct": 3618, "struct": 3619, "slec": 3620, "slech": 3621, "slecht": 3622, "llend": 3623, "**<vnw><bez><det><stan><vol><1><mv><prenom><zonder><evon>**": 3624, "minde": 3625, "minder": 3626, "atisc": 3627, "atisch": 3628, "lise": 3629, "verga": 3630, "neren": 3631, "instel": 3632, "rov": 3633, "ordelij": 3634, "ordelijk": 3635, "instell": 3636, "alit": 3637, "tui": 3638, "vand": 3639, "ow": 3640, "plan": 3641, "ndpu": 3642, "ndpun": 3643, "ndpunt": 3644, "emin": 3645, "opn": 3646, "rza": 3647, "tandp": 3648, "rko": 3649, "ensi": 3650, "standp": 3651, "andpu": 3652, "andpun": 3653, "andpunt": 3654, "oordelij": 3655, "eune": 3656, "oordelijk": 3657, "tandpu": 3658, "standpu": 3659, "tandpun": 3660, "standpun": 3661, "tandpunt": 3662, "standpunt": 3663, "bedri": 3664, "hopen": 3665, "kra": 3666, "niv": 3667, "oof": 3668, "verzoe": 3669, "ezin": 3670, "unen": 3671, "nive": 3672, "eunen": 3673, "strat": 3674, "vanda": 3675, "eschik": 3676, "iat": 3677, "edrij": 3678, "lot": 3679, "voeg": 3680, "99": 3681, "oral": 3682, "neer": 3683, "liser": 3684, "teune": 3685, "steune": 3686, "rantwoorde": 3687, "erantwoorde": 3688, "verantwoorde": 3689, "ndhe": 3690, "teunen": 3691, "steunen": 3692, "aas": 3693, "ivi": 3694, "vandaa": 3695, "vormi": 3696, "tens": 3697, "nciee": 3698, "anciee": 3699, "nanciee": 3700, "inanciee": 3701, "financiee": 3702, "ncieel": 3703, "ancieel": 3704, "nancieel": 3705, "inancieel": 3706, "financieel": 3707, "bedrij": 3708, "dbo": 3709, "anz": 3710, "welk": 3711, "ooral": 3712, "vooral": 3713, "tione": 3714, "bov": 3715, "aran": 3716, "luch": 3717, "verhe": 3718, "lucht": 3719, "kij": 3720, "bove": 3721, "boven": 3722, "ndhei": 3723, "ndheid": 3724, "01": 3725, "noem": 3726, "lj": 3727, "rander": 3728, "rtu": 3729, "ereike": 3730, "ereiken": 3731, "pak": 3732, "ormin": 3733, "tering": 3734, "enland": 3735, "orming": 3736, "vormin": 3737, "vorming": 3738, "onderha": 3739, "oces": 3740, "roces": 3741, "proces": 3742, "zing": 3743, "nva": 3744, "sne": 3745, "comp": 3746, "aren": 3747, "url": 3748, "iati": 3749, "egeli": 3750, "venti": 3751, "old": 3752, "dbou": 3753, "pan": 3754, "kie": 3755, "ervan": 3756, "ndbo": 3757, "andbo": 3758, "tse": 3759, "onders": 3760, "ehan": 3761, "landb": 3762, "ehand": 3763, "nsta": 3764, "itga": 3765, "uitga": 3766, "rzie": 3767, "mmig": 3768, "ess": 3769, "lut": 3770, "tekene": 3771, "tekenen": 3772, "rwerp": 3773, "ruike": 3774, "keni": 3775, "wens": 3776, "aange": 3777, "ndbou": 3778, "dbouw": 3779, "landbo": 3780, "andbou": 3781, "ndbouw": 3782, "landbou": 3783, "andbouw": 3784, "landbouw": 3785, "nier": 3786, "gelijkh": 3787, "gelijkhe": 3788, "teem": 3789, "raf": 3790, "tec": 3791, "ystee": 3792, "steem": 3793, "systee": 3794, "ysteem": 3795, "systeem": 3796, "lfs": 3797, "rechts": 3798, "elden": 3799, "keur": 3800, "iem": 3801, "uurl": 3802, "uto": 3803, "nze": 3804, "akke": 3805, "gelijkhei": 3806, "gelijkheid": 3807, "dac": 3808, "nrec": 3809, "nrech": 3810, "nrecht": 3811, "geno": 3812, "tijden": 3813, "onve": 3814, "bruike": 3815, "natu": 3816, "jdens": 3817, "ijdens": 3818, "elfs": 3819, "erwerp": 3820, "**<vnw><bez><det><stan><vol><2><getal><prenom><zonder><agr>**": 3821, "antie": 3822, "nza": 3823, "edrijf": 3824, "bedrijf": 3825, "oced": 3826, "roced": 3827, "proced": 3828, "tscha": 3829, "oneel": 3830, "zelfs": 3831, "arva": 3832, "orw": 3833, "cedu": 3834, "ocedu": 3835, "cedur": 3836, "rocedu": 3837, "ocedur": 3838, "procedu": 3839, "rocedur": 3840, "procedur": 3841, "cedure": 3842, "ocedure": 3843, "rocedure": 3844, "procedure": 3845, "arvan": 3846, "aarva": 3847, "aarvan": 3848, "rmo": 3849, "tijdens": 3850, "rzien": 3851, "oorw": 3852, "oeme": 3853, "oj": 3854, "elings": 3855, "**<vnw><pr><pron><obl><vol><2><getal>**": 3856, "kenne": 3857, "kwa": 3858, "ooi": 3859, "verzoek": 3860, "ekeni": 3861, "woordel": 3862, "woordeli": 3863, "woordelij": 3864, "woordelijk": 3865, "aring": 3866, "rvoe": 3867, "opz": 3868, "twoordel": 3869, "ntwoordel": 3870, "twoordeli": 3871, "antwoordel": 3872, "ntwoordeli": 3873, "twoordelij": 3874, "rantwoordel": 3875, "antwoordeli": 3876, "ntwoordelij": 3877, "erantwoordel": 3878, "rantwoordeli": 3879, "antwoordelij": 3880, "verantwoordel": 3881, "erantwoordeli": 3882, "rantwoordelij": 3883, "verantwoordeli": 3884, "erantwoordelij": 3885, "verantwoordelij": 3886, "twoordelijk": 3887, "ntwoordelijk": 3888, "antwoordelijk": 3889, "rantwoordelijk": 3890, "erantwoordelijk": 3891, "verantwoordelijk": 3892, "fde": 3893, "ordi": 3894, "erme": 3895, "iatie": 3896, "ije": 3897, "lv": 3898, "n-": 3899, "assen": 3900, "want": 3901, "natuu": 3902, "natuur": 3903, "perso": 3904, "nnem": 3905, "luti": 3906, "ezon": 3907, "olut": 3908, "illend": 3909, "akeli": 3910, "weer": 3911, "oluti": 3912, "verbe": 3913, "beu": 3914, "afs": 3915, "td": 3916, "som": 3917, "mensen": 3918, "nisa": 3919, "gezo": 3920, "tuig": 3921, "inza": 3922, "ezond": 3923, "nsu": 3924, "nisat": 3925, "s-": 3926, "hn": 3927, "gezon": 3928, "gezond": 3929, "wez": 3930, "hor": 3931, "enre": 3932, "elst": 3933, "ana": 3934, "rhan": 3935, "rhand": 3936, "nstr": 3937, "redi": 3938, "risi": 3939, "toch": 3940, "lutie": 3941, "norm": 3942, "olutie": 3943, "anier": 3944, "jds": 3945, "ijds": 3946, "manie": 3947, "ged": 3948, "manier": 3949, "ilj": 3950, "beur": 3951, "ventie": 3952, "tstel": 3953, "oemen": 3954, "ldo": 3955, "forma": 3956, "hillend": 3957, "chillend": 3958, "schillend": 3959, "rschillend": 3960, "erschillend": 3961, "verschillend": 3962, "band": 3963, "ald": 3964, "olo": 3965, "bereik": 3966, "kle": 3967, "dach": 3968, "dacht": 3969, "lgem": 3970, "fva": 3971, "lgeme": 3972, "rnemen": 3973, "afva": 3974, "nisati": 3975, "teru": 3976, "epas": 3977, "nisatie": 3978, "eerder": 3979, "sk": 3980, "ledi": 3981, "rbet": 3982, "nts": 3983, "tschap": 3984, "deni": 3985, "daarv": 3986, "auto": 3987, "liss": 3988, "snel": 3989, "nwo": 3990, "derg": 3991, "htig": 3992, "chtig": 3993, "alise": 3994, "tersc": 3995, "**<vnw><onbep><pron><stan><vol><3p><ev>**": 3996, "osi": 3997, "algem": 3998, "algeme": 3999, "koo": 4000, "ndern": 4001, "eac": 4002, "hermi": 4003, "daag": 4004, "verba": 4005, "ebruike": 4006, "gebruike": 4007, "ossi": 4008, "chermi": 4009, "hermin": 4010, "schermi": 4011, "chermin": 4012, "schermin": 4013, "chie": 4014, "rmati": 4015, "lti": 4016, "erming": 4017, "herming": 4018, "cherming": 4019, "scherming": 4020, "erla": 4021, "tters": 4022, "erlij": 4023, "tersch": 4024, "oef": 4025, "eschermi": 4026, "beschermi": 4027, "eschermin": 4028, "beschermin": 4029, "escherming": 4030, "bescherming": 4031, "**<vnw><onbep><det><stan><prenom><zonder><evon>**": 4032, "jzi": 4033, "ijzi": 4034, "zoeken": 4035, "dv": 4036, "rove": 4037, "ton": 4038, "itters": 4039, "ewo": 4040, "dk": 4041, "zitters": 4042, "rzitters": 4043, "orzitters": 4044, "oorzitters": 4045, "voorzitters": 4046, "nzak": 4047, "terscha": 4048, "terschap": 4049, "reso": 4050, "nzake": 4051, "inzak": 4052, "oeve": 4053, "esol": 4054, "iep": 4055, ";": 4056, "resol": 4057, "ormat": 4058, "inzake": 4059, "nspa": 4060, "mul": 4061, "ndaag": 4062, "esolu": 4063, "resolu": 4064, "sd": 4065, "lema": 4066, "ttersc": 4067, "ittersc": 4068, "ttersch": 4069, "zittersc": 4070, "ittersch": 4071, "tterscha": 4072, "rzittersc": 4073, "zittersch": 4074, "itterscha": 4075, "tterschap": 4076, "orzittersc": 4077, "rzittersch": 4078, "zitterscha": 4079, "itterschap": 4080, "oorzittersc": 4081, "orzittersch": 4082, "rzitterscha": 4083, "zitterschap": 4084, "voorzittersc": 4085, "oorzittersch": 4086, "orzitterscha": 4087, "rzitterschap": 4088, "voorzittersch": 4089, "oorzitterscha": 4090, "orzitterschap": 4091, "voorzitterscha": 4092, "oorzitterschap": 4093, "voorzitterschap": 4094, "aliser": 4095, "rate": 4096, "ormati": 4097, "lste": 4098, "vu": 4099, "akelij": 4100, "herv": 4101, "onds": 4102, "eda": 4103, "akelijk": 4104, "rens": 4105, "ennen": 4106, "elste": 4107, "tik": 4108, "achter": 4109, "una": 4110, "rlo": 4111, "vie": 4112, "digh": 4113, "dighe": 4114, "format": 4115, "ingsp": 4116, "instelli": 4117, "instellin": 4118, "instelling": 4119, "formati": 4120, "erhan": 4121, "erhand": 4122, "ezie": 4123, "andaag": 4124, "vandaag": 4125, "toen": 4126, "verkl": 4127, "emaa": 4128, "rum": 4129, "ops": 4130, "rkel": 4131, "epen": 4132, "cul": 4133, "rmatie": 4134, "toep": 4135, "erbet": 4136, "ormatie": 4137, "oepa": 4138, "toepa": 4139, "oepas": 4140, "toepas": 4141, "slan": 4142, "igg": 4143, "dighei": 4144, "digheid": 4145, "lstel": 4146, "ledig": 4147, "elstel": 4148, "milj": 4149, "bereike": 4150, "bereiken": 4151, "ligg": 4152, "alite": 4153, "mie": 4154, "oels": 4155, "**<tw><rang><nom><zonder-n>**": 4156, "epal": 4157, "derne": 4158, "solut": 4159, "beter": 4160, "nderne": 4161, "soluti": 4162, "vall": 4163, "doels": 4164, "ntere": 4165, "ondern": 4166, "onderne": 4167, "esolut": 4168, "resolut": 4169, "esoluti": 4170, "resoluti": 4171, "zod": 4172, "lstell": 4173, "elstell": 4174, "lstelli": 4175, "elstelli": 4176, "lstellin": 4177, "elstellin": 4178, "lstelling": 4179, "elstelling": 4180, "rover": 4181, "solutie": 4182, "esolutie": 4183, "resolutie": 4184, "dernem": 4185, "ndernem": 4186, "ondernem": 4187, "oelst": 4188, "doelst": 4189, "oelste": 4190, "doelste": 4191, "oelstel": 4192, "doelstel": 4193, "oelstell": 4194, "doelstell": 4195, "oelstelli": 4196, "doelstelli": 4197, "oelstellin": 4198, "doelstellin": 4199, "oelstelling": 4200, "doelstelling": 4201, "jl": 4202, "formatie": 4203, "artij": 4204, "partij": 4205, "evoeg": 4206, "rbete": 4207, "verbet": 4208, "erbete": 4209, "verbete": 4210, "kiez": 4211, "nforma": 4212, "informa": 4213, "rbeter": 4214, "erbeter": 4215, "verbeter": 4216, "tuurl": 4217, "urli": 4218, "nformat": 4219, "nformati": 4220, "informat": 4221, "informati": 4222, "schie": 4223, "uurli": 4224, "kos": 4225, "epass": 4226, "lgemee": 4227, "lgemeen": 4228, "oepass": 4229, "toepass": 4230, "urlij": 4231, "uurlij": 4232, "igge": 4233, "vern": 4234, "ijl": 4235, "urlijk": 4236, "uurlijk": 4237, "estr": 4238, "rkla": 4239, "indie": 4240, "erkla": 4241, "uidi": 4242, "rvoer": 4243, "indien": 4244, "tuurli": 4245, "ndele": 4246, "tuurlij": 4247, "ligge": 4248, "tuurlijk": 4249, "uiter": 4250, "ndelen": 4251, "oudi": 4252, "alitei": 4253, "aliteit": 4254, "plich": 4255, "plicht": 4256, "erkel": 4257, "graag": 4258, "wijzi": 4259, "ink": 4260, "ukke": 4261, "ehande": 4262, "ehandel": 4263, "algemee": 4264, "algemeen": 4265, "aderi": 4266, "sul": 4267, "lfd": 4268, "kennen": 4269, "beschi": 4270, "elfd": 4271, "zelfd": 4272, "rer": 4273, "lfde": 4274, "elfde": 4275, "rdo": 4276, "zelfde": 4277, "oordi": 4278, "beschik": 4279, "aderin": 4280, "adering": 4281, "iggen": 4282, "liggen": 4283, "nformatie": 4284, "informatie": 4285, "tike": 4286, "erug": 4287, "npa": 4288, "atten": 4289, "terug": 4290, "lled": 4291, "emb": 4292, "rkeli": 4293, "erkeli": 4294, "rkelij": 4295, "erkelij": 4296, "rkelijk": 4297, "erkelijk": 4298, "inis": 4299, "etek": 4300, "blijk": 4301, "akt": 4302, "tstell": 4303, "logi": 4304, "oda": 4305, "stit": 4306, "cc": 4307, "bepal": 4308, "erneme": 4309, "eper": 4310, "woordi": 4311, "verkla": 4312, "tof": 4313, "osit": 4314, "aanse": 4315, "klar": 4316, "posi": 4317, "siti": 4318, "slot": 4319, "egri": 4320, "eteke": 4321, "eteken": 4322, "angs": 4323, "rc": 4324, "q": 4325, "posit": 4326, "voll": 4327, "volle": 4328, "betek": 4329, "beteke": 4330, "beteken": 4331, "rhande": 4332, "vold": 4333, "ice": 4334, "ositi": 4335, "positi": 4336, "isti": 4337, "oris": 4338, "rklar": 4339, "erklar": 4340, "hem": 4341, "verklar": 4342, "dre": 4343, "sitie": 4344, "enrec": 4345, "perk": 4346, "kst": 4347, "enrech": 4348, "enrecht": 4349, "oldo": 4350, "uctu": 4351, "behan": 4352, "behand": 4353, "behande": 4354, "behandel": 4355, "noeme": 4356, "voldo": 4357, "vea": 4358, "veau": 4359, "verte": 4360, "ivea": 4361, "nivea": 4362, "iveau": 4363, "niveau": 4364, "ositie": 4365, "positie": 4366, "entr": 4367, "**<vnw><pers><pron><nomin><vol><3v><ev><fem>**": 4368, "nneme": 4369, "ructu": 4370, "tructu": 4371, "structu": 4372, "olled": 4373, "son": 4374, "des": 4375, "tings": 4376, "idig": 4377, "uidig": 4378, "kenin": 4379, "cat": 4380, "kening": 4381, "tab": 4382, "ervoe": 4383, "lledi": 4384, "cer": 4385, "atuurl": 4386, "natuurl": 4387, "atuurli": 4388, "natuurli": 4389, "volled": 4390, "olledi": 4391, "lledig": 4392, "volledi": 4393, "olledig": 4394, "volledig": 4395, "atuurlij": 4396, "natuurlij": 4397, "atuurlijk": 4398, "natuurlijk": 4399, "env": 4400, "tia": 4401, "para": 4402, "enta": 4403, "ldoe": 4404, "anva": 4405, "aanva": 4406, "inist": 4407, "ldoen": 4408, "ffi": 4409, "vens": 4410, "amer": 4411, "oldoe": 4412, "voldoe": 4413, "oldoen": 4414, "voldoen": 4415, "sum": 4416, "ida": 4417, "chn": 4418, "nnemen": 4419, "aanz": 4420, "jdr": 4421, "ijdr": 4422, "ormen": 4423, "ervoo": 4424, "ervoor": 4425, "efe": 4426, "pm": 4427, "minis": 4428, "tran": 4429, "noemen": 4430, "tech": 4431, "kb": 4432, "moei": 4433, "eming": 4434, "bili": 4435, "uim": 4436, "huid": 4437, "centr": 4438, "minist": 4439, "assi": 4440, "abi": 4441, "valle": 4442, "sland": 4443, "ekenin": 4444, "gehe": 4445, "ekening": 4446, "dame": 4447, "andele": 4448, "andelen": 4449, "erre": 4450, "ezien": 4451, "hav": 4452, "echn": 4453, "bijd": 4454, "last": 4455, "bijdr": 4456, "passe": 4457, "techn": 4458, "ave": 4459, "jdra": 4460, "ijdra": 4461, "bijdra": 4462, "anw": 4463, "spel": 4464, "jdrag": 4465, "ijdrag": 4466, "jdrage": 4467, "bijdrag": 4468, "ijdrage": 4469, "bijdrage": 4470, "huidi": 4471, "huidig": 4472, "oru": 4473, "pale": 4474, "erhande": 4475, "derge": 4476, "lever": 4477, "evere": 4478, "ded": 4479, "tn": 4480, "qu": 4481, "ondh": 4482, "iel": 4483, "vred": 4484, "ondhe": 4485, "ondhei": 4486, "ondheid": 4487, "sser": 4488, "tsl": 4489, "erop": 4490, "ateg": 4491, "allen": 4492, "zondh": 4493, "ezondh": 4494, "zondhe": 4495, "gezondh": 4496, "ezondhe": 4497, "zondhei": 4498, "gezondhe": 4499, "ezondhei": 4500, "zondheid": 4501, "gezondhei": 4502, "ezondheid": 4503, "gezondheid": 4504, "mers": 4505, "viss": 4506, "tuk": 4507, "stuk": 4508, "span": 4509, "bijz": 4510, "oeri": 4511, "rhandel": 4512, "erhandel": 4513, "rake": 4514, "begri": 4515, "ekend": 4516, "uiken": 4517, "\u00ebr": 4518, "derhan": 4519, "derhand": 4520, "rgi": 4521, "geren": 4522, "uta": 4523, "gren": 4524, "werkel": 4525, "krac": 4526, "bek": 4527, "lta": 4528, "verp": 4529, "krach": 4530, "sw": 4531, "kg": 4532, "vallen": 4533, "stis": 4534, "gar": 4535, "kracht": 4536, "get": 4537, "erlijk": 4538, "stisc": 4539, "stisch": 4540, "tiat": 4541, "ringe": 4542, "ork": 4543, "vatt": 4544, "nderhan": 4545, "nderhand": 4546, "tiati": 4547, "rmij": 4548, "ermij": 4549, "tiatie": 4550, "werkeli": 4551, "werkelij": 4552, "werkelijk": 4553, "rban": 4554, "gewo": 4555, "espr": 4556, "ikel": 4557, "sid": 4558, "jzo": 4559, "ijzo": 4560, "jzon": 4561, "ijzon": 4562, "ringen": 4563, "enste": 4564, "ieze": 4565, "itia": 4566, "000": 4567, "wac": 4568, "nkeli": 4569, "bijzo": 4570, "jzond": 4571, "bijzon": 4572, "ijzond": 4573, "jzonde": 4574, "bijzond": 4575, "ijzonde": 4576, "jzonder": 4577, "bijzonde": 4578, "ijzonder": 4579, "bijzonder": 4580, "enwo": 4581, "nitia": 4582, "itiat": 4583, "initia": 4584, "nitiat": 4585, "initiat": 4586, "tali": 4587, "itiati": 4588, "nitiati": 4589, "initiati": 4590, "senr": 4591, "onderhan": 4592, "onderhand": 4593, "itiatie": 4594, "nitiatie": 4595, "initiatie": 4596, "rtr": 4597, "senre": 4598, "rve": 4599, "hrij": 4600, "chrij": 4601, "schrij": 4602, "evens": 4603, "senrec": 4604, "senrech": 4605, "senrecht": 4606, "ereid": 4607, "gl": 4608, "eti": 4609, "bereid": 4610, "ndr": 4611, "anisa": 4612, "anisat": 4613, "derhande": 4614, "nsenr": 4615, "ensenr": 4616, "nsenre": 4617, "mensenr": 4618, "ensenre": 4619, "nsenrec": 4620, "mensenre": 4621, "ensenrec": 4622, "nsenrech": 4623, "mensenrec": 4624, "ensenrech": 4625, "nsenrecht": 4626, "mensenrech": 4627, "ensenrecht": 4628, "mensenrecht": 4629, "nderhande": 4630, "tati": 4631, "derhandel": 4632, "nderhandel": 4633, "ogelijkh": 4634, "mogelijkh": 4635, "ogelijkhe": 4636, "mogelijkhe": 4637, "ganisa": 4638, "rganisa": 4639, "ganisat": 4640, "organisa": 4641, "rganisat": 4642, "organisat": 4643, "handele": 4644, "handelen": 4645, "wach": 4646, "wacht": 4647, "fere": 4648, "nkelij": 4649, "nkelijk": 4650, "genw": 4651, "opm": 4652, "oes": 4653, "lein": 4654, "breidi": 4655, "breidin": 4656, "breiding": 4657, "top": 4658, "rev": 4659, "jp": 4660, "erec": 4661, "ijp": 4662, "eet": 4663, "sve": 4664, "sts": 4665, "tbreidi": 4666, "itbreidi": 4667, "tbreidin": 4668, "uitbreidi": 4669, "itbreidin": 4670, "tbreiding": 4671, "uitbreidin": 4672, "itbreiding": 4673, "uitbreiding": 4674, "rukk": 4675, "nemi": 4676, "iger": 4677, "erech": 4678, "erecht": 4679, "onderhande": 4680, "ogelijkhei": 4681, "mogelijkhei": 4682, "ogelijkheid": 4683, "mogelijkheid": 4684, "onderhandel": 4685, "ial": 4686, "ruim": 4687, "nemin": 4688, "neming": 4689, "rto": 4690, "egenw": 4691, "vorme": 4692, "iatief": 4693, "ecti": 4694, "peci": 4695, "speci": 4696, "chu": 4697, "tiatief": 4698, "ture": 4699, "itiatief": 4700, "nitiatief": 4701, "initiatief": 4702, "tegenw": 4703, "erban": 4704, "drukk": 4705, "trans": 4706, "zijd": 4707, "ruiken": 4708, "erij": 4709, "onsu": 4710, "consu": 4711, "ossin": 4712, "tho": 4713, "ossing": 4714, "bruiken": 4715, "tera": 4716, "ernemen": 4717, "rvor": 4718, "ervor": 4719, "verge": 4720, "dergel": 4721, "zakel": 4722, "zakeli": 4723, "zakelij": 4724, "zakelijk": 4725, "dergeli": 4726, "dergelij": 4727, "dergelijk": 4728, "rvorm": 4729, "gisc": 4730, "ervorm": 4731, "verban": 4732, "aald": 4733, "anp": 4734, "hervo": 4735, "hervor": 4736, "hervorm": 4737, "htv": 4738, "chtv": 4739, "anisati": 4740, "dse": 4741, "vormen": 4742, "anisatie": 4743, "lossi": 4744, "lossin": 4745, "lossing": 4746, "ganisati": 4747, "rganisati": 4748, "organisati": 4749, "ratis": 4750, "dragen": 4751, "passen": 4752, "tev": 4753, "aanp": 4754, "ganisatie": 4755, "rganisatie": 4756, "organisatie": 4757, "rband": 4758, "erband": 4759, "\u00e9": 4760, "imme": 4761, "verband": 4762, "ttin": 4763, "vervoe": 4764, "gad": 4765, "bijv": 4766, "schu": 4767, "rleg": 4768, "grens": 4769, "visse": 4770, "ervoer": 4771, "dzak": 4772, "rteg": 4773, "dzake": 4774, "ustr": 4775, "order": 4776, "onen": 4777, "vervoer": 4778, "plossi": 4779, "oplossi": 4780, "plossin": 4781, "oplossin": 4782, "plossing": 4783, "oplossing": 4784, "ezig": 4785, "stst": 4786, "lemaa": 4787, "emaal": 4788, "arop": 4789, "02": 4790, "rkg": 4791, "erkg": 4792, "ordig": 4793, "werkg": 4794, "tting": 4795, "jec": 4796, "nwoo": 4797, "vel": 4798, "paal": 4799, "ira": 4800, "nwoor": 4801, "nwoord": 4802, "genwo": 4803, "egenwo": 4804, "grat": 4805, "waarb": 4806, "oste": 4807, "enwoo": 4808, "genwoo": 4809, "enwoor": 4810, "tegenwo": 4811, "egenwoo": 4812, "genwoor": 4813, "enwoord": 4814, "nwoordi": 4815, "tegenwoo": 4816, "egenwoor": 4817, "genwoord": 4818, "enwoordi": 4819, "tegenwoor": 4820, "egenwoord": 4821, "genwoordi": 4822, "tegenwoord": 4823, "egenwoordi": 4824, "tegenwoordi": 4825, "oordig": 4826, "woordig": 4827, "nwoordig": 4828, "enwoordig": 4829, "genwoordig": 4830, "egenwoordig": 4831, "tegenwoordig": 4832, "tm": 4833, "anpa": 4834, "aanpa": 4835, "oop": 4836, "dwe": 4837, "asis": 4838, "grati": 4839, "fend": 4840, "ucti": 4841, "aarop": 4842, "hore": 4843, "sge": 4844, "basi": 4845, "ffend": 4846, "amens": 4847, "effend": 4848, "feren": 4849, "reffend": 4850, "treffend": 4851, "basis": 4852, "nteg": 4853, "gade": 4854, "drin": 4855, "immer": 4856, "bepe": 4857, "beper": 4858, "eperk": 4859, "beperk": 4860, "lede": 4861, "nsum": 4862, "onsum": 4863, "consum": 4864, "jvo": 4865, "edo": 4866, "ijvo": 4867, "ulp": 4868, "uler": 4869, "rpl": 4870, "tate": 4871, "gisch": 4872, "jdi": 4873, "ijdi": 4874, "brek": 4875, "dzakel": 4876, "dzakeli": 4877, "dzakelij": 4878, "dzakelijk": 4879, "derwe": 4880, "cus": 4881, "hulp": 4882, "bijvo": 4883, "rtege": 4884, "rtegen": 4885, "zwa": 4886, "mac": 4887, "vord": 4888, "vorde": 4889, "erpl": 4890, "vorder": 4891, "leden": 4892, "wal": 4893, "aann": 4894, "jvoo": 4895, "ijvoo": 4896, "jvoor": 4897, "ijvoor": 4898, "owe": 4899, "\u00ebn": 4900, "rakt": 4901, "bijvoo": 4902, "bijvoor": 4903, "jvoorb": 4904, "ijvoorb": 4905, "jvoorbe": 4906, "bijvoorb": 4907, "ijvoorbe": 4908, "jvoorbee": 4909, "bijvoorbe": 4910, "ijvoorbee": 4911, "jvoorbeel": 4912, "bijvoorbee": 4913, "ijvoorbeel": 4914, "jvoorbeeld": 4915, "bijvoorbeel": 4916, "ijvoorbeeld": 4917, "bijvoorbeeld": 4918, "oede": 4919, "serin": 4920, "sering": 4921, "lemaal": 4922, "pele": 4923, "naut": 4924, "gader": 4925, "rend": 4926, "trum": 4927, "**<adj><nom><basis><zonder><zonder-n>**": 4928, "rgad": 4929, "ergad": 4930, "rgade": 4931, "vergad": 4932, "ergade": 4933, "rgader": 4934, "vergade": 4935, "ergader": 4936, "vergader": 4937, "horen": 4938, "ewel": 4939, "aanda": 4940, "iev": 4941, "term": 4942, "rijp": 4943, "annem": 4944, "rwaa": 4945, "aanne": 4946, "aannem": 4947, "zoda": 4948, "ndelij": 4949, "ndelijk": 4950, "sult": 4951, "auta": 4952, "kost": 4953, "denin": 4954, "rwaar": 4955, "seli": 4956, "nigd": 4957, "alin": 4958, "iseri": 4959, "enigd": 4960, "renigd": 4961, "erenigd": 4962, "verenigd": 4963, "raan": 4964, "pme": 4965, "delijkh": 4966, "delijkhe": 4967, "def": 4968, "iserin": 4969, "isering": 4970, "delijkhei": 4971, "delijkheid": 4972, "dening": 4973, "rdeni": 4974, "ordeni": 4975, "rdenin": 4976, "ordenin": 4977, "rdening": 4978, "ordening": 4979, "esu": 4980, "opme": 4981, "mmers": 4982, "state": 4983, "emer": 4984, "rkom": 4985, "isser": 4986, "ote": 4987, "immers": 4988, "lac": 4989, "cratis": 4990, "vendi": 4991, "endie": 4992, "stste": 4993, "odzak": 4994, "oodzak": 4995, "odzake": 4996, "noodzak": 4997, "oodzake": 4998, "noodzake": 4999, "nnee": 5000, "anzi": 5001, "ilite": 5002, "ebruiken": 5003, "gebruiken": 5004, "joe": 5005, "ststel": 5006, "ststell": 5007, "endien": 5008, "tze": 5009, "vrede": 5010, "ekt": 5011, "verpl": 5012, "rbo": 5013, "pmer": 5014, "opmer": 5015, "pmerk": 5016, "opmerk": 5017, "rsp": 5018, "aanzi": 5019, "wijs": 5020, "resu": 5021, "rdee": 5022, "meri": 5023, "edel": 5024, "nderwe": 5025, "ilitei": 5026, "iliteit": 5027, "ubl": 5028, "cere": 5029, "xt": 5030, "onderwe": 5031, "visser": 5032, "etekene": 5033, "betekene": 5034, "etekenen": 5035, "betekenen": 5036, "esul": 5037, "ext": 5038, "rdeel": 5039, "gratie": 5040, "resul": 5041, "esult": 5042, "result": 5043, "ulta": 5044, "hoev": 5045, "hoeve": 5046, "rere": 5047, "dent": 5048, "lari": 5049, "ceren": 5050, "unau": 5051, "unaut": 5052, "muna": 5053, "mmuna": 5054, "munau": 5055, "ommuna": 5056, "mmunau": 5057, "munaut": 5058, "communa": 5059, "ommunau": 5060, "mmunaut": 5061, "communau": 5062, "ommunaut": 5063, "communaut": 5064, "nneer": 5065, "nstru": 5066, "nauta": 5067, "unauta": 5068, "nct": 5069, "wann": 5070, "wanne": 5071, "ubli": 5072, "olog": 5073, "munauta": 5074, "mmunauta": 5075, "ommunauta": 5076, "communauta": 5077, "oork": 5078, "annee": 5079, "wannee": 5080, "anneer": 5081, "wanneer": 5082, "imi": 5083, "insp": 5084, "**<ww><od><vrij><zonder>**": 5085, "voorw": 5086, "vit": 5087, "rein": 5088, "the": 5089, "ane": 5090, "reren": 5091, "ags": 5092, "anzie": 5093, "aanzie": 5094, "anzien": 5095, "aanzien": 5096, "anni": 5097, "hart": 5098, "gezie": 5099, "gezien": 5100, "rekeni": 5101, "rekenin": 5102, "rekening": 5103, "sulta": 5104, "passi": 5105, "anb": 5106, "dic": 5107, "odzakel": 5108, "oodzakel": 5109, "odzakeli": 5110, "noodzakel": 5111, "oodzakeli": 5112, "odzakelij": 5113, "noodzakeli": 5114, "oodzakelij": 5115, "odzakelijk": 5116, "noodzakelij": 5117, "oodzakelijk": 5118, "noodzakelijk": 5119, "derwer": 5120, "wei": 5121, "istis": 5122, "tap": 5123, "istisc": 5124, "istisch": 5125, "ewi": 5126, "uctie": 5127, "everen": 5128, "nderwer": 5129, "onderwer": 5130, "arbe": 5131, "beve": 5132, "levere": 5133, "uut": 5134, "sver": 5135, "leveren": 5136, "rtik": 5137, "tikel": 5138, "rbei": 5139, "reeds": 5140, "rbeid": 5141, "derwerp": 5142, "nderwerp": 5143, "onderwerp": 5144, "artik": 5145, "rtike": 5146, "artike": 5147, "rtikel": 5148, "artikel": 5149, "erteg": 5150, "ertege": 5151, "ertegen": 5152, "moed": 5153, "ologi": 5154, "jpe": 5155, "ijpe": 5156, "trou": 5157, "nlands": 5158, "enlands": 5159, "trede": 5160, "ionee": 5161, "voork": 5162, "ltaa": 5163, "asts": 5164, "vange": 5165, "vasts": 5166, "astst": 5167, "vastst": 5168, "fte": 5169, "**<ww><od><prenom><zonder>**": 5170, "-l": 5171, "ertr": 5172, "utai": 5173, "ester": 5174, "utair": 5175, "itai": 5176, "itair": 5177, "ovend": 5178, "bestr": 5179, "jfe": 5180, "ijfe": 5181, "anwe": 5182, "arbei": 5183, "autai": 5184, "vendie": 5185, "vendien": 5186, "arbeid": 5187, "owel": 5188, "rvormi": 5189, "ervormi": 5190, "rvormin": 5191, "ervormin": 5192, "nautai": 5193, "autair": 5194, "unautai": 5195, "nautair": 5196, "unautair": 5197, "rvorming": 5198, "ervorming": 5199, "munautai": 5200, "mmunautai": 5201, "munautair": 5202, "ommunautai": 5203, "mmunautair": 5204, "communautai": 5205, "ommunautair": 5206, "communautair": 5207, "pij": 5208, "kge": 5209, "sma": 5210, "esulta": 5211, "resulta": 5212, "hervormi": 5213, "hervormin": 5214, "hervorming": 5215, "erent": 5216, "ultaa": 5217, "grijp": 5218, "estri": 5219, "trouw": 5220, "rri": 5221, "tige": 5222, "dring": 5223, "ltaat": 5224, "sultaa": 5225, "ultaat": 5226, "esultaa": 5227, "sultaat": 5228, "resultaa": 5229, "esultaat": 5230, "resultaat": 5231, "gelo": 5232, "rze": 5233, "ectie": 5234, "ibe": 5235, "ansp": 5236, "assin": 5237, "reve": 5238, "gelde": 5239, "venw": 5240, "rijv": 5241, "ergi": 5242, "ntra": 5243, "ppen": 5244, "blijke": 5245, "vertr": 5246, "rijpe": 5247, "assing": 5248, "nemer": 5249, "ndac": 5250, "treden": 5251, "astste": 5252, "vastste": 5253, "aststel": 5254, "vaststel": 5255, "aststell": 5256, "vaststell": 5257, "gelden": 5258, "ndach": 5259, "ndacht": 5260, "grijpe": 5261, "waarv": 5262, "evenw": 5263, "obe": 5264, "andac": 5265, "ofd": 5266, "pelen": 5267, "zow": 5268, "reven": 5269, "rsta": 5270, "199": 5271, "ussi": 5272, "aandac": 5273, "andach": 5274, "aandach": 5275, "andacht": 5276, "aandacht": 5277, "sst": 5278, "dringe": 5279, "ject": 5280, "kaar": 5281, "zowe": 5282, "zowel": 5283, "orui": 5284, "oruit": 5285, "ooru": 5286, "vooru": 5287, "oorui": 5288, "voorui": 5289, "ooruit": 5290, "vooruit": 5291, "stap": 5292, "oofd": 5293, "edk": 5294, "**<vnw><onbep><det><stan><prenom><met-e><evz>**": 5295, "adr": 5296, "klei": 5297, "\u00f6": 5298, "egd": 5299, "osten": 5300, "dringen": 5301, "klein": 5302, "nderi": 5303, "trie": 5304, "tstelle": 5305, "tstellen": 5306, "blijken": 5307, "nderin": 5308, "sume": 5309, "nsume": 5310, "onsume": 5311, "consume": 5312, "ncti": 5313, "ndering": 5314, "trate": 5315, "tiv": 5316, "passin": 5317, "passing": 5318, "**<ww><vd><nom><met-e><mv-n>**": 5319, "bilit": 5320, "oedk": 5321, "ndus": 5322, "verteg": 5323, "vertege": 5324, "rtegenw": 5325, "vertegen": 5326, "ertegenw": 5327, "rtegenwo": 5328, "vertegenw": 5329, "ertegenwo": 5330, "rtegenwoo": 5331, "vertegenwo": 5332, "ertegenwoo": 5333, "rtegenwoor": 5334, "vertegenwoo": 5335, "ertegenwoor": 5336, "rtegenwoord": 5337, "vertegenwoor": 5338, "ertegenwoord": 5339, "rtegenwoordi": 5340, "vertegenwoord": 5341, "ertegenwoordi": 5342, "rtegenwoordig": 5343, "vertegenwoordi": 5344, "ertegenwoordig": 5345, "vertegenwoordig": 5346, "rouwe": 5347, "bovend": 5348, "vangen": 5349, "aanb": 5350, "ovendi": 5351, "bovendi": 5352, "ovendie": 5353, "bovendie": 5354, "ovendien": 5355, "bovendien": 5356, "goedk": 5357, "itief": 5358, "rings": 5359, "eror": 5360, "ase": 5361, "veri": 5362, "kz": 5363, "strate": 5364, "rsoo": 5365, "esli": 5366, "ersoo": 5367, "tvaa": 5368, "tvaar": 5369, "nten": 5370, "derst": 5371, "rateg": 5372, "trateg": 5373, "strateg": 5374, "tsp": 5375, "tegi": 5376, "ategi": 5377, "rategi": 5378, "trategi": 5379, "strategi": 5380, "nha": 5381, "rzoeke": 5382, "elg": 5383, "eini": 5384, "nmi": 5385, "jh": 5386, "ijh": 5387, "gea": 5388, "kti": 5389, "hoof": 5390, "behe": 5391, "**<adj><nom><basis><met-e><mv-n>**": 5392, "hoofd": 5393, "rkge": 5394, "erkge": 5395, "erzoeke": 5396, "raak": 5397, "ldi": 5398, "werkge": 5399, "nderst": 5400, "nger": 5401, "ioneel": 5402, "epaa": 5403, "ratisc": 5404, "cratisc": 5405, "ratisch": 5406, "cratisch": 5407, "oedi": 5408, "nigde": 5409, "enigde": 5410, "renigde": 5411, "erenigde": 5412, "verenigde": 5413, "gspr": 5414, "sumen": 5415, "nsumen": 5416, "sument": 5417, "onsumen": 5418, "nsument": 5419, "consumen": 5420, "onsument": 5421, "consument": 5422, "namen": 5423, "bri": 5424, "ller": 5425, "rord": 5426, "erord": 5427, "indu": 5428, "dust": 5429, "ndust": 5430, "dustr": 5431, "ndustr": 5432, "mor": 5433, "oepe": 5434, "rorde": 5435, "erorde": 5436, "inse": 5437, "andig": 5438, "i\u00ebn": 5439, "rorden": 5440, "erorden": 5441, "ustri": 5442, "veror": 5443, "dustri": 5444, "ndustri": 5445, "verord": 5446, "bilite": 5447, "indus": 5448, "indust": 5449, "industr": 5450, "verorde": 5451, "\u2013": 5452, "bepaa": 5453, "epaal": 5454, "paald": 5455, "bepaal": 5456, "epaald": 5457, "bepaald": 5458, "rordeni": 5459, "verorden": 5460, "erordeni": 5461, "rordenin": 5462, "erordenin": 5463, "rordening": 5464, "erordening": 5465, "bilitei": 5466, "biliteit": 5467, "industri": 5468, "afl": 5469, "ece": 5470, "namens": 5471, "gins": 5472, "verordeni": 5473, "verordenin": 5474, "verordening": 5475, "slis": 5476, "besli": 5477, "eslis": 5478, "beslis": 5479, "uige": 5480, "fvaa": 5481, "fvaar": 5482, "fvaard": 5483, "fvaardi": 5484, "fvaardig": 5485, "afvaa": 5486, "afvaar": 5487, "afvaard": 5488, "afvaardi": 5489, "afvaardig": 5490, "mbe": 5491, "ukken": 5492, "onderst": 5493, "tien": 5494, "amp": 5495, "orwa": 5496, "overh": 5497, "iezen": 5498, "oorwa": 5499, "orwaa": 5500, "oorwaa": 5501, "orwaar": 5502, "oorwaar": 5503, "voorwa": 5504, "voorwaa": 5505, "voorwaar": 5506, "estrij": 5507, "lechts": 5508, "slechts": 5509, "teraa": 5510, "peri": 5511, "msti": 5512, "achti": 5513, "meer": 5514, "nle": 5515, "reide": 5516, "nga": 5517, "nisc": 5518, "egins": 5519, "begins": 5520, "lati": 5521, "insel": 5522, "gebe": 5523, "ocratis": 5524, "soor": 5525, "maats": 5526, "ept": 5527, "ginse": 5528, "omsti": 5529, "digd": 5530, "eginse": 5531, "ginsel": 5532, "beginse": 5533, "eginsel": 5534, "beginsel": 5535, "komsti": 5536, "aling": 5537, "erik": 5538, "tar": 5539, "ezing": 5540, "mit": 5541, "gehee": 5542, "eheel": 5543, "geheel": 5544, "mstig": 5545, "omstig": 5546, "komstig": 5547, "soon": 5548, "rsoon": 5549, "persoo": 5550, "ersoon": 5551, "persoon": 5552, "nisch": 5553, "rijs": 5554, "arn": 5555, "rep": 5556, "iu": 5557, "stere": 5558, "ngspr": 5559, "ebeu": 5560, "ebeur": 5561, "kko": 5562, "rijh": 5563, "lka": 5564, "pub": 5565, "gspro": 5566, "bestri": 5567, "rwaard": 5568, "verke": 5569, "inig": 5570, "bestrij": 5571, "erwa": 5572, "etrekke": 5573, "rzaa": 5574, "opt": 5575, "publ": 5576, "publi": 5577, "**<adj><nom><basis><met-e><zonder-n><stan>**": 5578, "enis": 5579, "vrijh": 5580, "gebeu": 5581, "gebeur": 5582, "erika": 5583, "arvo": 5584, "steren": 5585, "asti": 5586, "mocratis": 5587, "aarvo": 5588, "emocratis": 5589, "democratis": 5590, "rro": 5591, "arvoo": 5592, "arvoor": 5593, "aarvoo": 5594, "aarvoor": 5595, "nerg": 5596, "oegd": 5597, "betrekke": 5598, "bevoe": 5599, "bevoeg": 5600, "iver": 5601, "ingspr": 5602, "ljo": 5603, "rwaarde": 5604, "eus": 5605, "tend": 5606, "auw": 5607, "iljo": 5608, "\u00ebre": 5609, "\u00ebren": 5610, "rukke": 5611, "andere": 5612, "ljoe": 5613, "strie": 5614, "joen": 5615, "miljo": 5616, "iljoe": 5617, "ljoen": 5618, "iljoen": 5619, "anderen": 5620, "ustrie": 5621, "dustrie": 5622, "ndustrie": 5623, "industrie": 5624, "voegd": 5625, "evoegd": 5626, "spar": 5627, "kn": 5628, "jzig": 5629, "ijzig": 5630, "miljoe": 5631, "miljoen": 5632, "bevoegd": 5633, "nstig": 5634, "erig": 5635, "each": 5636, "wijzig": 5637, "ngspro": 5638, "ngev": 5639, "voord": 5640, "lles": 5641, "tatie": 5642, "kelings": 5643, "anneme": 5644, "aanneme": 5645, "esi": 5646, "adi": 5647, "oost": 5648, "**<spec><afk>**": 5649, "alti": 5650, "001": 5651, "drukke": 5652, "reiden": 5653, "urr": 5654, "enad": 5655, "fh": 5656, "tionee": 5657, "rlen": 5658, "ltij": 5659, "ltijd": 5660, "erlen": 5661, "verlen": 5662, "kkelings": 5663, "ikkelings": 5664, "wikkelings": 5665, "tioneel": 5666, "kte": 5667, "gdh": 5668, "gdhe": 5669, "estrijd": 5670, "soort": 5671, "boek": 5672, "roj": 5673, "eacht": 5674, "rad": 5675, "ingspro": 5676, "twikkelings": 5677, "ntwikkelings": 5678, "ontwikkelings": 5679, "voed": 5680, "indel": 5681, "rschr": 5682, "ekst": 5683, "rhandeli": 5684, "erhandeli": 5685, "rhandelin": 5686, "erhandelin": 5687, "rhandeling": 5688, "erhandeling": 5689, "roei": 5690, "elem": 5691, "evor": 5692, "geac": 5693, "off": 5694, "kba": 5695, "lach": 5696, "geach": 5697, "geacht": 5698, "rschri": 5699, "randere": 5700, "randeren": 5701, "derhandeli": 5702, "nderhandeli": 5703, "derhandelin": 5704, "onderhandeli": 5705, "nderhandelin": 5706, "derhandeling": 5707, "onderhandelin": 5708, "nderhandeling": 5709, "onderhandeling": 5710, "annemen": 5711, "aannemen": 5712, "agi": 5713, "evaa": 5714, "evaar": 5715, "onderd": 5716, "daat": 5717, "rzoeken": 5718, "nsl": 5719, "loe": 5720, "erenti": 5721, "pst": 5722, "voeri": 5723, "rho": 5724, "erings": 5725, "ium": 5726, "erzoeken": 5727, "fw": 5728, "cur": 5729, "alles": 5730, "etrekken": 5731, "lov": 5732, "nade": 5733, "vul": 5734, "itst": 5735, "pens": 5736, "kbaa": 5737, "kbaar": 5738, "sent": 5739, "gaderi": 5740, "rgaderi": 5741, "gaderin": 5742, "ergaderi": 5743, "rgaderin": 5744, "vergaderi": 5745, "ergaderin": 5746, "vergaderin": 5747, "gadering": 5748, "rgadering": 5749, "ergadering": 5750, "vergadering": 5751, "bestrijd": 5752, "gdhei": 5753, "gdheid": 5754, "nteren": 5755, "ntwe": 5756, "ober": 5757, "lve": 5758, "luk": 5759, "ehoe": 5760, "verde": 5761, "rpli": 5762, "rplic": 5763, "rplich": 5764, "rplicht": 5765, "erpli": 5766, "erplic": 5767, "erplich": 5768, "erplicht": 5769, "lib": 5770, "betrekken": 5771, "bena": 5772, "ict": 5773, "ntwer": 5774, "verpli": 5775, "verplic": 5776, "verplich": 5777, "verplicht": 5778, "twerp": 5779, "bera": 5780, "nstem": 5781, "uld": 5782, "ntwerp": 5783, "otings": 5784, "rotings": 5785, "grotings": 5786, "inzi": 5787, "egrotings": 5788, "begrotings": 5789, "lus": 5790, "ankel": 5791, "cce": 5792, "erro": 5793, "ontwe": 5794, "love": 5795, "altij": 5796, "altijd": 5797, "uee": 5798, "inat": 5799, "ape": 5800, "wali": 5801, "**<vnw><vb><det><stan><prenom><met-e><rest>**": 5802, "ontwer": 5803, "ontwerp": 5804, "stin": 5805, "ime": 5806, "niste": 5807, "rlan": 5808, "menl": 5809, "afh": 5810, "iniste": 5811, "nister": 5812, "inister": 5813, "tim": 5814, "pann": 5815, "amenl": 5816, "tgan": 5817, "tgang": 5818, "uitst": 5819, "rdigen": 5820, "nstemm": 5821, "nvaa": 5822, "nvaar": 5823, "2001": 5824, "behoe": 5825, "uigen": 5826, "ueel": 5827, "nce": 5828, "atsc": 5829, "kwal": 5830, "aatsc": 5831, "kwali": 5832, "tic": 5833, "atsch": 5834, "aatsch": 5835, "beta": 5836, "atscha": 5837, "ministe": 5838, "aatscha": 5839, "minister": 5840, "atschap": 5841, "aatschap": 5842, "maatsc": 5843, "maatsch": 5844, "maatscha": 5845, "mber": 5846, "maatschap": 5847, "opst": 5848, "elijke": 5849, "tigen": 5850, "orwaard": 5851, "oorwaard": 5852, "orwaarde": 5853, "oorwaarde": 5854, "voorwaard": 5855, "voorwaarde": 5856, "orlo": 5857, "spann": 5858, "oorlo": 5859, "erda": 5860, "chen": 5861, "sproc": 5862, "ieb": 5863, "sproce": 5864, "annin": 5865, "toeg": 5866, "rgie": 5867, "anning": 5868, "rkome": 5869, "klari": 5870, "larin": 5871, "klarin": 5872, "laring": 5873, "klaring": 5874, "jpen": 5875, "ijpen": 5876, "vatte": 5877, "ankeli": 5878, "rklari": 5879, "erklari": 5880, "rklarin": 5881, "erklarin": 5882, "rklaring": 5883, "erklaring": 5884, "ankelij": 5885, "ankelijk": 5886, "ncu": 5887, "verklari": 5888, "verklarin": 5889, "verklaring": 5890, "vatten": 5891, "derhe": 5892, "duu": 5893, "htva": 5894, "chtva": 5895, "duur": 5896, "rouwen": 5897, "ople": 5898, "igr": 5899, "cit": 5900, "jhe": 5901, "ijhe": 5902, "anvaa": 5903, "aanvaa": 5904, "anvaar": 5905, "aanvaar": 5906, "htvaa": 5907, "chtvaa": 5908, "htvaar": 5909, "chtvaar": 5910, "vij": 5911, "erho": 5912, "nvaard": 5913, "ergie": 5914, "anvaard": 5915, "aanvaard": 5916, "**<vnw><aanw><det><stan><nom><met-e><zonder-n>**": 5917, "overhe": 5918, "itz": 5919, "ferent": 5920, "ferenti": 5921, "rkomen": 5922, "indeli": 5923, "verwa": 5924, "beure": 5925, "beuren": 5926, "wege": 5927, "waarop": 5928, "jhei": 5929, "ijhei": 5930, "jheid": 5931, "ijheid": 5932, "fg": 5933, "rori": 5934, "kant": 5935, "tk": 5936, "ocratisc": 5937, "ocratisch": 5938, "aags": 5939, "mod": 5940, "urre": 5941, "g-": 5942, "afr": 5943, "ische": 5944, "rijpen": 5945, "gt": 5946, "enni": 5947, "sliss": 5948, "esliss": 5949, "besliss": 5950, "ctuu": 5951, "ctuur": 5952, "eindel": 5953, "rijhe": 5954, "integ": 5955, "rror": 5956, "rim": 5957, "grijpen": 5958, "itsl": 5959, "vrijhe": 5960, "daarb": 5961, "03": 5962, "nba": 5963, "einig": 5964, "digi": 5965, "terro": 5966, "error": 5967, "terror": 5968, "leidi": 5969, "leidin": 5970, "leiding": 5971, "migr": 5972, "rrori": 5973, "roris": 5974, "errori": 5975, "rroris": 5976, "terrori": 5977, "erroris": 5978, "terroris": 5979, "bevol": 5980, "erze": 5981, "derhei": 5982, "derheid": 5983, "evolk": 5984, "bevolk": 5985, "ameri": 5986, "fec": 5987, "mt": 5988, "uitsl": 5989, "erand": 5990, "erentie": 5991, "ginn": 5992, "tivi": 5993, "loven": 5994, "pv": 5995, "merki": 5996, "merkin": 5997, "merking": 5998, "nergi": 5999, "nergie": 6000, "lki": 6001, "opr": 6002, "rijhei": 6003, "vrijhei": 6004, "rijheid": 6005, "vrijheid": 6006, "ctiv": 6007, "enoe": 6008, "erande": 6009, "benad": 6010, "verand": 6011, "verande": 6012, "erander": 6013, "verander": 6014, "mocratisc": 6015, "mocratisch": 6016, "emocratisc": 6017, "democratisc": 6018, "emocratisch": 6019, "democratisch": 6020, "embe": 6021, "fect": 6022, "mpe": 6023, "curr": 6024, "terre": 6025, "odat": 6026, "nver": 6027, "tandi": 6028, "!": 6029, "zodat": 6030, "ginne": 6031, "lkin": 6032, "standi": 6033, "gara": 6034, "ginnen": 6035, "ars": 6036, "arant": 6037, "etw": 6038, "cier": 6039, "eginn": 6040, "beginn": 6041, "rstr": 6042, "inati": 6043, "eraal": 6044, "pakk": 6045, "lichti": 6046, "eginne": 6047, "beginne": 6048, "eginnen": 6049, "beginnen": 6050, "olki": 6051, "olkin": 6052, "cult": 6053, "rdelijkh": 6054, "rdelijkhe": 6055, "lage": 6056, "scu": 6057, "curre": 6058, "rdelijkhei": 6059, "rdelijkheid": 6060, "ivit": 6061, "oncu": 6062, "concu": 6063, "ncur": 6064, "oncur": 6065, "ncurr": 6066, "concur": 6067, "oncurr": 6068, "ncurre": 6069, "concurr": 6070, "oncurre": 6071, "concurre": 6072, "ststelle": 6073, "ststellen": 6074, "fon": 6075, "tandig": 6076, "standig": 6077, "ordelijkh": 6078, "oordelijkh": 6079, "ordelijkhe": 6080, "woordelijkh": 6081, "oordelijkhe": 6082, "twoordelijkh": 6083, "woordelijkhe": 6084, "ntwoordelijkh": 6085, "twoordelijkhe": 6086, "antwoordelijkh": 6087, "ntwoordelijkhe": 6088, "rantwoordelijkh": 6089, "antwoordelijkhe": 6090, "erantwoordelijkh": 6091, "rantwoordelijkhe": 6092, "verantwoordelijkh": 6093, "erantwoordelijkhe": 6094, "verantwoordelijkhe": 6095, "lking": 6096, "rhal": 6097, "ordelijkhei": 6098, "oordelijkhei": 6099, "ordelijkheid": 6100, "woordelijkhei": 6101, "oordelijkheid": 6102, "twoordelijkhei": 6103, "woordelijkheid": 6104, "ntwoordelijkhei": 6105, "twoordelijkheid": 6106, "antwoordelijkhei": 6107, "ntwoordelijkheid": 6108, "rantwoordelijkhei": 6109, "antwoordelijkheid": 6110, "erantwoordelijkhei": 6111, "rantwoordelijkheid": 6112, "verantwoordelijkhei": 6113, "erantwoordelijkheid": 6114, "verantwoordelijkheid": 6115, "igra": 6116, "erhal": 6117, "lm": 6118, "merik": 6119, "amerik": 6120, "merika": 6121, "amerika": 6122, "olking": 6123, "e\u00eb": 6124, "ember": 6125, "deg": 6126, "rijve": 6127, "ln": 6128, "ltu": 6129, "erti": 6130, "garan": 6131, "rzij": 6132, "rzijd": 6133, "nov": 6134, "uitz": 6135, "energ": 6136, "vite": 6137, "erzij": 6138, "erzijd": 6139, "vitei": 6140, "viteit": 6141, "rweg": 6142, "beste": 6143, "oeil": 6144, "edere": 6145, "onst": 6146, "ilij": 6147, "oeili": 6148, "eilij": 6149, "ilijk": 6150, "oeilij": 6151, "eilijk": 6152, "oeilijk": 6153, "ivite": 6154, "ivitei": 6155, "iviteit": 6156, "etal": 6157, "toet": 6158, "derl": 6159, "volki": 6160, "volkin": 6161, "volking": 6162, "migra": 6163, "espre": 6164, "rtui": 6165, "koor": 6166, "enm": 6167, "moeil": 6168, "moeili": 6169, "moeilij": 6170, "moeilijk": 6171, "agst": 6172, "dke": 6173, "kgel": 6174, "ultu": 6175, "hikk": 6176, "traf": 6177, "aven": 6178, "chikk": 6179, "schikk": 6180, "cultu": 6181, "energi": 6182, "energie": 6183, "hale": 6184, "groep": 6185, "eindeli": 6186, "indelij": 6187, "eindelij": 6188, "indelijk": 6189, "eindelijk": 6190, "kgele": 6191, "kgeleg": 6192, "halen": 6193, "waarm": 6194, "erstr": 6195, "gstu": 6196, "ducti": 6197, "instr": 6198, "esprek": 6199, "tne": 6200, "rkgel": 6201, "erkgel": 6202, "rkgele": 6203, "werkgel": 6204, "erkgele": 6205, "rkgeleg": 6206, "kgelege": 6207, "werkgele": 6208, "erkgeleg": 6209, "rkgelege": 6210, "kgelegen": 6211, "werkgeleg": 6212, "erkgelege": 6213, "rkgelegen": 6214, "werkgelege": 6215, "erkgelegen": 6216, "werkgelegen": 6217, "kgelegenh": 6218, "rkgelegenh": 6219, "kgelegenhe": 6220, "erkgelegenh": 6221, "rkgelegenhe": 6222, "kgelegenhei": 6223, "werkgelegenh": 6224, "erkgelegenhe": 6225, "rkgelegenhei": 6226, "kgelegenheid": 6227, "werkgelegenhe": 6228, "erkgelegenhei": 6229, "rkgelegenheid": 6230, "werkgelegenhei": 6231, "erkgelegenheid": 6232, "werkgelegenheid": 6233, "dkeu": 6234, "tenl": 6235, "evolki": 6236, "bevolki": 6237, "evolkin": 6238, "bevolkin": 6239, "evolking": 6240, "bevolking": 6241, "rmijn": 6242, "ermijn": 6243, "rtuig": 6244, "lacht": 6245, "utor": 6246, "straf": 6247, "evord": 6248, "evorde": 6249, "akti": 6250, "ordige": 6251, "oordige": 6252, "woordige": 6253, "nwoordige": 6254, "enwoordige": 6255, "genwoordige": 6256, "egenwoordige": 6257, "tegenwoordige": 6258, "rtegenwoordige": 6259, "ertegenwoordige": 6260, "vertegenwoordige": 6261, "evorder": 6262, "prakt": 6263, "rakti": 6264, "prakti": 6265, "sprak": 6266, "aagst": 6267, "autor": 6268, "edke": 6269, "oedke": 6270, "goedke": 6271, "teks": 6272, "tekst": 6273, "nzet": 6274, "edkeu": 6275, "dkeur": 6276, "oedkeu": 6277, "edkeur": 6278, "goedkeu": 6279, "oedkeur": 6280, "goedkeur": 6281, "orko": 6282, "utori": 6283, "raags": 6284, "raagst": 6285, "rpe": 6286, "vraags": 6287, "autori": 6288, "tivit": 6289, "vraagst": 6290, "oorko": 6291, "stij": 6292, "orkom": 6293, "elaa": 6294, "oorkom": 6295, "koord": 6296, "dels": 6297, "aarn": 6298, "rkee": 6299, "rkeer": 6300, "nbaa": 6301, "akko": 6302, "ssc": 6303, "kkoo": 6304, "akkoo": 6305, "kkoor": 6306, "akkoor": 6307, "kkoord": 6308, "akkoord": 6309, "ctivi": 6310, "ezel": 6311, "voorko": 6312, "voorkom": 6313, "stek": 6314, "opp": 6315, "erkee": 6316, "verkee": 6317, "erkeer": 6318, "verkeer": 6319, "daarbi": 6320, "disch": 6321, "nbaar": 6322, "bevor": 6323, "bevord": 6324, "bevorde": 6325, "bevorder": 6326, "efen": 6327, "ni\u00eb": 6328, "ssch": 6329, "rdin": 6330, "ferentie": 6331, "nadr": 6332, "adru": 6333, "nadru": 6334, "adruk": 6335, "nadruk": 6336, "ncier": 6337, "ancier": 6338, "torit": 6339, "oje": 6340, "eded": 6341, "tivite": 6342, "tivitei": 6343, "tiviteit": 6344, "edra": 6345, "asp": 6346, "conv": 6347, "vlo": 6348, "meded": 6349, "sre": 6350, "lla": 6351, "conve": 6352, "utorit": 6353, "autorit": 6354, "roepe": 6355, "cratie": 6356, "dege": 6357, "mule": 6358, "gn": 6359, "daarbij": 6360, "gevaa": 6361, "gevaar": 6362, "kop": 6363, "enba": 6364, "ndiene": 6365, "iscu": 6366, "uctuu": 6367, "uctuur": 6368, "ructuu": 6369, "tructuu": 6370, "ructuur": 6371, "structuu": 6372, "tructuur": 6373, "structuur": 6374, "rest": 6375, "besp": 6376, "kijk": 6377, "inc": 6378, "waarme": 6379, "bor": 6380, "nwi": 6381, "rijven": 6382, "alv": 6383, "tle": 6384, "discu": 6385, "waarmee": 6386, "edan": 6387, "cuss": 6388, "tuige": 6389, "lichtin": 6390, "lichting": 6391, "sting": 6392, "rdigd": 6393, "gstuk": 6394, "roje": 6395, "rdoo": 6396, "sco": 6397, "svo": 6398, "aststelle": 6399, "vaststelle": 6400, "aststellen": 6401, "vaststellen": 6402, "icat": 6403, "menta": 6404, "trouwe": 6405, "rali": 6406, "elt": 6407, "list": 6408, "scus": 6409, "cussi": 6410, "rnemi": 6411, "rnemin": 6412, "rneming": 6413, "lte": 6414, "ico": 6415, "iscus": 6416, "indiene": 6417, "usi": 6418, "ertu": 6419, "gheids": 6420, "proj": 6421, "ojec": 6422, "proje": 6423, "rojec": 6424, "oject": 6425, "projec": 6426, "roject": 6427, "project": 6428, "ident": 6429, "agstu": 6430, "aagstu": 6431, "agstuk": 6432, "aagstuk": 6433, "ific": 6434, "erve": 6435, "igheids": 6436, "raagstu": 6437, "vraagstu": 6438, "raagstuk": 6439, "vraagstuk": 6440, "scuss": 6441, "discus": 6442, "iscuss": 6443, "scussi": 6444, "discuss": 6445, "iscussi": 6446, "discussi": 6447, "eft": 6448, "itenl": 6449, "oducti": 6450, "roducti": 6451, "fie": 6452, "rni": 6453, "fond": 6454, "lez": 6455, "verwi": 6456, "ire": 6457, "ardigd": 6458, "aardigd": 6459, "oerin": 6460, "via": 6461, "ngst": 6462, "instru": 6463, "vaardigd": 6464, "cati": 6465, "elov": 6466, "serij": 6467, "erpe": 6468, "elas": 6469, "loos": 6470, "sseri": 6471, "tschapp": 6472, "ctivit": 6473, "invo": 6474, "rdoor": 6475, "sserij": 6476, "behee": 6477, "eheer": 6478, "beheer": 6479, "isseri": 6480, "visseri": 6481, "isserij": 6482, "visserij": 6483, "tenla": 6484, "oering": 6485, "pste": 6486, "elast": 6487, "wachte": 6488, "verhei": 6489, "verheid": 6490, "eschikk": 6491, "beschikk": 6492, "kijke": 6493, "prake": 6494, "egan": 6495, "inzie": 6496, "isen": 6497, "tenlan": 6498, "elu": 6499, "uitenl": 6500, "buitenl": 6501, "torite": 6502, "utorite": 6503, "toritei": 6504, "autorite": 6505, "utoritei": 6506, "toriteit": 6507, "autoritei": 6508, "utoriteit": 6509, "autoriteit": 6510, "tenland": 6511, "selij": 6512, "atschapp": 6513, "aatschapp": 6514, "maatschapp": 6515, "selijk": 6516, "rect": 6517, "gat": 6518, "itenla": 6519, "uitenla": 6520, "itenlan": 6521, "buitenla": 6522, "uitenlan": 6523, "itenland": 6524, "buitenlan": 6525, "uitenland": 6526, "buitenland": 6527, "zijds": 6528, "rzijds": 6529, "erzijds": 6530, "catie": 6531, "spele": 6532, "opste": 6533, "nho": 6534, "elove": 6535, "kkelij": 6536, "kkelijk": 6537, "sprake": 6538, "mate": 6539, "eug": 6540, "wachten": 6541, "inzien": 6542, "taten": 6543, "rlegg": 6544, "voerin": 6545, "groei": 6546, "rpr": 6547, "rijde": 6548, "voering": 6549, "tsv": 6550, "ctivite": 6551, "ctivitei": 6552, "ctiviteit": 6553, "kijken": 6554, "orkome": 6555, "orkomen": 6556, "oorkome": 6557, "oorkomen": 6558, "ior": 6559, "ndienen": 6560, "strum": 6561, "beids": 6562, "rbeids": 6563, "arbeids": 6564, "nancier": 6565, "inancier": 6566, "financier": 6567, "vijf": 6568, "oega": 6569, "overhei": 6570, "overheid": 6571, "digin": 6572, "diging": 6573, "nstrum": 6574, "voorkome": 6575, "voorkomen": 6576, "reu": 6577, "rume": 6578, "trume": 6579, "rumen": 6580, "strume": 6581, "trumen": 6582, "rument": 6583, "nstrume": 6584, "strumen": 6585, "trument": 6586, "nstrumen": 6587, "strument": 6588, "nstrument": 6589, "hrijv": 6590, "chrijv": 6591, "schrijv": 6592, "oege": 6593, "toes": 6594, "enbaa": 6595, "instrum": 6596, "instrume": 6597, "instrumen": 6598, "instrument": 6599, "too": 6600, "aanw": 6601, "enbaar": 6602, "estig": 6603, "belas": 6604, "belast": 6605, "tabi": 6606, "xi": 6607, "cite": 6608, "ima": 6609, "edoe": 6610, "eral": 6611, "betal": 6612, "mand": 6613, "jst": 6614, "ijst": 6615, "indienen": 6616, "iema": 6617, "rijdi": 6618, "kere": 6619, "waardi": 6620, "kele": 6621, "waardig": 6622, "zov": 6623, "edeli": 6624, "kind": 6625, "ductie": 6626, "epassi": 6627, "stab": 6628, "oepassi": 6629, "epassin": 6630, "toepassi": 6631, "oepassin": 6632, "epassing": 6633, "toepassin": 6634, "oepassing": 6635, "toepassing": 6636, "kelen": 6637, "dings": 6638, "iori": 6639, "dier": 6640, "abil": 6641, "lb": 6642, "nven": 6643, "oegan": 6644, "oele": 6645, "edrag": 6646, "rism": 6647, "pakke": 6648, "prio": 6649, "pstel": 6650, "tsta": 6651, "staten": 6652, "rkenn": 6653, "opstel": 6654, "omie": 6655, "risme": 6656, "flo": 6657, "verste": 6658, "nfe": 6659, "traa": 6660, "abili": 6661, "ffec": 6662, "keren": 6663, "ffect": 6664, "fha": 6665, "blie": 6666, "redin": 6667, "reding": 6668, "egie": 6669, "pstell": 6670, "opstell": 6671, "nomie": 6672, "effec": 6673, "effect": 6674, "onomie": 6675, "gelu": 6676, "overt": 6677, "afha": 6678, "armo": 6679, "stabi": 6680, "sra": 6681, "praa": 6682, "lasti": 6683, "ewoo": 6684, "cip": 6685, "twij": 6686, "rid": 6687, "eth": 6688, "itgan": 6689, "uitgan": 6690, "itgang": 6691, "uitgang": 6692, "ublie": 6693, "ligheids": 6694, "enha": 6695, "pb": 6696, "nvent": 6697, "maan": 6698, "fund": 6699, "iligheids": 6700, "eiligheids": 6701, "veiligheids": 6702, "u-": 6703, "amb": 6704, "verze": 6705, "alo": 6706, "erkenn": 6707, "inatie": 6708, "fici": 6709, "-e": 6710, "tegie": 6711, "ategie": 6712, "rategie": 6713, "trategie": 6714, "somm": 6715, "strategie": 6716, "eloven": 6717, "entra": 6718, "trouwen": 6719, "orzie": 6720, "oorzie": 6721, "orzien": 6722, "oorzien": 6723, "itsp": 6724, "gden": 6725, "\u00f3": 6726, "elka": 6727, "erpr": 6728, "fhan": 6729, "afhan": 6730, "voorzie": 6731, "voorzien": 6732, "oest": 6733, "toega": 6734, "digde": 6735, "unc": 6736, "sschi": 6737, "eits": 6738, "etred": 6739, "woon": 6740, "ertui": 6741, "producti": 6742, "etreffend": 6743, "betreffend": 6744, "mach": 6745, "arov": 6746, "toegan": 6747, "centra": 6748, "teits": 6749, "rdigde": 6750, "2000": 6751, "muler": 6752, "liek": 6753, "iteits": 6754, "ertuig": 6755, "issc": 6756, "issch": 6757, "**<n><soort><ev><basis><gen>**": 6758, "ardigde": 6759, "aardigde": 6760, "vaardigde": 6761, "var": 6762, "lkaa": 6763, "jur": 6764, "bod": 6765, "lkaar": 6766, "termi": 6767, "nise": 6768, "egev": 6769, "afg": 6770, "rtoe": 6771, "oez": 6772, "elkaa": 6773, "elkaar": 6774, "activ": 6775, "oit": 6776, "had": 6777, "epr": 6778, "beda": 6779, "tuigen": 6780, "ulere": 6781, "uleren": 6782, "ktij": 6783, "oductie": 6784, "roductie": 6785, "trijdi": 6786, "strijdi": 6787, "tegr": 6788, "plei": 6789, "etere": 6790, "evel": 6791, "bar": 6792, "enaa": 6793, "aller": 6794, "eteren": 6795, "prij": 6796, "oetr": 6797, "igden": 6798, "juri": 6799, "spraa": 6800, "oetre": 6801, "levi": 6802, "eging": 6803, "ntegr": 6804, "fran": 6805, "wijl": 6806, "toetr": 6807, "vaak": 6808, "unda": 6809, "toetre": 6810, "praak": 6811, "spraak": 6812, "edank": 6813, "ldig": 6814, "002": 6815, "\u00ebnt": 6816, "onven": 6817, "conven": 6818, "ria": 6819, "sj": 6820, "jks": 6821, "ijks": 6822, "ffic": 6823, "rior": 6824, "riori": 6825, "gsl": 6826, "ngez": 6827, "bon": 6828, "bedan": 6829, "bedank": 6830, "oetred": 6831, "edanke": 6832, "bedanke": 6833, "edanken": 6834, "bedanken": 6835, "toetred": 6836, "dwi": 6837, "en-": 6838, "hien": 6839, "chien": 6840, "sschie": 6841, "verig": 6842, "tiee": 6843, "missc": 6844, "missch": 6845, "isschi": 6846, "schien": 6847, "misschi": 6848, "isschie": 6849, "sschien": 6850, "misschie": 6851, "isschien": 6852, "misschien": 6853, "rren": 6854, "iber": 6855, "onl": 6856, "elp": 6857, "digden": 6858, "rdigden": 6859, "ardigden": 6860, "aardigden": 6861, "vaardigden": 6862, "verr": 6863, "sz": 6864, "eu-": 6865, "tredi": 6866, "tredin": 6867, "treding": 6868, "rijden": 6869, "vull": 6870, "prior": 6871, "ffici": 6872, "beren": 6873, "unct": 6874, "priori": 6875, "**<vnw><recip><pron><obl><vol><persoon><mv>**": 6876, "i\u00ebnt": 6877, "overi": 6878, "onfe": 6879, "rechte": 6880, "kenni": 6881, "iorit": 6882, "riorit": 6883, "oeli": 6884, "pte": 6885, "cree": 6886, "rstan": 6887, "onvent": 6888, "convent": 6889, "integr": 6890, "ament": 6891, "confe": 6892, "ots": 6893, "nventi": 6894, "richti": 6895, "tiep": 6896, "gsproc": 6897, "richtin": 6898, "richting": 6899, "rstand": 6900, "verne": 6901, "ngsproc": 6902, "gsproce": 6903, "edige": 6904, "div": 6905, "ngsproce": 6906, "wein": 6907, "weini": 6908, "weinig": 6909, "anden": 6910, "riek": 6911, "genoe": 6912, "twerk": 6913, "tieel": 6914, "ocratie": 6915, "urk": 6916, "kne": 6917, "priorit": 6918, "ndam": 6919, "ezelf": 6920, "ngaa": 6921, "erleg": 6922, "aspe": 6923, "sic": 6924, "rns": 6925, "onventi": 6926, "conventi": 6927, "nvoe": 6928, "rland": 6929, "overig": 6930, "libe": 6931, "erlan": 6932, "reet": 6933, "rtn": 6934, "ingsproc": 6935, "liber": 6936, "spelen": 6937, "ingsproce": 6938, "rster": 6939, "mocratie": 6940, "waarom": 6941, "emocratie": 6942, "democratie": 6943, "nsie": 6944, "panni": 6945, "spanni": 6946, "pannin": 6947, "panning": 6948, "avi": 6949, "-p": 6950, "spannin": 6951, "spanning": 6952, "lisere": 6953, "liseren": 6954, "erns": 6955, "aflo": 6956, "sommi": 6957, "erster": 6958, "oepen": 6959, "fonds": 6960, "aspec": 6961, "roepen": 6962, "eite": 6963, "ci\u00eb": 6964, "aspect": 6965, "vermi": 6966, "ondi": 6967, "termij": 6968, "termijn": 6969, "aast": 6970, "activi": 6971, "pne": 6972, "rnst": 6973, "ernst": 6974, "ieni": 6975, "aarov": 6976, "arove": 6977, "aarove": 6978, "arover": 6979, "aarover": 6980, "ncr": 6981, "artn": 6982, "ngsl": 6983, "gelin": 6984, "ndame": 6985, "geling": 6986, "robe": 6987, "funda": 6988, "damen": 6989, "undam": 6990, "fundam": 6991, "undame": 6992, "ndamen": 6993, "dament": 6994, "fundame": 6995, "undamen": 6996, "ndament": 6997, "fundamen": 6998, "undament": 6999, "fundament": 7000, "rtne": 7001, "arte": 7002, "naf": 7003, "taak": 7004, "voorl": 7005, "bliek": 7006, "publie": 7007, "ubliek": 7008, "publiek": 7009, "opne": 7010, "chad": 7011, "insta": 7012, "pnem": 7013, "opnem": 7014, "conomie": 7015, "economie": 7016, "**<vnw><onbep><det><stan><vrij><zonder>**": 7017, "nspan": 7018, "clu": 7019, "schad": 7020, "edigen": 7021, "ieus": 7022, "ernemi": 7023, "ernemin": 7024, "erneming": 7025, "have": 7026, "nspann": 7027, "titu": 7028, "artne": 7029, "tner": 7030, "partn": 7031, "rtner": 7032, "partne": 7033, "artner": 7034, "partner": 7035, "vaart": 7036, "enz": 7037, "rwijl": 7038, "erwijl": 7039, "imp": 7040, "mh": 7041, "npak": 7042, "deree": 7043, "rober": 7044, "dernemi": 7045, "ndernemi": 7046, "dernemin": 7047, "ondernemi": 7048, "ndernemin": 7049, "derneming": 7050, "ondernemin": 7051, "nderneming": 7052, "onderneming": 7053, "ederee": 7054, "rsterk": 7055, "ersterk": 7056, "icati": 7057, "ewoon": 7058, "iedere": 7059, "ezelfd": 7060, "ezelfde": 7061, "ransp": 7062, "ngeve": 7063, "transp": 7064, "dereen": 7065, "iederee": 7066, "edereen": 7067, "iedereen": 7068, "egeve": 7069, "stitu": 7070, "ingsl": 7071, "edse": 7072, "roor": 7073, "2002": 7074, "oh": 7075, "reel": 7076, "daarm": 7077, "daarme": 7078, "jfel": 7079, "ijfel": 7080, "wic": 7081, "orig": 7082, "perke": 7083, "perken": 7084, "daarmee": 7085, "verster": 7086, "versterk": 7087, "wijf": 7088, "twijf": 7089, "wijfe": 7090, "twijfe": 7091, "wijfel": 7092, "twijfel": 7093, "egeven": 7094, "ieri": 7095, "ommig": 7096, "sommig": 7097, "nfer": 7098, "ngaan": 7099, "icatie": 7100, "effi": 7101, "san": 7102, "gewoo": 7103, "gewoon": 7104, "stof": 7105, "tenlands": 7106, "itenlands": 7107, "uitenlands": 7108, "buitenlands": 7109, "wich": 7110, "ala": 7111, "rif": 7112, "sbel": 7113, "ensie": 7114, "terw": 7115, "wicht": 7116, "onfer": 7117, "gewe": 7118, "ngel": 7119, "nfere": 7120, "confer": 7121, "onfere": 7122, "nferen": 7123, "confere": 7124, "onferen": 7125, "conferen": 7126, "ralis": 7127, "maand": 7128, "ibera": 7129, "libera": 7130, "gent": 7131, "creet": 7132, "eest": 7133, "eln": 7134, "nferent": 7135, "onferent": 7136, "nferenti": 7137, "conferent": 7138, "onferenti": 7139, "conferenti": 7140, "lande": 7141, "nferentie": 7142, "onferentie": 7143, "conferentie": 7144, "ncre": 7145, "inspa": 7146, "oncr": 7147, "concr": 7148, "oncre": 7149, "concre": 7150, "wie": 7151, "isic": 7152, "sub": 7153, "iz": 7154, "inspan": 7155, "inspann": 7156, "risic": 7157, "haven": 7158, "ronde": 7159, "sico": 7160, "isico": 7161, "risico": 7162, "erie": 7163, "imu": 7164, "eise": 7165, "astin": 7166, "asting": 7167, "epale": 7168, "ardo": 7169, "ranti": 7170, "enee": 7171, "niser": 7172, "ngezi": 7173, "productie": 7174, "lak": 7175, "egelin": 7176, "egeling": 7177, "turk": 7178, "const": 7179, "lita": 7180, "daarva": 7181, "daarvan": 7182, "swa": 7183, "medi": 7184, "apen": 7185, "nhou": 7186, "palen": 7187, "bepale": 7188, "iebe": 7189, "epalen": 7190, "bepalen": 7191, "iod": 7192, "terec": 7193, "hin": 7194, "nhoud": 7195, "nvoer": 7196, "terech": 7197, "terecht": 7198, "oner": 7199, "activit": 7200, "rlog": 7201, "aars": 7202, "rantie": 7203, "ngezie": 7204, "ngezien": 7205, "orlog": 7206, "tone": 7207, "angez": 7208, "aangez": 7209, "oorlog": 7210, "angezi": 7211, "aangezi": 7212, "probe": 7213, "obere": 7214, "angezie": 7215, "aangezie": 7216, "angezien": 7217, "aangezien": 7218, "erni": 7219, "niets": 7220, "kkele": 7221, "doc": 7222, "oberen": 7223, "prober": 7224, "robere": 7225, "probere": 7226, "roberen": 7227, "proberen": 7228, "nic": 7229, "**<vnw><onbep><grad><stan><vrij><zonder><sup>**": 7230, "meerd": 7231, "zam": 7232, "romi": 7233, "kkelen": 7234, "rkn": 7235, "macht": 7236, "zui": 7237, "erkn": 7238, "edoel": 7239, "spor": 7240, "stige": 7241, "func": 7242, "ssel": 7243, "nventie": 7244, "uncti": 7245, "nauw": 7246, "funct": 7247, "functi": 7248, "efi": 7249, "onis": 7250, "itd": 7251, "activite": 7252, "activitei": 7253, "activiteit": 7254, "weze": 7255, "pmerki": 7256, "opmerki": 7257, "pmerkin": 7258, "opmerkin": 7259, "pmerking": 7260, "opmerking": 7261, "weli": 7262, "wezen": 7263, "derda": 7264, "rse": 7265, "onventie": 7266, "conventie": 7267, "ectief": 7268, "eroo": 7269, "egdh": 7270, "oegdh": 7271, "egdhe": 7272, "voegdh": 7273, "oegdhe": 7274, "evoegdh": 7275, "voegdhe": 7276, "bevoegdh": 7277, "evoegdhe": 7278, "bevoegdhe": 7279, "rrent": 7280, "pze": 7281, "nderda": 7282, "meerde": 7283, "erri": 7284, "rkne": 7285, "urren": 7286, "curren": 7287, "urrent": 7288, "current": 7289, "tant": 7290, "erkne": 7291, "ncurren": 7292, "oncurren": 7293, "ncurrent": 7294, "concurren": 7295, "oncurrent": 7296, "concurrent": 7297, "werkn": 7298, "werkne": 7299, "bedo": 7300, "uitd": 7301, "vernem": 7302, "bra": 7303, "ienin": 7304, "iening": 7305, "egrij": 7306, "eroor": 7307, "terwi": 7308, "rpen": 7309, "verneme": 7310, "vernemen": 7311, "prom": 7312, "begrij": 7313, "egrijp": 7314, "begrijp": 7315, "ewer": 7316, "meerder": 7317, "tabil": 7318, "tabili": 7319, "egrijpe": 7320, "begrijpe": 7321, "anpak": 7322, "aanpak": 7323, "rzaam": 7324, "terwij": 7325, "terwijl": 7326, "penb": 7327, "prijs": 7328, "bedoe": 7329, "reek": 7330, "idis": 7331, "lse": 7332, "knem": 7333, "gm": 7334, "bedoel": 7335, "sitief": 7336, "dg": 7337, "idisc": 7338, "eisen": 7339, "itin": 7340, "ositief": 7341, "positief": 7342, "rknem": 7343, "kneme": 7344, "erknem": 7345, "rkneme": 7346, "knemer": 7347, "werknem": 7348, "erkneme": 7349, "rknemer": 7350, "werkneme": 7351, "erknemer": 7352, "werknemer": 7353, "hrijve": 7354, "chrijve": 7355, "schrijve": 7356, "rtel": 7357, "onts": 7358, "war": 7359, "defi": 7360, "ussie": 7361, "ncree": 7362, "oncree": 7363, "ncreet": 7364, "concree": 7365, "oncreet": 7366, "concreet": 7367, "cussie": 7368, "efin": 7369, "urz": 7370, "iting": 7371, "opze": 7372, "geg": 7373, "verbi": 7374, "pneme": 7375, "opneme": 7376, "pnemen": 7377, "opnemen": 7378, "inve": 7379, "uiti": 7380, "uitin": 7381, "uiting": 7382, "openb": 7383, "keure": 7384, "keuren": 7385, "rrei": 7386, "scussie": 7387, "iscussie": 7388, "discussie": 7389, "erpen": 7390, "uurz": 7391, "betere": 7392, "alve": 7393, "beteren": 7394, "flop": 7395, "urza": 7396, "uurza": 7397, "llem": 7398, "duurz": 7399, "duurza": 7400, "ota": 7401, "ket": 7402, "vesti": 7403, "rbetere": 7404, "erbetere": 7405, "rbeteren": 7406, "verbetere": 7407, "erbeteren": 7408, "verbeteren": 7409, "llema": 7410, "az": 7411, "egdhei": 7412, "oegdhei": 7413, "egdheid": 7414, "voegdhei": 7415, "oegdheid": 7416, "evoegdhei": 7417, "voegdheid": 7418, "bevoegdhei": 7419, "evoegdheid": 7420, "bevoegdheid": 7421, "jdin": 7422, "ijdin": 7423, "aflop": 7424, "flope": 7425, "aflope": 7426, "flopen": 7427, "aflopen": 7428, "anen": 7429, "jding": 7430, "ijding": 7431, "verwij": 7432, "bro": 7433, "riti": 7434, "ikkele": 7435, "ikkelen": 7436, "ito": 7437, "ridi": 7438, "allem": 7439, "llemaa": 7440, "kieze": 7441, "allema": 7442, "pti": 7443, "penba": 7444, "sio": 7445, "openba": 7446, "raar": 7447, "rdere": 7448, "defin": 7449, "eperke": 7450, "beperke": 7451, "eperken": 7452, "beperken": 7453, "itste": 7454, "ridis": 7455, "urzaa": 7456, "uurzaa": 7457, "rwijs": 7458, "erwijs": 7459, "allemaa": 7460, "llemaal": 7461, "allemaal": 7462, "urzaam": 7463, "duurzaa": 7464, "uurzaam": 7465, "duurzaam": 7466, "urid": 7467, "uridi": 7468, "nkr": 7469, "uridis": 7470, "ridisc": 7471, "idisch": 7472, "uridisc": 7473, "jurid": 7474, "juridi": 7475, "juridis": 7476, "ridisch": 7477, "juridisc": 7478, "uridisch": 7479, "juridisch": 7480, "regeli": 7481, "regelin": 7482, "regeling": 7483, "ivers": 7484, "elasti": 7485, "wikkele": 7486, "wikkelen": 7487, "veste": 7488, "vla": 7489, "ocen": 7490, "ocent": 7491, "envo": 7492, "kand": 7493, "liseri": 7494, "liserin": 7495, "lisering": 7496, "ierin": 7497, "merke": 7498, "mv": 7499, "stabil": 7500, "stabili": 7501, "lastin": 7502, "lasting": 7503, "did": 7504, "/2": 7505, "elastin": 7506, "elasting": 7507, "agin": 7508, "event": 7509, "mte": 7510, "jt": 7511, "enu": 7512, "usie": 7513, "rdele": 7514, "fini": 7515, "rderen": 7516, "belasti": 7517, "belastin": 7518, "belasting": 7519, "dida": 7520, "pzet": 7521, "opzet": 7522, "gsc": 7523, "chij": 7524, "schij": 7525, "penbaa": 7526, "openbaa": 7527, "penbaar": 7528, "openbaar": 7529, "tut": 7530, "ijt": 7531, "ppi": 7532, "inci": 7533, "eraar": 7534, "elic": 7535, "ndid": 7536, "kandi": 7537, "andid": 7538, "egelij": 7539, "egelijk": 7540, "i\u00ebr": 7541, "ndida": 7542, "kandid": 7543, "andida": 7544, "ties": 7545, "fli": 7546, "kandida": 7547, "hijn": 7548, "chijn": 7549, "schijn": 7550, "okk": 7551, "aardo": 7552, "rdelen": 7553, "errei": 7554, "oegen": 7555, "eal": 7556, "walit": 7557, "kwalit": 7558, "bezi": 7559, "rnsti": 7560, "ernsti": 7561, "rnstig": 7562, "ernstig": 7563, "fende": 7564, "rukken": 7565, "uitste": 7566, "dba": 7567, "jns": 7568, "ijns": 7569, "rwac": 7570, "erwac": 7571, "rwach": 7572, "erwach": 7573, "rwacht": 7574, "erwacht": 7575, "verwac": 7576, "verwach": 7577, "verwacht": 7578, "kaan": 7579, "ami": 7580, "waarbi": 7581, "nige": 7582, "lichte": 7583, "ffende": 7584, "effende": 7585, "hrijven": 7586, "chrijven": 7587, "schrijven": 7588, "zame": 7589, "reffende": 7590, "treffende": 7591, "htel": 7592, "chtel": 7593, "rrenti": 7594, "urrenti": 7595, "currenti": 7596, "ncurrenti": 7597, "oncurrenti": 7598, "concurrenti": 7599, "gsb": 7600, "itten": 7601, "rten": 7602, "cif": 7603, "toez": 7604, "raat": 7605, "etreffende": 7606, "betreffende": 7607, "uge": 7608, "mbi": 7609, "rrentie": 7610, "urrentie": 7611, "currentie": 7612, "ncurrentie": 7613, "oncurrentie": 7614, "concurrentie": 7615, "cifi": 7616, "rgaa": 7617, "efini": 7618, "terrei": 7619, "ebeure": 7620, "gebeure": 7621, "ebeuren": 7622, "gebeuren": 7623, "defini": 7624, "tspr": 7625, "arit": 7626, "rok": 7627, "rrein": 7628, "errein": 7629, "terrein": 7630, "veroo": 7631, "veroor": 7632, "latie": 7633, "dial": 7634, "steke": 7635, "noeg": 7636, "alist": 7637, "imin": 7638, "tale": 7639, "rese": 7640, "drukken": 7641, "iorite": 7642, "riorite": 7643, "verho": 7644, "rgaan": 7645, "o-": 7646, "itut": 7647, "titut": 7648, "bezo": 7649, "enoeg": 7650, "genoeg": 7651, "stitut": 7652, "dden": 7653, "ider": 7654, "ioritei": 7655, "rioritei": 7656, "ioriteit": 7657, "rioriteit": 7658, "rijdin": 7659, "rijding": 7660, "tbe": 7661, "tvaard": 7662, "tvaardi": 7663, "tvaardig": 7664, "bero": 7665, "ttel": 7666, "ehandele": 7667, "behandele": 7668, "ehandelen": 7669, "behandelen": 7670, "steken": 7671, "kans": 7672, "**<vnw><pr><pron><obl><red><1><ev>**": 7673, "rige": 7674, "sbele": 7675, "vertu": 7676, "priorite": 7677, "overtu": 7678, "vertui": 7679, "overtui": 7680, "vertuig": 7681, "overtuig": 7682, "abilit": 7683, "beo": 7684, "ooste": 7685, "invoe": 7686, "wap": 7687, "tuti": 7688, "ituti": 7689, "tituti": 7690, "rdaa": 7691, "slac": 7692, "lijks": 7693, "stituti": 7694, "prioritei": 7695, "prioriteit": 7696, "slach": 7697, "slacht": 7698, "smi": 7699, "bewe": 7700, "rf": 7701, "aranti": 7702, "arantie": 7703, "fvaardigd": 7704, "afvaardigd": 7705, "fvaardigde": 7706, "afvaardigde": 7707, "fvaardigden": 7708, "afvaardigden": 7709, "vori": 7710, "nfl": 7711, "twikkele": 7712, "ntwikkele": 7713, "twikkelen": 7714, "ontwikkele": 7715, "ntwikkelen": 7716, "ontwikkelen": 7717, "bespr": 7718, "vestig": 7719, "zieni": 7720, "rzieni": 7721, "zienin": 7722, "rzienin": 7723, "ziening": 7724, "rziening": 7725, "oorden": 7726, "wape": 7727, "wapen": 7728, "ront": 7729, "lagen": 7730, "nkri": 7731, "jon": 7732, "ag-": 7733, "lon": 7734, "oelen": 7735, "rocen": 7736, "rocent": 7737, "achtig": 7738, "tba": 7739, "steri": 7740, "dezel": 7741, "dezelf": 7742, "dezelfd": 7743, "dezelfde": 7744, "kaans": 7745, "overw": 7746, "invoer": 7747, "dzaa": 7748, "ecif": 7749, "pecif": 7750, "ecifi": 7751, "specif": 7752, "pecifi": 7753, "specifi": 7754, "aff": 7755, "icer": 7756, "nove": 7757, "egene": 7758, "ubs": 7759, "procen": 7760, "procent": 7761, "egang": 7762, "subs": 7763, "tein": 7764, "pstelle": 7765, "opstelle": 7766, "10": 7767, "eman": 7768, "zitten": 7769, "beide": 7770, "lichten": 7771, "**<vnw><pers><pron><obl><vol><3p><mv>**": 7772, "erio": 7773, "lks": 7774, "wate": 7775, "water": 7776, "wed": 7777, "nves": 7778, "nvest": 7779, "eluk": 7780, "lag-": 7781, "inves": 7782, "invest": 7783, "slag-": 7784, "ersta": 7785, "nstan": 7786, "geluk": 7787, "orr": 7788, "mpl": 7789, "eroe": 7790, "rslag-": 7791, "erslag-": 7792, "verslag-": 7793, "immi": 7794, "mpr": 7795, "gati": 7796, "sov": 7797, "immig": 7798, "vorig": 7799, "-a": 7800, "onm": 7801, "tonen": 7802, "oto": 7803, "rust": 7804, "perio": 7805, "gatie": 7806, "cum": 7807, "itera": 7808, "nstit": 7809, "verwer": 7810, "udin": 7811, "aanwe": 7812, "sbelei": 7813, "sbeleid": 7814, "nstitu": 7815, "echten": 7816, "houdi": 7817, "oudin": 7818, "uding": 7819, "houdin": 7820, "pzi": 7821, "waarva": 7822, "waarvan": 7823, "eerl": 7824, "nspanni": 7825, "nspannin": 7826, "nspanning": 7827, "egaa": 7828, "mmigr": 7829, "immigr": 7830, "ouding": 7831, "houding": 7832, "cte": 7833, "inspanni": 7834, "inspannin": 7835, "inspanning": 7836, "issin": 7837, "issing": 7838, "abilite": 7839, "%": 7840, "bespre": 7841, "riod": 7842, "nveste": 7843, "investe": 7844, "eriod": 7845, "period": 7846, "ewij": 7847, "olks": 7848, "pleg": 7849, "idaa": 7850, "abilitei": 7851, "abiliteit": 7852, "llig": 7853, "aging": 7854, "volks": 7855, "hank": 7856, "fhank": 7857, "hanke": 7858, "afhank": 7859, "fhanke": 7860, "hankel": 7861, "afhanke": 7862, "fhankel": 7863, "hankeli": 7864, "afhankel": 7865, "fhankeli": 7866, "hankelij": 7867, "afhankeli": 7868, "fhankelij": 7869, "hankelijk": 7870, "afhankelij": 7871, "fhankelijk": 7872, "afhankelijk": 7873, "promi": 7874, "didaa": 7875, "idaat": 7876, "ndidaa": 7877, "didaat": 7878, "andidaa": 7879, "ndidaat": 7880, "kandidaa": 7881, "andidaat": 7882, "kandidaat": 7883, "ebre": 7884, "week": 7885, "jong": 7886, "teraar": 7887, "aliseri": 7888, "aliserin": 7889, "alisering": 7890, "overs": 7891, "xp": 7892, "idee": 7893, "pstellen": 7894, "opstellen": 7895, "ift": 7896, "mmigra": 7897, "immigra": 7898, "oegang": 7899, "toegang": 7900, "mpro": 7901, "rheids": 7902, "atig": 7903, "resp": 7904, "schen": 7905, "**<n><soort><ev><dim><onz><stan>**": 7906, "esse": 7907, "besprek": 7908, "abs": 7909, "gege": 7910, "tma": 7911, "ocu": 7912, "voel": 7913, "eenv": 7914, "alisere": 7915, "aliseren": 7916, "ras": 7917, "eled": 7918, "duren": 7919, "exp": 7920, "estige": 7921, "tijk": 7922, "mhe": 7923, "pni": 7924, "mode": 7925, "aktij": 7926, "raktij": 7927, "praktij": 7928, "opni": 7929, "ktijk": 7930, "aktijk": 7931, "raktijk": 7932, "praktijk": 7933, "erse": 7934, "ikaa": 7935, "itse": 7936, "ndin": 7937, "raard": 7938, "eraard": 7939, "jar": 7940, "teraard": 7941, "ardoo": 7942, "aardoo": 7943, "ardoor": 7944, "aardoor": 7945, "uitera": 7946, "iteraa": 7947, "uiteraa": 7948, "iteraar": 7949, "uiteraar": 7950, "iteraard": 7951, "uiteraard": 7952, "vier": 7953, "prin": 7954, "ndigh": 7955, "ndighe": 7956, "opzi": 7957, "lusi": 7958, "d-": 7959, "rbr": 7960, "hteli": 7961, "chteli": 7962, "derste": 7963, "ooit": 7964, "levin": 7965, "leving": 7966, "trijdin": 7967, "estrijdi": 7968, "strijdin": 7969, "trijding": 7970, "bestrijdi": 7971, "estrijdin": 7972, "strijding": 7973, "bestrijdin": 7974, "estrijding": 7975, "bestrijding": 7976, "enwi": 7977, "derwi": 7978, "nderwi": 7979, "derwij": 7980, "nderwij": 7981, "verla": 7982, "werpe": 7983, "ieve": 7984, "onderwi": 7985, "onderwij": 7986, "pac": 7987, "huld": 7988, "ikaan": 7989, "nderste": 7990, "wense": 7991, "ogis": 7992, "gesc": 7993, "gesch": 7994, "waarbij": 7995, "003": 7996, "iere": 7997, "ikken": 7998, "poo": 7999, "gelov": 8000, "bank": 8001, "teve": 8002, "ndighei": 8003, "ndigheid": 8004, "aci": 8005, "overl": 8006, "bevel": 8007, "morg": 8008, "real": 8009, "oten": 8010, "ato": 8011, "ordee": 8012, "ordeel": 8013, "rikaa": 8014, "tele": 8015, "pnie": 8016, "opnie": 8017, "pnieu": 8018, "opnieu": 8019, "pnieuw": 8020, "opnieuw": 8021, "oordee": 8022, "oordeel": 8023, "ieg": 8024, "mond": 8025, "nkrij": 8026, "oew": 8027, "zove": 8028, "enda": 8029, "ci\u00ebn": 8030, "hade": 8031, "rikaan": 8032, "ikaans": 8033, "onderste": 8034, "eza": 8035, "ret": 8036, "clus": 8037, "iode": 8038, "riode": 8039, "eriode": 8040, "periode": 8041, "dedi": 8042, "atsv": 8043, "aatsv": 8044, "uree": 8045, "icere": 8046, "iceren": 8047, "krijk": 8048, "eenvo": 8049, "wezi": 8050, "rikaans": 8051, "wezig": 8052, "gelove": 8053, "nkrijk": 8054, "geloven": 8055, "akken": 8056, "hni": 8057, "tve": 8058, "oosten": 8059, "dir": 8060, "ods": 8061, "irec": 8062, "breke": 8063, "nwic": 8064, "enwic": 8065, "nwich": 8066, "enwich": 8067, "nwicht": 8068, "enwicht": 8069, "espe": 8070, "chni": 8071, "eali": 8072, "eeln": 8073, "deeln": 8074, "o\u00f6": 8075, "bsi": 8076, "halv": 8077, "halve": 8078, "echni": 8079, "techni": 8080, "ompr": 8081, "kon": 8082, "derwijs": 8083, "nderwijs": 8084, "ureel": 8085, "ted": 8086, "ifie": 8087, "compr": 8088, "ompro": 8089, "onderwijs": 8090, "prec": 8091, "rderi": 8092, "gv": 8093, "mprom": 8094, "up": 8095, "itspr": 8096, "mpromi": 8097, "compro": 8098, "omprom": 8099, "comprom": 8100, "ompromi": 8101, "compromi": 8102, "**<vnw><onbep><grad><stan><prenom><met-e><agr><basis>**": 8103, "rnaa": 8104, "adrukk": 8105, "nadrukk": 8106, "offe": 8107, "romis": 8108, "promis": 8109, "vou": 8110, "adrukke": 8111, "nadrukke": 8112, "amente": 8113, "inh": 8114, "mpromis": 8115, "ompromis": 8116, "compromis": 8117, "damente": 8118, "ndamente": 8119, "undamente": 8120, "fundamente": 8121, "pzett": 8122, "opzett": 8123, "amentee": 8124, "damentee": 8125, "amenteel": 8126, "ndamentee": 8127, "damenteel": 8128, "undamentee": 8129, "ndamenteel": 8130, "fundamentee": 8131, "undamenteel": 8132, "fundamenteel": 8133, "lpe": 8134, "breken": 8135, "chade": 8136, "schade": 8137, "ntiee": 8138, "egens": 8139, "igens": 8140, "ncl": 8141, "vloe": 8142, "**<vnw><aanw><det><stan><nom><met-e><mv-n>**": 8143, "gion": 8144, "dire": 8145, "amh": 8146, "direc": 8147, "irect": 8148, "direct": 8149, "verzoeke": 8150, "loed": 8151, "egion": 8152, "verzoeken": 8153, "aamh": 8154, "beroe": 8155, "fiek": 8156, "herz": 8157, "erzie": 8158, "nding": 8159, "logis": 8160, "etredi": 8161, "etredin": 8162, "etreding": 8163, "fle": 8164, "ardige": 8165, "aardige": 8166, "oetredi": 8167, "oetredin": 8168, "oetreding": 8169, "co\u00f6": 8170, "opv": 8171, "reali": 8172, "gelijke": 8173, "eteri": 8174, "toetredi": 8175, "toetredin": 8176, "toetreding": 8177, "loog": 8178, "lusie": 8179, "enor": 8180, "ifiek": 8181, "chul": 8182, "schul": 8183, "venwi": 8184, "evenwi": 8185, "venwic": 8186, "evenwic": 8187, "venwich": 8188, "evenwich": 8189, "venwicht": 8190, "evenwicht": 8191, "docu": 8192, "cume": 8193, "cumen": 8194, "ocum": 8195, "docum": 8196, "ocume": 8197, "docume": 8198, "ocumen": 8199, "cument": 8200, "documen": 8201, "ocument": 8202, "document": 8203, "stigen": 8204, "region": 8205, "eterin": 8206, "cifie": 8207, "ecifie": 8208, "cifiek": 8209, "pecifie": 8210, "ecifiek": 8211, "specifie": 8212, "pecifiek": 8213, "specifiek": 8214, "giona": 8215, "egiona": 8216, "svi": 8217, "ersp": 8218, "regiona": 8219, "genl": 8220, "ogisc": 8221, "ogisch": 8222, "merken": 8223, "bal": 8224, "lict": 8225, "sje": 8226, "utio": 8227, "at-": 8228, "evee": 8229, "ution": 8230, "re\u00eb": 8231, "crim": 8232, "voud": 8233, "rkie": 8234, "laatsv": 8235, "plaatsv": 8236, "ntieel": 8237, "ruitg": 8238, "anbe": 8239, "matig": 8240, "ardigen": 8241, "aardigen": 8242, "diger": 8243, "ndels": 8244, "erkie": 8245, "pat": 8246, "oeft": 8247, "onte": 8248, "rimi": 8249, "amhe": 8250, "aamhe": 8251, "rvol": 8252, "rven": 8253, "andels": 8254, "verki": 8255, "rsi": 8256, "erc": 8257, "handels": 8258, "sted": 8259, "acc": 8260, "nstemmi": 8261, "\u00f6r": 8262, "vester": 8263, "abo": 8264, "nvester": 8265, "invester": 8266, "aaf": 8267, "weld": 8268, "hoef": 8269, "swaa": 8270, "ervol": 8271, "landen": 8272, "erland": 8273, "ehoef": 8274, "hoeft": 8275, "behoef": 8276, "ehoeft": 8277, "behoeft": 8278, "chei": 8279, "igrat": 8280, "migrat": 8281, "cris": 8282, "jne": 8283, "2003": 8284, "lh": 8285, "morge": 8286, "morgen": 8287, "igrati": 8288, "migrati": 8289, "crimi": 8290, "rimin": 8291, "crimin": 8292, "schei": 8293, "igratie": 8294, "migratie": 8295, "nks": 8296, "verkie": 8297, "ijne": 8298, "swaar": 8299, "arna": 8300, "bind": 8301, "appi": 8302, "gal": 8303, "pzic": 8304, "opzic": 8305, "pzich": 8306, "opzich": 8307, "rkiez": 8308, "pzicht": 8309, "opzicht": 8310, "erkiez": 8311, "mhei": 8312, "stl": 8313, "dge": 8314, "ruitga": 8315, "efte": 8316, "ffer": 8317, "cor": 8318, "oefte": 8319, "cheid": 8320, "scheid": 8321, "hoefte": 8322, "ehoefte": 8323, "behoefte": 8324, "rbie": 8325, "erbie": 8326, "mheid": 8327, "sidi": 8328, "werpen": 8329, "eroep": 8330, "lek": 8331, "rstre": 8332, "erstre": 8333, "verkiez": 8334, "osse": 8335, "ngi": 8336, "crisi": 8337, "vaardige": 8338, "lpen": 8339, "rbied": 8340, "erbied": 8341, "pzette": 8342, "opzette": 8343, "mulere": 8344, "muleren": 8345, "esluite": 8346, "besluite": 8347, "vaardigen": 8348, "-v": 8349, "ntv": 8350, "udig": 8351, "voudi": 8352, "oudig": 8353, "voudig": 8354, "amhei": 8355, "aamhei": 8356, "amheid": 8357, "aamheid": 8358, "agend": 8359, "cep": 8360, "else": 8361, "nstitut": 8362, "eie": 8363, "nsio": 8364, "andigh": 8365, "andighe": 8366, "vulle": 8367, "nseli": 8368, "tsvi": 8369, "svin": 8370, "estu": 8371, "terst": 8372, "vullen": 8373, "ital": 8374, "nstemmin": 8375, "nstemming": 8376, "atsvi": 8377, "aatsvi": 8378, "vervol": 8379, "won": 8380, "svind": 8381, "tsvin": 8382, "atsvin": 8383, "tsvind": 8384, "svinde": 8385, "laatsvi": 8386, "aatsvin": 8387, "atsvind": 8388, "tsvinde": 8389, "svinden": 8390, "plaatsvi": 8391, "laatsvin": 8392, "aatsvind": 8393, "atsvinde": 8394, "tsvinden": 8395, "plaatsvin": 8396, "laatsvind": 8397, "aatsvinde": 8398, "atsvinden": 8399, "plaatsvind": 8400, "laatsvinde": 8401, "aatsvinden": 8402, "plaatsvinde": 8403, "laatsvinden": 8404, "plaatsvinden": 8405, "tgee": 8406, "hetg": 8407, "hetge": 8408, "etgee": 8409, "tgeen": 8410, "hetgee": 8411, "etgeen": 8412, "hetgeen": 8413, "ersi": 8414, "chuld": 8415, "schuld": 8416, "laas": 8417, "esluiten": 8418, "besluiten": 8419, "tver": 8420, "**<vnw><onbep><det><stan><nom><met-e><mv-n>**": 8421, "nstituti": 8422, "walite": 8423, "kwalite": 8424, "walitei": 8425, "kwalitei": 8426, "waliteit": 8427, "kwaliteit": 8428, "hela": 8429, "gb": 8430, "jnen": 8431, "ijnen": 8432, "elaas": 8433, "ensio": 8434, "logisc": 8435, "logisch": 8436, "tsb": 8437, "erdaa": 8438, "gegev": 8439, "trev": 8440, "gegeve": 8441, "gegeven": 8442, "itali": 8443, "rderin": 8444, "rdering": 8445, "stant": 8446, "andighei": 8447, "andigheid": 8448, "rigen": 8449, "aloo": 8450, "treve": 8451, "strev": 8452, "streve": 8453, "dec": 8454, "-b": 8455, "aat-": 8456, "helaa": 8457, "ngsc": 8458, "treven": 8459, "streven": 8460, "rtro": 8461, "erheids": 8462, "inze": 8463, "helaas": 8464, "ruitgan": 8465, "ruitgang": 8466, "/20": 8467, "wede": 8468, "daarvo": 8469, "daarvoo": 8470, "daarvoor": 8471, "dm": 8472, "tvoeri": 8473, "erige": 8474, "aarna": 8475, "tandigh": 8476, "standigh": 8477, "tandighe": 8478, "standighe": 8479, "aloog": 8480, "nclu": 8481, "aanbe": 8482, "opb": 8483, "geschi": 8484, "kaanse": 8485, "ikaanse": 8486, "rikaanse": 8487, "rgr": 8488, "ertro": 8489, "turee": 8490, "pensi": 8491, "lissi": 8492, "lissin": 8493, "lissing": 8494, "erma": 8495, "verige": 8496, "vertro": 8497, "ialo": 8498, "oend": 8499, "erigen": 8500, "rigens": 8501, "verigen": 8502, "ordere": 8503, "orderen": 8504, "inds": 8505, "slissi": 8506, "eslissi": 8507, "slissin": 8508, "beslissi": 8509, "eslissin": 8510, "slissing": 8511, "beslissin": 8512, "eslissing": 8513, "beslissing": 8514, "overige": 8515, "erigens": 8516, "overigen": 8517, "verigens": 8518, "overigens": 8519, "pensio": 8520, "cept": 8521, "erschr": 8522, "dert": 8523, "orn": 8524, "orism": 8525, "degen": 8526, "vordere": 8527, "vorderen": 8528, "erzien": 8529, "orisme": 8530, "tutio": 8531, "itutio": 8532, "tution": 8533, "titutio": 8534, "itution": 8535, "titution": 8536, "egat": 8537, "eien": 8538, "stitutio": 8539, "nstitutio": 8540, "stitution": 8541, "nstitution": 8542, "geled": 8543, "rorism": 8544, "rrorism": 8545, "errorism": 8546, "terrorism": 8547, "dkeure": 8548, "edkeure": 8549, "dkeuren": 8550, "oedkeure": 8551, "edkeuren": 8552, "goedkeure": 8553, "oedkeuren": 8554, "goedkeuren": 8555, "iezi": 8556, "genli": 8557, "genlij": 8558, "**<vnw><bez><det><gen><vol><1><ev><prenom><zonder><evmo>**": 8559, "rorisme": 8560, "rrorisme": 8561, "errorisme": 8562, "terrorisme": 8563, "toest": 8564, "noc": 8565, "enter": 8566, "rvolg": 8567, "ervolg": 8568, "erat": 8569, "isis": 8570, "htvaard": 8571, "chtvaard": 8572, "htvaardi": 8573, "chtvaardi": 8574, "htvaardig": 8575, "chtvaardig": 8576, "naas": 8577, "nigen": 8578, "derdaa": 8579, "nderdaa": 8580, "ialoo": 8581, "ialoog": 8582, "hang": 8583, "uitsp": 8584, "ierv": 8585, "aarl": 8586, "echtv": 8587, "doend": 8588, "anm": 8589, "ensel": 8590, "egati": 8591, "rechtv": 8592, "zaamh": 8593, "zaamhe": 8594, "eloo": 8595, "tandighei": 8596, "standighei": 8597, "tandigheid": 8598, "standigheid": 8599, "tureel": 8600, "ngsb": 8601, "naast": 8602, "egatie": 8603, "itere": 8604, "iteren": 8605, "erschri": 8606, "enseli": 8607, "nselij": 8608, "enselij": 8609, "nselijk": 8610, "enselijk": 8611, "echtva": 8612, "clusi": 8613, "mal": 8614, "echtvaa": 8615, "echtvaar": 8616, "echtvaard": 8617, "echtvaardi": 8618, "echtvaardig": 8619, "rechtva": 8620, "rechtvaa": 8621, "rechtvaar": 8622, "rechtvaard": 8623, "rechtvaardi": 8624, "rechtvaardig": 8625, "zenl": 8626, "msta": 8627, "risis": 8628, "crisis": 8629, "uce": 8630, "epte": 8631, "dsc": 8632, "dell": 8633, "ezenl": 8634, "wezenl": 8635, "ingsc": 8636, "zenli": 8637, "dbaa": 8638, "vervolg": 8639, "tabilit": 8640, "ubsi": 8641, "subsi": 8642, "ezenli": 8643, "zenlij": 8644, "wezenli": 8645, "ezenlij": 8646, "zenlijk": 8647, "wezenlij": 8648, "ezenlijk": 8649, "wezenlijk": 8650, "mstan": 8651, "mstand": 8652, "nol": 8653, "teen": 8654, "omsta": 8655, "enem": 8656, "nvou": 8657, "envou": 8658, "nvoud": 8659, "envoud": 8660, "kiezen": 8661, "bsid": 8662, "ubsid": 8663, "subsid": 8664, "omstan": 8665, "omstand": 8666, "bsidi": 8667, "ubsidi": 8668, "subsidi": 8669, "mstandi": 8670, "omstandi": 8671, "mstandig": 8672, "omstandig": 8673, "rts": 8674, "tabilite": 8675, "tabilitei": 8676, "tabiliteit": 8677, "moede": 8678, "elede": 8679, "orda": 8680, "rtrou": 8681, "ctio": 8682, "iezin": 8683, "iezing": 8684, "ola": 8685, "eleden": 8686, "beroep": 8687, "imt": 8688, "mstandigh": 8689, "omstandigh": 8690, "mstandighe": 8691, "omstandighe": 8692, "gionaa": 8693, "egionaa": 8694, "gionaal": 8695, "regionaa": 8696, "egionaal": 8697, "regionaal": 8698, "klo": 8699, "espec": 8700, "tvoere": 8701, "tvoeren": 8702, "luu": 8703, "imte": 8704, "ction": 8705, "eenvou": 8706, "eenvoud": 8707, "sno": 8708, "ertrou": 8709, "rtrouw": 8710, "vertrou": 8711, "ertrouw": 8712, "vertrouw": 8713, "duce": 8714, "ppij": 8715, "erbo": 8716, "luut": 8717, "gelede": 8718, "dbaar": 8719, "ementa": 8720, "ncip": 8721, "etai": 8722, "oluu": 8723, "soluu": 8724, "oluut": 8725, "soluut": 8726, "geleden": 8727, "dsel": 8728, "verli": 8729, "bestu": 8730, "ici\u00eb": 8731, "ggi": 8732, "ziek": 8733, "eerli": 8734, "nhan": 8735, "rspr": 8736, "clusie": 8737, "uimt": 8738, "ruimt": 8739, "uimte": 8740, "ruimte": 8741, "pzetten": 8742, "opzetten": 8743, "itein": 8744, "ogie": 8745, "ndw": 8746, "nisere": 8747, "niseren": 8748, "ggin": 8749, "ents": 8750, "omente": 8751, "gging": 8752, "momente": 8753, "omentee": 8754, "omenteel": 8755, "momentee": 8756, "momenteel": 8757, "zaamhei": 8758, "zaamheid": 8759, "nvoudi": 8760, "envoudi": 8761, "nvoudig": 8762, "envoudig": 8763, "inzet": 8764, "nzett": 8765, "ila": 8766, "espect": 8767, "rtijd": 8768, "**<vnw><pers><pron><nomin><red><2v><ev>**": 8769, "dialo": 8770, "oeie": 8771, "onver": 8772, "respe": 8773, "lementa": 8774, "igenl": 8775, "eigenl": 8776, "igenli": 8777, "eigenli": 8778, "igenlij": 8779, "genlijk": 8780, "eigenlij": 8781, "igenlijk": 8782, "eigenlijk": 8783, "respec": 8784, "respect": 8785, "oeien": 8786, "mstandighei": 8787, "omstandighei": 8788, "mstandigheid": 8789, "omstandigheid": 8790, "ntre": 8791, "huis": 8792, "egrijpen": 8793, "begrijpen": 8794, "uder": 8795, "derli": 8796, "jker": 8797, "ijker": 8798, "eenvoudi": 8799, "eenvoudig": 8800, "oedig": 8801, "ontv": 8802, "itvoeri": 8803, "uitvoeri": 8804, "rist": 8805, "rber": 8806, "dialoo": 8807, "dialoog": 8808, "bouwe": 8809, "omb": 8810, "ilita": 8811, "rinc": 8812, "princ": 8813, "zwaa": 8814, "happi": 8815, "nitie": 8816, "l-": 8817, "chou": 8818, "uitspr": 8819, "schou": 8820, "appij": 8821, "chappi": 8822, "happij": 8823, "schappi": 8824, "chappij": 8825, "schappij": 8826, "oppe": 8827, "gma": 8828, "usti": 8829, "ngew": 8830, "kiezi": 8831, "rkiezi": 8832, "kiezin": 8833, "erkiezi": 8834, "rkiezin": 8835, "kiezing": 8836, "verkiezi": 8837, "erkiezin": 8838, "rkiezing": 8839, "verkiezin": 8840, "erkiezing": 8841, "verkiezing": 8842, "rderh": 8843, "erderh": 8844, "rderhe": 8845, "erderhe": 8846, "eerderh": 8847, "meerderh": 8848, "eerderhe": 8849, "meerderhe": 8850, "anders": 8851, "nali": 8852, "rderhei": 8853, "erderhei": 8854, "rderheid": 8855, "eerderhei": 8856, "erderheid": 8857, "meerderhei": 8858, "eerderheid": 8859, "meerderheid": 8860, "hno": 8861, "herzi": 8862, "herzie": 8863, "herzien": 8864, "ingsb": 8865, "nolo": 8866, "erko": 8867, "itw": 8868, "idden": 8869, "-o": 8870, "oruitg": 8871, "ooruitg": 8872, "vooruitg": 8873, "chno": 8874, "echno": 8875, "techno": 8876, "ngin": 8877, "logie": 8878, "ipe": 8879, "geza": 8880, "rinci": 8881, "princi": 8882, "incip": 8883, "rincip": 8884, "princip": 8885, "suc": 8886, "jee": 8887, "stabilit": 8888, "-la": 8889, "uitei": 8890, "stabilite": 8891, "stabilitei": 8892, "stabiliteit": 8893, "sind": 8894, "nolog": 8895, "utione": 8896, "entiee": 8897, "tutione": 8898, "itutione": 8899, "titutione": 8900, "cces": 8901, "fst": 8902, "stitutione": 8903, "nstitutione": 8904, "jeen": 8905, "rsteu": 8906, "rsteun": 8907, "ucc": 8908, "dsm": 8909, "ologie": 8910, "tschappi": 8911, "atschappi": 8912, "tschappij": 8913, "aatschappi": 8914, "atschappij": 8915, "maatschappi": 8916, "aatschappij": 8917, "maatschappij": 8918, "genda": 8919, "nologi": 8920, "succ": 8921, "ucce": 8922, "succe": 8923, "ucces": 8924, "succes": 8925, "teind": 8926, "uitein": 8927, "iteind": 8928, "teinde": 8929, "uiteind": 8930, "iteinde": 8931, "uiteinde": 8932, "ersteu": 8933, "dersteu": 8934, "ersteun": 8935, "dersteun": 8936, "etering": 8937, "gsv": 8938, "ndersteu": 8939, "ondersteu": 8940, "ndersteun": 8941, "ondersteun": 8942, "istr": 8943, "milit": 8944, "beteri": 8945, "rbeteri": 8946, "beterin": 8947, "erbeteri": 8948, "rbeterin": 8949, "betering": 8950, "verbeteri": 8951, "erbeterin": 8952, "rbetering": 8953, "verbeterin": 8954, "erbetering": 8955, "verbetering": 8956, "midden": 8957, "oruitga": 8958, "ooruitga": 8959, "vooruitga": 8960, "zigi": 8961, "jzigi": 8962, "zigin": 8963, "ijzigi": 8964, "jzigin": 8965, "ziging": 8966, "wijzigi": 8967, "ijzigin": 8968, "jziging": 8969, "wijzigin": 8970, "ijziging": 8971, "wijziging": 8972, "o\u00f6r": 8973, "\u00f6rd": 8974, "co\u00f6r": 8975, "o\u00f6rd": 8976, "\u00f6rdi": 8977, "co\u00f6rd": 8978, "o\u00f6rdi": 8979, "\u00f6rdin": 8980, "co\u00f6rdi": 8981, "o\u00f6rdin": 8982, "co\u00f6rdin": 8983, "nwez": 8984, "wegi": 8985, "wegin": 8986, "ndwe": 8987, "resi": 8988, "itvoere": 8989, "uitvoere": 8990, "itvoeren": 8991, "uitvoeren": 8992, "teindel": 8993, "iteindel": 8994, "teindeli": 8995, "uiteindel": 8996, "iteindeli": 8997, "teindelij": 8998, "uiteindeli": 8999, "iteindelij": 9000, "teindelijk": 9001, "uiteindelij": 9002, "iteindelijk": 9003, "uiteindelijk": 9004, "elpe": 9005, "rift": 9006, "04": 9007, "rtrouwe": 9008, "ertrouwe": 9009, "vertrouwe": 9010, "erto": 9011, "\u00ebl": 9012, "bso": 9013, "trati": 9014, "choo": 9015, "anwez": 9016, "aanwez": 9017, "nwezi": 9018, "anwezi": 9019, "nwezig": 9020, "aanwezi": 9021, "anwezig": 9022, "aanwezig": 9023, "schoo": 9024, "breide": 9025, "etti": 9026, "afw": 9027, "abso": 9028, "agenda": 9029, "nto": 9030, "onfl": 9031, "hod": 9032, "lene": 9033, "gewel": 9034, "eweld": 9035, "kije": 9036, "geweld": 9037, "help": 9038, "anspa": 9039, "istere": 9040, "rdiger": 9041, "isteren": 9042, "oeds": 9043, "tstaa": 9044, "nfli": 9045, "flic": 9046, "confl": 9047, "onfli": 9048, "nflic": 9049, "flict": 9050, "confli": 9051, "onflic": 9052, "nflict": 9053, "conflic": 9054, "onflict": 9055, "conflict": 9056, "nmid": 9057, "nmidd": 9058, "kza": 9059, "entieel": 9060, "arh": 9061, "talen": 9062, "tratie": 9063, "tslu": 9064, "tslui": 9065, "tsluit": 9066, "once": 9067, "eggi": 9068, "smid": 9069, "epro": 9070, "ergr": 9071, "stor": 9072, "eggin": 9073, "erweg": 9074, "oruitgan": 9075, "ooruitgan": 9076, "oruitgang": 9077, "vooruitgan": 9078, "ooruitgang": 9079, "vooruitgang": 9080, "egging": 9081, "jus": 9082, "fsc": 9083, "kzaa": 9084, "tijn": 9085, "ordiger": 9086, "oordiger": 9087, "woordiger": 9088, "nwoordiger": 9089, "enwoordiger": 9090, "genwoordiger": 9091, "egenwoordiger": 9092, "tegenwoordiger": 9093, "rtegenwoordiger": 9094, "ertegenwoordiger": 9095, "vertegenwoordiger": 9096, "smidd": 9097, "smidde": 9098, "smiddel": 9099, "offer": 9100, "ndv": 9101, "lici": 9102, "conce": 9103, "rgo": 9104, "rschrij": 9105, "ecte": 9106, "thod": 9107, "kzaam": 9108, "milita": 9109, "hrif": 9110, "chrif": 9111, "hrift": 9112, "schrif": 9113, "chrift": 9114, "schrift": 9115, "radi": 9116, "iner": 9117, "-g": 9118, "nader": 9119, "pd": 9120, "uv": 9121, "degene": 9122, "ested": 9123, "bested": 9124, "weging": 9125, "krit": 9126, "just": 9127, "aarh": 9128, "arr": 9129, "enige": 9130, "hnol": 9131, "chnol": 9132, "echnol": 9133, "technol": 9134, "etho": 9135, "kriti": 9136, "rote": 9137, "hnolo": 9138, "chnolo": 9139, "echnolo": 9140, "technolo": 9141, "-d": 9142, "bsol": 9143, "absol": 9144, "bsolu": 9145, "absolu": 9146, "nme": 9147, "mina": 9148, "nspar": 9149, "reis": 9150, "elpen": 9151, "don": 9152, "hnolog": 9153, "chnolog": 9154, "echnolog": 9155, "technolog": 9156, "paran": 9157, "vestige": 9158, "estigen": 9159, "vestigen": 9160, "meth": 9161, "fsch": 9162, "vlu": 9163, "ermo": 9164, "bsoluu": 9165, "absoluu": 9166, "bsoluut": 9167, "absoluut": 9168, "spara": 9169, "itslu": 9170, "uitslu": 9171, "itslui": 9172, "uitslui": 9173, "itsluit": 9174, "uitsluit": 9175, "ieman": 9176, "etens": 9177, "bure": 9178, "hnologi": 9179, "chnologi": 9180, "echnologi": 9181, "technologi": 9182, "wijd": 9183, "arli": 9184, "rkenne": 9185, "erkenne": 9186, "wb": 9187, "rkennen": 9188, "erkennen": 9189, "dede": 9190, "helpe": 9191, ".0": 9192, "ondw": 9193, "etale": 9194, "verei": 9195, "lim": 9196, "isr": 9197, "rondw": 9198, "ranspa": 9199, "anspar": 9200, "transpa": 9201, "ranspar": 9202, "transpar": 9203, "urea": 9204, "reau": 9205, "uldi": 9206, "uldig": 9207, "oma": 9208, "dedel": 9209, "tari": 9210, "arand": 9211, "nspara": 9212, "anspara": 9213, "ranspara": 9214, "transpara": 9215, "edede": 9216, "medede": 9217, "parant": 9218, "garand": 9219, "arande": 9220, "garande": 9221, "11": 9222, "sparan": 9223, "nsparan": 9224, "sparant": 9225, "ansparan": 9226, "nsparant": 9227, "ransparan": 9228, "ansparant": 9229, "transparan": 9230, "ransparant": 9231, "transparant": 9232, "ureau": 9233, "ededel": 9234, "mededel": 9235, "irak": 9236, "wing": 9237, "spi": 9238, "burea": 9239, "bureau": 9240, "bije": 9241, "ehandeli": 9242, "ehandelin": 9243, "ehandeling": 9244, "strek": 9245, "grondw": 9246, "helpen": 9247, "behandeli": 9248, "behandelin": 9249, "behandeling": 9250, "adv": 9251, "tiem": 9252, "arg": 9253, "tleg": 9254, "euri": 9255, "tensc": 9256, "tstek": 9257, "erati": 9258, "tensch": 9259, "houw": 9260, "**<adj><prenom><comp><zonder>**": 9261, "astr": 9262, "metho": 9263, "ethod": 9264, "method": 9265, "tanti": 9266, "t-l": 9267, "esid": 9268, "initie": 9269, "tsj": 9270, "**<vnw><betr><det><stan><nom><zonder><zonder-n>**": 9271, "borg": 9272, "chouw": 9273, "schouw": 9274, "eerlij": 9275, "eerlijk": 9276, "aarli": 9277, "oorda": 9278, "terke": 9279, "ddell": 9280, "iddell": 9281, "middell": 9282, "uwb": 9283, "resid": 9284, "sterke": 9285, "riu": 9286, "bedra": 9287, "derzi": 9288, "stanti": 9289, "bedrag": 9290, "arlij": 9291, "/200": 9292, "araa": 9293, "emand": 9294, "rtuige": 9295, "rtuigen": 9296, "doele": 9297, "ermen": 9298, "evordere": 9299, "bevordere": 9300, "evorderen": 9301, "bevorderen": 9302, "aarlij": 9303, "terken": 9304, "sterken": 9305, "llere": 9306, "nging": 9307, "arander": 9308, "garander": 9309, "arandere": 9310, "garandere": 9311, "aranderen": 9312, "garanderen": 9313, "erbr": 9314, "gun": 9315, "drei": 9316, "rium": 9317, "arite": 9318, "oduce": 9319, "roduce": 9320, "arlijk": 9321, "aarlijk": 9322, "blo": 9323, "ioner": 9324, "finit": 9325, "vlak": 9326, "hon": 9327, "dsl": 9328, "aritei": 9329, "ariteit": 9330, "iemand": 9331, "vluc": 9332, "vluch": 9333, "vlucht": 9334, "lok": 9335, "arhe": 9336, "tgaa": 9337, "dwet": 9338, "zwaar": 9339, "erali": 9340, "eralis": 9341, "betale": 9342, "side": 9343, "hikke": 9344, "chikke": 9345, "schikke": 9346, "teven": 9347, "nderl": 9348, "gist": 9349, "nbev": 9350, "efinit": 9351, "derzij": 9352, "derzijd": 9353, "titi": 9354, "finiti": 9355, "definit": 9356, "efiniti": 9357, "ondwe": 9358, "rondwe": 9359, "derzijds": 9360, "imen": 9361, "finitie": 9362, "definiti": 9363, "efinitie": 9364, "definitie": 9365, "grondwe": 9366, "tue": 9367, "ebel": 9368, "ndwet": 9369, "ondwet": 9370, "rondwet": 9371, "grondwet": 9372, "ecen": 9373, "eider": 9374, "**<vnw><vb><pron><stan><vol><3p><getal>**": 9375, "wak": 9376, ".00": 9377, "tko": 9378, "neen": 9379, "gss": 9380, "ossen": 9381, "eerb": 9382, "reig": 9383, "escho": 9384, "breiden": 9385, "enorm": 9386, "aarhe": 9387, "imaa": 9388, "litai": 9389, "litair": 9390, "sief": 9391, "rric": 9392, "dreig": 9393, "gsbe": 9394, "losse": 9395, "lossen": 9396, "hikken": 9397, "enstem": 9398, "chikken": 9399, "schikken": 9400, "inho": 9401, "nclus": 9402, "nclusi": 9403, "wetens": 9404, "lijker": 9405, "opd": 9406, "nderli": 9407, "ertuige": 9408, "ertuigen": 9409, "arhei": 9410, "arheid": 9411, "nclusie": 9412, "rip": 9413, "lko": 9414, "ean": 9415, "dha": 9416, "daarn": 9417, "ndee": 9418, "rschij": 9419, "laan": 9420, "hani": 9421, "daat-": 9422, "idaat-": 9423, "didaat-": 9424, "ndidaat-": 9425, "andidaat-": 9426, "kandidaat-": 9427, "rschijn": 9428, "hanis": 9429, "eenst": 9430, "derneme": 9431, "nderneme": 9432, "onderneme": 9433, "titie": 9434, "tsje": 9435, "onere": 9436, "elijker": 9437, "legaa": 9438, "oneren": 9439, "muni": 9440, "lukk": 9441, "**<vnw><pers><pron><obl><vol><3><ev><masc>**": 9442, "enigen": 9443, "tstaan": 9444, "rrich": 9445, "rricht": 9446, "gaal": 9447, "tels": 9448, "soli": 9449, "tha": 9450, "iering": 9451, "levens": 9452, "ijee": 9453, "presi": 9454, "presid": 9455, "bijee": 9456, "ijeen": 9457, "bijeen": 9458, "erric": 9459, "aarhei": 9460, "aarheid": 9461, "zamen": 9462, "ertij": 9463, "icit": 9464, "errich": 9465, "erricht": 9466, "egaal": 9467, "herme": 9468, "spoo": 9469, "-lan": 9470, "legaal": 9471, "nut": 9472, "ntst": 9473, "at-l": 9474, "aat-l": 9475, "ertijd": 9476, "onderl": 9477, "rkz": 9478, "erkz": 9479, "itstek": 9480, "lma": 9481, "sinds": 9482, "ermee": 9483, "daat-l": 9484, "idaat-l": 9485, "didaat-l": 9486, "ndidaat-l": 9487, "andidaat-l": 9488, "kandidaat-l": 9489, "nzette": 9490, "nzetten": 9491, "okke": 9492, "uitstek": 9493, "enstemm": 9494, "yp": 9495, "vertuige": 9496, "overtuige": 9497, "vertuigen": 9498, "overtuigen": 9499, "nner": 9500, "eki": 9501, "orza": 9502, "fz": 9503, "hnis": 9504, "hnisc": 9505, "hnisch": 9506, "rem": 9507, "**<n><soort><ev><basis><genus><stan>**": 9508, "**<adj><vrij><sup><zonder>**": 9509, "erdi": 9510, "chnis": 9511, "echnis": 9512, "chnisc": 9513, "technis": 9514, "echnisc": 9515, "chnisch": 9516, "technisc": 9517, "echnisch": 9518, "technisch": 9519, "base": 9520, "ress": 9521, "elge": 9522, "cherme": 9523, "scherme": 9524, "ngsv": 9525, "hode": 9526, "**<vnw><pers><pron><stan><red><3><ev><fem>**": 9527, "rdb": 9528, "troo": 9529, "thode": 9530, "werkz": 9531, "oorza": 9532, "onderli": 9533, "lsel": 9534, "ethode": 9535, "methode": 9536, "oedse": 9537, "rsterke": 9538, "ersterke": 9539, "versterke": 9540, "rsterken": 9541, "ersterken": 9542, "versterken": 9543, "eeks": 9544, "instan": 9545, "poor": 9546, "tevens": 9547, "voeds": 9548, "edsel": 9549, "voedse": 9550, "oedsel": 9551, "voedsel": 9552, "tantie": 9553, "overwe": 9554, "ardb": 9555, "wu": 9556, "siden": 9557, "sident": 9558, "aardb": 9559, "**<vnw><onbep><grad><stan><prenom><met-e><mv><basis>**": 9560, "rkza": 9561, "erkza": 9562, "telse": 9563, "heri": 9564, "plichti": 9565, "rkzaa": 9566, "erkzaa": 9567, "rkzaam": 9568, "erkzaam": 9569, "noor": 9570, "senti": 9571, "avo": 9572, "rlene": 9573, "actief": 9574, "tenscha": 9575, "tenschap": 9576, "stantie": 9577, "stels": 9578, "erlene": 9579, "verlene": 9580, "dwer": 9581, "ngss": 9582, "egra": 9583, "olid": 9584, "gebre": 9585, "hers": 9586, "fsp": 9587, "tsen": 9588, "zwe": 9589, "pali": 9590, "ngere": 9591, "toff": 9592, "inhou": 9593, "elsel": 9594, "inhoud": 9595, "etensc": 9596, "wetensc": 9597, "epali": 9598, "palin": 9599, "bepali": 9600, "epalin": 9601, "paling": 9602, "bepalin": 9603, "epaling": 9604, "bepaling": 9605, "stelse": 9606, "telsel": 9607, "stelsel": 9608, "rdaad": 9609, "etensch": 9610, "wetensch": 9611, "etenscha": 9612, "wetenscha": 9613, "etenschap": 9614, "wetenschap": 9615, "arsc": 9616, "omv": 9617, "tiev": 9618, "ontst": 9619, "werkza": 9620, "reeks": 9621, "werkzaa": 9622, "werkzaam": 9623, "urki": 9624, "solid": 9625, "evend": 9626, "renige": 9627, "erenige": 9628, "-land": 9629, "gsm": 9630, "verweg": 9631, "arsch": 9632, "rmoe": 9633, "dwerk": 9634, "ionere": 9635, "ioneren": 9636, "toffe": 9637, "elat": 9638, "eschikke": 9639, "beschikke": 9640, "eschikken": 9641, "beschikken": 9642, "cipe": 9643, "inderd": 9644, "aser": 9645, "tatu": 9646, "rtrouwen": 9647, "ertrouwen": 9648, "vertrouwen": 9649, "hermen": 9650, "chermen": 9651, "schermen": 9652, "rkij": 9653, "spoor": 9654, "herin": 9655, "renigen": 9656, "erenigen": 9657, "euge": 9658, "ordele": 9659, "oordele": 9660, "ordelen": 9661, "oordelen": 9662, "escherme": 9663, "bescherme": 9664, "ilitai": 9665, "ilitair": 9666, "a\u00eb": 9667, "fro": 9668, "ogin": 9669, "militai": 9670, "militair": 9671, "oom": 9672, "isra": 9673, "afz": 9674, "xtr": 9675, "extr": 9676, "ezam": 9677, "ezame": 9678, "dersc": 9679, "rnie": 9680, "oging": 9681, "dersch": 9682, "uli": 9683, "alu": 9684, "oewe": 9685, "beke": 9686, "eschou": 9687, "eschouw": 9688, "tegel": 9689, "fti": 9690, "ezamen": 9691, "boo": 9692, "omit": 9693, "turki": 9694, "a\u00ebl": 9695, "hto": 9696, "-r": 9697, "comi": 9698, "urkij": 9699, "turkij": 9700, "hol": 9701, "tent": 9702, "ingss": 9703, "rkije": 9704, "urkije": 9705, "turkije": 9706, "tegeli": 9707, "tegelij": 9708, "tegelijk": 9709, "proe": 9710, "cieri": 9711, "ncieri": 9712, "cierin": 9713, "ancieri": 9714, "ncierin": 9715, "ciering": 9716, "nancieri": 9717, "ancierin": 9718, "nciering": 9719, "inancieri": 9720, "nancierin": 9721, "anciering": 9722, "financieri": 9723, "inancierin": 9724, "nanciering": 9725, "financierin": 9726, "inanciering": 9727, "financiering": 9728, "ra\u00eb": 9729, "sra\u00eb": 9730, "ra\u00ebl": 9731, "isra\u00eb": 9732, "sra\u00ebl": 9733, "isra\u00ebl": 9734, "asere": 9735, "aseren": 9736, "reur": 9737, "rra": 9738, "nctie": 9739, "rgro": 9740, "oods": 9741, "ieren": 9742, "eenste": 9743, "ndeel": 9744, "eenstem": 9745, "eenstemm": 9746, "comit": 9747, "russ": 9748, "daarna": 9749, "edelin": 9750, "edeling": 9751, "utionee": 9752, "tutionee": 9753, "utioneel": 9754, "itutionee": 9755, "tutioneel": 9756, "titutionee": 9757, "itutioneel": 9758, "stitutionee": 9759, "titutioneel": 9760, "nstitutionee": 9761, "stitutioneel": 9762, "nstitutioneel": 9763, "tijds": 9764, "gings": 9765, "tud": 9766, "ici\u00ebn": 9767, "adw": 9768, "aarsc": 9769, "neg": 9770, "dve": 9771, "lenen": 9772, "cap": 9773, "stle": 9774, "grie": 9775, "eside": 9776, "itgaa": 9777, "uitgaa": 9778, "stro": 9779, "slaa": 9780, "aarsch": 9781, "effic": 9782, "effici": 9783, "reside": 9784, "uitw": 9785, "esiden": 9786, "residen": 9787, "esident": 9788, "resident": 9789, "stud": 9790, "bescho": 9791, "-pr": 9792, "duit": 9793, "verbo": 9794, "lz": 9795, "preside": 9796, "presiden": 9797, "president": 9798, "she": 9799, "inere": 9800, "estij": 9801, "utt": 9802, "enhan": 9803, "onse": 9804, "oncl": 9805, "concl": 9806, "ssent": 9807, "rdigh": 9808, "rdighe": 9809, "chto": 9810, "waars": 9811, "ineren": 9812, "waarsc": 9813, "waarsch": 9814, "tuee": 9815, "issen": 9816, "ssenti": 9817, "mmuni": 9818, "wensen": 9819, "eschermen": 9820, "beschermen": 9821, "bem": 9822, "vene": 9823, "beken": 9824, "beschou": 9825, "beschouw": 9826, "out": 9827, "ardigh": 9828, "aardigh": 9829, "ardighe": 9830, "aardighe": 9831, "oeven": 9832, "rdighei": 9833, "rdigheid": 9834, "onda": 9835, "nfr": 9836, "nlev": 9837, "pin": 9838, "onclu": 9839, "conclu": 9840, "sf": 9841, "rmu": 9842, "fron": 9843, "chan": 9844, "verenige": 9845, "verenigen": 9846, "vermo": 9847, "ngeven": 9848, "rdelin": 9849, "rdeling": 9850, "tlegg": 9851, "olie": 9852, "ardighei": 9853, "aardighei": 9854, "ardigheid": 9855, "aardigheid": 9856, "reens": 9857, "tueel": 9858, "estan": 9859, "ntva": 9860, "laag": 9861, "lex": 9862, "listi": 9863, "tvan": 9864, "ontva": 9865, "ichtig": 9866, "baser": 9867, "basere": 9868, "baseren": 9869, "enle": 9870, "icu": 9871, "ntvan": 9872, "ontvan": 9873, "ereens": 9874, "reenst": 9875, "vereens": 9876, "ereenst": 9877, "reenste": 9878, "overeens": 9879, "vereenst": 9880, "ereenste": 9881, "overeenst": 9882, "vereenste": 9883, "overeenste": 9884, "verva": 9885, "reenstem": 9886, "ereenstem": 9887, "reenstemm": 9888, "vereenstem": 9889, "ereenstemm": 9890, "overeenstem": 9891, "vereenstemm": 9892, "overeenstemm": 9893, "ikb": 9894, "apa": 9895, "rbere": 9896, "mere": 9897, "ci\u00ebnt": 9898, "orber": 9899, "nnis": 9900, "nno": 9901, "nctio": 9902, "nction": 9903, "twa": 9904, "tree": 9905, "illi": 9906, "gle": 9907, "orbere": 9908, "overweg": 9909, "fri": 9910, "fici\u00eb": 9911, "12": 9912, "justi": 9913, "mings": 9914, "fici\u00ebn": 9915, "ici\u00ebnt": 9916, "fici\u00ebnt": 9917, "rmul": 9918, "anbev": 9919, "aanbev": 9920, "ormu": 9921, "formu": 9922, "ormul": 9923, "formul": 9924, "nbeve": 9925, "listis": 9926, "listisc": 9927, "listisch": 9928, "kelijkh": 9929, "kelijkhe": 9930, "kelijkhei": 9931, "kelijkheid": 9932, "stiti": 9933, "elig": 9934, "erschrij": 9935, "anbeve": 9936, "nbevel": 9937, "aanbeve": 9938, "anbevel": 9939, "aanbevel": 9940, "ntsta": 9941, "vig": 9942, "oefe": 9943, "meren": 9944, "oefen": 9945, "ustit": 9946, "justit": 9947, "ustiti": 9948, "justiti": 9949, "ontsta": 9950, "ntstaa": 9951, "erdaad": 9952, "inner": 9953, "ffici\u00eb": 9954, "mees": 9955, "ontstaa": 9956, "ntstaan": 9957, "ontstaan": 9958, "pakken": 9959, "ffici\u00ebn": 9960, "ffici\u00ebnt": 9961, "keuri": 9962, "conse": 9963, "versi": 9964, "ingsv": 9965, "leids": 9966, "oorber": 9967, "oorbere": 9968, "stitie": 9969, "ustitie": 9970, "justitie": 9971, "etz": 9972, "arden": 9973, "hog": 9974, "hema": 9975, "toffer": 9976, "zuid": 9977, "achto": 9978, "ntai": 9979, "htof": 9980, "chtof": 9981, "htoff": 9982, "chtoff": 9983, "eleids": 9984, "unctio": 9985, "functio": 9986, "unction": 9987, "function": 9988, "esteri": 9989, "lachto": 9990, "achtof": 9991, "htoffe": 9992, "slachto": 9993, "achtoff": 9994, "chtoffe": 9995, "ldoend": 9996, "oldoend": 9997, "voldoend": 9998, "dsb": 9999, "effici\u00eb": 10000, "effici\u00ebn": 10001, "effici\u00ebnt": 10002, "edie": 10003, "ales": 10004, "lachtof": 10005, "htoffer": 10006, "slachtof": 10007, "lachtoff": 10008, "achtoffe": 10009, "chtoffer": 10010, "slachtoff": 10011, "lachtoffe": 10012, "achtoffer": 10013, "slachtoffe": 10014, "lachtoffer": 10015, "slachtoffer": 10016, "beleids": 10017, "ogm": 10018, "rdat": 10019, "nale": 10020, "aals": 10021, "neens": 10022, "griek": 10023, "binde": 10024, "binden": 10025, "rdba": 10026, "ardba": 10027, "rdbaa": 10028, "vaardb": 10029, "aardba": 10030, "ardbaa": 10031, "rdbaar": 10032, "nvaardb": 10033, "vaardba": 10034, "aardbaa": 10035, "ardbaar": 10036, "anvaardb": 10037, "nvaardba": 10038, "vaardbaa": 10039, "aardbaar": 10040, "aanvaardb": 10041, "anvaardba": 10042, "nvaardbaa": 10043, "vaardbaar": 10044, "aanvaardba": 10045, "anvaardbaa": 10046, "nvaardbaar": 10047, "aanvaardbaa": 10048, "anvaardbaar": 10049, "aanvaardbaar": 10050, "aadw": 10051, "erov": 10052, "ikba": 10053, "noch": 10054, "tsteke": 10055, "tsteken": 10056, "e\u00ebr": 10057, "nkome": 10058, "nkomen": 10059, "dend": 10060, "nstant": 10061, "trac": 10062, "api": 10063, "inderda": 10064, "dwerke": 10065, "uns": 10066, "fice": 10067, "rwijz": 10068, "ly": 10069, "tekend": 10070, "erwijz": 10071, "sproces": 10072, "enstemmi": 10073, "his": 10074, "eenstemmi": 10075, "ndan": 10076, "niem": 10077, "rmoed": 10078, "gelei": 10079, "lkom": 10080, "itsteke": 10081, "uitsteke": 10082, "itsteken": 10083, "uitsteken": 10084, "erove": 10085, "geleid": 10086, "tp": 10087, "enadr": 10088, "benadr": 10089, "enadru": 10090, "benadru": 10091, "enadruk": 10092, "benadruk": 10093, "ute": 10094, "derdaad": 10095, "nderdaad": 10096, "ortu": 10097, "ante": 10098, "enadrukk": 10099, "benadrukk": 10100, "inderdaa": 10101, "inderdaad": 10102, "ndo": 10103, "rlegge": 10104, "rleggen": 10105, "adrukken": 10106, "enadrukke": 10107, "nadrukken": 10108, "benadrukke": 10109, "enadrukken": 10110, "benadrukken": 10111, "iever": 10112, "entere": 10113, "ck": 10114, "zend": 10115, "dedeli": 10116, "ordat": 10117, "ifice": 10118, "gena": 10119, "adwe": 10120, "sport": 10121, "dvi": 10122, "ededeli": 10123, "dedelin": 10124, "mededeli": 10125, "ededelin": 10126, "dedeling": 10127, "mededelin": 10128, "ededeling": 10129, "mededeling": 10130, "enlev": 10131, "aadwe": 10132, "adwer": 10133, "aadwer": 10134, "adwerk": 10135, "aadwerk": 10136, "oordat": 10137, "daadw": 10138, "daadwe": 10139, "daadwer": 10140, "daadwerk": 10141, "adwerke": 10142, "dwerkel": 10143, "aadwerke": 10144, "adwerkel": 10145, "dwerkeli": 10146, "daadwerke": 10147, "aadwerkel": 10148, "adwerkeli": 10149, "dwerkelij": 10150, "daadwerkel": 10151, "aadwerkeli": 10152, "adwerkelij": 10153, "dwerkelijk": 10154, "daadwerkeli": 10155, "aadwerkelij": 10156, "adwerkelijk": 10157, "daadwerkelij": 10158, "aadwerkelijk": 10159, "daadwerkelijk": 10160, "ralise": 10161, "abe": 10162, "i\u00ebre": 10163, "i\u00ebren": 10164, "anks": 10165, "sgr": 10166, "ikbaa": 10167, "ikbaar": 10168, "ncipe": 10169, "bezig": 10170, "nvu": 10171, "rmoede": 10172, "nvul": 10173, "nvull": 10174, "incipe": 10175, "rberei": 10176, "rbereid": 10177, "rincipe": 10178, "principe": 10179, "enteren": 10180, "stekend": 10181, "kings": 10182, "uchtv": 10183, "raliser": 10184, "hierv": 10185, "tstekend": 10186, "itstekend": 10187, "uitstekend": 10188, "luchtv": 10189, "pric": 10190, "wit": 10191, "hof": 10192, "eq": 10193, "eland": 10194, "urt": 10195, "voorber": 10196, "orberei": 10197, "voorbere": 10198, "oorberei": 10199, "orbereid": 10200, "voorberei": 10201, "oorbereid": 10202, "voorbereid": 10203, "heu": 10204, "equ": 10205, "nso": 10206, "rinn": 10207, "tegra": 10208, "dica": 10209, "hoew": 10210, "hoewe": 10211, "oewel": 10212, "hoewel": 10213, "rinne": 10214, "prich": 10215, "pricht": 10216, "rplichti": 10217, "erplichti": 10218, "erikaa": 10219, "andh": 10220, "erinn": 10221, "herinn": 10222, "erinne": 10223, "rinner": 10224, "herinne": 10225, "erinner": 10226, "herinner": 10227, "merikaa": 10228, "erikaan": 10229, "amerikaa": 10230, "merikaan": 10231, "amerikaan": 10232, "tzi": 10233, "lder": 10234, "bewi": 10235, "plichtin": 10236, "plichting": 10237, "waarov": 10238, "waarove": 10239, "waarover": 10240, "scr": 10241, "ntegra": 10242, "ltuu": 10243, "ultuu": 10244, "ltuur": 10245, "cultuu": 10246, "ultuur": 10247, "cultuur": 10248, "lau": 10249, "toel": 10250, "arbo": 10251, "sgez": 10252, "ebele": 10253, "sterin": 10254, "verplichti": 10255, "rplichtin": 10256, "erplichtin": 10257, "rplichting": 10258, "verplichtin": 10259, "erplichting": 10260, "verplichting": 10261, "brit": 10262, "derhal": 10263, "stering": 10264, "veli": 10265, "ecia": 10266, "erikaans": 10267, "merikaans": 10268, "amerikaans": 10269, "noord": 10270, "zaken": 10271, "rlie": 10272, "tvoerin": 10273, "tvoering": 10274, "woorden": 10275, "grip": 10276, "mva": 10277, "rmule": 10278, "ormule": 10279, "formule": 10280, "espreke": 10281, "espreken": 10282, "ptr": 10283, "ergro": 10284, "dsch": 10285, "enstemmin": 10286, "enstemming": 10287, "lom": 10288, "estand": 10289, "ronds": 10290, "omva": 10291, "reenstemmi": 10292, "eenstemmin": 10293, "ereenstemmi": 10294, "reenstemmin": 10295, "eenstemming": 10296, "vereenstemmi": 10297, "ereenstemmin": 10298, "reenstemming": 10299, "overeenstemmi": 10300, "vereenstemmin": 10301, "ereenstemming": 10302, "overeenstemmin": 10303, "vereenstemming": 10304, "overeenstemming": 10305, "iebel": 10306, "bran": 10307, "pecia": 10308, "poe": 10309, "specia": 10310, "et-": 10311, "ewa": 10312, "advi": 10313, "erlie": 10314, "verlie": 10315, "dive": 10316, "eveli": 10317, "uz": 10318, "ptre": 10319, "angst": 10320, "optr": 10321, "ondan": 10322, "langs": 10323, "produce": 10324, "diver": 10325, "rlenen": 10326, "erlenen": 10327, "verlenen": 10328, "ologis": 10329, "unst": 10330, "anderi": 10331, "ndank": 10332, "ondank": 10333, "dsma": 10334, "crit": 10335, "optre": 10336, "gronds": 10337, "houwe": 10338, "eleide": 10339, "prot": 10340, "erstan": 10341, "erstand": 10342, "opo": 10343, "re\u00ebr": 10344, "anderin": 10345, "andering": 10346, "cre\u00eb": 10347, "e\u00ebre": 10348, "e\u00ebren": 10349, "randeri": 10350, "eranderi": 10351, "randerin": 10352, "veranderi": 10353, "eranderin": 10354, "randering": 10355, "veranderin": 10356, "erandering": 10357, "verandering": 10358, "enbe": 10359, "ologisc": 10360, "ologisch": 10361, "hetz": 10362, "chouwe": 10363, "schouwe": 10364, "cre\u00ebr": 10365, "re\u00ebre": 10366, "cre\u00ebre": 10367, "re\u00ebren": 10368, "cre\u00ebren": 10369, "let": 10370, "-f": 10371, "ansl": 10372, "bekend": 10373, "divers": 10374, "ealis": 10375, "integra": 10376, "aarden": 10377, "egl": 10378, "danks": 10379, "ndanks": 10380, "ondanks": 10381, "isb": 10382, "risc": 10383, "ebelei": 10384, "ebeleid": 10385, "egrip": 10386, "begrip": 10387, "risch": 10388, "aara": 10389, "rdie": 10390, "eoo": 10391, "ogma": 10392, "lne": 10393, "icite": 10394, "dsbe": 10395, "aansl": 10396, "vn": 10397, "elne": 10398, "15": 10399, "enstel": 10400, "evene": 10401, "gezam": 10402, "gezame": 10403, "herst": 10404, "onal": 10405, "angev": 10406, "aangev": 10407, "rzek": 10408, "rzeke": 10409, "rzeker": 10410, "kwi": 10411, "cy": 10412, "ewerk": 10413, "angeve": 10414, "aangeve": 10415, "menli": 10416, "menlij": 10417, "eoor": 10418, "angeven": 10419, "aangeven": 10420, "erzek": 10421, "erzeke": 10422, "erzeker": 10423, "amenli": 10424, "amenlij": 10425, "verzek": 10426, "verzeke": 10427, "verzeker": 10428, "gevoe": 10429, "gelijker": 10430, "ie-": 10431, "tvang": 10432, "ntvang": 10433, "ontvang": 10434, "-lande": 10435, "-landen": 10436, "zamenl": 10437, "gezamen": 10438, "ezamenl": 10439, "zamenli": 10440, "menlijk": 10441, "gezamenl": 10442, "ezamenli": 10443, "zamenlij": 10444, "amenlijk": 10445, "gezamenli": 10446, "ezamenlij": 10447, "zamenlijk": 10448, "gezamenlij": 10449, "ezamenlijk": 10450, "gezamenlijk": 10451, "wegen": 10452, "rece": 10453, "dece": 10454, "traal": 10455, "gmaa": 10456, "nmidde": 10457, "nmiddel": 10458, "erven": 10459, "zog": 10460, "teng": 10461, "duits": 10462, "eron": 10463, "emid": 10464, "emidd": 10465, "erover": 10466, "lnem": 10467, "elnem": 10468, "orderi": 10469, "orderin": 10470, "ordering": 10471, "meest": 10472, "emidde": 10473, "realis": 10474, "esterin": 10475, "estering": 10476, "vesteri": 10477, "nvesteri": 10478, "vesterin": 10479, "investeri": 10480, "nvesterin": 10481, "vestering": 10482, "investerin": 10483, "nvestering": 10484, "investering": 10485, "etwe": 10486, "vorderi": 10487, "vorderin": 10488, "vordering": 10489, "sda": 10490, "gsla": 10491, "ctione": 10492, "tzel": 10493, "erstel": 10494, "tzelf": 10495, "tzelfd": 10496, "tzelfde": 10497, "wis": 10498, "kzaamh": 10499, "kzaamhe": 10500, "orgaa": 10501, "tlegge": 10502, "evoel": 10503, "verdi": 10504, "nes": 10505, "tleggen": 10506, "rce": 10507, "ficer": 10508, "erdie": 10509, "oezi": 10510, "orgaan": 10511, "ional": 10512, "gevoel": 10513, "ificer": 10514, "ung": 10515, "elm": 10516, "ernie": 10517, "-i": 10518, "ticu": 10519, "maals": 10520, "houwen": 10521, "ettin": 10522, "etting": 10523, "hef": 10524, "haf": 10525, "ekte": 10526, "verri": 10527, "toezi": 10528, "lest": 10529, "riter": 10530, "chouwen": 10531, "schouwen": 10532, "tif": 10533, "netw": 10534, "emiddel": 10535, "ioe": 10536, "rbin": 10537, "iepr": 10538, "kert": 10539, "reci": 10540, "oorn": 10541, "verheids": 10542, "lso": 10543, "iteri": 10544, "epasse": 10545, "oepasse": 10546, "toepasse": 10547, "derde": 10548, "ngsla": 10549, "nism": 10550, "eschouwe": 10551, "lam": 10552, "emente": 10553, "overheids": 10554, "onin": 10555, "ukki": 10556, "eiten": 10557, "alisti": 10558, "riteri": 10559, "moni": 10560, "rwachte": 10561, "erwachte": 10562, "verwachte": 10563, "aden": 10564, "verwijz": 10565, "onli": 10566, "slage": 10567, "chaf": 10568, "schaf": 10569, "crite": 10570, "criter": 10571, "rwachten": 10572, "erwachten": 10573, "verwachten": 10574, "itvoerin": 10575, "uitvoerin": 10576, "itvoering": 10577, "uitvoering": 10578, "criteri": 10579, "iali": 10580, "ioen": 10581, "dzaak": 10582, "rpre": 10583, "t\u00e9": 10584, "nover": 10585, "ecent": 10586, "oju": 10587, "erpre": 10588, "jkert": 10589, "kerti": 10590, "ijkert": 10591, "jkerti": 10592, "kertij": 10593, "lijkert": 10594, "ijkerti": 10595, "jkertij": 10596, "kertijd": 10597, "elijkert": 10598, "lijkerti": 10599, "ijkertij": 10600, "jkertijd": 10601, "gelijkert": 10602, "elijkerti": 10603, "lijkertij": 10604, "ijkertijd": 10605, "gelijkerti": 10606, "elijkertij": 10607, "lijkertijd": 10608, "gelijkertij": 10609, "elijkertijd": 10610, "gelijkertijd": 10611, "omin": 10612, "egelijke": 10613, "tegelijke": 10614, "egelijker": 10615, "tegelijker": 10616, "egelijkert": 10617, "tegelijkert": 10618, "egelijkerti": 10619, "tegelijkerti": 10620, "egelijkertij": 10621, "tegelijkertij": 10622, "egelijkertijd": 10623, "tegelijkertijd": 10624, "serv": 10625, "araan": 10626, "verdie": 10627, "iend": 10628, "ingsla": 10629, "mmigrat": 10630, "immigrat": 10631, "mmigrati": 10632, "immigrati": 10633, "netwe": 10634, "usl": 10635, "isd": 10636, "mmigratie": 10637, "immigratie": 10638, "iekt": 10639, "etwer": 10640, "nstanti": 10641, "beva": 10642, "iekte": 10643, "netwer": 10644, "ziekt": 10645, "ziekte": 10646, "lesti": 10647, "preci": 10648, "etwerk": 10649, "dina": 10650, "anl": 10651, "netwerk": 10652, "vore": 10653, "assa": 10654, "afri": 10655, "usla": 10656, "uslan": 10657, "voren": 10658, "exi": 10659, "alistis": 10660, "alistisc": 10661, "alistisch": 10662, "kzaamhei": 10663, "kzaamheid": 10664, "rusl": 10665, "rusla": 10666, "ruslan": 10667, "usland": 10668, "pales": 10669, "alest": 10670, "palest": 10671, "alesti": 10672, "palesti": 10673, "ennis": 10674, "slagen": 10675, "aaraa": 10676, "aaraan": 10677, "tede": 10678, "gete": 10679, "geleide": 10680, "rusland": 10681, "bespreke": 10682, "bespreken": 10683, "stede": 10684, "siel": 10685, "beral": 10686, "iberal": 10687, "liberal": 10688, "asie": 10689, "kwij": 10690, "oonl": 10691, "erlegg": 10692, "frik": 10693, "afrik": 10694, "frika": 10695, "afrika": 10696, "nweg": 10697, "instant": 10698, "coh": 10699, "eelne": 10700, "deelne": 10701, "feli": 10702, "enade": 10703, "inb": 10704, "matis": 10705, "aties": 10706, "instanti": 10707, "nstantie": 10708, "instantie": 10709, "gslan": 10710, "gsland": 10711, "mensel": 10712, "menseli": 10713, "menselij": 10714, "menselijk": 10715, "thou": 10716, "eelnem": 10717, "deelnem": 10718, "ngslan": 10719, "ngsland": 10720, "hoeven": 10721, "versta": 10722, "kennis": 10723, "beschouwe": 10724, "teni": 10725, "oonli": 10726, "onlij": 10727, "oonlij": 10728, "gsr": 10729, "nmo": 10730, "entai": 10731, "ntair": 10732, "entair": 10733, "haal": 10734, "mentai": 10735, "mentair": 10736, "havi": 10737, "onlijk": 10738, "oonlijk": 10739, "ewu": 10740, "ramp": 10741, "stim": 10742, "evoo": 10743, "wus": 10744, "bewu": 10745, "ewus": 10746, "wust": 10747, "bewus": 10748, "ewust": 10749, "bewust": 10750, "iebele": 10751, "ienl": 10752, "ienli": 10753, "ienlij": 10754, "30": 10755, "iebelei": 10756, "iebeleid": 10757, "eschouwen": 10758, "beschouwen": 10759, "rkzaamh": 10760, "erkzaamh": 10761, "rkzaamhe": 10762, "erkzaamhe": 10763, "zienl": 10764, "nzienl": 10765, "zienli": 10766, "anzienl": 10767, "nzienli": 10768, "zienlij": 10769, "ienlijk": 10770, "aanzienl": 10771, "anzienli": 10772, "nzienlij": 10773, "zienlijk": 10774, "aanzienli": 10775, "anzienlij": 10776, "nzienlijk": 10777, "aanzienlij": 10778, "anzienlijk": 10779, "aanzienlijk": 10780, "dsla": 10781, "it\u00e9": 10782, "gener": 10783, "iters": 10784, "uiters": 10785, "iterst": 10786, "uiterst": 10787, "werkzaamh": 10788, "werkzaamhe": 10789, "-m": 10790, "ergo": 10791, "samenl": 10792, "rank": 10793, "liteits": 10794, "ingslan": 10795, "ingsland": 10796, "evoor": 10797, "ptred": 10798, "optred": 10799, "ptrede": 10800, "optrede": 10801, "ptreden": 10802, "optreden": 10803, "ekomsti": 10804, "oekomsti": 10805, "toekomsti": 10806, "sove": 10807, "ritie": 10808, "mot": 10809, "nctione": 10810, "statu": 10811, "ail": 10812, "strati": 10813, "eoord": 10814, "opi": 10815, "ehou": 10816, "ekomstig": 10817, "oekomstig": 10818, "toekomstig": 10819, "erbij": 10820, "-c": 10821, "onclus": 10822, "conclus": 10823, "onclusi": 10824, "conclusi": 10825, "onclusie": 10826, "conclusie": 10827, "toev": 10828, "ebo": 10829, "eoorde": 10830, "epassen": 10831, "oepassen": 10832, "toepassen": 10833, "erikaanse": 10834, "merikaanse": 10835, "amerikaanse": 10836, "haff": 10837, "chaff": 10838, "schaff": 10839, "ehoud": 10840, "etalen": 10841, "berali": 10842, "iberali": 10843, "beralis": 10844, "liberali": 10845, "iberalis": 10846, "liberalis": 10847, "ialis": 10848, "reer": 10849, "vana": 10850, "lezi": 10851, "sover": 10852, "menle": 10853, "amenle": 10854, "menlev": 10855, "samenle": 10856, "amenlev": 10857, "samenlev": 10858, "fsl": 10859, "pva": 10860, "ngsbe": 10861, "evan": 10862, "ouwb": 10863, "nwel": 10864, "insti": 10865, "ager": 10866, "nent": 10867, "5-": 10868, "gezin": 10869, "zoge": 10870, "ool": 10871, "ebrek": 10872, "gebrek": 10873, "affe": 10874, "agr": 10875, "egrat": 10876, "tegrat": 10877, "ntegrat": 10878, "stratie": 10879, "egrati": 10880, "tegrati": 10881, "egratie": 10882, "ntegrati": 10883, "tegratie": 10884, "ntegratie": 10885, "unctione": 10886, "functione": 10887, "valu": 10888, "kar": 10889, "dslag": 10890, "sdi": 10891, "beoo": 10892, "ementai": 10893, "lementai": 10894, "ementair": 10895, "lementair": 10896, "leggi": 10897, "mit\u00e9": 10898, "beoor": 10899, "beoord": 10900, "beoorde": 10901, "sioe": 10902, "sioen": 10903, "orsp": 10904, "leggin": 10905, "omit\u00e9": 10906, "comit\u00e9": 10907, "legging": 10908, "eneme": 10909, "tota": 10910, "eoordel": 10911, "beoordel": 10912, "enemen": 10913, "nav": 10914, "rhog": 10915, "erhog": 10916, "verhog": 10917, "ngsm": 10918, "ltr": 10919, "ngeren": 10920, "aank": 10921, "iero": 10922, "lia": 10923, "leider": 10924, "inga": 10925, "oesta": 10926, "toesta": 10927, "genaa": 10928, "rachti": 10929, "sab": 10930, "rkzaamhei": 10931, "erkzaamhei": 10932, "rkzaamheid": 10933, "erkzaamheid": 10934, "elh": 10935, "pit": 10936, "imul": 10937, "gmaal": 10938, "werkzaamhei": 10939, "werkzaamheid": 10940, "egle": 10941, "elz": 10942, "enwel": 10943, "kern": 10944, "instit": 10945, "oorsp": 10946, "nsioe": 10947, "ensioe": 10948, "nsioen": 10949, "pensioe": 10950, "ensioen": 10951, "pensioen": 10952, "institu": 10953, "rsche": 10954, "hele": 10955, "vrie": 10956, "terg": 10957, "tla": 10958, "betalen": 10959, "nooi": 10960, "lijs": 10961, "timu": 10962, "bewij": 10963, "lijst": 10964, "illeg": 10965, "odzaa": 10966, "oodzaa": 10967, "odzaak": 10968, "noodzaa": 10969, "oodzaak": 10970, "noodzaak": 10971, "nogm": 10972, "nogma": 10973, "ogmaa": 10974, "nogmaa": 10975, "ogmaal": 10976, "gmaals": 10977, "nogmaal": 10978, "ogmaals": 10979, "nogmaals": 10980, "ficere": 10981, "ificere": 10982, "ficeren": 10983, "ificeren": 10984, "ezic": 10985, "ezich": 10986, "ezicht": 10987, "nooit": 10988, "rhalv": 10989, "erhalv": 10990, "rhalve": 10991, "derhalv": 10992, "erhalve": 10993, "derhalve": 10994, "urend": 10995, "slaan": 10996, "timul": 10997, "ingsbe": 10998, "stimu": 10999, "stimul": 11000, "integrat": 11001, "ommuni": 11002, "communi": 11003, "50": 11004, "integrati": 11005, "integratie": 11006, "gsco": 11007, "ngsr": 11008, "tsluite": 11009, "tsluiten": 11010, "nisme": 11011, "oper": 11012, "essen": 11013, "dso": 11014, "-0": 11015, "atse": 11016, "enten": 11017, "vloed": 11018, "wijt": 11019, "aatse": 11020, "jw": 11021, "ijw": 11022, "plichte": 11023, "heug": 11024, "dheids": 11025, "fspr": 11026, "tkom": 11027, "brand": 11028, "ize": 11029, "hiero": 11030, "durend": 11031, "naan": 11032, "allere": 11033, "ovee": 11034, "eriu": 11035, "erium": 11036, "imina": 11037, "andr": 11038, "gte": 11039, "ersche": 11040, "nmer": 11041, "nj": 11042, "laatse": 11043, "plaatse": 11044, "voege": 11045, "itsluite": 11046, "uitsluite": 11047, "itsluiten": 11048, "uitsluiten": 11049, "voegen": 11050, "rien": 11051, "tes": 11052, "aanl": 11053, "tbreide": 11054, "itbreide": 11055, "tbreiden": 11056, "uitbreide": 11057, "itbreiden": 11058, "uitbreiden": 11059, "urs": 11060, "doelen": 11061, "tsla": 11062, "baarh": 11063, "baarhe": 11064, "weder": 11065, "baarhei": 11066, "baarheid": 11067, "fis": 11068, "artel": 11069, "egele": 11070, "nvl": 11071, "aarbo": 11072, "tioner": 11073, "alig": 11074, "elijks": 11075, "jeenk": 11076, "ijeenk": 11077, "jeenko": 11078, "bijeenk": 11079, "ijeenko": 11080, "jeenkom": 11081, "bijeenko": 11082, "ijeenkom": 11083, "bijeenkom": 11084, "zovee": 11085, "oveel": 11086, "zoveel": 11087, "rvolge": 11088, "ervolge": 11089, "rlementa": 11090, "arlementa": 11091, "parlementa": 11092, "leu": 11093, "svoo": 11094, "voorn": 11095, "boeke": 11096, "dom": 11097, "trag": 11098, "svoor": 11099, "alf": 11100, "uve": 11101, "boeken": 11102, "herh": 11103, "ugen": 11104, "bio": 11105, "loof": 11106, "rvolgen": 11107, "ervolgen": 11108, "hikb": 11109, "chikb": 11110, "hikba": 11111, "schikb": 11112, "chikba": 11113, "hikbaa": 11114, "eschikb": 11115, "schikba": 11116, "chikbaa": 11117, "hikbaar": 11118, "beschikb": 11119, "eschikba": 11120, "schikbaa": 11121, "chikbaar": 11122, "beschikba": 11123, "eschikbaa": 11124, "schikbaar": 11125, "beschikbaa": 11126, "eschikbaar": 11127, "beschikbaar": 11128, "rimina": 11129, "crimina": 11130, "\u00ef": 11131, "vena": 11132, "eugen": 11133, "enden": 11134, "stati": 11135, "ompl": 11136, "lw": 11137, "ingsm": 11138, "compl": 11139, "nologie": 11140, "tijns": 11141, "oversc": 11142, "oversch": 11143, "ndersc": 11144, "ndersch": 11145, "meld": 11146, "nlevi": 11147, "nlevin": 11148, "nleving": 11149, "erdee": 11150, "sor": 11151, "nmerk": 11152, "edings": 11153, "ntraa": 11154, "herha": 11155, "enlevi": 11156, "menlevi": 11157, "enlevin": 11158, "amenlevi": 11159, "menlevin": 11160, "enleving": 11161, "samenlevi": 11162, "amenlevin": 11163, "menleving": 11164, "samenlevin": 11165, "amenleving": 11166, "samenleving": 11167, "entraa": 11168, "zige": 11169, "zes": 11170, "erdeel": 11171, "den-": 11172, "vermin": 11173, "teriu": 11174, "iteriu": 11175, "terium": 11176, "riteriu": 11177, "iterium": 11178, "criteriu": 11179, "riterium": 11180, "criterium": 11181, "tbaa": 11182, "rof": 11183, "sentie": 11184, "vies": 11185, "ott": 11186, "o'": 11187, "anvu": 11188, "aanvu": 11189, "tvange": 11190, "ntvange": 11191, "ontvange": 11192, "rbod": 11193, "anvul": 11194, "aanvul": 11195, "anvull": 11196, "aanvull": 11197, "centraa": 11198, "ondig": 11199, "eratie": 11200, "aande": 11201, "ndve": 11202, "velin": 11203, "elma": 11204, "matisc": 11205, "matisch": 11206, "vervolge": 11207, "illega": 11208, "eneen": 11209, "tda": 11210, "jnl": 11211, "ijnl": 11212, "tbaar": 11213, "veling": 11214, "pleid": 11215, "kam": 11216, "vervolgen": 11217, "waarbo": 11218, "rplichte": 11219, "erplichte": 11220, "verplichte": 11221, "sbes": 11222, "daari": 11223, "daarin": 11224, "lgev": 11225, "rwerpe": 11226, "ertoe": 11227, "rvu": 11228, "idsb": 11229, "elgev": 11230, "ervu": 11231, "erwerpe": 11232, "toer": 11233, "rbor": 11234, "kerh": 11235, "5-0": 11236, "verschr": 11237, "nma": 11238, "gevend": 11239, "evelin": 11240, "eveling": 11241, "-s": 11242, "tzo": 11243, "dernemen": 11244, "ndernemen": 11245, "ondernemen": 11246, "erbod": 11247, "verbod": 11248, "evalu": 11249, "arbor": 11250, "lja": 11251, "vervu": 11252, "ekerh": 11253, "kerhe": 11254, "zekerh": 11255, "ekerhe": 11256, "kerhei": 11257, "zekerhe": 11258, "ekerhei": 11259, "kerheid": 11260, "zekerhei": 11261, "ekerheid": 11262, "zekerheid": 11263, "rdien": 11264, "aai": 11265, "rborg": 11266, "aarbor": 11267, "arborg": 11268, "waarbor": 11269, "aarborg": 11270, "waarborg": 11271, "tzet": 11272, "eneens": 11273, "enov": 11274, "gelg": 11275, "aki": 11276, "rbre": 11277, "venee": 11278, "evenee": 11279, "veneen": 11280, "eveneen": 11281, "veneens": 11282, "eveneens": 11283, "idsm": 11284, "ntraal": 11285, "entraal": 11286, "centraal": 11287, "vati": 11288, "sso": 11289, "rson": 11290, "sproced": 11291, "sprocedu": 11292, "sprocedur": 11293, "sprocedure": 11294, "egis": 11295, "prese": 11296, "iepro": 11297, "arc": 11298, "esen": 11299, "reers": 11300, "reerst": 11301, "rachtig": 11302, "emd": 11303, "evat": 11304, "bouwen": 11305, "erson": 11306, "bevat": 11307, "elv": 11308, "hnologie": 11309, "chnologie": 11310, "echnologie": 11311, "technologie": 11312, "jnli": 11313, "ijnli": 11314, "jnlij": 11315, "ijnlij": 11316, "jnlijk": 11317, "ijnlijk": 11318, "scri": 11319, "wek": 11320, "iete": 11321, "etze": 11322, "ondersc": 11323, "ondersch": 11324, "tegens": 11325, "affen": 11326, "eidsm": 11327, "vari": 11328, "ereer": 11329, "evatt": 11330, "bevatt": 11331, "evatte": 11332, "bevatte": 11333, "terv": 11334, "estede": 11335, "bestede": 11336, "elder": 11337, "verschri": 11338, "verric": 11339, "verrich": 11340, "verricht": 11341, "evatten": 11342, "bevatten": 11343, "omme": 11344, "hetze": 11345, "ned": 11346, "plichten": 11347, "essent": 11348, "tzett": 11349, "teden": 11350, "steden": 11351, "essenti": 11352, "soms": 11353, "dden-": 11354, "idden-": 11355, "midden-": 11356, "legi": 11357, "leree": 11358, "lleree": 11359, "lereer": 11360, "ereers": 11361, "alleree": 11362, "llereer": 11363, "lereers": 11364, "ereerst": 11365, "allereer": 11366, "llereers": 11367, "lereerst": 11368, "allereers": 11369, "llereerst": 11370, "allereerst": 11371, "cies": 11372, "iteng": 11373, "esent": 11374, "sgro": 11375, "nth": 11376, "pbo": 11377, "egelg": 11378, "gelge": 11379, "overle": 11380, "oler": 11381, "regelg": 11382, "egelge": 11383, "gelgev": 11384, "regelge": 11385, "egelgev": 11386, "regelgev": 11387, "sabo": 11388, "izen": 11389, "uiteng": 11390, "buiteng": 11391, "opbo": 11392, "heff": 11393, "llegaa": 11394, "moo": 11395, "enove": 11396, "etzel": 11397, "hetzel": 11398, "etzelf": 11399, "hetzelf": 11400, "etzelfd": 11401, "hetzelfd": 11402, "etzelfde": 11403, "hetzelfde": 11404, "enover": 11405, "oene": 11406, "esteden": 11407, "besteden": 11408, "npas": 11409, "itzo": 11410, "harm": 11411, "resen": 11412, "presen": 11413, "resent": 11414, "present": 11415, "uitzo": 11416, "ecie": 11417, "tionere": 11418, "tioneren": 11419, "rplichten": 11420, "erplichten": 11421, "verplichten": 11422, "ssentie": 11423, "essentie": 11424, "lant": 11425, "aus": 11426, "tenschapp": 11427, "etenschapp": 11428, "tenschappe": 11429, "wetenschapp": 11430, "etenschappe": 11431, "wetenschappe": 11432, "rmuler": 11433, "ormuler": 11434, "formuler": 11435, "astl": 11436, "ecies": 11437, "recie": 11438, "precie": 11439, "recies": 11440, "precies": 11441, "unge": 11442, "erdien": 11443, "tional": 11444, "rdina": 11445, "eidsb": 11446, "arnaa": 11447, "pbou": 11448, "opbou": 11449, "pbouw": 11450, "opbouw": 11451, "soonl": 11452, "rsoonl": 11453, "soonli": 11454, "ersoonl": 11455, "rsoonli": 11456, "soonlij": 11457, "persoonl": 11458, "ersoonli": 11459, "rsoonlij": 11460, "soonlijk": 11461, "persoonli": 11462, "ersoonlij": 11463, "rsoonlijk": 11464, "persoonlij": 11465, "ersoonlijk": 11466, "persoonlijk": 11467, "illegaa": 11468, "rmon": 11469, "genst": 11470, "stree": 11471, "llegaal": 11472, "illegaal": 11473, "-pro": 11474, "twoorden": 11475, "ntwoorden": 11476, "stijn": 11477, "estijn": 11478, "fisc": 11479, "antwoorden": 11480, "ego": 11481, "abon": 11482, "nutt": 11483, "gangs": 11484, "ols": 11485, "ctioner": 11486, "asiel": 11487, "hend": 11488, "ndsl": 11489, "lida": 11490, "ndheids": 11491, "fung": 11492, "nvlo": 11493, "ondheids": 11494, "zondheids": 11495, "ezondheids": 11496, "gezondheids": 11497, "stuu": 11498, "unger": 11499, "ungere": 11500, "ndige": 11501, "itaa": 11502, "funge": 11503, "funger": 11504, "fungere": 11505, "ungeren": 11506, "fungeren": 11507, "beveli": 11508, "nbeveli": 11509, "bevelin": 11510, "anbeveli": 11511, "nbevelin": 11512, "beveling": 11513, "aanbeveli": 11514, "anbevelin": 11515, "nbeveling": 11516, "aanbevelin": 11517, "anbeveling": 11518, "aanbeveling": 11519, "hard": 11520, "-eu": 11521, "fene": 11522, "ctiep": 11523, "etro": 11524, "erbin": 11525, "gou": 11526, "overg": 11527, "ntb": 11528, "opva": 11529, "verbin": 11530, "zins": 11531, "stuur": 11532, "venwe": 11533, "rrichte": 11534, "errichte": 11535, "fenen": 11536, "verrichte": 11537, "004": 11538, "nvloe": 11539, "dood": 11540, "hip": 11541, "aks": 11542, "misd": 11543, "idsbe": 11544, "zigh": 11545, "chend": 11546, "dinat": 11547, "rdinat": 11548, "bree": 11549, "jfs": 11550, "ijfs": 11551, "verdien": 11552, "schend": 11553, "nsla": 11554, "rta": 11555, "kope": 11556, "rrichten": 11557, "errichten": 11558, "nvloed": 11559, "nctioner": 11560, "bit": 11561, "ezigh": 11562, "rheu": 11563, "erheu": 11564, "rheug": 11565, "verheu": 11566, "erheug": 11567, "verheug": 11568, "verrichten": 11569, "tzon": 11570, "ondsl": 11571, "olida": 11572, "solida": 11573, "npass": 11574, "ntu": 11575, "nede": 11576, "ator": 11577, "eelt": 11578, "appen": 11579, "ph": 11580, "\u00f6rdina": 11581, "o\u00f6rdina": 11582, "\u00f6rdinat": 11583, "co\u00f6rdina": 11584, "o\u00f6rdinat": 11585, "co\u00f6rdinat": 11586, "ama": 11587, "not": 11588, "ehor": 11589, "ehore": 11590, "ehoren": 11591, "eciaa": 11592, "peciaa": 11593, "eciaal": 11594, "speciaa": 11595, "peciaal": 11596, "speciaal": 11597, "behor": 11598, "behore": 11599, "behoren": 11600, "gelen": 11601, "ndre": 11602, "oers": 11603, "rget": 11604, "uver": 11605, "tad": 11606, "aarnaa": 11607, "nui": 11608, "ontb": 11609, "lneme": 11610, "elneme": 11611, "armon": 11612, "citei": 11613, "citeit": 11614, "zetti": 11615, "zettin": 11616, "zetting": 11617, "nhoude": 11618, "iedi": 11619, "esm": 11620, "rmoni": 11621, "armoni": 11622, "harmo": 11623, "harmon": 11624, "ofi": 11625, "dvie": 11626, "ndsla": 11627, "rgu": 11628, "advie": 11629, "harmoni": 11630, "ista": 11631, "ctionere": 11632, "ctioneren": 11633, "evenwe": 11634, "lgi": 11635, "unctioner": 11636, "functioner": 11637, "ctur": 11638, "dvies": 11639, "advies": 11640, "ssab": 11641, "venwel": 11642, "evenwel": 11643, "tieve": 11644, "cture": 11645, "otaa": 11646, "itzon": 11647, "tvangen": 11648, "ntvangen": 11649, "ontvangen": 11650, "erget": 11651, "tren": 11652, "emak": 11653, "tzond": 11654, "uitzon": 11655, "itzond": 11656, "tzonde": 11657, "uitzond": 11658, "itzonde": 11659, "tzonder": 11660, "uitzonde": 11661, "itzonder": 11662, "uitzonder": 11663, "ssabo": 11664, "sabon": 11665, "gewi": 11666, "lmat": 11667, "lissa": 11668, "ssabon": 11669, "totaa": 11670, "otaal": 11671, "totaal": 11672, "issab": 11673, "lissab": 11674, "issabo": 11675, "lissabo": 11676, "issabon": 11677, "lissabon": 11678, "uil": 11679, "zoj": 11680, "zoju": 11681, "ojui": 11682, "zojui": 11683, "ojuis": 11684, "zojuis": 11685, "ojuist": 11686, "zojuist": 11687, "elmat": 11688, "lmati": 11689, "elmati": 11690, "lmatig": 11691, "elmatig": 11692, "nderde": 11693, "citer": 11694, "citere": 11695, "citeren": 11696, "rgete": 11697, "eidsbe": 11698, "**<tsw>**": 11699, "rwerpen": 11700, "ondsla": 11701, "rondsl": 11702, "erwerpen": 11703, "ievo": 11704, "ndslag": 11705, "grondsl": 11706, "rondsla": 11707, "ondslag": 11708, "grondsla": 11709, "rondslag": 11710, "grondslag": 11711, "ergete": 11712, "gsproced": 11713, "gsprocedu": 11714, "gsprocedur": 11715, "gsprocedure": 11716, "regl": 11717, "glem": 11718, "regle": 11719, "eglem": 11720, "gleme": 11721, "reglem": 11722, "egleme": 11723, "glemen": 11724, "regleme": 11725, "eglemen": 11726, "glement": 11727, "reglemen": 11728, "eglement": 11729, "reglement": 11730, "ngsproced": 11731, "ngsprocedu": 11732, "ngsprocedur": 11733, "ngsprocedure": 11734, "tgeve": 11735, "nctionere": 11736, "nctioneren": 11737, "ereis": 11738, "iet-": 11739, "fas": 11740, "paar": 11741, "anpas": 11742, "aanpas": 11743, "ingsproced": 11744, "ingsprocedu": 11745, "ingsprocedur": 11746, "ingsprocedure": 11747, "andv": 11748, "elema": 11749, "opri": 11750, "vree": 11751, "nuit": 11752, "onta": 11753, "uchte": 11754, "bron": 11755, "ateri": 11756, "eventi": 11757, "dsv": 11758, "heidsb": 11759, "jdig": 11760, "ijdig": 11761, "pera": 11762, "benade": 11763, "aanm": 11764, "erandere": 11765, "verandere": 11766, "eranderen": 11767, "veranderen": 11768, "anpass": 11769, "aanpass": 11770, "eralise": 11771, "sep": 11772, "qua": 11773, "stad": 11774, "verget": 11775, "vergete": 11776, "eraliser": 11777, "epl": 11778, "daard": 11779, "li\u00eb": 11780, "niet-": 11781, "cij": 11782, "ile": 11783, "estuu": 11784, "estuur": 11785, "telin": 11786, "riend": 11787, "unctionere": 11788, "functionere": 11789, "unctioneren": 11790, "functioneren": 11791, "bewer": 11792, "rokk": 11793, "koe": 11794, "nera": 11795, "jdragen": 11796, "ijdragen": 11797, "bijdragen": 11798, "ntin": 11799, "ronder": 11800, "helem": 11801, "helema": 11802, "elemaa": 11803, "helemaa": 11804, "elemaal": 11805, "helemaal": 11806, "lestij": 11807, "alestij": 11808, "lestijn": 11809, "palestij": 11810, "alestijn": 11811, "palestijn": 11812, "heuge": 11813, "a5": 11814, "teling": 11815, "institut": 11816, "tande": 11817, "vereis": 11818, "koste": 11819, "heugen": 11820, "orwe": 11821, "anle": 11822, "riaa": 11823, "oorg": 11824, "opric": 11825, "oprich": 11826, "opricht": 11827, "kap": 11828, "bestuu": 11829, "bestuur": 11830, "odel": 11831, "orsc": 11832, "aanle": 11833, "jna": 11834, "vastl": 11835, "orsch": 11836, "ijna": 11837, "vrien": 11838, "vriend": 11839, "ube": 11840, "beralise": 11841, "iberalise": 11842, "liberalise": 11843, "trijde": 11844, "armoe": 11845, "veron": 11846, "beraliser": 11847, "iberaliser": 11848, "liberaliser": 11849, "gk": 11850, "tsn": 11851, "person": 11852, "nim": 11853, "oorsc": 11854, "oorsch": 11855, "egeno": 11856, "corr": 11857, "ptie": 11858, "instem": 11859, "rtic": 11860, "ksg": 11861, "rmind": 11862, "ermind": 11863, "rminde": 11864, "vermind": 11865, "erminde": 11866, "rminder": 11867, "verminde": 11868, "erminder": 11869, "verminder": 11870, "spl": 11871, "ongev": 11872, "fac": 11873, "tifi": 11874, "til": 11875, "evre": 11876, "armoed": 11877, "oedin": 11878, "geten": 11879, "overn": 11880, "instemm": 11881, "nvol": 11882, "plat": 11883, "rks": 11884, "vaarde": 11885, "oorwe": 11886, "behou": 11887, "tific": 11888, "rgeten": 11889, "ergeten": 11890, "vergeten": 11891, "gna": 11892, "eelneme": 11893, "deelneme": 11894, "behoud": 11895, "instituti": 11896, "enader": 11897, "breed": 11898, "itaal": 11899, "nlang": 11900, "efene": 11901, "oefene": 11902, "efenen": 11903, "oefenen": 11904, "-eur": 11905, "jeenkoms": 11906, "ijeenkoms": 11907, "jeenkomst": 11908, "bijeenkoms": 11909, "ijeenkomst": 11910, "bijeenkomst": 11911, "stande": 11912, "lingsl": 11913, "-euro": 11914, "armoede": 11915, "strijde": 11916, "verstr": 11917, "elingsl": 11918, "oeding": 11919, "jnse": 11920, "ijnse": 11921, "onb": 11922, "delings": 11923, "roen": 11924, "lingsla": 11925, "elingsla": 11926, "lingslan": 11927, "elingslan": 11928, "lingsland": 11929, "elingsland": 11930, "rteli": 11931, "**<adj><nom><sup><met-e><zonder-n><stan>**": 11932, "nhang": 11933, "orle": 11934, "oorle": 11935, "kelingsl": 11936, "kkelingsl": 11937, "kelingsla": 11938, "ikkelingsl": 11939, "kkelingsla": 11940, "kelingslan": 11941, "wikkelingsl": 11942, "ikkelingsla": 11943, "kkelingslan": 11944, "kelingsland": 11945, "twikkelingsl": 11946, "wikkelingsla": 11947, "ikkelingslan": 11948, "kkelingsland": 11949, "ntwikkelingsl": 11950, "twikkelingsla": 11951, "wikkelingslan": 11952, "ikkelingsland": 11953, "ontwikkelingsl": 11954, "ntwikkelingsla": 11955, "twikkelingslan": 11956, "wikkelingsland": 11957, "ontwikkelingsla": 11958, "ntwikkelingslan": 11959, "twikkelingsland": 11960, "ontwikkelingslan": 11961, "ntwikkelingsland": 11962, "ontwikkelingsland": 11963, "uiden": 11964, "ingsr": 11965, "heidsbe": 11966, "belo": 11967, "tspre": 11968, "treu": 11969, "nvaarde": 11970, "anvaarde": 11971, "aanvaarde": 11972, "lter": 11973, "uwel": 11974, "nnere": 11975, "nneren": 11976, "ltur": 11977, "lba": 11978, "onden": 11979, "alte": 11980, "dt": 11981, "ksge": 11982, "akkel": 11983, "tac": 11984, "ewor": 11985, "ffin": 11986, "arteli": 11987, "rvar": 11988, "ndha": 11989, "nement": 11990, "sone": 11991, "kopen": 11992, "vaarden": 11993, "cla": 11994, "rsone": 11995, "ersone": 11996, "persone": 11997, "brie": 11998, "innere": 11999, "rinnere": 12000, "inneren": 12001, "erinnere": 12002, "rinneren": 12003, "herinnere": 12004, "erinneren": 12005, "herinneren": 12006, "opti": 12007, "ultur": 12008, "ngend": 12009, "verko": 12010, "institutio": 12011, "institution": 12012, "cultur": 12013, "nvaarden": 12014, "anvaarden": 12015, "aanvaarden": 12016, "monis": 12017, "andha": 12018, "ervar": 12019, "gewor": 12020, "vanw": 12021, "anise": 12022, "voorle": 12023, "spaa": 12024, "tieb": 12025, "itspre": 12026, "chin": 12027, "dss": 12028, "oeks": 12029, "uctur": 12030, "ructur": 12031, "tructur": 12032, "structur": 12033, "ouv": 12034, "estere": 12035, "portu": 12036, "acto": 12037, "gste": 12038, "esteren": 12039, "ucture": 12040, "ructure": 12041, "tructure": 12042, "structure": 12043, "chip": 12044, "licit": 12045, "sba": 12046, "oco": 12047, "ikt": 12048, "lture": 12049, "ulture": 12050, "culture": 12051, "onderde": 12052, "sentiee": 12053, "ssentiee": 12054, "sentieel": 12055, "essentiee": 12056, "ssentieel": 12057, "essentieel": 12058, "-europ": 12059, "oplei": 12060, "opleid": 12061, "temb": 12062, "bijn": 12063, "rmonis": 12064, "armonis": 12065, "harmonis": 12066, "essi": 12067, "strekk": 12068, "caa": 12069, "fing": 12070, "eveel": 12071, "emis": 12072, "aniser": 12073, "13": 12074, "tsprek": 12075, "tspreke": 12076, "voorde": 12077, "lezin": 12078, "lezing": 12079, "giste": 12080, "eves": 12081, "etwi": 12082, "erend": 12083, "gister": 12084, "tspreken": 12085, "verni": 12086, "itl": 12087, "actiep": 12088, "rende": 12089, "forme": 12090, "icie": 12091, "mba": 12092, "bijna": 12093, "heers": 12094, "roord": 12095, "roorde": 12096, "handh": 12097, "handha": 12098, "groen": 12099, "aron": 12100, "uitspre": 12101, "astle": 12102, "enstell": 12103, "isl": 12104, "vanwe": 12105, "anweg": 12106, "nwege": 12107, "vanweg": 12108, "anwege": 12109, "vanwege": 12110, "evred": 12111, "dhav": 12112, "eeg": 12113, "genov": 12114, "tegeno": 12115, "genove": 12116, "epp": 12117, "serie": 12118, "xtra": 12119, "extra": 12120, "derdee": 12121, "nderdee": 12122, "derdeel": 12123, "onderdee": 12124, "nderdeel": 12125, "onderdeel": 12126, "stleg": 12127, "astleg": 12128, "itsprek": 12129, "uitsprek": 12130, "itspreke": 12131, "uitspreke": 12132, "eleme": 12133, "elemen": 12134, "element": 12135, "derb": 12136, "genover": 12137, "stlegg": 12138, "astlegg": 12139, "ndhav": 12140, "andhav": 12141, "handhav": 12142, "itspreken": 12143, "uitspreken": 12144, "uma": 12145, "ierb": 12146, "vastle": 12147, "vastleg": 12148, "rhou": 12149, "vastlegg": 12150, "leri": 12151, "kosten": 12152, "artic": 12153, "eps": 12154, "makk": 12155, "ichts": 12156, "eword": 12157, "geword": 12158, "eworde": 12159, "geworde": 12160, "eworden": 12161, "geworden": 12162, "deleg": 12163, "partic": 12164, "prev": 12165, "egenov": 12166, "tegenov": 12167, "egenove": 12168, "tegenove": 12169, "egenover": 12170, "tegenover": 12171, "lturee": 12172, "ulturee": 12173, "ltureel": 12174, "culturee": 12175, "ultureel": 12176, "cultureel": 12177, "makke": 12178, "orli": 12179, "eto": 12180, "rhoud": 12181, "nai": 12182, "oorli": 12183, "2004": 12184, "ugd": 12185, "edoele": 12186, "rela": 12187, "voorsc": 12188, "voorsch": 12189, "huldi": 12190, "huldig": 12191, "aud": 12192, "hange": 12193, "makkel": 12194, "akkeli": 12195, "makkeli": 12196, "akkelij": 12197, "makkelij": 12198, "akkelijk": 12199, "makkelijk": 12200, "ssta": 12201, "-de": 12202, "anisere": 12203, "aniseren": 12204, "adel": 12205, "ouve": 12206, "nri": 12207, "ganise": 12208, "rganise": 12209, "organise": 12210, "eldi": 12211, "vergr": 12212, "fens": 12213, "eurt": 12214, "onaf": 12215, "25": 12216, "srec": 12217, "heide": 12218, "enera": 12219, "genera": 12220, "tenis": 12221, "dinati": 12222, "rdinati": 12223, "nlei": 12224, "nleid": 12225, "rschei": 12226, "erschei": 12227, "rscheid": 12228, "erscheid": 12229, "rzet": 12230, "toene": 12231, "pecti": 12232, "specti": 12233, "iscr": 12234, "dinatie": 12235, "rdinatie": 12236, "\u00f6rdinati": 12237, "o\u00f6rdinati": 12238, "\u00f6rdinatie": 12239, "co\u00f6rdinati": 12240, "o\u00f6rdinatie": 12241, "co\u00f6rdinatie": 12242, "rieu": 12243, "derzoeke": 12244, "nderzoeke": 12245, "onderzoeke": 12246, "999": 12247, "beurt": 12248, "oenem": 12249, "toenem": 12250, "isw": 12251, "uweli": 12252, "werpr": 12253, "ffing": 12254, "pectie": 12255, "spectie": 12256, "pron": 12257, "ganiser": 12258, "rganiser": 12259, "ganisere": 12260, "organiser": 12261, "rganisere": 12262, "ganiseren": 12263, "organisere": 12264, "rganiseren": 12265, "organiseren": 12266, "1999": 12267, "hijnl": 12268, "chijnl": 12269, "hijnli": 12270, "schijnl": 12271, "chijnli": 12272, "hijnlij": 12273, "schijnli": 12274, "chijnlij": 12275, "hijnlijk": 12276, "schijnlij": 12277, "chijnlijk": 12278, "schijnlijk": 12279, "derlij": 12280, "heiden": 12281, "dves": 12282, "dvest": 12283, "twerpr": 12284, "ntwerpr": 12285, "ontwerpr": 12286, "oeneme": 12287, "toeneme": 12288, "oenemen": 12289, "toenemen": 12290, "arto": 12291, "fensi": 12292, "fensie": 12293, "uvern": 12294, "edoelen": 12295, "ndves": 12296, "ndvest": 12297, "derlijk": 12298, "discr": 12299, "ebes": 12300, "welij": 12301, "uwelij": 12302, "eraan": 12303, "von": 12304, "sgezo": 12305, "sgezon": 12306, "sgezond": 12307, "sgezondh": 12308, "sgezondhe": 12309, "sgezondhei": 12310, "sgezondheid": 12311, "ouver": 12312, "vergel": 12313, "wone": 12314, "rheuge": 12315, "erheuge": 12316, "rheugen": 12317, "verheuge": 12318, "erheugen": 12319, "verheugen": 12320, "eventie": 12321, "kre": 12322, "gouv": 12323, "gouve": 12324, "bedoele": 12325, "bedoelen": 12326, "welijk": 12327, "uwelijk": 12328, "gouver": 12329, "ouvern": 12330, "gouvern": 12331, "schip": 12332, "onmi": 12333, "nair": 12334, "navo": 12335, "ntel": 12336, "uverne": 12337, "ouverne": 12338, "gouverne": 12339, "ieke": 12340, "lexi": 12341, "institutione": 12342, "tlan": 12343, "urig": 12344, "mei": 12345, "oz": 12346, "liez": 12347, "harte": 12348, "repe": 12349, "tander": 12350, "ogt": 12351, "stander": 12352, "rliez": 12353, "lieze": 12354, "erliez": 12355, "rlieze": 12356, "verliez": 12357, "erlieze": 12358, "verlieze": 12359, "our": 12360, "waardo": 12361, "enaam": 12362, "kloo": 12363, "waardoo": 12364, "waardoor": 12365, "anism": 12366, "dwij": 12367, "pie": 12368, "ngsco": 12369, "onaan": 12370, "baan": 12371, "anisme": 12372, "erhou": 12373, "treur": 12374, "cel": 12375, "vings": 12376, "gema": 12377, "waarvo": 12378, "waarvoo": 12379, "waarvoor": 12380, "lerin": 12381, "dar": 12382, "thoud": 12383, "lering": 12384, "loop": 12385, "erhoud": 12386, "ingsco": 12387, "lier": 12388, "iaan": 12389, "krachti": 12390, "chaa": 12391, "aarto": 12392, "zigen": 12393, "emoe": 12394, "genaam": 12395, "orleg": 12396, "oorleg": 12397, "orlegg": 12398, "voorleg": 12399, "oorlegg": 12400, "voorlegg": 12401, "nderzi": 12402, "rwez": 12403, "rweze": 12404, "rwezen": 12405, "ongel": 12406, "tenge": 12407, "erwez": 12408, "verwez": 12409, "erweze": 12410, "verweze": 12411, "erwezen": 12412, "verwezen": 12413, "erieu": 12414, "lksg": 12415, "olksg": 12416, "volksg": 12417, "paranti": 12418, "parantie": 12419, "sparanti": 12420, "nsparanti": 12421, "sparantie": 12422, "ansparanti": 12423, "nsparantie": 12424, "ransparanti": 12425, "ansparantie": 12426, "transparanti": 12427, "ransparantie": 12428, "transparantie": 12429, "istan": 12430, "imule": 12431, "lksge": 12432, "olksge": 12433, "volksge": 12434, "timule": 12435, "imuler": 12436, "stimule": 12437, "timuler": 12438, "ksgez": 12439, "lksgez": 12440, "olksgez": 12441, "volksgez": 12442, "orlegge": 12443, "oorlegge": 12444, "orleggen": 12445, "voorlegge": 12446, "oorleggen": 12447, "voorleggen": 12448, "rlementai": 12449, "arlementai": 12450, "rlementair": 12451, "parlementai": 12452, "arlementair": 12453, "parlementair": 12454, "dda": 12455, "stimuler": 12456, "vs": 12457, "ksgezo": 12458, "lksgezo": 12459, "ksgezon": 12460, "olksgezo": 12461, "lksgezon": 12462, "ksgezond": 12463, "volksgezo": 12464, "olksgezon": 12465, "lksgezond": 12466, "ksgezondh": 12467, "volksgezon": 12468, "olksgezond": 12469, "lksgezondh": 12470, "ksgezondhe": 12471, "volksgezond": 12472, "olksgezondh": 12473, "lksgezondhe": 12474, "ksgezondhei": 12475, "volksgezondh": 12476, "olksgezondhe": 12477, "lksgezondhei": 12478, "ksgezondheid": 12479, "volksgezondhe": 12480, "olksgezondhei": 12481, "lksgezondheid": 12482, "volksgezondhei": 12483, "olksgezondheid": 12484, "volksgezondheid": 12485, "isie": 12486, "was": 12487, "wekk": 12488, "nafh": 12489, "nafha": 12490, "nafhan": 12491, "afsc": 12492, "afsch": 12493, "elega": 12494, "rijw": 12495, "oogt": 12496, "egenst": 12497, "tegenst": 12498, "erdel": 12499, "vergeli": 12500, "vergelij": 12501, "vergelijk": 12502, "onafh": 12503, "onafha": 12504, "onafhan": 12505, "nafhank": 12506, "nafhanke": 12507, "nafhankel": 12508, "nafhankeli": 12509, "nafhankelij": 12510, "nafhankelijk": 12511, "trijden": 12512, "non": 12513, "onafhank": 12514, "onafhanke": 12515, "onafhankel": 12516, "onafhankeli": 12517, "onafhankelij": 12518, "onafhankelijk": 12519, "hep": 12520, "cheide": 12521, "scheide": 12522, "istra": 12523, "ii": 12524, "strijden": 12525, "cheiden": 12526, "scheiden": 12527, "ndic": 12528, "agra": 12529, "diep": 12530, "ndica": 12531, "here": 12532, "-fr": 12533, "vrijw": 12534, "site": 12535, "nkomsti": 12536, "enkomsti": 12537, "nkomstig": 12538, "eenkomsti": 12539, "enkomstig": 12540, "reenkomsti": 12541, "eenkomstig": 12542, "ereenkomsti": 12543, "reenkomstig": 12544, "vereenkomsti": 12545, "ereenkomstig": 12546, "overeenkomsti": 12547, "vereenkomstig": 12548, "overeenkomstig": 12549, "erf": 12550, "gsproces": 12551, "mas": 12552, "ovo": 12553, "itis": 12554, "ngsproces": 12555, "ievoo": 12556, "ievoor": 12557, "afsp": 12558, "wiss": 12559, "ntru": 12560, "anderz": 12561, "anderzi": 12562, "nderzij": 12563, "anderzij": 12564, "nderzijd": 12565, "anderzijd": 12566, "nderzijds": 12567, "anderzijds": 12568, "nings": 12569, "ierm": 12570, "rieus": 12571, "inzett": 12572, "inzette": 12573, "inzetten": 12574, "pecte": 12575, "specte": 12576,
[...]
