{"byte_pairs": {"__sow": 6, "__eow": 7, "e": 8, "n": 9, "a": 10, "i": 11, "t": 12, "r": 13, "o": 14, "d": 15, "en": 16, "s": 17, "l": 18, "g": 19, "v": 20, "er": 21, "m": 22, "de": 23, "h": 24, "k": 25, "an": 26, "ee": 27, "u": 28, "j": 29, "ij": 30, "z": 31, "b": 32, "aa": 33, "p": 34, "in": 35, "c": 36, "w": 37, "ie": 38, "et": 39, "he": 40, "ge": 41, "el": 42, "te": 43, "or": 44, "oo": 45, "va": 46, "at": 47, "st": 48, "ng": 49, "van": 50, ".": 51, "ve": 52, "nd": 53, "zi": 54, "ar": 55, "on": 56, "me": 57, "al": 58, "f": 59, "re": 60, "ch": 61, ",": 62, "it": 63, "vo": 64, "da": 65, "het": 66, "be": 67, "ing": 68, "oor": 69, "jn": 70, "ijn": 71, "li": 72, "oe": 73, "ver": 74, "een": 75, "eer": 76, "op": 77, "ro": 78, "di": 79, "zij": 80, "ti": 81, "le": 82, "aar": 83, "we": 84, "is": 85, "zijn": 86, "nt": 87, "ei": 88, "voo": 89, "voor": 90, "om": 91, "ri": 92, "ra": 93, "dat": 94, "mi": 95, "id": 96, "la": 97, "rd": 98, "ni": 99, "es": 100, "em": 101, "eg": 102, "ze": 103, "jk": 104, "ijk": 105, "eu": 106, "ur": 107, "lij": 108, "ui": 109, "ig": 110, "sc": 111, "wi": 112, "tie": 113, "ma": 114, "aan": 115, "ed": 116, "sch": 117, "nde": 118, "and": 119, "ste": 120, "ik": 121, "eb": 122, "der": 123, "co": 124, "na": 125, "ht": 126, "cht": 127, "ta": 128, "lijk": 129, "ord": 130, "ns": 131, "to": 132, "tr": 133, "ne": 134, "nie": 135, "mo": 136, "men": 137, "die": 138, "wo": 139, "pe": 140, "ek": 141, "ke": 142, "eid": 143, "ec": 144, "wa": 145, "ag": 146, "pr": 147, "ent": 148, "ha": 149, "pa": 150, "ol": 151, "uit": 152, "eli": 153, "eur": 154, "heb": 155, "ter": 156, "nder": 157, "si": 158, "za": 159, "ond": 160, "bi": 161, "un": 162, "elij": 163, "elijk": 164, "lan": 165, "ov": 166, "aat": 167, "wor": 168, "word": 169, "zo": 170, "eel": 171, "ove": 172, "ss": 173, "sta": 174, "ef": 175, "am": 176, "con": 177, "do": 178, "ic": 179, "wij": 180, "ka": 181, "il": 182, "maa": 183, "ot": 184, "no": 185, "ak": 186, "gr": 187, "met": 188, "over": 189, "end": 190, "iet": 191, "gen": 192, "rk": 193, "aal": 194, "ho": 195, "uro": 196, "raa": 197, "euro": 198, "se": 199, "ati": 200, "mis": 201, "og": 202, "ez": 203, "rop": 204, "ege": 205, "moe": 206, "niet": 207, "urop": 208, "europ": 209, "mee": 210, "rij": 211, "ev": 212, "ga": 213, "ko": 214, "hei": 215, "ct": 216, "rt": 217, "sl": 218, "heid": 219, "ls": 220, "-": 221, "rs": 222, "ac": 223, "gel": 224, "oet": 225, "ree": 226, "tel": 227, "ang": 228, "ees": 229, "onde": 230, "ll": 231, "eme": 232, "ou": 233, "ope": 234, "moet": 235, "erk": 236, "als": 237, "den": 238, "onder": 239, "ech": 240, "tu": 241, "zal": 242, "atie": 243, "waa": 244, "uw": 245, "gee": 246, "ich": 247, "iss": 248, "rg": 249, "isc": 250, "kan": 251, "pro": 252, "ad": 253, "ens": 254, "ment": 255, "lo": 256, "ok": 257, "wer": 258, "tre": 259, "waar": 260, "stel": 261, "ers": 262, "sie": 263, "dit": 264, "lle": 265, "nee": 266, "hee": 267, "daa": 268, "as": 269, "pee": 270, "echt": 271, "sp": 272, "rope": 273, "urope": 274, "europe": 275, "hi": 276, "ru": 277, "miss": 278, "vr": 279, "us": 280, "isch": 281, "0": 282, "ba": 283, "eze": 284, "du": 285, "dr": 286, "mij": 287, "naa": 288, "ook": 289, "bij": 290, "ap": 291, "ere": 292, "opee": 293, "ropee": 294, "uropee": 295, "europee": 296, "pees": 297, "opees": 298, "ropees": 299, "uropees": 300, "europees": 301, "bel": 302, "ande": 303, "ssi": 304, "rm": 305, "ten": 306, "dez": 307, "aak": 308, "deze": 309, "ame": 310, "eem": 311, "ind": 312, "emen": 313, "land": 314, "ssie": 315, "ite": 316, "af": 317, "br": 318, "oc": 319, "od": 320, "toe": 321, "gro": 322, "taa": 323, "kom": 324, "jd": 325, "str": 326, "ijd": 327, "of": 328, "tee": 329, "lee": 330, "ele": 331, "dee": 332, "po": 333, "ts": 334, "ld": 335, "par": 336, "vol": 337, "ci": 338, "ce": 339, "issi": 340, "ien": 341, "ement": 342, "missi": 343, "issie": 344, "missie": 345, "mijn": 346, "laa": 347, "heer": 348, "rl": 349, "so": 350, "aag": 351, "ont": 352, "gi": 353, "est": 354, "vi": 355, "oed": 356, "all": 357, "werk": 358, "dig": 359, "icht": 360, "rec": 361, "cha": 362, "doo": 363, "alle": 364, "ede": 365, "mm": 366, "daar": 367, "tot": 368, "ier": 369, "del": 370, "nk": 371, "wil": 372, "lem": 373, "reg": 374, "ren": 375, "lang": 376, "ken": 377, "sa": 378, "doe": 379, "zit": 380, "door": 381, "bo": 382, "pl": 383, "dan": 384, "sla": 385, "scha": 386, "lu": 387, "rde": 388, "maar": 389, "eve": 390, "go": 391, "vers": 392, "ach": 393, "ven": 394, "wee": 395, "hu": 396, "bl": 397, "fe": 398, "nz": 399, "lei": 400, "eit": 401, "han": 402, "acht": 403, "teg": 404, "staa": 405, "ela": 406, "tw": 407, "ant": 408, "os": 409, "uu": 410, "amen": 411, "egen": 412, "ons": 413, "rech": 414, "kel": 415, "recht": 416, "iti": 417, "eld": 418, "tij": 419, "2": 420, "eef": 421, "leme": 422, "lemen": 423, "lement": 424, "wel": 425, "ul": 426, "ouw": 427, "ard": 428, "ud": 429, "cti": 430, "leg": 431, "rle": 432, "geb": 433, "roo": 434, "ia": 435, "meer": 436, "ctie": 437, "ort": 438, "aad": 439, "neem": 440, "uni": 441, "nte": 442, "oord": 443, "oot": 444, "elan": 445, "bu": 446, "nc": 447, "rn": 448, "arl": 449, "im": 450, "goe": 451, "com": 452, "goed": 453, "laat": 454, "arle": 455, "parl": 456, "rlem": 457, "arlem": 458, "parle": 459, "parlem": 460, "rleme": 461, "arleme": 462, "rlemen": 463, "parleme": 464, "arlemen": 465, "parlemen": 466, "rlement": 467, "arlement": 468, "parlement": 469, "leid": 470, "raag": 471, "ran": 472, "hap": 473, "chap": 474, "schap": 475, "zie": 476, "bela": 477, "ieu": 478, "elang": 479, "belan": 480, "belang": 481, "aard": 482, "vaa": 483, "hoo": 484, "io": 485, "orm": 486, "rege": 487, "sti": 488, "ut": 489, "taat": 490, "staat": 491, "uc": 492, "fi": 493, "ist": 494, "eke": 495, "ep": 496, "rek": 497, "lag": 498, "uur": 499, "lid": 500, "oud": 501, "tei": 502, "nu": 503, "um": 504, "ander": 505, "zic": 506, "zich": 507, "geli": 508, "1": 509, "root": 510, "gelij": 511, "gelijk": 512, "groo": 513, "groot": 514, "eri": 515, "rei": 516, "teit": 517, "iek": 518, "chi": 519, "vee": 520, "ern": 521, "her": 522, "itei": 523, "iteit": 524, "tege": 525, "teer": 526, "slag": 527, "pre": 528, "ect": 529, "nn": 530, "ied": 531, "hand": 532, "art": 533, "voe": 534, "au": 535, "even": 536, "itie": 537, "jf": 538, "ijf": 539, "unie": 540, "ris": 541, "ja": 542, "eed": 543, "lk": 544, "zaa": 545, "ir": 546, "cr": 547, "hie": 548, "tra": 549, "woo": 550, "vaar": 551, "bie": 552, "org": 553, "act": 554, "bre": 555, "geef": 556, "hou": 557, "wat": 558, "deel": 559, "egi": 560, "kk": 561, "omm": 562, "egel": 563, "dien": 564, "meen": 565, "nog": 566, "rie": 567, "raad": 568, "ief": 569, "int": 570, "nze": 571, "je": 572, "ger": 573, "lit": 574, "era": 575, "ds": 576, "ili": 577, "mens": 578, "vor": 579, "nen": 580, "tan": 581, "00": 582, "res": 583, "naar": 584, "erg": 585, "ige": 586, "nat": 587, "per": 588, "tegen": 589, "rijk": 590, "schi": 591, "lg": 592, "geen": 593, "inte": 594, "rge": 595, "spr": 596, "tijd": 597, "nti": 598, "hte": 599, "chte": 600, "ron": 601, "kr": 602, "maak": 603, "rb": 604, "dra": 605, "erd": 606, "onz": 607, "houd": 608, "pla": 609, "onze": 610, "loo": 611, "rou": 612, "stee": 613, "y": 614, "pu": 615, "ric": 616, "ai": 617, "stan": 618, "ob": 619, "ein": 620, "bli": 621, "kt": 622, "comm": 623, "baa": 624, "regel": 625, "min": 626, "rouw": 627, "tem": 628, "rsl": 629, "rsla": 630, "zon": 631, "rslag": 632, "kke": 633, "gev": 634, "roe": 635, "nge": 636, "rich": 637, "ast": 638, "rr": 639, "nda": 640, "che": 641, "tuu": 642, "ersl": 643, "richt": 644, "sse": 645, "ersla": 646, "versl": 647, "versla": 648, "lf": 649, "erslag": 650, "verslag": 651, "haa": 652, "oog": 653, "gem": 654, "woor": 655, "woord": 656, "mmi": 657, "ene": 658, "reer": 659, "dri": 660, "oek": 661, "naal": 662, "euw": 663, "eek": 664, "olg": 665, "ki": 666, "volg": 667, "nne": 668, "su": 669, "uid": 670, "ate": 671, "ndel": 672, "nis": 673, "tief": 674, "acti": 675, "vra": 676, "oer": 677, "hier": 678, "lui": 679, "oel": 680, "eree": 681, "sen": 682, "\u00eb": 683, "ea": 684, "zond": 685, "js": 686, "ijs": 687, "jaa": 688, "actie": 689, "zeg": 690, "ari": 691, "see": 692, "nieu": 693, "deer": 694, "ans": 695, "ieuw": 696, "nieuw": 697, "hter": 698, "chter": 699, "eken": 700, "ende": 701, "vraa": 702, "vraag": 703, "enk": 704, "oli": 705, "hande": 706, "bele": 707, "oop": 708, "andel": 709, "seer": 710, "fr": 711, "20": 712, "eni": 713, "jaar": 714, "mer": 715, "bied": 716, "nst": 717, "zel": 718, "ade": 719, "cu": 720, "handel": 721, "elf": 722, "twe": 723, "trek": 724, "lie": 725, "sche": 726, "stem": 727, "elei": 728, "zaak": 729, "gra": 730, "vro": 731, "orde": 732, "len": 733, "tand": 734, "bet": 735, "stand": 736, "ori": 737, "veel": 738, "vere": 739, "dd": 740, "opa": 741, "tro": 742, "lig": 743, "ber": 744, "eleid": 745, "ropa": 746, "bes": 747, "spe": 748, "belei": 749, "beleid": 750, "uss": 751, "hoe": 752, "uk": 753, "ommi": 754, "aam": 755, "ank": 756, "kkel": 757, "omi": 758, "hun": 759, "lt": 760, "val": 761, "uropa": 762, "europa": 763, "ntie": 764, "zelf": 765, "rac": 766, "ini": 767, "fo": 768, "kl": 769, "tuur": 770, "ew": 771, "nati": 772, "nter": 773, "ndi": 774, "geme": 775, "mid": 776, "emee": 777, ":": 778, "teu": 779, "oge": 780, "emeen": 781, "maat": 782, "ona": 783, "vrou": 784, "vrouw": 785, "idd": 786, "wik": 787, "slu": 788, "slui": 789, "gemee": 790, "gemeen": 791, "ikk": 792, "midd": 793, "ats": 794, "ikke": 795, "ikkel": 796, "baar": 797, "eva": 798, "inter": 799, "rag": 800, "luit": 801, "rui": 802, "leen": 803, "sluit": 804, "wet": 805, "dde": 806, "wikk": 807, "wikke": 808, "wikkel": 809, "oa": 810, ")": 811, "ster": 812, "eng": 813, "idde": 814, "midde": 815, "eun": 816, "(": 817, "lic": 818, "erm": 819, "ntw": 820, "unt": 821, "aats": 822, "air": 823, "steu": 824, "teun": 825, "steun": 826, "dui": 827, "ue": 828, "mp": 829, "tri": 830, "ise": 831, "blij": 832, "kw": 833, "ref": 834, "sam": 835, "man": 836, "doel": 837, "same": 838, "samen": 839, "pp": 840, "rdi": 841, "mil": 842, "nig": 843, "iaa": 844, "pen": 845, "bur": 846, "tor": 847, "mu": 848, "oce": 849, "ssa": 850, "mog": 851, "vin": 852, "ker": 853, "ner": 854, "nv": 855, "zoe": 856, "oal": 857, "roc": 858, "enti": 859, "rob": 860, "pol": 861, "neer": 862, "rz": 863, "200": 864, "pun": 865, "punt": 866, "zoa": 867, "zoal": 868, "oals": 869, "zoals": 870, "uite": 871, "moge": 872, "ide": 873, "ks": 874, "md": 875, "isee": 876, "iseer": 877, "proc": 878, "inde": 879, "cie": 880, "ssen": 881, "roce": 882, "reek": 883, "prob": 884, "proce": 885, "inn": 886, "zoek": 887, "ab": 888, "zet": 889, "oon": 890, "age": 891, "rond": 892, "onaa": 893, "gez": 894, "onaal": 895, "twee": 896, "tree": 897, "vind": 898, "omis": 899, "rte": 900, "ju": 901, "commi": 902, "esti": 903, "mmis": 904, "ommis": 905, "commis": 906, "mmiss": 907, "ommiss": 908, "commiss": 909, "tal": 910, "rit": 911, "geer": 912, "ndee": 913, "por": 914, "oen": 915, "echte": 916, "mar": 917, "jz": 918, "ijz": 919, "ebr": 920, "ono": 921, "entie": 922, "drag": 923, "heel": 924, "eco": 925, "rst": 926, "ete": 927, "eden": 928, "ina": 929, "edi": 930, "ff": 931, "vorm": 932, "geva": 933, "x": 934, "ebi": 935, "ebie": 936, "gebi": 937, "gebie": 938, "voer": 939, "ddel": 940, "rti": 941, "stri": 942, "iddel": 943, "middel": 944, "tref": 945, "red": 946, "ogel": 947, "llee": 948, "echter": 949, "rw": 950, "spre": 951, "ert": 952, "lis": 953, "bru": 954, "port": 955, "elk": 956, "urg": 957, "poli": 958, "zee": 959, "ndeer": 960, "tus": 961, "nam": 962, "allee": 963, "iaal": 964, "gebr": 965, "ani": 966, "?": 967, "cia": 968, "zonde": 969, "igen": 970, "misc": 971, "misch": 972, "mogel": 973, "ogeli": 974, "mogeli": 975, "ogelij": 976, "mogelij": 977, "ogelijk": 978, "mogelijk": 979, "eh": 980, "ins": 981, "usse": 982, "arde": 983, "zonder": 984, "5": 985, "issa": 986, "tern": 987, "fra": 988, "ali": 989, "liti": 990, "iv": 991, "uct": 992, "ader": 993, "aarde": 994, "iee": 995, "burg": 996, "plaa": 997, "uee": 998, "lleen": 999, "alleen": 1000, "sit": 1001, "fin": 1002, "inne": 1003, "reng": 1004, "olit": 1005, "polit": 1006, "reen": 1007, "kri": 1008, "vri": 1009, "plaat": 1010, "laats": 1011, "if": 1012, "nf": 1013, "gre": 1014, "oliti": 1015, "politi": 1016, "anda": 1017, "rga": 1018, "ereen": 1019, "lev": 1020, "plaats": 1021, "nom": 1022, "eet": 1023, "paa": 1024, "dus": 1025, "nci": 1026, "econ": 1027, "jde": 1028, "ijde": 1029, "anc": 1030, "waard": 1031, "tis": 1032, "9": 1033, "ntr": 1034, "\u00e9": 1035, "sel": 1036, "ug": 1037, "gis": 1038, "litie": 1039, "cono": 1040, "econo": 1041, "onom": 1042, "nomi": 1043, "onomi": 1044, "conom": 1045, "econom": 1046, "noo": 1047, "reed": 1048, "cen": 1049, "conomi": 1050, "economi": 1051, "wijs": 1052, "ies": 1053, "aris": 1054, "zor": 1055, "evr": 1056, "gan": 1057, "tru": 1058, "zorg": 1059, "ble": 1060, "uik": 1061, "olitie": 1062, "politie": 1063, "led": 1064, "bee": 1065, "ussen": 1066, "duid": 1067, "name": 1068, "gd": 1069, "nnen": 1070, "bren": 1071, "rel": 1072, "ciaa": 1073, "waarde": 1074, "leem": 1075, "obl": 1076, "ciaal": 1077, "ust": 1078, "eig": 1079, "eren": 1080, "vera": 1081, "blee": 1082, "breng": 1083, "oble": 1084, "robl": 1085, "roble": 1086, "beg": 1087, "rke": 1088, "tuss": 1089, "tusse": 1090, "tussen": 1091, "probl": 1092, "proble": 1093, "bleem": 1094, "zien": 1095, "oblee": 1096, "roblee": 1097, "problee": 1098, "obleem": 1099, "robleem": 1100, "probleem": 1101, "omisc": 1102, "dank": 1103, "nomis": 1104, "onomis": 1105, "omisch": 1106, "nomisc": 1107, "nomisch": 1108, "onomisc": 1109, "onomisch": 1110, "conomis": 1111, "economis": 1112, "conomisc": 1113, "economisc": 1114, "conomisch": 1115, "economisch": 1116, "erb": 1117, "urge": 1118, "tiek": 1119, "app": 1120, "sm": 1121, "pri": 1122, "pas": 1123, "rger": 1124, "3": 1125, "cent": 1126, "pec": 1127, "tig": 1128, "spec": 1129, "gron": 1130, "grond": 1131, "eil": 1132, "leve": 1133, "eder": 1134, "ega": 1135, "rp": 1136, "gin": 1137, "rkt": 1138, "rsc": 1139, "err": 1140, "burge": 1141, "urger": 1142, "burger": 1143, "rsch": 1144, "rdig": 1145, "i\u00eb": 1146, "ark": 1147, "uis": 1148, "lijn": 1149, "enig": 1150, "ake": 1151, "ruik": 1152, "eran": 1153, "reid": 1154, "brui": 1155, "llen": 1156, "bin": 1157, "stra": 1158, "vrij": 1159, "bruik": 1160, "veran": 1161, "rh": 1162, "raat": 1163, "ca": 1164, "ure": 1165, "innen": 1166, "ebied": 1167, "gebied": 1168, "nan": 1169, "sis": 1170, "sol": 1171, "jg": 1172, "ijg": 1173, "itiek": 1174, "oep": 1175, "wan": 1176, "rat": 1177, "natie": 1178, "pree": 1179, "preek": 1180, "erp": 1181, "ema": 1182, "spree": 1183, "spreek": 1184, "odi": 1185, "onc": 1186, "ntern": 1187, "mark": 1188, "ume": 1189, "intern": 1190, "gaa": 1191, "litiek": 1192, "olitiek": 1193, "politiek": 1194, "ex": 1195, "sar": 1196, "conc": 1197, "rin": 1198, "verd": 1199, "oci": 1200, "mb": 1201, "dem": 1202, "two": 1203, "hr": 1204, "soc": 1205, "twoo": 1206, "emo": 1207, "antw": 1208, "ntwo": 1209, "twoor": 1210, "ntwoo": 1211, "twoord": 1212, "ntwoor": 1213, "antwo": 1214, "antwoo": 1215, "antwoor": 1216, "ntwoord": 1217, "antwoord": 1218, "aand": 1219, "itu": 1220, "erh": 1221, "tisc": 1222, "tisch": 1223, "rol": 1224, "for": 1225, "soci": 1226, "ezi": 1227, "erl": 1228, "erz": 1229, "tek": 1230, "pra": 1231, "oort": 1232, "mev": 1233, "sari": 1234, "endee": 1235, "saris": 1236, "ssar": 1237, "missa": 1238, "ssari": 1239, "issar": 1240, "issari": 1241, "ssaris": 1242, "missar": 1243, "missari": 1244, "issaris": 1245, "missaris": 1246, "ram": 1247, "evro": 1248, "mmissa": 1249, "ommissa": 1250, "commissa": 1251, "mmissar": 1252, "ommissar": 1253, "mmissari": 1254, "commissar": 1255, "ommissari": 1256, "commissari": 1257, "mmissaris": 1258, "ommissaris": 1259, "commissaris": 1260, "ood": 1261, "evrou": 1262, "evrouw": 1263, "mevr": 1264, "mevro": 1265, "mevrou": 1266, "mevrouw": 1267, "hij": 1268, "ebru": 1269, "rede": 1270, "eds": 1271, "one": 1272, "inst": 1273, "chr": 1274, "eno": 1275, "erke": 1276, "krij": 1277, "pi": 1278, "part": 1279, "col": 1280, "rak": 1281, "rre": 1282, "stre": 1283, "eeds": 1284, "rijd": 1285, "ara": 1286, "vaard": 1287, "oei": 1288, "rant": 1289, "roep": 1290, "erst": 1291, "weg": 1292, "arti": 1293, "rod": 1294, "ine": 1295, "lich": 1296, "tai": 1297, "haar": 1298, "zeer": 1299, "denk": 1300, "ost": 1301, "anci": 1302, "eili": 1303, "ub": 1304, "atr": 1305, "gebru": 1306, "ebrui": 1307, "gebrui": 1308, "ebruik": 1309, "gebruik": 1310, "ilig": 1311, "eilig": 1312, "lega": 1313, "\u2013": 1314, "ueer": 1315, "nanc": 1316, "duc": 1317, "gisc": 1318, "vei": 1319, "este": 1320, "overe": 1321, "cons": 1322, "veil": 1323, "fina": 1324, "gisch": 1325, "ocia": 1326, "socia": 1327, "stu": 1328, "inan": 1329, "finan": 1330, "inanc": 1331, "financ": 1332, "olk": 1333, "odu": 1334, "nanci": 1335, "inanci": 1336, "financi": 1337, "endeer": 1338, "veree": 1339, "vereen": 1340, "overee": 1341, "overeen": 1342, "vl": 1343, "veili": 1344, "cra": 1345, "veilig": 1346, "th": 1347, "dru": 1348, "eind": 1349, "wes": 1350, "erw": 1351, "west": 1352, "mili": 1353, "oeg": 1354, "noe": 1355, "bou": 1356, "treg": 1357, "ncie": 1358, "trege": 1359, "licht": 1360, "deb": 1361, "gang": 1362, "tue": 1363, "prod": 1364, "mend": 1365, "tregel": 1366, "hel": 1367, "ban": 1368, "aatr": 1369, "atre": 1370, "aatre": 1371, "atreg": 1372, "atrege": 1373, "aatreg": 1374, "aatrege": 1375, "maatr": 1376, "maatre": 1377, "maatreg": 1378, "maatrege": 1379, "tuee": 1380, "sme": 1381, "omd": 1382, "atregel": 1383, "aatregel": 1384, "maatregel": 1385, "mda": 1386, "mdat": 1387, "omda": 1388, "omdat": 1389, "arkt": 1390, "markt": 1391, "bat": 1392, "its": 1393, "eba": 1394, "mag": 1395, "vert": 1396, "mende": 1397, "ancie": 1398, "amend": 1399, "amende": 1400, "stru": 1401, "schr": 1402, "spa": 1403, "odig": 1404, "rschi": 1405, "rodu": 1406, "mendee": 1407, "mendeer": 1408, "amendee": 1409, "amendeer": 1410, "aut": 1411, "oduc": 1412, "roduc": 1413, "verb": 1414, "eff": 1415, "cont": 1416, "cee": 1417, "naam": 1418, "lijf": 1419, "ffe": 1420, "oll": 1421, "'": 1422, "ceer": 1423, "demo": 1424, "ersc": 1425, "4": 1426, "iten": 1427, "ult": 1428, "volk": 1429, "cher": 1430, "ome": 1431, "ersch": 1432, "nancie": 1433, "inancie": 1434, "financie": 1435, "rbe": 1436, "mel": 1437, "ebat": 1438, "deba": 1439, "fd": 1440, "ode": 1441, "debat": 1442, "nod": 1443, "nodi": 1444, "nodig": 1445, "eige": 1446, "ets": 1447, "hoog": 1448, "med": 1449, "uiten": 1450, "scher": 1451, "best": 1452, "regi": 1453, "bouw": 1454, "rap": 1455, "rand": 1456, "egin": 1457, "form": 1458, "versc": 1459, "versch": 1460, "dis": 1461, "rne": 1462, "stie": 1463, "inder": 1464, "idi": 1465, "kwe": 1466, "blijf": 1467, "taal": 1468, "vas": 1469, "ocr": 1470, "begi": 1471, "begin": 1472, "rijf": 1473, "produ": 1474, "ogr": 1475, "ociaa": 1476, "sociaa": 1477, "ociaal": 1478, "sociaal": 1479, "rv": 1480, "produc": 1481, "ces": 1482, "edr": 1483, "oof": 1484, "vast": 1485, "egee": 1486, "erel": 1487, "rijg": 1488, "egeer": 1489, "were": 1490, "groe": 1491, "werel": 1492, "reld": 1493, "ereld": 1494, "wereld": 1495, "ive": 1496, "gens": 1497, "krijg": 1498, "ogra": 1499, "ocra": 1500, "ion": 1501, "rna": 1502, "estie": 1503, "nw": 1504, "\"": 1505, "gele": 1506, "ong": 1507, "ppo": 1508, "beh": 1509, "wijz": 1510, "bui": 1511, "rus": 1512, "tt": 1513, "eo": 1514, "moc": 1515, "drie": 1516, "mocr": 1517, "emoc": 1518, "democ": 1519, "emocr": 1520, "democr": 1521, "mocra": 1522, "emocra": 1523, "democra": 1524, "paal": 1525, "atu": 1526, "lv": 1527, "ip": 1528, "ita": 1529, "ener": 1530, "erv": 1531, "edig": 1532, "tair": 1533, "ract": 1534, "ruk": 1535, "gew": 1536, "ill": 1537, "ft": 1538, "herm": 1539, "hri": 1540, "druk": 1541, "chri": 1542, "wen": 1543, "orte": 1544, "rog": 1545, "jo": 1546, "cherm": 1547, "scherm": 1548, "vis": 1549, "amm": 1550, "nds": 1551, "terr": 1552, "nke": 1553, "eker": 1554, "coll": 1555, "trij": 1556, "olle": 1557, "strij": 1558, "sto": 1559, "loop": 1560, "craa": 1561, "atief": 1562, "craat": 1563, "los": 1564, "fer": 1565, "eigen": 1566, "teed": 1567, "steed": 1568, "colle": 1569, "ije": 1570, "kwes": 1571, "kwest": 1572, "westi": 1573, "kwesti": 1574, "westie": 1575, "kwestie": 1576, "ocraa": 1577, "ocraat": 1578, "eraa": 1579, "asi": 1580, "bed": 1581, "werp": 1582, "zek": 1583, "veer": 1584, "mocraa": 1585, "mocraat": 1586, "emocraa": 1587, "democraa": 1588, "emocraat": 1589, "democraat": 1590, "hui": 1591, "kaa": 1592, "zeke": 1593, "zeker": 1594, "disc": 1595, "inz": 1596, "rite": 1597, "ange": 1598, "hil": 1599, "graa": 1600, "lege": 1601, "ppor": 1602, "pport": 1603, "erschi": 1604, "har": 1605, "6": 1606, "verschi": 1607, "prog": 1608, "fu": 1609, "maal": 1610, "binn": 1611, "binne": 1612, "binnen": 1613, "itue": 1614, "buit": 1615, "tueer": 1616, "ituee": 1617, "iste": 1618, "rder": 1619, "rogr": 1620, "itueer": 1621, "gri": 1622, "progr": 1623, "eeld": 1624, "ndaa": 1625, "pt": 1626, "rapp": 1627, "nit": 1628, "chil": 1629, "andaa": 1630, "gram": 1631, "verg": 1632, "appo": 1633, "trijd": 1634, "strijd": 1635, "rappo": 1636, "appor": 1637, "rappor": 1638, "apport": 1639, "rapport": 1640, "racti": 1641, "sn": 1642, "soo": 1643, "daag": 1644, "ractie": 1645, "ice": 1646, "kla": 1647, "lleg": 1648, "frac": 1649, "fract": 1650, "fracti": 1651, "fractie": 1652, "cto": 1653, "ism": 1654, "geno": 1655, "kee": 1656, "rogra": 1657, "ogram": 1658, "rogram": 1659, "progra": 1660, "program": 1661, "gaan": 1662, "sy": 1663, "7": 1664, "log": 1665, "mma": 1666, "isme": 1667, "rom": 1668, "schil": 1669, "ys": 1670, "olleg": 1671, "colleg": 1672, "ruc": 1673, "ilie": 1674, "beel": 1675, "beeld": 1676, "omen": 1677, "leer": 1678, "zig": 1679, "nl": 1680, "cho": 1681, "erna": 1682, "milie": 1683, "ese": 1684, "lve": 1685, "bedr": 1686, "llega": 1687, "eval": 1688, "och": 1689, "keer": 1690, "lin": 1691, "schri": 1692, "situ": 1693, "eau": 1694, "situe": 1695, "situee": 1696, "situeer": 1697, "ramm": 1698, "ollega": 1699, "collega": 1700, "amma": 1701, "gramm": 1702, "ogramm": 1703, "rogramm": 1704, "programm": 1705, "porte": 1706, "rtee": 1707, "esl": 1708, "rteer": 1709, "rzo": 1710, "lec": 1711, "ramma": 1712, "gramma": 1713, "erge": 1714, "ogramma": 1715, "rogramma": 1716, "programma": 1717, "ortee": 1718, "orteer": 1719, "erne": 1720, "gie": 1721, "tio": 1722, "tat": 1723, "oef": 1724, "oos": 1725, "geld": 1726, "erzo": 1727, "rach": 1728, "uist": 1729, "hoop": 1730, "racht": 1731, "aans": 1732, "duct": 1733, "hul": 1734, "fa": 1735, "fun": 1736, "orga": 1737, "bas": 1738, "portee": 1739, "porteer": 1740, "mon": 1741, "fs": 1742, "gio": 1743, "lp": 1744, "eleg": 1745, "ardi": 1746, "esta": 1747, "net": 1748, "regee": 1749, "open": 1750, "rschil": 1751, "erschil": 1752, "verschil": 1753, "onee": 1754, "rnee": 1755, "regeer": 1756, "egio": 1757, "zen": 1758, "tion": 1759, "ike": 1760, "kad": 1761, "regio": 1762, "din": 1763, "zicht": 1764, "iter": 1765, "oduct": 1766, "roduct": 1767, "elege": 1768, "ctor": 1769, "ici": 1770, "av": 1771, "terna": 1772, "ewe": 1773, "pporte": 1774, "dur": 1775, "aardi": 1776, "ardig": 1777, "aardig": 1778, "ves": 1779, "iets": 1780, "apporte": 1781, "rapporte": 1782, "rio": 1783, "vre": 1784, "buite": 1785, "pportee": 1786, "pporteer": 1787, "apportee": 1788, "rapportee": 1789, "apporteer": 1790, "rapporteer": 1791, "tb": 1792, "buiten": 1793, "teke": 1794, "rnat": 1795, "nterna": 1796, "interna": 1797, "ernat": 1798, "rnati": 1799, "ernati": 1800, "teken": 1801, "fei": 1802, "ternat": 1803, "ternati": 1804, "jui": 1805, "ontr": 1806, "ole": 1807, "product": 1808, "nternat": 1809, "internat": 1810, "nternati": 1811, "internati": 1812, "sec": 1813, "elo": 1814, "mat": 1815, "scho": 1816, "vang": 1817, "lite": 1818, "nkel": 1819, "vest": 1820, "oem": 1821, "enke": 1822, "cri": 1823, "rik": 1824, "rtij": 1825, "eik": 1826, "lke": 1827, "feit": 1828, "dam": 1829, "rme": 1830, "too": 1831, "etr": 1832, "umen": 1833, "vaardi": 1834, "bei": 1835, "vaardig": 1836, "ument": 1837, "lieu": 1838, "ilieu": 1839, "milieu": 1840, "mani": 1841, "lge": 1842, "rden": 1843, "rzoe": 1844, "erzoe": 1845, "reke": 1846, "reken": 1847, "inf": 1848, "kade": 1849, "kader": 1850, "gree": 1851, "terk": 1852, "inee": 1853, "mig": 1854, "eta": 1855, "jden": 1856, "ijden": 1857, "sterk": 1858, "8": 1859, "ell": 1860, "rande": 1861, "merk": 1862, "bev": 1863, "tv": 1864, "treed": 1865, "rig": 1866, "gene": 1867, "amel": 1868, "enkel": 1869, "fic": 1870, "ges": 1871, "erde": 1872, "rgi": 1873, "pers": 1874, "basi": 1875, "asis": 1876, "iona": 1877, "basis": 1878, "/": 1879, "ille": 1880, "leven": 1881, "nood": 1882, "ib": 1883, "pect": 1884, "spect": 1885, "litei": 1886, "liteit": 1887, "eks": 1888, "dure": 1889, "pli": 1890, "bete": 1891, "rdr": 1892, "atio": 1893, "sle": 1894, "beid": 1895, "stree": 1896, "greer": 1897, "mme": 1898, "drij": 1899, "reni": 1900, "evaa": 1901, "evaar": 1902, "gevaa": 1903, "gevaar": 1904, "veren": 1905, "atuu": 1906, "voort": 1907, "reik": 1908, "effe": 1909, "egr": 1910, "ereni": 1911, "iel": 1912, "renig": 1913, "erenig": 1914, "keu": 1915, "aas": 1916, "zw": 1917, "vereni": 1918, "tit": 1919, "verenig": 1920, "rum": 1921, "rug": 1922, "ctief": 1923, "oi": 1924, "eci": 1925, "dag": 1926, "uch": 1927, "tiona": 1928, "neel": 1929, "drijf": 1930, "kra": 1931, "lede": 1932, "ple": 1933, "erdr": 1934, "verdr": 1935, "nau": 1936, "pos": 1937, "orit": 1938, "rzoek": 1939, "erzoek": 1940, "rea": 1941, "rdra": 1942, "leden": 1943, "kij": 1944, "prak": 1945, "isi": 1946, "ucht": 1947, "alt": 1948, "taan": 1949, "besl": 1950, "stat": 1951, "ation": 1952, "weet": 1953, "erdra": 1954, "verdra": 1955, "edu": 1956, "ezo": 1957, "mun": 1958, "spo": 1959, "ernee": 1960, "nzi": 1961, "betr": 1962, "zaam": 1963, "arm": 1964, "kie": 1965, "pres": 1966, "iede": 1967, "les": 1968, "weer": 1969, "rmee": 1970, "lend": 1971, "andi": 1972, "rste": 1973, "tte": 1974, "olge": 1975, "ifi": 1976, "ecto": 1977, "volge": 1978, "idee": 1979, "brei": 1980, "teeds": 1981, "steeds": 1982, "contr": 1983, "parti": 1984, "ciee": 1985, "meli": 1986, "kor": 1987, "igd": 1988, "ngen": 1989, "ieder": 1990, "ector": 1991, "ann": 1992, "achte": 1993, "niti": 1994, "trat": 1995, "erant": 1996, "zin": 1997, "verant": 1998, "mind": 1999, "erei": 2000, "ehe": 2001, "minde": 2002, "minder": 2003, "juis": 2004, "juist": 2005, "strat": 2006, "melij": 2007, "melijk": 2008, "pak": 2009, "orme": 2010, "dern": 2011, "ritei": 2012, "riteit": 2013, "cre": 2014, "mede": 2015, "llend": 2016, "ameli": 2017, "amelij": 2018, "amelijk": 2019, "rantw": 2020, "erantw": 2021, "rantwo": 2022, "verantw": 2023, "erantwo": 2024, "rantwoo": 2025, "verantwo": 2026, "erantwoo": 2027, "rantwoor": 2028, "verantwoo": 2029, "erantwoor": 2030, "rantwoord": 2031, "verantwoor": 2032, "erantwoord": 2033, "verantwoord": 2034, "ald": 2035, "ister": 2036, "icee": 2037, "iceer": 2038, "mom": 2039, "forme": 2040, "imm": 2041, "init": 2042, "kies": 2043, "niv": 2044, "ena": 2045, "nive": 2046, "uut": 2047, "initi": 2048, "ergi": 2049, "ormee": 2050, "vand": 2051, "formee": 2052, "ntro": 2053, "staan": 2054, "ereer": 2055, "vanda": 2056, "orden": 2057, "nist": 2058, "uig": 2059, "ationa": 2060, "elke": 2061, "lte": 2062, "orite": 2063, "omp": 2064, "oritei": 2065, "oriteit": 2066, "vandaa": 2067, "nzie": 2068, "rdrag": 2069, "erdrag": 2070, "verdrag": 2071, "eis": 2072, "dame": 2073, "nzien": 2074, "ateg": 2075, "anie": 2076, "uits": 2077, "ika": 2078, "nerg": 2079, "klaa": 2080, "tg": 2081, "raal": 2082, "dia": 2083, "natio": 2084, "nation": 2085, "eru": 2086, "oment": 2087, "mome": 2088, "momen": 2089, "moment": 2090, "namel": 2091, "nameli": 2092, "namelij": 2093, "namelijk": 2094, "tijde": 2095, "nationa": 2096, "koo": 2097, "lech": 2098, "gezi": 2099, "yst": 2100, "sect": 2101, "daad": 2102, "gend": 2103, "lecht": 2104, "yste": 2105, "trum": 2106, "verh": 2107, "fen": 2108, "ring": 2109, "secto": 2110, "sector": 2111, "geval": 2112, "tui": 2113, "zak": 2114, "toc": 2115, "legen": 2116, "verz": 2117, "nel": 2118, "agen": 2119, "uti": 2120, "atuur": 2121, "sys": 2122, "slo": 2123, "syst": 2124, "syste": 2125, "rgaa": 2126, "geleg": 2127, "elegen": 2128, "gelege": 2129, "gelegen": 2130, "bs": 2131, "onf": 2132, "jze": 2133, "ijze": 2134, "eeg": 2135, "breid": 2136, "conf": 2137, "rgaan": 2138, "mini": 2139, "teem": 2140, "ystee": 2141, "systee": 2142, "steem": 2143, "ysteem": 2144, "eter": 2145, "systeem": 2146, "lgen": 2147, "nor": 2148, "ever": 2149, "olgen": 2150, "rate": 2151, "volgen": 2152, "ndaag": 2153, "andaag": 2154, "vandaag": 2155, "egis": 2156, "ow": 2157, "rwi": 2158, ";": 2159, "eso": 2160, "lat": 2161, "erwi": 2162, "slec": 2163, "slech": 2164, "slecht": 2165, "nergi": 2166, "graag": 2167, "plan": 2168, "rwij": 2169, "erwij": 2170, "las": 2171, "mmer": 2172, "ale": 2173, "mmu": 2174, "cl": 2175, "laar": 2176, "zake": 2177, "reden": 2178, "truc": 2179, "rans": 2180, "oces": 2181, "roces": 2182, "proces": 2183, "pan": 2184, "energ": 2185, "ionaa": 2186, "ionaal": 2187, "comp": 2188, "tori": 2189, "struc": 2190, "ruct": 2191, "energi": 2192, "truct": 2193, "struct": 2194, "illen": 2195, "fel": 2196, "rgie": 2197, "aald": 2198, "ergie": 2199, "hik": 2200, "spra": 2201, "orgaa": 2202, "tionaa": 2203, "tionaal": 2204, "orgaan": 2205, "chik": 2206, "schik": 2207, "lj": 2208, "aang": 2209, "edri": 2210, "oven": 2211, "nfo": 2212, "nergie": 2213, "edur": 2214, "edure": 2215, "welk": 2216, "boe": 2217, "ezon": 2218, "uto": 2219, "hill": 2220, "klaar": 2221, "nier": 2222, "einde": 2223, "gezo": 2224, "rba": 2225, "nfor": 2226, "plic": 2227, "natu": 2228, "gezon": 2229, "luc": 2230, "aran": 2231, "ezond": 2232, "gezond": 2233, "nform": 2234, "dens": 2235, "bedri": 2236, "rika": 2237, "tge": 2238, "ess": 2239, "ontro": 2240, "nciee": 2241, "anciee": 2242, "nanciee": 2243, "inanciee": 2244, "financiee": 2245, "cc": 2246, "chill": 2247, "contro": 2248, "chie": 2249, "emi": 2250, "mmig": 2251, "rnatio": 2252, "ernatio": 2253, "rnation": 2254, "ernation": 2255, "rnationa": 2256, "ernationa": 2257, "ternatio": 2258, "nternatio": 2259, "ternation": 2260, "internatio": 2261, "nternation": 2262, "ternationa": 2263, "internation": 2264, "nternationa": 2265, "internationa": 2266, "energie": 2267, "lgens": 2268, "olgens": 2269, "volgens": 2270, "besta": 2271, "gs": 2272, "vie": 2273, "edrij": 2274, "kort": 2275, "lot": 2276, "bedrij": 2277, "olo": 2278, "etre": 2279, "schill": 2280, "tuig": 2281, "ors": 2282, "noem": 2283, "vel": 2284, "e\u00eb": 2285, "nve": 2286, "ater": 2287, "mmun": 2288, "ctu": 2289, "ced": 2290, "ommu": 2291, "commu": 2292, "ommun": 2293, "commun": 2294, "trate": 2295, "edrijf": 2296, "bedrijf": 2297, "betre": 2298, "ooi": 2299, "strate": 2300, "rateg": 2301, "trateg": 2302, "strateg": 2303, "schie": 2304, "hen": 2305, "luch": 2306, "enoe": 2307, "und": 2308, "lucht": 2309, "genoe": 2310, "tec": 2311, "ationaa": 2312, "ationaal": 2313, "eest": 2314, "anier": 2315, "manie": 2316, "manier": 2317, "dac": 2318, "bov": 2319, "ule": 2320, "hille": 2321, "bove": 2322, "chille": 2323, "boven": 2324, "verzo": 2325, "ilj": 2326, "schille": 2327, "inv": 2328, "hillen": 2329, "chillen": 2330, "schillen": 2331, "natuu": 2332, "natuur": 2333, "nsu": 2334, "rschill": 2335, "erschill": 2336, "verschill": 2337, "nstr": 2338, "estee": 2339, "evo": 2340, "iu": 2341, "nationaa": 2342, "nationaal": 2343, "info": 2344, "hn": 2345, "fg": 2346, "rda": 2347, "dere": 2348, "tijden": 2349, "rnationaa": 2350, "ernationaa": 2351, "rnationaal": 2352, "ternationaa": 2353, "ernationaal": 2354, "nternationaa": 2355, "ternationaal": 2356, "internationaa": 2357, "nternationaal": 2358, "internationaal": 2359, "werke": 2360, "infor": 2361, "trol": 2362, "inform": 2363, "auto": 2364, "wijze": 2365, "estaa": 2366, "keur": 2367, "utie": 2368, "ntrol": 2369, "ontrol": 2370, "control": 2371, "geve": 2372, "ledi": 2373, "kos": 2374, "rmeer": 2375, "afg": 2376, "norm": 2377, "hang": 2378, "vat": 2379, "t-": 2380, "beu": 2381, "jdens": 2382, "ijdens": 2383, "tijdens": 2384, "kle": 2385, "voeg": 2386, "beter": 2387, "wez": 2388, "lti": 2389, "haal": 2390, "ormeer": 2391, "formeer": 2392, "hoor": 2393, "dach": 2394, "vea": 2395, "rso": 2396, "nza": 2397, "dacht": 2398, "veau": 2399, "ivea": 2400, "nivea": 2401, "iveau": 2402, "niveau": 2403, "erga": 2404, "vred": 2405, "oris": 2406, "rneem": 2407, "role": 2408, "bew": 2409, "erso": 2410, "paald": 2411, "rschille": 2412, "erschille": 2413, "verschille": 2414, "rschillen": 2415, "erschillen": 2416, "verschillen": 2417, "ledig": 2418, "trole": 2419, "ntrole": 2420, "ontrole": 2421, "controle": 2422, "perso": 2423, "hts": 2424, "inge": 2425, "erba": 2426, "orb": 2427, "milj": 2428, "inza": 2429, "beur": 2430, "enw": 2431, "want": 2432, "ium": 2433, "chts": 2434, "vent": 2435, "verv": 2436, "laag": 2437, "ged": 2438, "ler": 2439, "sne": 2440, "nzak": 2441, "nzake": 2442, "inzak": 2443, "band": 2444, "inzake": 2445, "verga": 2446, "ontw": 2447, "fde": 2448, "ero": 2449, "sul": 2450, "kwa": 2451, "gde": 2452, "reso": 2453, "sten": 2454, "esol": 2455, "ndu": 2456, "ndie": 2457, "gu": 2458, "resol": 2459, "nforme": 2460, "informe": 2461, "tbr": 2462, "rage": 2463, "nformee": 2464, "nformeer": 2465, "informee": 2466, "informeer": 2467, "fl": 2468, "estaan": 2469, "olv": 2470, "nsi": 2471, "efe": 2472, "ndien": 2473, "keli": 2474, "rmo": 2475, "aange": 2476, "teru": 2477, "\u00e9n": 2478, "ndig": 2479, "erug": 2480, "terug": 2481, "echts": 2482, "solv": 2483, "cul": 2484, "ass": 2485, "tegi": 2486, "ategi": 2487, "rategi": 2488, "trategi": 2489, "strategi": 2490, "olve": 2491, "tst": 2492, "rha": 2493, "ndern": 2494, "ineer": 2495, "oneel": 2496, "vu": 2497, "derne": 2498, "ondern": 2499, "verba": 2500, "nderne": 2501, "gren": 2502, "onderne": 2503, "solve": 2504, "n-": 2505, "lvee": 2506, "olvee": 2507, "lveer": 2508, "olveer": 2509, "solvee": 2510, "solveer": 2511, "ana": 2512, "snel": 2513, "nb": 2514, "ehee": 2515, "oorb": 2516, "illend": 2517, "hillend": 2518, "chillend": 2519, "schillend": 2520, "rschillend": 2521, "erschillend": 2522, "verschillend": 2523, "kele": 2524, "bon": 2525, "eho": 2526, "achter": 2527, "egisc": 2528, "egisch": 2529, "tegis": 2530, "ategis": 2531, "tegisc": 2532, "ategisc": 2533, "tegisch": 2534, "ategisch": 2535, "tbre": 2536, "rategis": 2537, "trategis": 2538, "rategisc": 2539, "trategisc": 2540, "rategisch": 2541, "trategisch": 2542, "strategis": 2543, "strategisc": 2544, "strategisch": 2545, "esolv": 2546, "resolv": 2547, "esolve": 2548, "resolve": 2549, "nkele": 2550, "esolvee": 2551, "resolvee": 2552, "esolveer": 2553, "resolveer": 2554, "enkele": 2555, "stit": 2556, "ecti": 2557, "som": 2558, "akt": 2559, "rens": 2560, "eerd": 2561, "gar": 2562, "sum": 2563, "rken": 2564, "order": 2565, "kelij": 2566, "mul": 2567, "rhe": 2568, "kelijk": 2569, "aart": 2570, "anne": 2571, "onds": 2572, "verzoe": 2573, "duu": 2574, "risi": 2575, "esp": 2576, "ore": 2577, "igde": 2578, "enen": 2579, "erha": 2580, "vrede": 2581, "voorb": 2582, "itb": 2583, "oced": 2584, "roced": 2585, "proced": 2586, "eraal": 2587, "anz": 2588, "vord": 2589, "vorde": 2590, "rtu": 2591, "anv": 2592, "cedu": 2593, "ocedu": 2594, "rocedu": 2595, "procedu": 2596, "krac": 2597, "cedur": 2598, "ocedur": 2599, "rocedur": 2600, "procedur": 2601, "aanv": 2602, "cedure": 2603, "ocedure": 2604, "rocedure": 2605, "procedure": 2606, "artij": 2607, "partij": 2608, "krach": 2609, "kracht": 2610, "vorder": 2611, "lever": 2612, "tran": 2613, "draa": 2614, "ms": 2615, "erhe": 2616, "rgel": 2617, "plich": 2618, "plicht": 2619, "duur": 2620, "ewel": 2621, "akk": 2622, "q": 2623, "erand": 2624, "jec": 2625, "hoef": 2626, "para": 2627, "erande": 2628, "verand": 2629, "verande": 2630, "lfs": 2631, "bijz": 2632, "jzo": 2633, "ijzo": 2634, "jzon": 2635, "bijzo": 2636, "ijzon": 2637, "jzond": 2638, "bijzon": 2639, "ijzond": 2640, "jzonde": 2641, "bijzond": 2642, "ijzonde": 2643, "jzonder": 2644, "bijzonde": 2645, "ijzonder": 2646, "bijzonder": 2647, "rro": 2648, "wens": 2649, "peci": 2650, "speci": 2651, "abi": 2652, "ctuu": 2653, "ctuur": 2654, "entr": 2655, "oors": 2656, "orbe": 2657, "emaa": 2658, "elfs": 2659, "bere": 2660, "zelfs": 2661, "inis": 2662, "ergel": 2663, "anti": 2664, "eloo": 2665, "rgeli": 2666, "ergeli": 2667, "rgelij": 2668, "ergelij": 2669, "rgelijk": 2670, "ergelijk": 2671, "ectie": 2672, "centr": 2673, "bestaa": 2674, "chn": 2675, "slot": 2676, "bestaan": 2677, "span": 2678, "perk": 2679, "nstru": 2680, "beho": 2681, "toch": 2682, "wac": 2683, "tech": 2684, "lfd": 2685, "elfd": 2686, "lfde": 2687, "elfde": 2688, "rander": 2689, "jv": 2690, "uctu": 2691, "erander": 2692, "verander": 2693, "alis": 2694, "zelfd": 2695, "zelfde": 2696, "ructu": 2697, "tructu": 2698, "structu": 2699, "iat": 2700, "echn": 2701, "ding": 2702, "wach": 2703, "wacht": 2704, "twi": 2705, "last": 2706, "techn": 2707, "tere": 2708, "arb": 2709, "hem": 2710, "rkel": 2711, "jl": 2712, "verhe": 2713, "woon": 2714, "cus": 2715, "geg": 2716, "pel": 2717, "grens": 2718, "uitb": 2719, "ijv": 2720, "eten": 2721, "ijl": 2722, "ogi": 2723, "chu": 2724, "drage": 2725, "nwe": 2726, "ser": 2727, "eide": 2728, "sid": 2729, "ders": 2730, "una": 2731, "qu": 2732, "moei": 2733, "poo": 2734, "inist": 2735, "berei": 2736, "uctuu": 2737, "uctuur": 2738, "ructuu": 2739, "tructuu": 2740, "ructuur": 2741, "structuu": 2742, "tructuur": 2743, "structuur": 2744, "ezie": 2745, "ling": 2746, "verl": 2747, "tur": 2748, "logi": 2749, "oorbe": 2750, "iem": 2751, "voorbe": 2752, "emaal": 2753, "loof": 2754, "minis": 2755, "roei": 2756, "iati": 2757, "derg": 2758, "minist": 2759, "derge": 2760, "nse": 2761, "ensi": 2762, "itee": 2763, "ordi": 2764, "moed": 2765, "lein": 2766, "schu": 2767, "\u00e9\u00e9": 2768, "cur": 2769, "dergel": 2770, "dergeli": 2771, "dergelij": 2772, "dergelijk": 2773, "xt": 2774, "verzoek": 2775, "ext": 2776, "uiter": 2777, "zijd": 2778, "emb": 2779, "ebe": 2780, "nsp": 2781, "trans": 2782, "lema": 2783, "olog": 2784, "ucti": 2785, "huid": 2786, "19": 2787, "erkel": 2788, "rzi": 2789, "zijde": 2790, "blijk": 2791, "uctie": 2792, "ulp": 2793, "nteg": 2794, "lemaa": 2795, "indi": 2796, "01": 2797, "tik": 2798, "lemaal": 2799, "hulp": 2800, "nnee": 2801, "\u00e9\u00e9n": 2802, "aanda": 2803, "tva": 2804, "ereid": 2805, "bereid": 2806, "leef": 2807, "onsu": 2808, "consu": 2809, "uidi": 2810, "idig": 2811, "uidig": 2812, "huidi": 2813, "huidig": 2814, "nneer": 2815, "rban": 2816, "ubl": 2817, "e-": 2818, "jp": 2819, "ijp": 2820, "wal": 2821, "tia": 2822, "wann": 2823, "annee": 2824, "anneer": 2825, "wanne": 2826, "wannee": 2827, "wanneer": 2828, "rakt": 2829, "mees": 2830, "tn": 2831, "rein": 2832, "werkel": 2833, "oordi": 2834, "slan": 2835, "rkeli": 2836, "erkeli": 2837, "rkelij": 2838, "erkelij": 2839, "rkelijk": 2840, "erkelijk": 2841, "werkeli": 2842, "werkelij": 2843, "werkelijk": 2844, "ubli": 2845, "ject": 2846, "ua": 2847, "kin": 2848, "nli": 2849, "woordi": 2850, "oni": 2851, "erneem": 2852, "dernee": 2853, "derneem": 2854, "sult": 2855, "ndernee": 2856, "ondernee": 2857, "nderneem": 2858, "onderneem": 2859, "ocen": 2860, "ocent": 2861, "gezie": 2862, "ezien": 2863, "gezien": 2864, "fge": 2865, "ncu": 2866, "rocen": 2867, "erban": 2868, "rocent": 2869, "urr": 2870, "rband": 2871, "erband": 2872, "verban": 2873, "verband": 2874, "drin": 2875, "lli": 2876, "grij": 2877, "afge": 2878, "procen": 2879, "erken": 2880, "procent": 2881, "evee": 2882, "geven": 2883, "edere": 2884, "ilit": 2885, "enn": 2886, "nlij": 2887, "nlijk": 2888, "curr": 2889, "urre": 2890, "rbei": 2891, "rbeid": 2892, "iatie": 2893, "tike": 2894, "nsum": 2895, "onsum": 2896, "consum": 2897, "meest": 2898, "ulte": 2899, "uim": 2900, "fere": 2901, "ncur": 2902, "oncu": 2903, "concu": 2904, "oncur": 2905, "ncurr": 2906, "curre": 2907, "concur": 2908, "esu": 2909, "oncurr": 2910, "concurr": 2911, "ncurre": 2912, "oncurre": 2913, "concurre": 2914, "kost": 2915, "ustr": 2916, "owe": 2917, "amer": 2918, "resu": 2919, "itia": 2920, "tiat": 2921, "tiati": 2922, "esul": 2923, "resul": 2924, "esult": 2925, "result": 2926, "nitia": 2927, "initia": 2928, "itiat": 2929, "nitiat": 2930, "initiat": 2931, "tiatie": 2932, "itiati": 2933, "nitiati": 2934, "initiati": 2935, "ltee": 2936, "itiatie": 2937, "nitiatie": 2938, "initiatie": 2939, "enl": 2940, "hal": 2941, "iatief": 2942, "raf": 2943, "tiatief": 2944, "itiatief": 2945, "nitiatief": 2946, "initiatief": 2947, "lteer": 2948, "ultee": 2949, "ulteer": 2950, "sulte": 2951, "sultee": 2952, "sulteer": 2953, "ndac": 2954, "ndach": 2955, "ndacht": 2956, "jvo": 2957, "esulte": 2958, "resulte": 2959, "esultee": 2960, "resultee": 2961, "esulteer": 2962, "resulteer": 2963, "get": 2964, "itbr": 2965, "uitbr": 2966, "andac": 2967, "aandac": 2968, "andach": 2969, "aandach": 2970, "andacht": 2971, "aandacht": 2972, "genw": 2973, "amens": 2974, "nwo": 2975, "erste": 2976, "tap": 2977, "arbe": 2978, "egenw": 2979, "tegenw": 2980, "zu": 2981, "enwo": 2982, "bijv": 2983, "nwoo": 2984, "namen": 2985, "arbei": 2986, "arbeid": 2987, "nwoor": 2988, "nwoord": 2989, "ordig": 2990, "rree": 2991, "sli": 2992, "enwoo": 2993, "genwo": 2994, "egenwo": 2995, "genwoo": 2996, "enwoor": 2997, "tegenwo": 2998, "egenwoo": 2999, "genwoor": 3000, "enwoord": 3001, "nwoordi": 3002, "tegenwoo": 3003, "egenwoor": 3004, "genwoord": 3005, "enwoordi": 3006, "tegenwoor": 3007, "egenwoord": 3008, "genwoordi": 3009, "tegenwoord": 3010, "egenwoordi": 3011, "tegenwoordi": 3012, "obe": 3013, "rbee": 3014, "orbee": 3015, "namens": 3016, "egev": 3017, "lde": 3018, "oordig": 3019, "woordig": 3020, "nwoordig": 3021, "enwoordig": 3022, "genwoordig": 3023, "egenwoordig": 3024, "tegenwoordig": 3025, "rreer": 3026, "urree": 3027, "curree": 3028, "urreer": 3029, "ncurree": 3030, "curreer": 3031, "oncurree": 3032, "ncurreer": 3033, "concurree": 3034, "oncurreer": 3035, "concurreer": 3036, "rlo": 3037, "gege": 3038, "raak": 3039, "rati": 3040, "owel": 3041, "erre": 3042, "gl": 3043, "tuk": 3044, "stuk": 3045, "uwe": 3046, "ijvo": 3047, "bijvo": 3048, "rbeel": 3049, "oorbee": 3050, "orbeel": 3051, "rbeeld": 3052, "voorbee": 3053, "oorbeel": 3054, "orbeeld": 3055, "voorbeel": 3056, "oorbeeld": 3057, "voorbeeld": 3058, "jvoo": 3059, "ijvoo": 3060, "jvoor": 3061, "bijvoo": 3062, "ijvoor": 3063, "bijvoor": 3064, "jvoorb": 3065, "ijvoorb": 3066, "jvoorbe": 3067, "bijvoorb": 3068, "ijvoorbe": 3069, "jvoorbee": 3070, "bijvoorbe": 3071, "ijvoorbee": 3072, "jvoorbeel": 3073, "bijvoorbee": 3074, "ijvoorbeel": 3075, "jvoorbeeld": 3076, "bijvoorbeel": 3077, "ijvoorbeeld": 3078, "bijvoorbeeld": 3079, "vend": 3080, "spee": 3081, "nva": 3082, "rijp": 3083, "enis": 3084, "esi": 3085, "ezen": 3086, "ial": 3087, "onge": 3088, "cce": 3089, "tab": 3090, "oj": 3091, "gegev": 3092, "egeve": 3093, "egeven": 3094, "nal": 3095, "gegeve": 3096, "gegeven": 3097, "imu": 3098, "ofd": 3099, "zow": 3100, "rend": 3101, "zowe": 3102, "zowel": 3103, "ngs": 3104, "dic": 3105, "gelo": 3106, "trou": 3107, "joe": 3108, "win": 3109, "zwa": 3110, "gad": 3111, "itief": 3112, "tell": 3113, "fec": 3114, "oofd": 3115, "tbrei": 3116, "itbre": 3117, "uitbre": 3118, "itbrei": 3119, "uitbrei": 3120, "oms": 3121, "stap": 3122, "fect": 3123, "kaar": 3124, "amp": 3125, "tbreid": 3126, "itbreid": 3127, "uitbreid": 3128, "trouw": 3129, "ezig": 3130, "orz": 3131, "ussi": 3132, "iedere": 3133, "sland": 3134, "hin": 3135, "geh": 3136, "zod": 3137, "peel": 3138, "bri": 3139, "ogis": 3140, "oorz": 3141, "hoof": 3142, "aro": 3143, "gade": 3144, "rsoo": 3145, "soon": 3146, "ersoo": 3147, "rsoon": 3148, "ersoon": 3149, "anzi": 3150, "persoo": 3151, "persoon": 3152, "dring": 3153, "aanz": 3154, "logis": 3155, "rli": 3156, "hoofd": 3157, "aanzi": 3158, "anzie": 3159, "aanzie": 3160, "anzien": 3161, "aanzien": 3162, "tin": 3163, "ude": 3164, "osi": 3165, "teri": 3166, "rgad": 3167, "ergad": 3168, "vergad": 3169, "pub": 3170, "rgade": 3171, "ergade": 3172, "vergade": 3173, "gader": 3174, "rgader": 3175, "ergader": 3176, "vergader": 3177, "grijp": 3178, "term": 3179, "rijs": 3180, "speel": 3181, "geri": 3182, "publ": 3183, "publi": 3184, "eeo": 3185, "jfe": 3186, "ijfe": 3187, "mac": 3188, "ror": 3189, "roj": 3190, "tz": 3191, "draag": 3192, "oost": 3193, "klei": 3194, "kst": 3195, "eom": 3196, "klein": 3197, "rif": 3198, "ira": 3199, "alti": 3200, "top": 3201, "ruim": 3202, "uta": 3203, "erro": 3204, "eeom": 3205, "neeo": 3206, "neeom": 3207, "rori": 3208, "ibe": 3209, "rwa": 3210, "s-": 3211, "trie": 3212, "erij": 3213, "groei": 3214, "loe": 3215, "sume": 3216, "endi": 3217, "nders": 3218, "nsume": 3219, "onsume": 3220, "consume": 3221, "ogisc": 3222, "ogisch": 3223, "integ": 3224, "itai": 3225, "itair": 3226, "rror": 3227, "nigd": 3228, "enigd": 3229, "renigd": 3230, "erenigd": 3231, "verenigd": 3232, "pij": 3233, "terro": 3234, "error": 3235, "terror": 3236, "rrori": 3237, "roris": 3238, "errori": 3239, "rroris": 3240, "terrori": 3241, "erroris": 3242, "terroris": 3243, "eloof": 3244, "venti": 3245, "anis": 3246, "logisc": 3247, "logisch": 3248, "jns": 3249, "ijns": 3250, "hrij": 3251, "chrij": 3252, "schrij": 3253, "aaf": 3254, "tera": 3255, "urk": 3256, "\u201d": 3257, "derd": 3258, "lka": 3259, "verst": 3260, "ane": 3261, "ventie": 3262, "ljo": 3263, "bro": 3264, "ndus": 3265, "evaard": 3266, "evaardi": 3267, "evaardig": 3268, "gevaard": 3269, "gevaardi": 3270, "gevaardig": 3271, "iljo": 3272, "ljoe": 3273, "joen": 3274, "iljoe": 3275, "ljoen": 3276, "iljoen": 3277, "emd": 3278, "oda": 3279, "nta": 3280, "miljo": 3281, "erte": 3282, "ntee": 3283, "igr": 3284, "pes": 3285, "miljoe": 3286, "miljoen": 3287, "anva": 3288, "aanva": 3289, "mmissi": 3290, "ommissi": 3291, "commissi": 3292, "nov": 3293, "hart": 3294, "erli": 3295, "u-": 3296, "indu": 3297, "rc": 3298, "erec": 3299, "dust": 3300, "indus": 3301, "ndust": 3302, "peri": 3303, "indust": 3304, "migr": 3305, "dustr": 3306, "ndustr": 3307, "industr": 3308, "mmissie": 3309, "ommissie": 3310, "commissie": 3311, "umee": 3312, "erech": 3313, "erecht": 3314, "rteg": 3315, "umeer": 3316, "sumee": 3317, "sumeer": 3318, "nsumee": 3319, "onsumee": 3320, "nsumeer": 3321, "consumee": 3322, "onsumeer": 3323, "consumeer": 3324, "nteer": 3325, "turk": 3326, "instr": 3327, "nct": 3328, "lechts": 3329, "slechts": 3330, "instru": 3331, "\u00ebe": 3332, "verte": 3333, "ltij": 3334, "ltijd": 3335, "ologi": 3336, "e\u00ebe": 3337, "ikel": 3338, "rim": 3339, "lac": 3340, "ffec": 3341, "ffect": 3342, "ente": 3343, "effec": 3344, "effect": 3345, "fon": 3346, "99": 3347, "orw": 3348, "imi": 3349, "rtege": 3350, "\u00f3": 3351, "rtegen": 3352, "erteg": 3353, "ertege": 3354, "ertegen": 3355, "verteg": 3356, "vertege": 3357, "rtegenw": 3358, "vertegen": 3359, "ertegenw": 3360, "rtegenwo": 3361, "vertegenw": 3362, "ertegenwo": 3363, "rtegenwoo": 3364, "vertegenwo": 3365, "ertegenwoo": 3366, "rtegenwoor": 3367, "vertegenwoo": 3368, "ertegenwoor": 3369, "rtegenwoord": 3370, "vertegenwoor": 3371, "ertegenwoord": 3372, "rtegenwoordi": 3373, "vertegenwoord": 3374, "ertegenwoordi": 3375, "vertegenwoordi": 3376, "oorw": 3377, "altij": 3378, "altijd": 3379, "strum": 3380, "vij": 3381, "nstrum": 3382, "rtegenwoordig": 3383, "ertegenwoordig": 3384, "vertegenwoordig": 3385, "nderd": 3386, "rume": 3387, "trume": 3388, "rumen": 3389, "strume": 3390, "trumen": 3391, "rument": 3392, "nstrume": 3393, "strumen": 3394, "trument": 3395, "nstrumen": 3396, "strument": 3397, "nstrument": 3398, "instrum": 3399, "instrume": 3400, "instrumen": 3401, "instrument": 3402, "nove": 3403, "nsta": 3404, "tate": 3405, "eu-": 3406, "rvo": 3407, "state": 3408, "posi": 3409, "aten": 3410, "gebe": 3411, "osit": 3412, "fgev": 3413, "afgev": 3414, "fgeva": 3415, "afgeva": 3416, "welke": 3417, "fgevaa": 3418, "afgevaa": 3419, "fgevaar": 3420, "afgevaar": 3421, "fgevaard": 3422, "afgevaard": 3423, "fgevaardi": 3424, "afgevaardi": 3425, "fgevaardig": 3426, "afgevaardig": 3427, "kwal": 3428, "wali": 3429, "kwali": 3430, "fte": 3431, "oje": 3432, "eric": 3433, "posit": 3434, "ece": 3435, "siti": 3436, "igre": 3437, "ift": 3438, "ustri": 3439, "sitie": 3440, "dustri": 3441, "ndustri": 3442, "industri": 3443, "rtik": 3444, "ervo": 3445, "tev": 3446, "igree": 3447, "igreer": 3448, "artik": 3449, "migre": 3450, "uri": 3451, "rtike": 3452, "artike": 3453, "tikel": 3454, "roje": 3455, "rtikel": 3456, "artikel": 3457, "strie": 3458, "migree": 3459, "migreer": 3460, "ustrie": 3461, "dustrie": 3462, "ndustrie": 3463, "industrie": 3464, "\u00ebn": 3465, "auta": 3466, "ositi": 3467, "positi": 3468, "esc": 3469, "mor": 3470, "rmi": 3471, "erich": 3472, "ositie": 3473, "positie": 3474, "proj": 3475, "proje": 3476, "eens": 3477, "ojec": 3478, "rojec": 3479, "oject": 3480, "projec": 3481, "roject": 3482, "project": 3483, "sent": 3484, "kind": 3485, "ebeu": 3486, "steer": 3487, "ebeur": 3488, "gebeu": 3489, "gebeur": 3490, "ericht": 3491, "ida": 3492, "ncti": 3493, "tien": 3494, "naut": 3495, "anw": 3496, "endie": 3497, "uld": 3498, "atis": 3499, "cit": 3500, "fond": 3501, "muna": 3502, "boek": 3503, "mmuna": 3504, "ommuna": 3505, "communa": 3506, "unau": 3507, "unaut": 3508, "anwe": 3509, "munau": 3510, "mmunau": 3511, "munaut": 3512, "ommunau": 3513, "mmunaut": 3514, "communau": 3515, "ommunaut": 3516, "communaut": 3517, "tne": 3518, "nauta": 3519, "unauta": 3520, "utai": 3521, "munauta": 3522, "mmunauta": 3523, "ommunauta": 3524, "communauta": 3525, "utair": 3526, "autai": 3527, "ieer": 3528, "nautai": 3529, "autair": 3530, "unautai": 3531, "nautair": 3532, "unautair": 3533, "munautai": 3534, "mmunautai": 3535, "munautair": 3536, "ommunautai": 3537, "mmunautair": 3538, "communautai": 3539, "ommunautair": 3540, "communautair": 3541, "cult": 3542, "vendi": 3543, "elem": 3544, "rtn": 3545, "rtne": 3546, "endien": 3547, "vendie": 3548, "ovend": 3549, "vendien": 3550, "artn": 3551, "bovend": 3552, "artne": 3553, "ovendi": 3554, "bovendi": 3555, "ovendie": 3556, "bovendie": 3557, "ovendien": 3558, "bovendien": 3559, "evoe": 3560, "rism": 3561, "lus": 3562, "ntwe": 3563, "kti": 3564, "derw": 3565, "tar": 3566, "risme": 3567, "ict": 3568, "ltu": 3569, "mod": 3570, "esli": 3571, "akti": 3572, "rakti": 3573, "prakt": 3574, "prakti": 3575, "slis": 3576, "besli": 3577, "eslis": 3578, "beslis": 3579, "rake": 3580, "rwaa": 3581, "kend": 3582, "twer": 3583, "auw": 3584, "tner": 3585, "rwaar": 3586, "prio": 3587, "partn": 3588, "rtner": 3589, "partne": 3590, "artner": 3591, "partner": 3592, "ulee": 3593, "rwaard": 3594, "uleer": 3595, "voorw": 3596, "rwaarde": 3597, "zoda": 3598, "nigde": 3599, "enigde": 3600, "ultu": 3601, "renigde": 3602, "erenigde": 3603, "verenigde": 3604, "orwa": 3605, "cultu": 3606, "oorwa": 3607, "orwaa": 3608, "oorwaa": 3609, "orwaar": 3610, "oorwaar": 3611, "voorwa": 3612, "voorwaa": 3613, "voorwaar": 3614, "ewi": 3615, "des": 3616, "orwaard": 3617, "oorwaard": 3618, "voorwaard": 3619, "odat": 3620, "orwaarde": 3621, "oorwaarde": 3622, "voorwaarde": 3623, "zodat": 3624, "lles": 3625, "teraa": 3626, "vervo": 3627, "vul": 3628, "bree": 3629, "weeg": 3630, "ffi": 3631, "cite": 3632, "nderw": 3633, "jdr": 3634, "ijdr": 3635, "ideer": 3636, "bijd": 3637, "scu": 3638, "ermi": 3639, "bijdr": 3640, "toen": 3641, "jdra": 3642, "ijdra": 3643, "bijdra": 3644, "onderw": 3645, "re\u00eb": 3646, "bod": 3647, "nui": 3648, "arant": 3649, "jdrag": 3650, "ijdrag": 3651, "jdrage": 3652, "bijdrag": 3653, "ijdrage": 3654, "bijdrage": 3655, "off": 3656, "re\u00ebe": 3657, "andee": 3658, "rwe": 3659, "eeme": 3660, "ntwer": 3661, "soor": 3662, "soort": 3663, "nuit": 3664, "dv": 3665, "000": 3666, "bevo": 3667, "ltuu": 3668, "ultuu": 3669, "cultuu": 3670, "ltuur": 3671, "ultuur": 3672, "cultuur": 3673, "mate": 3674, "ontwe": 3675, "ontwer": 3676, "andeer": 3677, "neeme": 3678, "mbe": 3679, "lib": 3680, "ducti": 3681, "chaa": 3682, "bor": 3683, "niste": 3684, "eus": 3685, "praa": 3686, "kko": 3687, "ductie": 3688, "eers": 3689, "iniste": 3690, "nister": 3691, "inister": 3692, "wees": 3693, "tic": 3694, "alles": 3695, "ific": 3696, "ministe": 3697, "minister": 3698, "beta": 3699, "ologis": 3700, "lach": 3701, "def": 3702, "rstel": 3703, "nctie": 3704, "ologisc": 3705, "ologisch": 3706, "esse": 3707, "andig": 3708, "ior": 3709, "iscu": 3710, "scus": 3711, "jke": 3712, "beer": 3713, "egd": 3714, "mand": 3715, "groep": 3716, "ijke": 3717, "blie": 3718, "ape": 3719, "nisc": 3720, "ebre": 3721, "iden": 3722, "nisch": 3723, "ublie": 3724, "jzi": 3725, "ijzi": 3726, "wijzi": 3727, "rad": 3728, "jzig": 3729, "ijzig": 3730, "wijzig": 3731, "iscus": 3732, "alit": 3733, "stig": 3734, "fie": 3735, "biel": 3736, "kijk": 3737, "terre": 3738, "gebre": 3739, "imme": 3740, "ral": 3741, "bera": 3742, "vele": 3743, "eerde": 3744, "tandi": 3745, "standi": 3746, "vlo": 3747, "mati": 3748, "utor": 3749, "lim": 3750, "vijf": 3751, "autor": 3752, "nad": 3753, "tandig": 3754, "standig": 3755, "utori": 3756, "autori": 3757, "iori": 3758, "eveel": 3759, "esch": 3760, "deg": 3761, "onst": 3762, "luk": 3763, "mber": 3764, "\u00f6": 3765, "toon": 3766, "oren": 3767, "geloo": 3768, "liek": 3769, "elle": 3770, "geloof": 3771, "opes": 3772, "esteer": 3773, "egre": 3774, "ropes": 3775, "uropes": 3776, "europes": 3777, "immer": 3778, "fonds": 3779, "evoeg": 3780, "iver": 3781, "pese": 3782, "nh": 3783, "teek": 3784, "alo": 3785, "bevoe": 3786, "bevoeg": 3787, "opese": 3788, "ropese": 3789, "uropese": 3790, "europese": 3791, "oegd": 3792, "fici": 3793, "voegd": 3794, "evoegd": 3795, "bevoegd": 3796, "torit": 3797, "utorit": 3798, "autorit": 3799, "oducti": 3800, "roducti": 3801, "rgen": 3802, "rior": 3803, "nvaa": 3804, "nvaar": 3805, "rla": 3806, "prior": 3807, "anvaa": 3808, "aanvaa": 3809, "anvaar": 3810, "aanvaar": 3811, "oductie": 3812, "roductie": 3813, "nvaard": 3814, "anvaard": 3815, "aanvaard": 3816, "ept": 3817, "els": 3818, "mers": 3819, "prij": 3820, "reeds": 3821, "oorde": 3822, "ffic": 3823, "ars": 3824, "riori": 3825, "priori": 3826, "nni": 3827, "tho": 3828, "loos": 3829, "fice": 3830, "gara": 3831, "mine": 3832, "liss": 3833, "ehoe": 3834, "dre": 3835, "nm": 3836, "behoe": 3837, "tof": 3838, "prijs": 3839, "ffici": 3840, "iorit": 3841, "riorit": 3842, "priorit": 3843, "erwe": 3844, "uren": 3845, "ifice": 3846, "voed": 3847, "ficee": 3848, "ficeer": 3849, "lijke": 3850, "ificee": 3851, "ificeer": 3852, "nige": 3853, "garan": 3854, "tabi": 3855, "nce": 3856, "mmers": 3857, "elin": 3858, "erik": 3859, "armo": 3860, "ewo": 3861, "rift": 3862, "ehoef": 3863, "behoef": 3864, "abo": 3865, "orst": 3866, "eemen": 3867, "iteer": 3868, "stab": 3869, "immers": 3870, "ekst": 3871, "tuut": 3872, "-l": 3873, "eug": 3874, "ire": 3875, "!": 3876, "stij": 3877, "imp": 3878, "erla": 3879, "amb": 3880, "erika": 3881, "embe": 3882, "the": 3883, "dege": 3884, "gewe": 3885, "ime": 3886, "koor": 3887, "tegr": 3888, "ntegr": 3889, "neemen": 3890, "integr": 3891, "mst": 3892, "oh": 3893, "hrif": 3894, "chrif": 3895, "hrift": 3896, "schrif": 3897, "chrift": 3898, "schrift": 3899, "stabi": 3900, "ember": 3901, "cier": 3902, "uwen": 3903, "ioo": 3904, "stof": 3905, "reu": 3906, "rok": 3907, "itg": 3908, "torite": 3909, "utorite": 3910, "toritei": 3911, "autorite": 3912, "utoritei": 3913, "toriteit": 3914, "autoritei": 3915, "utoriteit": 3916, "autoriteit": 3917, "rf": 3918, "maan": 3919, "uitg": 3920, "erio": 3921, "actief": 3922, "div": 3923, "erda": 3924, "ezel": 3925, "ansp": 3926, "ool": 3927, "teks": 3928, "tekst": 3929, "ni\u00eb": 3930, "mule": 3931, "bliek": 3932, "publie": 3933, "ubliek": 3934, "publiek": 3935, "edra": 3936, "ouwe": 3937, "eling": 3938, "\u00ebnt": 3939, "via": 3940, "koord": 3941, "list": 3942, "iod": 3943, "akko": 3944, "kkoo": 3945, "akkoo": 3946, "kkoor": 3947, "akkoor": 3948, "kkoord": 3949, "akkoord": 3950, "lacht": 3951, "usi": 3952, "producti": 3953, "ink": 3954, "rri": 3955, "fund": 3956, "sin": 3957, "erti": 3958, "productie": 3959, "rest": 3960, "itst": 3961, "ectief": 3962, "kenn": 3963, "uitst": 3964, "kant": 3965, "cuss": 3966, "deree": 3967, "rect": 3968, "adi": 3969, "orl": 3970, "ouwen": 3971, "discu": 3972, "ederee": 3973, "cussi": 3974, "ussie": 3975, "cussie": 3976, "erin": 3977, "tim": 3978, "traa": 3979, "stell": 3980, "ncier": 3981, "ancier": 3982, "wijl": 3983, "kans": 3984, "nden": 3985, "lkaa": 3986, "elka": 3987, "ngez": 3988, "scuss": 3989, "discus": 3990, "iscuss": 3991, "scussi": 3992, "discuss": 3993, "iscussi": 3994, "discussi": 3995, "scussie": 3996, "iscussie": 3997, "discussie": 3998, "oit": 3999, "asp": 4000, "meri": 4001, "geric": 4002, "gerich": 4003, "gericht": 4004, "lkaar": 4005, "elkaa": 4006, "elkaar": 4007, "beste": 4008, "unda": 4009, "estig": 4010, "behe": 4011, "wei": 4012, "sprak": 4013, "inc": 4014, "rlan": 4015, "erie": 4016, "ller": 4017, "bar": 4018, "aast": 4019, "gehe": 4020, "rbo": 4021, "sitief": 4022, "ositief": 4023, "positief": 4024, "jet": 4025, "lees": 4026, "ransp": 4027, "transp": 4028, "erder": 4029, "oorl": 4030, "ameri": 4031, "mach": 4032, "ewoo": 4033, "rmij": 4034, "ermij": 4035, "rmijn": 4036, "ermijn": 4037, "llem": 4038, "gg": 4039, "titu": 4040, "anu": 4041, "somm": 4042, "llema": 4043, "ament": 4044, "ueel": 4045, "allem": 4046, "nsie": 4047, "robe": 4048, "allema": 4049, "llemaa": 4050, "allemaa": 4051, "llemaal": 4052, "allemaal": 4053, "ngezi": 4054, "angez": 4055, "aangez": 4056, "ima": 4057, "angezi": 4058, "ngezie": 4059, "aangezi": 4060, "angezie": 4061, "aangezie": 4062, "gere": 4063, "ngezien": 4064, "angezien": 4065, "aangezien": 4066, "traf": 4067, "kije": 4068, "clu": 4069, "stitu": 4070, "feree": 4071, "prom": 4072, "merik": 4073, "amerik": 4074, "merika": 4075, "amerika": 4076, "tegre": 4077, "ntegre": 4078, "egree": 4079, "tegree": 4080, "egreer": 4081, "ntegree": 4082, "tegreer": 4083, "ntegreer": 4084, "epa": 4085, "straf": 4086, "integre": 4087, "integree": 4088, "integreer": 4089, "fereer": 4090, "erlan": 4091, "ndam": 4092, "ginn": 4093, "ginne": 4094, "arom": 4095, "gewo": 4096, "ginnen": 4097, "rot": 4098, "mige": 4099, "sommi": 4100, "ommig": 4101, "mmige": 4102, "sommig": 4103, "ommige": 4104, "sommige": 4105, "bep": 4106, "eginn": 4107, "beginn": 4108, "eginne": 4109, "beginne": 4110, "eginnen": 4111, "beginnen": 4112, "ndame": 4113, "enb": 4114, "doen": 4115, "funda": 4116, "damen": 4117, "disch": 4118, "undam": 4119, "fundam": 4120, "undame": 4121, "ndamen": 4122, "fundame": 4123, "undamen": 4124, "fundamen": 4125, "dament": 4126, "ndament": 4127, "undament": 4128, "fundament": 4129, "schaa": 4130, "eft": 4131, "steek": 4132, "etrek": 4133, "betrek": 4134, "verw": 4135, "orig": 4136, "minee": 4137, "xi": 4138, "mulee": 4139, "muleer": 4140, "ensie": 4141, "orlo": 4142, "prake": 4143, "sprake": 4144, "bez": 4145, "oorlo": 4146, "rwijl": 4147, "erwijl": 4148, "ppe": 4149, "ku": 4150, "rhei": 4151, "cree": 4152, "rheid": 4153, "zam": 4154, "stuu": 4155, "oede": 4156, "gn": 4157, "weze": 4158, "usl": 4159, "wic": 4160, "wezen": 4161, "overh": 4162, "rki": 4163, "usla": 4164, "stuur": 4165, "uslan": 4166, "nancier": 4167, "inancier": 4168, "financier": 4169, "rusl": 4170, "rusla": 4171, "ruslan": 4172, "usland": 4173, "rusland": 4174, "iorite": 4175, "riorite": 4176, "priorite": 4177, "taak": 4178, "ico": 4179, "aaro": 4180, "riek": 4181, "inve": 4182, "aarom": 4183, "waaro": 4184, "ioritei": 4185, "rioritei": 4186, "ioriteit": 4187, "prioritei": 4188, "rioriteit": 4189, "prioriteit": 4190, "waarom": 4191, "rsta": 4192, "troo": 4193, "aller": 4194, "termi": 4195, "oend": 4196, "unc": 4197, "wich": 4198, "bra": 4199, "doend": 4200, "rof": 4201, "probe": 4202, "obee": 4203, "robee": 4204, "probee": 4205, "voors": 4206, "obeer": 4207, "robeer": 4208, "probeer": 4209, "wicht": 4210, "dereen": 4211, "iederee": 4212, "edereen": 4213, "iedereen": 4214, "erbo": 4215, "oemd": 4216, "erhei": 4217, "erheid": 4218, "rns": 4219, "terw": 4220, "maand": 4221, "overt": 4222, "egeli": 4223, "erns": 4224, "rnst": 4225, "ernst": 4226, "rtui": 4227, "nla": 4228, "cip": 4229, "att": 4230, "jks": 4231, "ijks": 4232, "verbo": 4233, "rtr": 4234, "hav": 4235, "nlan": 4236, "ssel": 4237, "egelij": 4238, "egelijk": 4239, "efen": 4240, "chin": 4241, "behee": 4242, "eheer": 4243, "beheer": 4244, "oorst": 4245, "ertu": 4246, "cif": 4247, "voorst": 4248, "ivers": 4249, "ertui": 4250, "agee": 4251, "beve": 4252, "nvo": 4253, "cifi": 4254, "nauw": 4255, "riod": 4256, "zui": 4257, "eriod": 4258, "perio": 4259, "period": 4260, "twij": 4261, "ewoon": 4262, "vertu": 4263, "overtu": 4264, "vertui": 4265, "overtui": 4266, "gewoo": 4267, "gewoon": 4268, "genen": 4269, "iode": 4270, "riode": 4271, "eriode": 4272, "periode": 4273, "zame": 4274, "enige": 4275, "ezelf": 4276, "ageer": 4277, "02": 4278, "stis": 4279, "ssc": 4280, "overhe": 4281, "pn": 4282, "en-": 4283, "hon": 4284, "stisc": 4285, "stisch": 4286, "loog": 4287, "ifie": 4288, "terwi": 4289, "wijf": 4290, "wijfe": 4291, "jfel": 4292, "twijf": 4293, "ijfel": 4294, "twijfe": 4295, "wijfel": 4296, "twijfel": 4297, "termij": 4298, "termijn": 4299, "ssch": 4300, "mpe": 4301, "terwij": 4302, "terwijl": 4303, "telle": 4304, "eerder": 4305, "ieed": 4306, "ecif": 4307, "deli": 4308, "pecif": 4309, "ecifi": 4310, "specif": 4311, "pecifi": 4312, "specifi": 4313, "reff": 4314, "reffe": 4315, "vesti": 4316, "inig": 4317, "verhei": 4318, "verheid": 4319, "issc": 4320, "ffen": 4321, "issch": 4322, "oom": 4323, "treff": 4324, "treffe": 4325, "overhei": 4326, "overheid": 4327, "mode": 4328, "angen": 4329, "wie": 4330, "rrei": 4331, "vestig": 4332, "walit": 4333, "kwalit": 4334, "nves": 4335, "nvest": 4336, "mit": 4337, "inves": 4338, "invest": 4339, "macht": 4340, "reet": 4341, "noemd": 4342, "nsti": 4343, "errei": 4344, "iz": 4345, "begr": 4346, "rouwe": 4347, "fran": 4348, "imin": 4349, "veste": 4350, "derh": 4351, "rtuig": 4352, "mbi": 4353, "taten": 4354, "ertuig": 4355, "ucc": 4356, "rouwen": 4357, "rzie": 4358, "soli": 4359, "nveste": 4360, "investe": 4361, "staten": 4362, "meerd": 4363, "dw": 4364, "verk": 4365, "vertuig": 4366, "overtuig": 4367, "itge": 4368, "huis": 4369, "meerde": 4370, "ezelfd": 4371, "ezelfde": 4372, "hien": 4373, "omst": 4374, "suc": 4375, "uitge": 4376, "chien": 4377, "schien": 4378, "sschi": 4379, "sschie": 4380, "missc": 4381, "missch": 4382, "isschi": 4383, "misschi": 4384, "isschie": 4385, "sschien": 4386, "misschie": 4387, "isschien": 4388, "misschien": 4389, "enli": 4390, "cces": 4391, "sub": 4392, "enoem": 4393, "unct": 4394, "succ": 4395, "ucce": 4396, "succe": 4397, "enoemd": 4398, "ucces": 4399, "succes": 4400, "genoem": 4401, "enlij": 4402, "genoemd": 4403, "enlijk": 4404, "vestee": 4405, "nvestee": 4406, "vesteer": 4407, "investee": 4408, "nvesteer": 4409, "investeer": 4410, "urki": 4411, "terrei": 4412, "aspe": 4413, "rrein": 4414, "ica": 4415, "errein": 4416, "terrein": 4417, "meerder": 4418, "rid": 4419, "turki": 4420, "resp": 4421, "rkij": 4422, "urkij": 4423, "rkije": 4424, "turkij": 4425, "urkije": 4426, "turkije": 4427, "riti": 4428, "iber": 4429, "elp": 4430, "vier": 4431, "aspec": 4432, "wate": 4433, "nba": 4434, "aspect": 4435, "romi": 4436, "water": 4437, "nr": 4438, "ota": 4439, "tens": 4440, "promi": 4441, "riu": 4442, "oes": 4443, "imine": 4444, "isti": 4445, "creet": 4446, "olu": 4447, "vloe": 4448, "iminee": 4449, "etaa": 4450, "rium": 4451, "medi": 4452, "niets": 4453, "crim": 4454, "rimi": 4455, "bil": 4456, "aloo": 4457, "opn": 4458, "aloog": 4459, "rgan": 4460, "vla": 4461, "fiek": 4462, "crimi": 4463, "rimin": 4464, "crimin": 4465, "vaak": 4466, "edrag": 4467, "ifiek": 4468, "bek": 4469, "ncr": 4470, "eled": 4471, "olid": 4472, "ieus": 4473, "cifie": 4474, "ecifie": 4475, "pecifie": 4476, "specifie": 4477, "beraa": 4478, "biee": 4479, "cifiek": 4480, "ecifiek": 4481, "pecifiek": 4482, "specifiek": 4483, "mond": 4484, "taand": 4485, "staand": 4486, "son": 4487, "chij": 4488, "libe": 4489, "schij": 4490, "solid": 4491, "sic": 4492, "noeg": 4493, "nbaa": 4494, "ialo": 4495, "lijd": 4496, "nbaar": 4497, "hijn": 4498, "chijn": 4499, "schijn": 4500, "paar": 4501, "ebiee": 4502, "bieed": 4503, "gebiee": 4504, "ebieed": 4505, "gebieed": 4506, "aars": 4507, "liber": 4508, "etaal": 4509, "gesc": 4510, "enba": 4511, "gesch": 4512, "ialoo": 4513, "enoeg": 4514, "genoeg": 4515, "enaa": 4516, "ialoog": 4517, "effen": 4518, "weld": 4519, "199": 4520, "eth": 4521, "orism": 4522, "usie": 4523, "chen": 4524, "egene": 4525, "tste": 4526, "rwijs": 4527, "erwijs": 4528, "rorism": 4529, "rrorism": 4530, "errorism": 4531, "terrorism": 4532, "orisme": 4533, "jur": 4534, "rorisme": 4535, "rrorisme": 4536, "errorisme": 4537, "terrorisme": 4538, "help": 4539, "const": 4540, "kaan": 4541, "nfe": 4542, "ncre": 4543, "oncr": 4544, "concr": 4545, "oncre": 4546, "concre": 4547, "mpr": 4548, "wap": 4549, "rimine": 4550, "crimine": 4551, "nstit": 4552, "jst": 4553, "ijst": 4554, "nstitu": 4555, "war": 4556, "riminee": 4557, "criminee": 4558, "egri": 4559, "mpl": 4560, "vori": 4561, "oste": 4562, "reef": 4563, "mpro": 4564, "anders": 4565, "enbaa": 4566, "enbaar": 4567, "ooit": 4568, "dial": 4569, "ktij": 4570, "apen": 4571, "juri": 4572, "aktij": 4573, "raktij": 4574, "praktij": 4575, "lak": 4576, "tijk": 4577, "ktijk": 4578, "aktijk": 4579, "raktijk": 4580, "praktijk": 4581, "rma": 4582, "func": 4583, "ellen": 4584, "uncti": 4585, "elen": 4586, "begri": 4587, "ote": 4588, "funct": 4589, "functi": 4590, "alite": 4591, "env": 4592, "ompr": 4593, "compr": 4594, "laas": 4595, "rbi": 4596, "erzi": 4597, "doc": 4598, "nspa": 4599, "ncree": 4600, "oncree": 4601, "ncreet": 4602, "concree": 4603, "oncreet": 4604, "concreet": 4605, "ompro": 4606, "compro": 4607, "mprom": 4608, "mpromi": 4609, "omprom": 4610, "comprom": 4611, "ompromi": 4612, "compromi": 4613, "ket": 4614, "choo": 4615, "schoo": 4616, "romis": 4617, "promis": 4618, "voel": 4619, "lissa": 4620, "mpromis": 4621, "ompromis": 4622, "compromis": 4623, "espe": 4624, "vaart": 4625, "dh": 4626, "dialo": 4627, "vorig": 4628, "kli": 4629, "tali": 4630, "trouwe": 4631, "betaa": 4632, "trouwen": 4633, "isic": 4634, "sr": 4635, "ibera": 4636, "libera": 4637, "risic": 4638, "dialoo": 4639, "sico": 4640, "isico": 4641, "risico": 4642, "spar": 4643, "dialoog": 4644, "nade": 4645, "verli": 4646, "wed": 4647, "\u00eber": 4648, "sab": 4649, "nol": 4650, "10": 4651, "e\u00eber": 4652, "chul": 4653, "schul": 4654, "vou": 4655, "espec": 4656, "alv": 4657, "reffen": 4658, "treffen": 4659, "ront": 4660, "oeft": 4661, "wape": 4662, "wapen": 4663, "itis": 4664, "betaal": 4665, "clus": 4666, "ertr": 4667, "jon": 4668, "elli": 4669, "alitei": 4670, "aliteit": 4671, "treef": 4672, "streef": 4673, "kaans": 4674, "hoeft": 4675, "ehoeft": 4676, "behoeft": 4677, "spraa": 4678, "erle": 4679, "praak": 4680, "spraak": 4681, "efte": 4682, "antie": 4683, "fend": 4684, "rstan": 4685, "vertr": 4686, "oefte": 4687, "hoefte": 4688, "ehoefte": 4689, "behoefte": 4690, "slac": 4691, "slach": 4692, "slacht": 4693, "gewel": 4694, "eweld": 4695, "geweld": 4696, "ffend": 4697, "effend": 4698, "voud": 4699, "sk": 4700, "immi": 4701, "immig": 4702, "mmigr": 4703, "immigr": 4704, "atisc": 4705, "atisch": 4706, "reffend": 4707, "treffend": 4708, "efi": 4709, "tl": 4710, "dele": 4711, "kon": 4712, "onfe": 4713, "ikaa": 4714, "confe": 4715, "rstand": 4716, "loed": 4717, "eini": 4718, "03": 4719, "derda": 4720, "nderda": 4721, "daat": 4722, "geled": 4723, "egaa": 4724, "spro": 4725, "dezel": 4726, "boo": 4727, "epe": 4728, "dezelf": 4729, "ituu": 4730, "derwi": 4731, "nderwi": 4732, "tituu": 4733, "derwij": 4734, "nderwij": 4735, "risc": 4736, "anen": 4737, "risch": 4738, "stituu": 4739, "dezelfd": 4740, "dezelfde": 4741, "schen": 4742, "ras": 4743, "ikaan": 4744, "onderwi": 4745, "onderwij": 4746, "pal": 4747, "naas": 4748, "rikaa": 4749, "ituut": 4750, "tituut": 4751, "lita": 4752, "stituut": 4753, "jong": 4754, "fende": 4755, "naast": 4756, "derha": 4757, "udi": 4758, "sabo": 4759, "rikaan": 4760, "elaa": 4761, "huld": 4762, "elede": 4763, "ffende": 4764, "effende": 4765, "reffende": 4766, "treffende": 4767, "eleden": 4768, "rtro": 4769, "ertro": 4770, "abon": 4771, "vertro": 4772, "rtrou": 4773, "ertrou": 4774, "rtrouw": 4775, "vertrou": 4776, "ertrouw": 4777, "vertrouw": 4778, "sj": 4779, "fri": 4780, "nolo": 4781, "etref": 4782, "betref": 4783, "nstituu": 4784, "nstituut": 4785, "etreff": 4786, "betreff": 4787, "etreffe": 4788, "betreffe": 4789, "etreffen": 4790, "betreffen": 4791, "enni": 4792, "ipe": 4793, "nfl": 4794, "etreffend": 4795, "betreffend": 4796, "etreffende": 4797, "betreffende": 4798, "gelede": 4799, "geleden": 4800, "iberaa": 4801, "beraal": 4802, "liberaa": 4803, "iberaal": 4804, "liberaal": 4805, "inci": 4806, "walite": 4807, "kwalite": 4808, "walitei": 4809, "kwalitei": 4810, "waliteit": 4811, "kwaliteit": 4812, "onv": 4813, "oev": 4814, "cor": 4815, "onte": 4816, "egenen": 4817, "ikaans": 4818, "nolog": 4819, "elijke": 4820, "rikaans": 4821, "aande": 4822, "rland": 4823, "hno": 4824, "lusi": 4825, "mmigre": 4826, "immigre": 4827, "chno": 4828, "echno": 4829, "techno": 4830, "ssab": 4831, "erland": 4832, "rust": 4833, "mmigree": 4834, "immigree": 4835, "mmigreer": 4836, "immigreer": 4837, "ssabo": 4838, "tvaa": 4839, "tvaar": 4840, "gh": 4841, "issab": 4842, "lissab": 4843, "issabo": 4844, "lissabo": 4845, "sabon": 4846, "ssabon": 4847, "nks": 4848, "issabon": 4849, "lissabon": 4850, "penb": 4851, "openb": 4852, "penba": 4853, "openba": 4854, "respe": 4855, "respec": 4856, "espect": 4857, "respect": 4858, "afr": 4859, "ubs": 4860, "subs": 4861, "lijks": 4862, "pac": 4863, "pni": 4864, "eti": 4865, "onve": 4866, "are": 4867, "eenv": 4868, "opni": 4869, "prec": 4870, "gioo": 4871, "egioo": 4872, "vens": 4873, "regioo": 4874, "tvaard": 4875, "einig": 4876, "penbaa": 4877, "openbaa": 4878, "penbaar": 4879, "openbaar": 4880, "enda": 4881, "tvaardi": 4882, "tvaardig": 4883, "derwijs": 4884, "nderwijs": 4885, "rtijd": 4886, "nfer": 4887, "slaa": 4888, "envo": 4889, "onderwijs": 4890, "rese": 4891, "xp": 4892, "exp": 4893, "agend": 4894, "oto": 4895, "onfer": 4896, "eza": 4897, "hrijf": 4898, "chrijf": 4899, "schrijf": 4900, "nfere": 4901, "confer": 4902, "onfere": 4903, "confere": 4904, "nic": 4905, "unctie": 4906, "yp": 4907, "jt": 4908, "functie": 4909, "pnie": 4910, "kte": 4911, "opnie": 4912, "pnieu": 4913, "opnieu": 4914, "pnieuw": 4915, "opnieuw": 4916, "lusie": 4917, "verr": 4918, "ps": 4919, "ntru": 4920, "resi": 4921, "nste": 4922, "tsc": 4923, "bb": 4924, "rlog": 4925, "mum": 4926, "ncl": 4927, "orlog": 4928, "eenvo": 4929, "ave": 4930, "ldi": 4931, "np": 4932, "beide": 4933, "geza": 4934, "hnol": 4935, "chnol": 4936, "echnol": 4937, "technol": 4938, "hnolo": 4939, "chnolo": 4940, "echnolo": 4941, "technolo": 4942, "elde": 4943, "oorlog": 4944, "tsch": 4945, "hnolog": 4946, "chnolog": 4947, "echnolog": 4948, "technolog": 4949, "ivi": 4950, "uike": 4951, "-f": 4952, "ffer": 4953, "uce": 4954, "wijd": 4955, "osten": 4956, "fini": 4957, "nvou": 4958, "envou": 4959, "nvoud": 4960, "envoud": 4961, "defi": 4962, "bal": 4963, "abs": 4964, "nferee": 4965, "onferee": 4966, "nfereer": 4967, "conferee": 4968, "onfereer": 4969, "confereer": 4970, "geo": 4971, "efin": 4972, "ijt": 4973, "ooste": 4974, "itste": 4975, "cum": 4976, "eenvou": 4977, "eenvoud": 4978, "uitste": 4979, "duce": 4980, "cipe": 4981, "dier": 4982, "side": 4983, "msta": 4984, "fli": 4985, "tellen": 4986, "evens": 4987, "stelle": 4988, "stellen": 4989, "mstan": 4990, "mstand": 4991, "imum": 4992, "omsta": 4993, "omstan": 4994, "mstandi": 4995, "mstandig": 4996, "omstand": 4997, "omstandi": 4998, "omstandig": 4999, "ucee": 5000, "ducee": 5001, "uceer": 5002, "duceer": 5003, "esid": 5004, "raar": 5005, "degen": 5006, "defin": 5007, "genda": 5008, "eslu": 5009, "eslui": 5010, "efini": 5011, "defini": 5012, "esluit": 5013, "resid": 5014, "beslu": 5015, "beslui": 5016, "besluit": 5017, "rza": 5018, "elaas": 5019, "htv": 5020, "chtv": 5021, "ala": 5022, "idis": 5023, "offe": 5024, "cep": 5025, "chuld": 5026, "schuld": 5027, "htva": 5028, "chtva": 5029, "htvaa": 5030, "chtvaa": 5031, "htvaar": 5032, "chtvaar": 5033, "afri": 5034, "oneer": 5035, "orge": 5036, "herz": 5037, "iken": 5038, "acc": 5039, "hela": 5040, "ridi": 5041, "ocu": 5042, "helaa": 5043, "agenda": 5044, "helaas": 5045, "eraar": 5046, "frik": 5047, "afrik": 5048, "frika": 5049, "afrika": 5050, "drei": 5051, "ton": 5052, "ieg": 5053, "ami": 5054, "az": 5055, "atig": 5056, "wezi": 5057, "spoo": 5058, "wezig": 5059, "urid": 5060, "rige": 5061, "idisc": 5062, "morg": 5063, "ridis": 5064, "up": 5065, "uridi": 5066, "uridis": 5067, "neg": 5068, "jurid": 5069, "juridi": 5070, "juridis": 5071, "idisch": 5072, "ridisc": 5073, "uridisc": 5074, "ridisch": 5075, "juridisc": 5076, "uridisch": 5077, "juridisch": 5078, "htvaard": 5079, "chtvaard": 5080, "htvaardi": 5081, "chtvaardi": 5082, "htvaardig": 5083, "chtvaardig": 5084, "ilite": 5085, "reig": 5086, "rdin": 5087, "uz": 5088, "event": 5089, "cre\u00eb": 5090, "dden": 5091, "poor": 5092, "paran": 5093, "cre\u00ebe": 5094, "re\u00eber": 5095, "cre\u00eber": 5096, "rep": 5097, "istis": 5098, "ewij": 5099, "dreig": 5100, "istisc": 5101, "istisch": 5102, "spor": 5103, "anspa": 5104, "nspar": 5105, "ranspa": 5106, "transpa": 5107, "spara": 5108, "anspar": 5109, "ranspar": 5110, "transpar": 5111, "borg": 5112, "bsi": 5113, "rsp": 5114, "echtv": 5115, "orr": 5116, "rechtv": 5117, "echtva": 5118, "echtvaa": 5119, "echtvaar": 5120, "echtvaard": 5121, "echtvaardi": 5122, "echtvaardig": 5123, "rechtva": 5124, "rechtvaa": 5125, "rechtvaar": 5126, "rechtvaard": 5127, "rechtvaardi": 5128, "rechtvaardig": 5129, "hti": 5130, "parant": 5131, "dir": 5132, "nspara": 5133, "sparan": 5134, "anspara": 5135, "nsparan": 5136, "ranspara": 5137, "ansparan": 5138, "transpara": 5139, "ransparan": 5140, "transparan": 5141, "sparant": 5142, "nsparant": 5143, "ansparant": 5144, "ransparant": 5145, "transparant": 5146, "idden": 5147, "midden": 5148, "erig": 5149, "04": 5150, "ntra": 5151, "atte": 5152, "lati": 5153, "presi": 5154, "presid": 5155, "arr": 5156, "ato": 5157, "wede": 5158, "taande": 5159, "staande": 5160, "nclu": 5161, "iep": 5162, "legaa": 5163, "itera": 5164, "eman": 5165, "cris": 5166, "rve": 5167, "oosten": 5168, "-b": 5169, "erbi": 5170, "tegel": 5171, "urea": 5172, "tegeli": 5173, "tegelij": 5174, "tegelijk": 5175, "chei": 5176, "schei": 5177, "gaal": 5178, "aci": 5179, "egaal": 5180, "ose": 5181, "etg": 5182, "bure": 5183, "koop": 5184, "reau": 5185, "legaal": 5186, "rist": 5187, "lict": 5188, "ureau": 5189, "irec": 5190, "sb": 5191, "burea": 5192, "bureau": 5193, "spoor": 5194, "crisi": 5195, "erri": 5196, "i\u00ebn": 5197, "dire": 5198, "direc": 5199, "irect": 5200, "direct": 5201, "etge": 5202, "iema": 5203, "\u00ef": 5204, "bank": 5205, "ilitei": 5206, "iliteit": 5207, "erf": 5208, "coh": 5209, "clusi": 5210, "-e": 5211, "treer": 5212, "ertij": 5213, "wege": 5214, "clusie": 5215, "ertijd": 5216, "tijn": 5217, "cheid": 5218, "scheid": 5219, "prin": 5220, "effi": 5221, "eside": 5222, "orgen": 5223, "chou": 5224, "reside": 5225, "raard": 5226, "teraar": 5227, "eraard": 5228, "teraard": 5229, "iteraa": 5230, "iteraar": 5231, "iteraard": 5232, "uitera": 5233, "uiteraa": 5234, "uiteraar": 5235, "uiteraard": 5236, "schou": 5237, "preside": 5238, "ldig": 5239, "effic": 5240, "effici": 5241, "ute": 5242, "itisc": 5243, "itisch": 5244, "morge": 5245, "morgen": 5246, "terec": 5247, "hten": 5248, "chten": 5249, "degene": 5250, "terech": 5251, "terecht": 5252, "-d": 5253, "spi": 5254, "rdaa": 5255, "russ": 5256, "cume": 5257, "cumen": 5258, "matig": 5259, "pens": 5260, "inds": 5261, "ppi": 5262, "noc": 5263, "duit": 5264, "\u201c": 5265, "teen": 5266, "docu": 5267, "teve": 5268, "ocum": 5269, "docum": 5270, "ocume": 5271, "docume": 5272, "ocumen": 5273, "documen": 5274, "cument": 5275, "ocument": 5276, "document": 5277, "sind": 5278, "sidee": 5279, "sinds": 5280, "tant": 5281, "moede": 5282, "rev": 5283, "oduce": 5284, "roduce": 5285, "esidee": 5286, "sideer": 5287, "residee": 5288, "esideer": 5289, "resideer": 5290, "verge": 5291, "presidee": 5292, "presideer": 5293, "ett": 5294, "hni": 5295, "chni": 5296, "wete": 5297, "echni": 5298, "techni": 5299, "weten": 5300, "oducee": 5301, "roducee": 5302, "oduceer": 5303, "roduceer": 5304, "pti": 5305, "emand": 5306, "lok": 5307, "offer": 5308, "emis": 5309, "bili": 5310, "tvo": 5311, "lex": 5312, "\u00f6r": 5313, "ieman": 5314, "iemand": 5315, "abie": 5316, "chti": 5317, "isis": 5318, "lima": 5319, "oeve": 5320, "zamen": 5321, "jker": 5322, "ijker": 5323, "chan": 5324, "klim": 5325, "arte": 5326, "risis": 5327, "crisis": 5328, "tvoe": 5329, "tscha": 5330, "vlak": 5331, "istr": 5332, "tschap": 5333, "eal": 5334, "tvoer": 5335, "timu": 5336, "stro": 5337, "hnis": 5338, "hnisc": 5339, "hnisch": 5340, "chnis": 5341, "echnis": 5342, "technis": 5343, "chnisc": 5344, "echnisc": 5345, "chnisch": 5346, "technisc": 5347, "echnisch": 5348, "technisch": 5349, "krit": 5350, "ingen": 5351, "herzi": 5352, "solu": 5353, "kriti": 5354, "cept": 5355, "conv": 5356, "abiel": 5357, "conve": 5358, "eschi": 5359, "bero": 5360, "wijk": 5361, "sidi": 5362, "ntv": 5363, "once": 5364, "kop": 5365, "wu": 5366, "ntrum": 5367, "entru": 5368, "centru": 5369, "entrum": 5370, "centrum": 5371, "tabie": 5372, "stabie": 5373, "tabiel": 5374, "stabiel": 5375, "conce": 5376, "itv": 5377, "001": 5378, "randee": 5379, "randeer": 5380, "klima": 5381, "oest": 5382, "sh": 5383, "happ": 5384, "gist": 5385, "houw": 5386, "wis": 5387, "ppij": 5388, "epaa": 5389, "ontv": 5390, "chapp": 5391, "schapp": 5392, "chouw": 5393, "schouw": 5394, "uitv": 5395, "erdaa": 5396, "enor": 5397, "old": 5398, "atsc": 5399, "atsch": 5400, "eerst": 5401, "lek": 5402, "maats": 5403, "had": 5404, "enorm": 5405, "dai": 5406, "opp": 5407, "aatsc": 5408, "luu": 5409, "aatsch": 5410, "atscha": 5411, "maatsc": 5412, "maatsch": 5413, "aatscha": 5414, "maatscha": 5415, "atschap": 5416, "aatschap": 5417, "maatschap": 5418, "alve": 5419, "npa": 5420, "his": 5421, "alist": 5422, "luut": 5423, "ters": 5424, "imaa": 5425, "verwe": 5426, "oluu": 5427, "soluu": 5428, "oluut": 5429, "soluut": 5430, "verm": 5431, "-a": 5432, "adv": 5433, "orda": 5434, "zwaa": 5435, "rem": 5436, "rneer": 5437, "o\u00f6": 5438, "geschi": 5439, "onfl": 5440, "ubsi": 5441, "subsi": 5442, "radi": 5443, "rstell": 5444, "eheel": 5445, "rstelle": 5446, "rstellen": 5447, "gehee": 5448, "geheel": 5449, "appi": 5450, "nfli": 5451, "flic": 5452, "confl": 5453, "onfli": 5454, "nflic": 5455, "flict": 5456, "confli": 5457, "onflic": 5458, "nflict": 5459, "conflic": 5460, "onflict": 5461, "conflict": 5462, "brit": 5463, "erneer": 5464, "imaat": 5465, "wije": 5466, "limaa": 5467, "klimaa": 5468, "limaat": 5469, "klimaat": 5470, "onse": 5471, "out": 5472, "nger": 5473, "onda": 5474, "derz": 5475, "bsid": 5476, "ubsid": 5477, "subsid": 5478, "redi": 5479, "bsidi": 5480, "ubsidi": 5481, "subsidi": 5482, "ijet": 5483, "enta": 5484, "wijet": 5485, "aanw": 5486, "rmoe": 5487, "icie": 5488, "etai": 5489, "ales": 5490, "jus": 5491, "tschapp": 5492, "atschapp": 5493, "aatschapp": 5494, "maatschapp": 5495, "titi": 5496, "happi": 5497, "appij": 5498, "chappi": 5499, "happij": 5500, "schappi": 5501, "chappij": 5502, "tschappi": 5503, "schappij": 5504, "atschappi": 5505, "tschappij": 5506, "aatschappi": 5507, "atschappij": 5508, "maatschappi": 5509, "aatschappij": 5510, "maatschappij": 5511, "lida": 5512, "rschij": 5513, "derdaa": 5514, "nderdaa": 5515, "allen": 5516, "rschijn": 5517, "cy": 5518, "olida": 5519, "solida": 5520, "ritis": 5521, "inzi": 5522, "co\u00f6": 5523, "nderz": 5524, "derzo": 5525, "derzoe": 5526, "onderz": 5527, "oew": 5528, "nderzo": 5529, "onderzo": 5530, "nderzoe": 5531, "onderzoe": 5532, "\u00ebl": 5533, "aanwe": 5534, "rsi": 5535, "oewe": 5536, "insta": 5537, "ret": 5538, "pale": 5539, "nwez": 5540, "tgee": 5541, "tgeen": 5542, "anwez": 5543, "nwezi": 5544, "aanwez": 5545, "anwezi": 5546, "nwezig": 5547, "aanwezi": 5548, "anwezig": 5549, "aanwezig": 5550, "hetg": 5551, "hetge": 5552, "degenen": 5553, "htig": 5554, "chtig": 5555, "just": 5556, "rva": 5557, "lici": 5558, "etgee": 5559, "hetgee": 5560, "etgeen": 5561, "hetgeen": 5562, "lko": 5563, "ress": 5564, "duits": 5565, "lijker": 5566, "inzie": 5567, "diaa": 5568, "\u00f6rd": 5569, "o\u00f6r": 5570, "co\u00f6r": 5571, "o\u00f6rd": 5572, "\u00f6rdi": 5573, "co\u00f6rd": 5574, "o\u00f6rdi": 5575, "\u00f6rdin": 5576, "co\u00f6rdi": 5577, "o\u00f6rdin": 5578, "co\u00f6rdin": 5579, "inzien": 5580, "nfr": 5581, "eroe": 5582, "elijker": 5583, "bond": 5584, "arand": 5585, "nclus": 5586, "nclusi": 5587, "bso": 5588, "abso": 5589, "garand": 5590, "arande": 5591, "garande": 5592, "derzoek": 5593, "titie": 5594, "-fr": 5595, "nclusie": 5596, "arandee": 5597, "garandee": 5598, "arandeer": 5599, "garandeer": 5600, "nderzoek": 5601, "onderzoek": 5602, "a\u00eb": 5603, "rent": 5604, "gelijke": 5605, "hoew": 5606, "hoewe": 5607, "oewel": 5608, "hoewel": 5609, "strek": 5610, "icit": 5611, "wit": 5612, "2001": 5613, "ziek": 5614, "dair": 5615, "orza": 5616, "nut": 5617, "angs": 5618, "rhal": 5619, "erhal": 5620, "a\u00ebl": 5621, "rzaa": 5622, "conse": 5623, "ncip": 5624, "halv": 5625, "halve": 5626, "lkom": 5627, "xtr": 5628, "ra\u00eb": 5629, "ra\u00ebl": 5630, "extr": 5631, "esteed": 5632, "bestee": 5633, "besteed": 5634, "luite": 5635, "luiten": 5636, "menl": 5637, "kert": 5638, "-fra": 5639, "essen": 5640, "oorza": 5641, "omb": 5642, "amenl": 5643, "beroe": 5644, "sluite": 5645, "sluiten": 5646, "kritis": 5647, "muni": 5648, "gelijker": 5649, "raan": 5650, "ersi": 5651, "jee": 5652, "estaand": 5653, "bestaand": 5654, "erva": 5655, "senti": 5656, "egelijke": 5657, "egelijker": 5658, "jeen": 5659, "tegelijke": 5660, "tegelijker": 5661, "orzaa": 5662, "jkert": 5663, "kerti": 5664, "ijkert": 5665, "jkerti": 5666, "kertij": 5667, "lijkert": 5668, "ijkerti": 5669, "jkertij": 5670, "kertijd": 5671, "elijkert": 5672, "lijkerti": 5673, "ijkertij": 5674, "jkertijd": 5675, "gelijkert": 5676, "elijkerti": 5677, "lijkertij": 5678, "ijkertijd": 5679, "gelijkerti": 5680, "elijkertij": 5681, "lijkertijd": 5682, "gelijkertij": 5683, "elijkertijd": 5684, "gelijkertijd": 5685, "oorzaa": 5686, "egelijkert": 5687, "egelijkerti": 5688, "egelijkertij": 5689, "egelijkertijd": 5690, "heu": 5691, "tegelijkert": 5692, "tegelijkerti": 5693, "tegelijkertij": 5694, "tegelijkertijd": 5695, "stant": 5696, "inste": 5697, "ezam": 5698, "gezam": 5699, "ezame": 5700, "gezame": 5701, "ezamen": 5702, "gezamen": 5703, "nitie": 5704, "menli": 5705, "zamenl": 5706, "amenli": 5707, "menlij": 5708, "ezamenl": 5709, "zamenli": 5710, "amenlij": 5711, "menlijk": 5712, "gezamenl": 5713, "ezamenli": 5714, "zamenlij": 5715, "amenlijk": 5716, "gezamenli": 5717, "ezamenlij": 5718, "zamenlijk": 5719, "gezamenlij": 5720, "ezamenlijk": 5721, "gezamenlijk": 5722, "teven": 5723, "serv": 5724, "rinc": 5725, "bran": 5726, "princ": 5727, "eroep": 5728, "niem": 5729, "rzaak": 5730, "beroep": 5731, "icite": 5732, "ekt": 5733, "erve": 5734, "anks": 5735, "dine": 5736, "bilit": 5737, "nno": 5738, "lest": 5739, "nice": 5740, "ndan": 5741, "ly": 5742, "dive": 5743, "chad": 5744, "orzaak": 5745, "oorzaak": 5746, "rip": 5747, "tari": 5748, "bedra": 5749, "rinci": 5750, "princi": 5751, "wein": 5752, "incip": 5753, "weini": 5754, "weinig": 5755, "rincip": 5756, "princip": 5757, "rbod": 5758, "erbod": 5759, "verbod": 5760, "schad": 5761, "bron": 5762, "icu": 5763, "arsc": 5764, "arsch": 5765, "hina": 5766, "zwaar": 5767, "china": 5768, "rece": 5769, "ssent": 5770, "essent": 5771, "ssenti": 5772, "essenti": 5773, "tze": 5774, "bsol": 5775, "absol": 5776, "rmoed": 5777, "bsolu": 5778, "absolu": 5779, "ondan": 5780, "ndank": 5781, "danks": 5782, "ondank": 5783, "ekend": 5784, "ndanks": 5785, "ondanks": 5786, "itvo": 5787, "sentie": 5788, "bezi": 5789, "bilite": 5790, "ssentie": 5791, "essentie": 5792, "bsoluu": 5793, "absoluu": 5794, "bsoluut": 5795, "absoluut": 5796, "uitvo": 5797, "evan": 5798, "ott": 5799, "lesti": 5800, "alest": 5801, "opt": 5802, "/2": 5803, "voorz": 5804, "pales": 5805, "palest": 5806, "alesti": 5807, "palesti": 5808, "-frac": 5809, "-fract": 5810, "-fracti": 5811, "-fractie": 5812, "arg": 5813, "hani": 5814, "g-": 5815, "litai": 5816, "nten": 5817, "ecen": 5818, "litair": 5819, "gun": 5820, "tevens": 5821, "itvoe": 5822, "itvoer": 5823, "uitvoe": 5824, "uitvoer": 5825, "mineer": 5826, "i\u00ebnt": 5827, "dood": 5828, "diver": 5829, "plo": 5830, "hanis": 5831, "bind": 5832, "scr": 5833, "cap": 5834, "tstee": 5835, "tsteek": 5836, "ndh": 5837, "divers": 5838, "ging": 5839, "vanu": 5840, "versi": 5841, "noor": 5842, "oma": 5843, "kand": 5844, "idai": 5845, "idair": 5846, "did": 5847, "lidai": 5848, "olidai": 5849, "lidair": 5850, "solidai": 5851, "olidair": 5852, "solidair": 5853, "itstee": 5854, "uitstee": 5855, "itsteek": 5856, "uitsteek": 5857, "blo": 5858, "plee": 5859, "anui": 5860, "anuit": 5861, "nner": 5862, "vanui": 5863, "vanuit": 5864, "nism": 5865, "zend": 5866, "tvan": 5867, "crit": 5868, "rdine": 5869, "dinee": 5870, "dineer": 5871, "lau": 5872, "vloed": 5873, "anp": 5874, "milit": 5875, "nisme": 5876, "ndid": 5877, "kandi": 5878, "vlu": 5879, "d-": 5880, "andid": 5881, "rdinee": 5882, "rdineer": 5883, "ecia": 5884, "05": 5885, "ntva": 5886, "ntvan": 5887, "kandid": 5888, "\u00f6rdine": 5889, "o\u00f6rdine": 5890, "co\u00f6rdine": 5891, "aarsc": 5892, "aarsch": 5893, "\u00f6rdinee": 5894, "o\u00f6rdinee": 5895, "\u00f6rdineer": 5896, "co\u00f6rdinee": 5897, "o\u00f6rdineer": 5898, "co\u00f6rdineer": 5899, "aanp": 5900, "waars": 5901, "waarsc": 5902, "waarsch": 5903, "pecia": 5904, "specia": 5905, "sio": 5906, "don": 5907, "twerp": 5908, "ntwerp": 5909, "beke": 5910, "usti": 5911, "ndia": 5912, "sje": 5913, "2000": 5914, "bilitei": 5915, "biliteit": 5916, "bije": 5917, "rvoe": 5918, "anpa": 5919, "ontva": 5920, "ontvan": 5921, "aanpa": 5922, "ijee": 5923, "oorda": 5924, "ijeen": 5925, "derl": 5926, "bijee": 5927, "bijeen": 5928, "apa": 5929, "nven": 5930, "insti": 5931, "npak": 5932, "uli": 5933, "erkt": 5934, "eq": 5935, "tvang": 5936, "ntvang": 5937, "ontvang": 5938, "bio": 5939, "ontwerp": 5940, "produce": 5941, "anpak": 5942, "aanpak": 5943, "citee": 5944, "citeer": 5945, "reur": 5946, "veri": 5947, "ervoe": 5948, "beken": 5949, "ewu": 5950, "wus": 5951, "bewu": 5952, "ewus": 5953, "wust": 5954, "bewus": 5955, "ewust": 5956, "bewust": 5957, "justi": 5958, "real": 5959, "avi": 5960, "erige": 5961, "vern": 5962, "vluc": 5963, "vluch": 5964, "vlucht": 5965, "erc": 5966, "initie": 5967, "stiti": 5968, "rvoer": 5969, "producee": 5970, "produceer": 5971, "ustit": 5972, "justit": 5973, "ustiti": 5974, "justiti": 5975, "ortu": 5976, "td": 5977, "ervoer": 5978, "dec": 5979, "vervoe": 5980, "mins": 5981, "nvent": 5982, "afe": 5983, "vervoer": 5984, "instit": 5985, "stitie": 5986, "institu": 5987, "ustitie": 5988, "justitie": 5989, "elic": 5990, "ogen": 5991, "hod": 5992, "estaande": 5993, "bestaande": 5994, "sport": 5995, "mijns": 5996, "equ": 5997, "ilita": 5998, "vange": 5999, "eriu": 6000, "erium": 6001, "inner": 6002, "l-": 6003, "heri": 6004, "bevee": 6005, "beveel": 6006, "sra": 6007, "olie": 6008, "iteri": 6009, "12": 6010, "riter": 6011, "milita": 6012, "vies": 6013, "ital": 6014, "crite": 6015, "criter": 6016, "tif": 6017, "riteri": 6018, "criteri": 6019, "slaag": 6020, "herin": 6021, "tanti": 6022, "stanti": 6023, "vangen": 6024, "eep": 6025, "duren": 6026, "rigen": 6027, "rbie": 6028, "erbie": 6029, "itali": 6030, "mmuni": 6031, "minst": 6032, "weli": 6033, "brand": 6034, "06": 6035, "raaf": 6036, "004": 6037, "prot": 6038, "ommuni": 6039, "communi": 6040, "thod": 6041, "rbied": 6042, "erbied": 6043, "cte": 6044, "lam": 6045, "urend": 6046, "teriu": 6047, "terium": 6048, "tantie": 6049, "stantie": 6050, "finit": 6051, "orzi": 6052, "durend": 6053, "oorzi": 6054, "oefe": 6055, "oefen": 6056, "iteriu": 6057, "riteriu": 6058, "iterium": 6059, "criteriu": 6060, "riterium": 6061, "criterium": 6062, "dha": 6063, "kern": 6064, "rinn": 6065, "let": 6066, "rinne": 6067, "erinn": 6068, "erinne": 6069, "voorzi": 6070, "rinner": 6071, "erinner": 6072, "herinn": 6073, "herinne": 6074, "herinner": 6075, "efinit": 6076, "nin": 6077, "finiti": 6078, "definit": 6079, "efiniti": 6080, "alu": 6081, "isse": 6082, "definiti": 6083, "finitie": 6084, "efinitie": 6085, "definitie": 6086, "eali": 6087, "nologi": 6088, "baan": 6089, "rdat": 6090, "nsl": 6091, "oncl": 6092, "concl": 6093, "leeg": 6094, "entee": 6095, "zuid": 6096, "pat": 6097, "ned": 6098, "instituu": 6099, "instituut": 6100, "ung": 6101, "aus": 6102, "meth": 6103, "egg": 6104, "rtrouwe": 6105, "ertrouwe": 6106, "rtrouwen": 6107, "vertrouwe": 6108, "ertrouwen": 6109, "vertrouwen": 6110, "onclu": 6111, "conclu": 6112, "nvl": 6113, "pte": 6114, "ncipe": 6115, "etz": 6116, "nvlo": 6117, "nvloe": 6118, "nvloed": 6119, "inderd": 6120, "mie": 6121, "dige": 6122, "invl": 6123, "invlo": 6124, "invloe": 6125, "invloed": 6126, "gewi": 6127, "okk": 6128, "ealis": 6129, "ordat": 6130, "reali": 6131, "noord": 6132, "etho": 6133, "oordat": 6134, "onderd": 6135, "bit": 6136, "nem": 6137, "realis": 6138, "eda": 6139, "nnis": 6140, "tud": 6141, "orste": 6142, "dvi": 6143, "ruike": 6144, "002": 6145, "003": 6146, "enteer": 6147, "ilitai": 6148, "ilitair": 6149, "graaf": 6150, "noch": 6151, "militai": 6152, "ticu": 6153, "militair": 6154, "room": 6155, "ritisc": 6156, "kritisc": 6157, "ritisch": 6158, "kritisch": 6159, "heug": 6160, "ersta": 6161, "metho": 6162, "ethod": 6163, "method": 6164, "orstel": 6165, "lder": 6166, "advi": 6167, "nland": 6168, "bekend": 6169, "kun": 6170, "rdee": 6171, "eeste": 6172, "stud": 6173, "irak": 6174, "haf": 6175, "mot": 6176, "rdaad": 6177, "erdaad": 6178, "onven": 6179, "conven": 6180, "zwe": 6181, "incipe": 6182, "rincipe": 6183, "principe": 6184, "iscr": 6185, "discr": 6186, "gesp": 6187, "grip": 6188, "organ": 6189, "dvie": 6190, "advie": 6191, "kenni": 6192, "grie": 6193, "breek": 6194, "gener": 6195, "nede": 6196, "tsj": 6197, "dvies": 6198, "advies": 6199, "oude": 6200, "chaf": 6201, "schaf": 6202, "rien": 6203, "assa": 6204, "agr": 6205, "hof": 6206, "tele": 6207, "jar": 6208, "onvent": 6209, "convent": 6210, "2004": 6211, "lla": 6212, "lon": 6213, "vn": 6214, "nventi": 6215, "iger": 6216, "egrip": 6217, "begrip": 6218, "kam": 6219, "hetz": 6220, "nventie": 6221, "verde": 6222, "evi": 6223, "ola": 6224, "corr": 6225, "uiken": 6226, "bruike": 6227, "hnologi": 6228, "chnologi": 6229, "echnologi": 6230, "technologi": 6231, "tifi": 6232, "stroo": 6233, "vree": 6234, "tific": 6235, "derdaad": 6236, "nderdaad": 6237, "inderda": 6238, "inderdaa": 6239, "inderdaad": 6240, "11": 6241, "onventi": 6242, "conventi": 6243, "stim": 6244, "enu": 6245, "fis": 6246, "onventie": 6247, "conventie": 6248, "hema": 6249, "nader": 6250, "feli": 6251, "iend": 6252, "nooi": 6253, "bedrag": 6254, "rmu": 6255, "tota": 6256, "vrie": 6257, "sd": 6258, "ase": 6259, "poe": 6260, "estij": 6261, "imul": 6262, "dom": 6263, "nooit": 6264, "tent": 6265, "ramp": 6266, "stijn": 6267, "estijn": 6268, "mak": 6269, "verig": 6270, "overi": 6271, "verige": 6272, "oorste": 6273, "voorste": 6274, "overig": 6275, "erigen": 6276, "overige": 6277, "verigen": 6278, "overigen": 6279, "rmoede": 6280, "ruiken": 6281, "bruiken": 6282, "zes": 6283, "hode": 6284, "buu": 6285, "igens": 6286, "rigens": 6287, "erigens": 6288, "verigens": 6289, "overigens": 6290, "07": 6291, "rlij": 6292, "2002": 6293, "2003": 6294, "tati": 6295, "late": 6296, "bezig": 6297, "scri": 6298, "ormu": 6299, "tzel": 6300, "oso": 6301, "reci": 6302, "oorstel": 6303, "thode": 6304, "voorstel": 6305, "imineer": 6306, "ots": 6307, "ethode": 6308, "methode": 6309, "moo": 6310, "brek": 6311, "-de": 6312, "ros": 6313, "timul": 6314, "astr": 6315, "stimu": 6316, "stimul": 6317, "bepa": 6318, "breed": 6319, "verke": 6320, "kken": 6321, "ezin": 6322, "itaa": 6323, "erlij": 6324, "nologis": 6325, "ermo": 6326, "nologisc": 6327, "nologisch": 6328, "rmul": 6329, "imen": 6330, "formu": 6331, "ormul": 6332, "formul": 6333, "tzelf": 6334, "ecie": 6335, "tzelfd": 6336, "tzelfde": 6337, "preci": 6338, "san": 6339, "weder": 6340, "buur": 6341, "scrim": 6342, "ebruike": 6343, "gebruike": 6344, "perkt": 6345, "recie": 6346, "precie": 6347, "vana": 6348, "scrimi": 6349, "scrimin": 6350, "exi": 6351, "une": 6352, "oeke": 6353, "rheu": 6354, "erheu": 6355, "verheu": 6356, "itaal": 6357, "fle": 6358, "pere": 6359, "eciaa": 6360, "peciaa": 6361, "eciaal": 6362, "speciaa": 6363, "peciaal": 6364, "speciaal": 6365, "nees": 6366, "iscri": 6367, "discri": 6368, "iscrim": 6369, "discrim": 6370, "espr": 6371, "iscrimi": 6372, "discrimi": 6373, "iscrimin": 6374, "discrimin": 6375, "cies": 6376, "lue": 6377, "/20": 6378, "-o": 6379, "leu": 6380, "gat": 6381, "armoe": 6382, "rheug": 6383, "erheug": 6384, "verheug": 6385, "ecies": 6386, "tatu": 6387, "recies": 6388, "precies": 6389, "13": 6390, "oper": 6391, "ebruiken": 6392, "gebruiken": 6393, "brie": 6394, "15": 6395, "esen": 6396, "ebrek": 6397, "gebrek": 6398, "nes": 6399, "tifice": 6400, "rric": 6401, "bepaa": 6402, "epaal": 6403, "bepaal": 6404, "tificee": 6405, "tificeer": 6406, "gani": 6407, "gezin": 6408, "ntre": 6409, "-p": 6410, "sno": 6411, "fisc": 6412, "nho": 6413, "avo": 6414, "alf": 6415, "-r": 6416, "spaa": 6417, "rkee": 6418, "rkeer": 6419, "erkee": 6420, "erkeer": 6421, "erikaa": 6422, "verkee": 6423, "verkeer": 6424, "ama": 6425, "eni\u00eb": 6426, "vermo": 6427, "vore": 6428, "voren": 6429, "merikaa": 6430, "erikaan": 6431, "amerikaa": 6432, "merikaan": 6433, "amerikaan": 6434, "ngee": 6435, "ngend": 6436, "ail": 6437, "ebrei": 6438, "gebrei": 6439, "ebreid": 6440, "gebreid": 6441, "ohe": 6442, "rgani": 6443, "tijns": 6444, "hef": 6445, "latie": 6446, "ngeer": 6447, "pose": 6448, "terst": 6449, "epaald": 6450, "bepaald": 6451, "unge": 6452, "scrimine": 6453, "dsl": 6454, "scriminee": 6455, "rrich": 6456, "erric": 6457, "seri": 6458, "errich": 6459, "wak": 6460, "cohe": 6461, "ompl": 6462, "toer": 6463, "fung": 6464, "hes": 6465, "compl": 6466, "rmule": 6467, "ormule": 6468, "formule": 6469, "rimineer": 6470, "crimineer": 6471, "funge": 6472, "erikaans": 6473, "merikaans": 6474, "amerikaans": 6475, "jan": 6476, "dsla": 6477, "oeken": 6478, "ungee": 6479, "fungee": 6480, "ungeer": 6481, "fungeer": 6482, "gena": 6483, "iscrimine": 6484, "discrimine": 6485, "iscriminee": 6486, "scrimineer": 6487, "discriminee": 6488, "iscrimineer": 6489, "discrimineer": 6490, "dels": 6491, "prek": 6492, "estan": 6493, "nstan": 6494, "luee": 6495, "lueer": 6496, "hnologis": 6497, "chnologis": 6498, "echnologis": 6499, "technologis": 6500, "hnologisc": 6501, "chnologisc": 6502, "hnologisch": 6503, "echnologisc": 6504, "chnologisch": 6505, "technologisc": 6506, "echnologisch": 6507, "technologisch": 6508, "rdeel": 6509, "nmi": 6510, "osee": 6511, "oseer": 6512, "posee": 6513, "poseer": 6514, "lja": 6515, "zoeke": 6516, "valu": 6517, "stoo": 6518, "sprek": 6519, "nstant": 6520, "ennis": 6521, "pleeg": 6522, "rks": 6523, "rnatie": 6524, "ernatie": 6525, "cla": 6526, "euz": 6527, "bewi": 6528, "ecent": 6529, "estand": 6530, "hard": 6531, "ize": 6532, "nhou": 6533, "armoed": 6534, "lijs": 6535, "lijst": 6536, "verste": 6537, "iters": 6538, "uiters": 6539, "iterst": 6540, "uiterst": 6541, "nhoud": 6542, "erdi": 6543, "prese": 6544, "dece": 6545, "versta": 6546, "zoeken": 6547, "ficie": 6548, "ternatie": 6549, "efer": 6550, "rvol": 6551, "ervol": 6552, "onden": 6553, "kennis": 6554, "vervol": 6555, "efere": 6556, "ette": 6557, "lestij": 6558, "alestij": 6559, "lestijn": 6560, "palestij": 6561, "alestijn": 6562, "palestijn": 6563, "eor": 6564, "tgeb": 6565, "mas": 6566, "armoede": 6567, "onclus": 6568, "conclus": 6569, "onclusi": 6570, "conclusi": 6571, "onclusie": 6572, "conclusie": 6573, "griek": 6574, "nent": 6575, "ings": 6576, "ovo": 6577, "ora": 6578, "esent": 6579, "resen": 6580, "presen": 6581, "resent": 6582, "present": 6583, "fficie": 6584, "refe": 6585, "ids": 6586, "gal": 6587, "006": 6588, "enm": 6589, "vig": 6590, "recen": 6591, "herh": 6592, "herha": 6593, "recent": 6594, "rzoeke": 6595, "erzoeke": 6596, "cij": 6597, "ringe": 6598, "rzoeken": 6599, "erzoeken": 6600, "ded": 6601, "statu": 6602, "meeste": 6603, "ambi": 6604, "kz": 6605, "itgeb": 6606, "uitgeb": 6607, "refer": 6608, "refere": 6609, "nweg": 6610, "organi": 6611, "tac": 6612, "\u00f3\u00f3": 6613, "soe": 6614, "rricht": 6615, "rdie": 6616, "erricht": 6617, "afs": 6618, "abe": 6619, "nternatie": 6620, "internatie": 6621, "pron": 6622, "dent": 6623, "rvolg": 6624, "ervolg": 6625, "vervolg": 6626, "lob": 6627, "eeks": 6628, "omit": 6629, "kar": 6630, "fecti": 6631, "akke": 6632, "ganis": 6633, "ista": 6634, "gees": 6635, "nkr": 6636, "\u00f3r": 6637, "fectie": 6638, "comi": 6639, "005": 6640, "rster": 6641, "erster": 6642, "olee": 6643, "gle": 6644, "stor": 6645, "\u00f3\u00f3r": 6646, "ck": 6647, "comit": 6648, "rong": 6649, "v\u00f3": 6650, "v\u00f3\u00f3": 6651, "v\u00f3\u00f3r": 6652, "rganis": 6653, "organis": 6654, "trac": 6655, "streer": 6656, "den-": 6657, "harm": 6658, "ffecti": 6659, "effecti": 6660, "cat": 6661, "tren": 6662, "rdien": 6663, "tgebr": 6664, "ffectie": 6665, "effectie": 6666, "itgebr": 6667, "uitgebr": 6668, "tgebre": 6669, "itgebre": 6670, "tgebrei": 6671, "uitgebre": 6672, "itgebrei": 6673, "tgebreid": 6674, "uitgebrei": 6675, "itgebreid": 6676, "uitgebreid": 6677, "pit": 6678, "fectief": 6679, "ffectief": 6680, "effectief": 6681, "elder": 6682, "verri": 6683, "50": 6684, "verdi": 6685, "verric": 6686, "verrich": 6687, "sw": 6688, "-la": 6689, "krijk": 6690, "rsterk": 6691, "ersterk": 6692, "izen": 6693, "-eu": 6694, "inh": 6695, "verster": 6696, "versterk": 6697, "vero": 6698, "nkri": 6699, "nkrij": 6700, "nkrijk": 6701, "plat": 6702, "fac": 6703, "rank": 6704, "/200": 6705, "otte": 6706, "ante": 6707, "lso": 6708, "tueel": 6709, "007": 6710, "edie": 6711, "prong": 6712, "portu": 6713, "spron": 6714, "sprong": 6715, "etze": 6716, "erdie": 6717, "ben": 6718, "riend": 6719, "erdien": 6720, "hetze": 6721, "verdie": 6722, "verdien": 6723, "alue": 6724, "value": 6725, "reeks": 6726, "tend": 6727, "nko": 6728, "otaa": 6729, "dden-": 6730, "idden-": 6731, "midden-": 6732, "uar": 6733, "otaal": 6734, "vrien": 6735, "vriend": 6736, "tene": 6737, "totaa": 6738, "totaal": 6739, "etzel": 6740, "hetzel": 6741, "etzelf": 6742, "hetzelf": 6743, "etzelfd": 6744, "hetzelfd": 6745, "etzelfde": 6746, "hetzelfde": 6747, "genaa": 6748, "mpa": 6749, "citei": 6750, "citeit": 6751, "rleg": 6752, "erleg": 6753, "tsje": 6754, "serie": 6755, "aluee": 6756, "valuee": 6757, "alueer": 6758, "valueer": 6759, "andh": 6760, "gema": 6761, "neder": 6762, "odel": 6763, "nga": 6764, "opo": 6765, "30": 6766, "rieu": 6767, "worde": 6768, "worden": 6769, "legg": 6770, "isie": 6771, "ndha": 6772, "andha": 6773, "bbe": 6774, "model": 6775, "handh": 6776, "handha": 6777, "nover": 6778, "rela": 6779, "lant": 6780, "essi": 6781, "uge": 6782, "koe": 6783, "lia": 6784, "meld": 6785, "kwi": 6786, "jun": 6787, "anism": 6788, "obi": 6789, "vanw": 6790, "vanwe": 6791, "o'": 6792, "nsio": 6793, "anweg": 6794, "nwege": 6795, "vanweg": 6796, "anwege": 6797, "vanwege": 6798, "licit": 6799, "rmon": 6800, "2006": 6801, "verva": 6802, "vs": 6803, "our": 6804, "anisme": 6805, "armon": 6806, "licite": 6807, "harmo": 6808, "harmon": 6809, "ggi": 6810, "ondi": 6811, "icitee": 6812, "licitee": 6813, "iciteer": 6814, "liciteer": 6815, "ovee": 6816, "not": 6817, "evre": 6818, "2005": 6819, "enui": 6820, "ensio": 6821, "enuit": 6822, "verricht": 6823, "haaf": 6824, "ggin": 6825, "rits": 6826, "uma": 6827, "derhal": 6828, "ano": 6829, "eggi": 6830, "pensi": 6831, "ln": 6832, "gging": 6833, "pensio": 6834, "erieu": 6835, "lise": 6836, ".0": 6837, "ngel": 6838, "oleer": 6839, "eggin": 6840, "egging": 6841, "inno": 6842, "aai": 6843, "leggi": 6844, "leggin": 6845, "legging": 6846, "brits": 6847, "acto": 6848, "elijks": 6849, "nstanti": 6850, "hele": 6851, "dslag": 6852, "enov": 6853, "rce": 6854, "wijt": 6855, "wiss": 6856, "sente": 6857, "alte": 6858, "reep": 6859, "elici": 6860, "enove": 6861, "felic": 6862, "felici": 6863, "elicit": 6864, "felicit": 6865, "enover": 6866, "elicite": 6867, "felicite": 6868, "aken": 6869, "instan": 6870, "25": 6871, "treu": 6872, "elicitee": 6873, "felicitee": 6874, "eliciteer": 6875, "feliciteer": 6876, "esente": 6877, "ordee": 6878, "resente": 6879, "presente": 6880, "sentee": 6881, "esentee": 6882, "senteer": 6883, "resentee": 6884, "esenteer": 6885, "presentee": 6886, "resenteer": 6887, "presenteer": 6888, "nuitv": 6889, "nuitvo": 6890, "nuitvoe": 6891, "nuitvoer": 6892, "enuitv": 6893, "instant": 6894, "enuitvo": 6895, "enuitvoe": 6896, "enuitvoer": 6897, "inho": 6898, "hond": 6899, "rokk": 6900, "gst": 6901, "issel": 6902, "instanti": 6903, "nstantie": 6904, "instantie": 6905, "hend": 6906, "ordeel": 6907, "aven": 6908, "erzie": 6909, "toes": 6910, "tes": 6911, "jna": 6912, "sat": 6913, "mple": 6914, "wisse": 6915, "ronds": 6916, "-lan": 6917, "ragen": 6918, "reve": 6919, "uldi": 6920, "oordee": 6921, "oordeel": 6922, "2007": 6923, "gronds": 6924, "uldig": 6925, "gespr": 6926, "ijna": 6927, "uil": 6928, "bijn": 6929, "uari": 6930, "flex": 6931, "herzie": 6932, "wissel": 6933, "egl": 6934, "bewij": 6935, "biti": 6936, "ndsl": 6937, "ito": 6938, "visi": 6939, "ator": 6940, "ondsl": 6941, "eland": 6942, "bijna": 6943, "rieus": 6944, "gete": 6945, "ndsla": 6946, "ondsla": 6947, "rondsl": 6948, "ndslag": 6949, "grondsl": 6950, "rondsla": 6951, "ondslag": 6952, "grondsla": 6953, "rondslag": 6954, "grondslag": 6955, "-eur": 6956, "chend": 6957, "schend": 6958, "api": 6959, "tad": 6960, "dwi": 6961, "gas": 6962, "evred": 6963, "inhou": 6964, "inhoud": 6965, "hol": 6966, "rra": 6967, "elat": 6968, "-land": 6969, "orstell": 6970, "oorstell": 6971, "orstelle": 6972, "voorstell": 6973, "oorstelle": 6974, "orstellen": 6975, "voorstelle": 6976, "oorstellen": 6977, "voorstellen": 6978, "diu": 6979, "toor": 6980, "tex": 6981, "bitie": 6982, "genov": 6983, "genove": 6984, "genover": 6985, "mbit": 6986, "pd": 6987, "ambit": 6988, "mbiti": 6989, "ambiti": 6990, "egeno": 6991, "lexi": 6992, "fas": 6993, "lisee": 6994, "liseer": 6995, "mbitie": 6996, "ambitie": 6997, "entra": 6998, "roen": 6999, "ntwi": 7000, "tegeno": 7001, "rast": 7002, "tsl": 7003, "dium": 7004, "itz": 7005, "centra": 7006, "erstan": 7007, "ratie": 7008, "sz": 7009, "istan": 7010, "ontwi": 7011, "egenov": 7012, "tegenov": 7013, "egenove": 7014, "tegenove": 7015, "egenover": 7016, "tegenover": 7017, "rmulee": 7018, "ormulee": 7019, "rmuleer": 7020, "formulee": 7021, "ormuleer": 7022, "formuleer": 7023, "ag-": 7024, "uze": 7025, "reven": 7026, "flexi": 7027, "orn": 7028, "onstr": 7029, "agra": 7030, "erieus": 7031, "lott": 7032, "wek": 7033, "det": 7034, "lect": 7035, "tenu": 7036, "rief": 7037, "indie": 7038, "-euro": 7039, "twik": 7040, "ntwik": 7041, "twikk": 7042, "ontwik": 7043, "ntwikk": 7044, "ontwikk": 7045, "tm": 7046, "twikke": 7047, "ntwikke": 7048, "twikkel": 7049, "ontwikke": 7050, "ntwikkel": 7051, "ontwikkel": 7052, "erend": 7053, "rget": 7054, ".00": 7055, "indien": 7056, "ofi": 7057, "rhaa": 7058, "erhaa": 7059, "tenui": 7060, "tla": 7061, "tenuit": 7062, "ntin": 7063, "relat": 7064, "laus": 7065, "serieu": 7066, "hade": 7067, "rzien": 7068, "later": 7069, "opi": 7070, "site": 7071, "tenuitv": 7072, "tenuitvo": 7073, "tenuitvoe": 7074, "tenuitvoer": 7075, "serieus": 7076, "kome": 7077, "rhaal": 7078, "erhaal": 7079, "stad": 7080, "oerl": 7081, "fee": 7082, "voerl": 7083, "groen": 7084, "hool": 7085, "lag-": 7086, "oerle": 7087, "voerle": 7088, "slag-": 7089, "rgete": 7090, "oerleg": 7091, "voerleg": 7092, "mei": 7093, "tvoerl": 7094, "itvoerl": 7095, "tvoerle": 7096, "uitvoerl": 7097, "itvoerle": 7098, "tvoerleg": 7099, "uitvoerle": 7100, "itvoerleg": 7101, "uitvoerleg": 7102, "erget": 7103, "nuitvoerl": 7104, "enuitvoerl": 7105, "nuitvoerle": 7106, "tenuitvoerl": 7107, "enuitvoerle": 7108, "nuitvoerleg": 7109, "tenuitvoerle": 7110, "enuitvoerleg": 7111, "tenuitvoerleg": 7112, "tijg": 7113, "ergete": 7114, "rslag-": 7115, "erslag-": 7116, "verslag-": 7117, "okke": 7118, "imule": 7119, "erstand": 7120, "-europ": 7121, "tiem": 7122, "vid": 7123, "evalu": 7124, "komen": 7125, "opd": 7126, "elema": 7127, "imulee": 7128, "imuleer": 7129, "sig": 7130, "oti": 7131, "ctee": 7132, "isr": 7133, "lom": 7134, "erma": 7135, "201": 7136, "verget": 7137, "vergete": 7138, "opti": 7139, "alise": 7140, "lotte": 7141, "cteer": 7142, "isra": 7143, "giste": 7144, "gister": 7145, "slott": 7146, "helem": 7147, "helema": 7148, "elemaa": 7149, "helemaa": 7150, "elemaal": 7151, "helemaal": 7152, "slotte": 7153, "plei": 7154, "a\u00ef": 7155, "e-f": 7156, "timule": 7157, "stimule": 7158, "enr": 7159, "treur": 7160, "mogen": 7161, "timulee": 7162, "timuleer": 7163, "rlie": 7164, "sra\u00eb": 7165, "isra\u00eb": 7166, "sra\u00ebl": 7167, "isra\u00ebl": 7168, "bewe": 7169, "stimulee": 7170, "stimuleer": 7171, "hum": 7172, "atera": 7173, "have": 7174, "rlegg": 7175, "erlegg": 7176, "tug": 7177, "enaam": 7178, "latera": 7179, "rleggi": 7180, "oerlegg": 7181, "erleggi": 7182, "rleggin": 7183, "voerlegg": 7184, "oerleggi": 7185, "erleggin": 7186, "rlegging": 7187, "voerleggi": 7188, "oerleggin": 7189, "erlegging": 7190, "voerleggin": 7191, "oerlegging": 7192, "voerlegging": 7193, "tvoerlegg": 7194, "itvoerlegg": 7195, "tvoerleggi": 7196, "uitvoerlegg": 7197, "itvoerleggi": 7198, "tvoerleggin": 7199, "uitvoerleggi": 7200, "itvoerleggin": 7201, "tvoerlegging": 7202, "uitvoerleggin": 7203, "itvoerlegging": 7204, "uitvoerlegging": 7205, "nuitvoerlegg": 7206, "enuitvoerlegg": 7207, "nuitvoerleggi": 7208, "tenuitvoerlegg": 7209, "enuitvoerleggi": 7210, "nuitvoerleggin": 7211, "tenuitvoerleggi": 7212, "enuitvoerleggin": 7213, "nuitvoerlegging": 7214, "tenuitvoerleggin": 7215, "enuitvoerlegging": 7216, "tenuitvoerlegging": 7217, "riv": 7218, "visie": 7219, "evalue": 7220, "evaluee": 7221, "evalueer": 7222, "spel": 7223, "chade": 7224, "schade": 7225, "tlan": 7226, "prof": 7227, "onger": 7228, "ign": 7229, "hep": 7230, "erlie": 7231, "verlie": 7232, "rtug": 7233, "ortug": 7234, "portug": 7235, "rspr": 7236, "geten": 7237, "rgeten": 7238, "ergeten": 7239, "vergeten": 7240, "esla": 7241, "mv": 7242, "chool": 7243, "school": 7244, "orsp": 7245, "oorsp": 7246, "eids": 7247, "dedi": 7248, "enge": 7249, "daan": 7250, "onin": 7251, "ilja": 7252, "iversi": 7253, "-s": 7254, "glo": 7255, "rspro": 7256, "rtic": 7257, "orspr": 7258, "oorspr": 7259, "orspro": 7260, "oorspro": 7261, "ean": 7262, "rspron": 7263, "orspron": 7264, "rsprong": 7265, "oorspron": 7266, "orsprong": 7267, "oorsprong": 7268, "e-fr": 7269, "deleg": 7270, "etek": 7271, "%": 7272, "rded": 7273, "kap": 7274, "egle": 7275, "fro": 7276, "erded": 7277, "rdedi": 7278, "dedig": 7279, "verded": 7280, "erdedi": 7281, "rdedig": 7282, "verdedi": 7283, "erdedig": 7284, "verdedig": 7285, "e-fra": 7286, "e-frac": 7287, "e-fract": 7288, "e-fracti": 7289, "e-fractie": 7290, "alisee": 7291, "aliseer": 7292, "eleme": 7293, "elemen": 7294, "element": 7295, "e\u00ebn": 7296, "jnl": 7297, "ijnl": 7298, "crat": 7299, "nav": 7300, "enz": 7301, "iedi": 7302, "eteke": 7303, "eteken": 7304, "dum": 7305, "eiden": 7306, "ident": 7307, "poog": 7308, "nderh": 7309, "li\u00eb": 7310, "jnli": 7311, "ijnli": 7312, "jnlij": 7313, "ijnlij": 7314, "jnlijk": 7315, "ijnlijk": 7316, "ringen": 7317, "abil": 7318, "hijnl": 7319, "chijnl": 7320, "hijnli": 7321, "schijnl": 7322, "chijnli": 7323, "hijnlij": 7324, "schijnli": 7325, "chijnlij": 7326, "hijnlijk": 7327, "schijnlij": 7328, "chijnlijk": 7329, "schijnlijk": 7330, "t\u00e9": 7331, "pecti": 7332, "ria": 7333, "specti": 7334, "regl": 7335, "glem": 7336, "regle": 7337, "eglem": 7338, "gleme": 7339, "reglem": 7340, "egleme": 7341, "glemen": 7342, "regleme": 7343, "eglemen": 7344, "glement": 7345, "reglemen": 7346, "eglement": 7347, "reglement": 7348, "tsla": 7349, "pectie": 7350, "spectie": 7351, "won": 7352, "vena": 7353, "rhalv": 7354, "erhalv": 7355, "rhalve": 7356, "derhalv": 7357, "erhalve": 7358, "derhalve": 7359, "chep": 7360, "eper": 7361, "schep": 7362, "gna": 7363, "hrijd": 7364, "chrijd": 7365, "schrijd": 7366, "eres": 7367, "yse": 7368, "asse": 7369, "week": 7370, "haven": 7371, "belo": 7372, "emak": 7373, "gemak": 7374, "jard": 7375, "xib": 7376, "betek": 7377, "beteke": 7378, "beteken": 7379, "exib": 7380, "lexib": 7381, "flexib": 7382, "ljar": 7383, "peree": 7384, "pereer": 7385, "iljar": 7386, "ljard": 7387, "iljard": 7388, "milja": 7389, "miljar": 7390, "miljard": 7391, "lter": 7392, "abili": 7393, "anal": 7394, "ning": 7395, "ntb": 7396, "anse": 7397, "kre": 7398, "acce": 7399, "asie": 7400, "langs": 7401, "wijn": 7402, "ontb": 7403, "opere": 7404, "legee": 7405, "legeer": 7406, "teni": 7407, "nth": 7408, "huma": 7409, "delege": 7410, "operee": 7411, "opereer": 7412, "elegee": 7413, "delegee": 7414, "elegeer": 7415, "delegeer": 7416, "artic": 7417, "dica": 7418, "partic": 7419, "nnov": 7420, "remi": 7421, "ndic": 7422, "innov": 7423, "prev": 7424, "uv": 7425, "geor": 7426, "voord": 7427, "oveer": 7428, "rende": 7429, "aly": 7430, "ci\u00eb": 7431, "gerec": 7432, "gerech": 7433, "gerecht": 7434, "dragen": 7435, "fron": 7436, "overw": 7437, "que": 7438, "neme": 7439, "lys": 7440, "pg": 7441, "biedi": 7442, "ebo": 7443, "iedig": 7444, "rbiedi": 7445, "biedig": 7446, "erbiedi": 7447, "rbiedig": 7448, "erbiedig": 7449, "enh": 7450, "terne": 7451, "novee": 7452, "noveer": 7453, "it\u00e9": 7454, "front": 7455, "naf": 7456, "toest": 7457, "uitz": 7458, "sso": 7459, "nita": 7460, "lov": 7461, "lar": 7462, "xtra": 7463, "extra": 7464, "honde": 7465, "delij": 7466, "-li": 7467, "von": 7468, "lice": 7469, "ttel": 7470, "lijde": 7471, "onti": 7472, "'n": 7473, "tas": 7474, "lijden": 7475, "tzo": 7476, "unic": 7477, "eorg": 7478, "harte": 7479, "eron": 7480, "georg": 7481, "alys": 7482, "diep": 7483, "alde": 7484, "eral": 7485, "nemen": 7486, "cem": 7487, "dida": 7488, "lst": 7489, "itzo": 7490, "roem": 7491, "tzon": 7492, "uitzo": 7493, "itzon": 7494, "tzond": 7495, "uitzon": 7496, "itzond": 7497, "tzonde": 7498, "uitzond": 7499, "itzonde": 7500, "uitzonde": 7501, "nnove": 7502, "arschi": 7503, "aarschi": 7504, "arschij": 7505, "waarschi": 7506, "aarschij": 7507, "arschijn": 7508, "rschijnl": 7509, "waarschij": 7510, "aarschijn": 7511, "arschijnl": 7512, "rschijnli": 7513, "waarschijn": 7514, "aarschijnl": 7515, "arschijnli": 7516, "rschijnlij": 7517, "waarschijnl": 7518, "aarschijnli": 7519, "arschijnlij": 7520, "rschijnlijk": 7521, "waarschijnli": 7522, "aarschijnlij": 7523, "arschijnlijk": 7524, "waarschijnlij": 7525, "aarschijnlijk": 7526, "waarschijnlijk": 7527, "tzonder": 7528, "itzonder": 7529, "uitzonder": 7530, "was": 7531, "hers": 7532, "eure": 7533, "hec": 7534, "innove": 7535, "enla": 7536, "ndida": 7537, "andida": 7538, "kandida": 7539, "ndiaa": 7540, "mit\u00e9": 7541, "ila": 7542, "\u00efn": 7543, "omit\u00e9": 7544, "comit\u00e9": 7545, "arag": 7546, "idaa": 7547, "stijg": 7548, "delijk": 7549, "mec": 7550, "elev": 7551, "uiz": 7552, "itt": 7553, "diti": 7554, "ewee": 7555, "qua": 7556, "at-": 7557, "terie": 7558, "enne": 7559, "enlan": 7560, "didaa": 7561, "idaat": 7562, "ndidaa": 7563, "didaat": 7564, "andidaa": 7565, "ndidaat": 7566, "kandidaa": 7567, "andidaat": 7568, "kandidaat": 7569, "tral": 7570, "arc": 7571, "enland": 7572, "t-l": 7573, "cru": 7574, "snoe": 7575, "omme": 7576, "nnovee": 7577, "nnoveer": 7578, "innovee": 7579, "innoveer": 7580, "troom": 7581, "echa": 7582, "stroom": 7583, "ingend": 7584, "ands": 7585, "genaam": 7586, "siel": 7587, "sief": 7588, "frank": 7589, "oba": 7590, "rpe": 7591, "hoev": 7592, "hoeve": 7593, "verstan": 7594, "preve": 7595, "preven": 7596, "revent": 7597, "prevent": 7598, "oeme": 7599, "arie": 7600, "lyse": 7601, "idie": 7602, "koni": 7603, "treep": 7604, "streep": 7605, "omv": 7606, "oka": 7607, "bt": 7608, "oudi": 7609, "pakk": 7610, "chem": 7611, "tse": 7612, "sidie": 7613, "bsidie": 7614, "ubsidie": 7615, "subsidie": 7616, "mech": 7617, "alyse": 7618, "tom": 7619, "trof": 7620, "obie": 7621, "echan": 7622, "-v": 7623, "rmog": 7624, "rvolge": 7625, "ervolge": 7626, "rvolgen": 7627, "vervolge": 7628, "ervolgen": 7629, "rvolgens": 7630, "vervolgen": 7631, "ervolgens": 7632, "vervolgens": 7633, "ermog": 7634, "chani": 7635, "arn": 7636, "rmoge": 7637, "mecha": 7638, "mechan": 7639, "echani": 7640, "mechani": 7641, "ermoge": 7642, "chanis": 7643, "echanis": 7644, "mechanis": 7645, "kund": 7646, "rmogen": 7647, "ermogen": 7648, "eschie": 7649, "vermog": 7650, "iteen": 7651, "oeri": 7652, "uitee": 7653, "uiteen": 7654, "eha": 7655, "vermoge": 7656, "konin": 7657, "vermogen": 7658, "geschie": 7659, "ols": 7660, "oevee": 7661, "hoevee": 7662, "oeveel": 7663, "hoeveel": 7664, "inie": 7665, "udin": 7666, "oudin": 7667, "elko": 7668, "dringe": 7669, "dringen": 7670, "eerb": 7671, "ringend": 7672, "dringend": 7673, "dub": 7674, "mal": 7675, "aat-": 7676, "uding": 7677, "unice": 7678, "houdi": 7679, "houdin": 7680, "ouding": 7681, "oppe": 7682, "houding": 7683, "russe": 7684, "kket": 7685, "pact": 7686, "akket": 7687, "eventi": 7688, "etro": 7689, "lier": 7690, "uize": 7691, "orzie": 7692, "pakke": 7693, "oorzie": 7694, "orzien": 7695, "oorzien": 7696, "erstel": 7697, "swa": 7698, "-m": 7699, "digen": 7700, "verstand": 7701, "klo": 7702, "pakket": 7703, "vold": 7704, "teraal": 7705, "uci": 7706, "ecem": 7707, "cemb": 7708, "decem": 7709, "ecemb": 7710, "cembe": 7711, "decemb": 7712, "ecembe": 7713, "cember": 7714, "decembe": 7715, "ecember": 7716, "december": 7717, "udee": 7718, "udeer": 7719, "ateraa": 7720, "lateraa": 7721, "ateraal": 7722, "lateraal": 7723, "reventi": 7724, "preventi": 7725, "tenis": 7726, "voorzie": 7727, "voorzien": 7728, "ppel": 7729, "oesta": 7730, "nim": 7731, "toesta": 7732, "derla": 7733, "eventie": 7734, "ioe": 7735, "reventie": 7736, "preventie": 7737, "sign": 7738, "ork": 7739, "nkz": 7740, "ankz": 7741, "ssee": 7742, "ndv": 7743, "zo'": 7744, "o'n": 7745, "zo'n": 7746, "ehou": 7747, "text": 7748, "nei": 7749, "aud": 7750, "held": 7751, "tha": 7752, "niema": 7753, "ederl": 7754, "uizen": 7755, "nieman": 7756, "niemand": 7757, "ederla": 7758, "ehoud": 7759, "hanism": 7760, "chanism": 7761, "echanism": 7762, "mechanism": 7763, "fisch": 7764, "welko": 7765, "elkom": 7766, "welkom": 7767, "sseer": 7768, "nederl": 7769, "nederla": 7770, "lop": 7771, "ioen": 7772, "behou": 7773, "etee": 7774, "ucia": 7775, "ntel": 7776, "behoud": 7777, "nj": 7778, "hanisme": 7779, "chanisme": 7780, "echanisme": 7781, "mechanisme": 7782, "heids": 7783, "nitai": 7784, "uman": 7785, "nitair": 7786, "vak": 7787, "gge": 7788, "meet": 7789, "human": 7790, "cam": 7791, "cruc": 7792, "ruci": 7793, "cruci": 7794, "daat-": 7795, "idaat-": 7796, "didaat-": 7797, "ndidaat-": 7798, "andidaat-": 7799, "kandidaat-": 7800, "dankz": 7801, "rucia": 7802, "crucia": 7803, "pass": 7804, "heers": 7805, "rpr": 7806, "uciaa": 7807, "meni": 7808, "heide": 7809, "ruciaa": 7810, "uciaal": 7811, "cruciaa": 7812, "ruciaal": 7813, "cruciaal": 7814, "ankr": 7815, "sep": 7816, "erpr": 7817, "ntege": 7818, "nai": 7819, "pea": 7820, "eweeg": 7821, "ulti": 7822, "oten": 7823, "pot": 7824, "rale": 7825, "munic": 7826, "mob": 7827, "heiden": 7828, "mmunic": 7829, "ommunic": 7830, "communic": 7831, "pag": 7832, "voorda": 7833, "voordat": 7834, "mba": 7835, "apit": 7836, "etw": 7837, "ntere": 7838, "well": 7839, "trad": 7840, "ie\u00eb": 7841, "feer": 7842, "euren": 7843, "inten": 7844, "parag": 7845, "rechts": 7846, "andv": 7847, "rankr": 7848, "ankri": 7849, "frankr": 7850, "rankri": 7851, "ankrij": 7852, "frankri": 7853, "rankrij": 7854, "ankrijk": 7855, "frankrij": 7856, "rankrijk": 7857, "frankrijk": 7858, "tite": 7859, "at-l": 7860, "aat-l": 7861, "veron": 7862, "daat-l": 7863, "idaat-l": 7864, "didaat-l": 7865, "ndidaat-l": 7866, "andidaat-l": 7867, "kandidaat-l": 7868, "overwe": 7869, "rsit": 7870, "ersit": 7871, "versit": 7872, "iversit": 7873, "tela": 7874, "noer": 7875, "ie\u00ebn": 7876, "epu": 7877, "herst": 7878, "bepe": 7879, "beper": 7880, "eperk": 7881, "beperk": 7882, "mobi": 7883, "igi": 7884, "itiem": 7885, "lands": 7886, "ische": 7887, "kzi": 7888, "dve": 7889, "snoer": 7890, "ull": 7891, "voet": 7892, "nkzi": 7893, "ankzi": 7894, "latt": 7895, "glob": 7896, "diaal": 7897, "jne": 7898, "repu": 7899, "latte": 7900, "loba": 7901, "achti": 7902, "mondi": 7903, "attel": 7904, "globa": 7905, "ondia": 7906, "mondia": 7907, "euze": 7908, "abilit": 7909, "tter": 7910, "platt": 7911, "erpe": 7912, "platte": 7913, "bbel": 7914, "tum": 7915, "onders": 7916, "esie": 7917, "ndiaal": 7918, "ijne": 7919, "llic": 7920, "herste": 7921, "herstel": 7922, "telli": 7923, "hesi": 7924, "idu": 7925, "onl": 7926, "ttela": 7927, "attela": 7928, "leit": 7929, "achtig": 7930, "telan": 7931, "lattel": 7932, "ttelan": 7933, "teland": 7934, "plattel": 7935, "lattela": 7936, "attelan": 7937, "tteland": 7938, "plattela": 7939, "lattelan": 7940, "atteland": 7941, "plattelan": 7942, "latteland": 7943, "platteland": 7944, "hesie": 7945, "evena": 7946, "naly": 7947, "analy": 7948, "14": 7949, "nalys": 7950, "analys": 7951, "licee": 7952, "liceer": 7953, "eperkt": 7954, "beperkt": 7955, "ohes": 7956, "cohes": 7957, "elati": 7958, "nalyse": 7959, "analyse": 7960, "gou": 7961, "fv": 7962, "ondiaa": 7963, "mondiaa": 7964, "ondiaal": 7965, "mondiaal": 7966, "mobie": 7967, "mva": 7968, "yn": 7969, "obiel": 7970, "mobiel": 7971, "kzij": 7972, "enal": 7973, "omva": 7974, "nkzij": 7975, "dankzi": 7976, "ankzij": 7977, "dankzij": 7978, "oder": 7979, "oke": 7980, "toris": 7981, "pleit": 7982, "agi": 7983, "feren": 7984, "ohesi": 7985, "cohesi": 7986, "ohesie": 7987, "cohesie": 7988, "til": 7989, "agn": 7990, "mbu": 7991, "-lid": 7992, "o-": 7993, "lm": 7994, "fase": 7995, "kapi": 7996, "relati": 7997, "nals": 7998, "kapit": 7999, "iali": 8000, "igna": 8001, "abilite": 8002, "dim": 8003, "enals": 8004, "juni": 8005, "ialis": 8006, "duiz": 8007, "fras": 8008, "duize": 8009, "oco": 8010, "nair": 8011, "gea": 8012, "hor": 8013, "link": 8014, "efficie": 8015, "amd": 8016, "conti": 8017, "ragr": 8018, "yo": 8019, "orisc": 8020, "orisch": 8021, "derlan": 8022, "derland": 8023, "aragr": 8024, "ragra": 8025, "paragr": 8026, "aragra": 8027, "paragra": 8028, "rije": 8029, "ewijs": 8030, "spoe": 8031, "agraa": 8032, "ragraa": 8033, "aragraa": 8034, "paragraa": 8035, "derst": 8036, "moder": 8037, "ontin": 8038, "contin": 8039, "agraaf": 8040, "ragraaf": 8041, "aragraaf": 8042, "paragraaf": 8043, "rolee": 8044, "trolee": 8045, "ntrolee": 8046, "ontrolee": 8047, "controlee": 8048, "munice": 8049, "mmunice": 8050, "ommunice": 8051, "communice": 8052, "uo": 8053, "nicee": 8054, "unicee": 8055, "niceer": 8056, "municee": 8057, "uniceer": 8058, "mmunicee": 8059, "municeer": 8060, "ommunicee": 8061, "mmuniceer": 8062, "communicee": 8063, "ommuniceer": 8064, "communiceer": 8065, "nsen": 8066, "onderh": 8067, "treek": 8068, "frans": 8069, "roleer": 8070, "troleer": 8071, "ntroleer": 8072, "ontroleer": 8073, "controleer": 8074, "venal": 8075, "swaa": 8076, "izend": 8077, "evenal": 8078, "venals": 8079, "evenals": 8080, "streek": 8081, "-c": 8082, "minste": 8083, "ederlan": 8084, "ederland": 8085, "ccep": 8086, "accep": 8087, "swaar": 8088, "ccept": 8089, "accept": 8090, "rko": 8091, "aamd": 8092, "deta": 8093, "kwij": 8094, "dm": 8095, "elis": 8096, "nederlan": 8097, "nederland": 8098, "soms": 8099, "eront": 8100, "roeme": 8101, "dani": 8102, "mult": 8103, "evang": 8104, "odern": 8105, "modern": 8106, "verne": 8107, "duizen": 8108, "uizend": 8109, "duizend": 8110, "iaan": 8111, "ecte": 8112, "naamd": 8113, "nise": 8114, "ditie": 8115, "inim": 8116, "eut": 8117, "minim": 8118, "loka": 8119, "bud": 8120, "cieer": 8121, "star": 8122, "kenne": 8123, "llich": 8124, "llicht": 8125, "evange": 8126, "stijns": 8127, "estijns": 8128, "lestijns": 8129, "alestijns": 8130, "palestijns": 8131, "atif": 8132, "elatie": 8133, "relatie": 8134, "ods": 8135, "drac": 8136, "ngr": 8137, "ici\u00eb": 8138, "orist": 8139, "rson": 8140, "\u00ebel": 8141, "gevan": 8142, "rorist": 8143, "rrorist": 8144, "errorist": 8145, "terrorist": 8146, "e\u00ebel": 8147, "ieke": 8148, "gevang": 8149, "veront": 8150, "erson": 8151, "tenti": 8152, "asiel": 8153, "multi": 8154, "anit": 8155, "ratis": 8156, "evangen": 8157, "nderst": 8158, "gevange": 8159, "arij": 8160, "anita": 8161, "garant": 8162, "gevangen": 8163, "xte": 8164, "uiste": 8165, "rdel": 8166, "rpen": 8167, "sov": 8168, "exte": 8169, "re\u00ebel": 8170, "ibi": 8171, "person": 8172, "welli": 8173, "atee": 8174, "ealise": 8175, "realise": 8176, "ealisee": 8177, "realisee": 8178, "ealiseer": 8179, "realiseer": 8180, "baal": 8181, "tentie": 8182, "ellic": 8183, "afv": 8184, "torisc": 8185, "torisch": 8186, "nimu": 8187, "uister": 8188, "uve": 8189, "inimu": 8190, "nimum": 8191, "minimu": 8192, "pita": 8193, "llig": 8194, "inimum": 8195, "minimum": 8196, "enaamd": 8197, "genaamd": 8198, "fva": 8199, "afva": 8200, "hong": 8201, "preso": 8202, "presol": 8203, "derste": 8204, "e\u00ebnt": 8205, "kaal": 8206, "anitai": 8207, "anitair": 8208, "ateer": 8209, "cie\u00eb": 8210, "cie\u00ebn": 8211, "wellic": 8212, "ellich": 8213, "wellich": 8214, "ellicht": 8215, "wellicht": 8216, "eerbi": 8217, "eerbie": 8218, "eerbied": 8219, "noot": 8220, "drach": 8221, "ordel": 8222, "presolv": 8223, "presolve": 8224, "presolvee": 8225, "presolveer": 8226, "zwak": 8227, "ie\u00ebnt": 8228, "ndve": 8229, "apita": 8230, "sv": 8231, "ci\u00ebn": 8232, "cie\u00ebnt": 8233, "ussel": 8234, "dracht": 8235, "nderste": 8236, "tsp": 8237, "oft": 8238, "russel": 8239, "beure": 8240, "sal": 8241, "sone": 8242, "test": 8243, "beuren": 8244, "oken": 8245, "werpe": 8246, "erpen": 8247, "brus": 8248, "okaa": 8249, "werpen": 8250, "ebeure": 8251, "bruss": 8252, "brusse": 8253, "brussel": 8254, "ngev": 8255, "gebeure": 8256, "ebeuren": 8257, "roke": 8258, "oods": 8259, "lokaa": 8260, "okaal": 8261, "lokaal": 8262, "gebeuren": 8263, "bos": 8264, "lif": 8265, "eac": 8266, "abilitei": 8267, "abiliteit": 8268, "roken": 8269, "andve": 8270, "onderst": 8271, "boer": 8272, "obaa": 8273, "essie": 8274, "onderste": 8275, "rts": 8276, "umani": 8277, "humani": 8278, "opea": 8279, "ropea": 8280, "uropea": 8281, "ypr": 8282, "divi": 8283, "signa": 8284, "europea": 8285, "sitei": 8286, "siteit": 8287, "icie\u00eb": 8288, "ficie\u00eb": 8289, "icie\u00ebn": 8290, "ficie\u00ebn": 8291, "kapita": 8292, "rsite": 8293, "ersite": 8294, "rsitei": 8295, "versite": 8296, "ersitei": 8297, "rsiteit": 8298, "iversite": 8299, "versitei": 8300, "ersiteit": 8301, "iversitei": 8302, "versiteit": 8303, "iversiteit": 8304, "dves": 8305, "ndves": 8306, "dvest": 8307, "ndvest": 8308, "gende": 8309, "keuz": 8310, "keuze": 8311, "sioe": 8312, "rlijd": 8313, "erlijd": 8314, "lobaa": 8315, "obaal": 8316, "globaa": 8317, "lobaal": 8318, "globaal": 8319, "sioen": 8320, "icie\u00ebnt": 8321, "ficie\u00ebnt": 8322, "kred": 8323, "kredi": 8324, "redie": 8325, "verlij": 8326, "rlijde": 8327, "verlijd": 8328, "erlijde": 8329, "rlijden": 8330, "verlijde": 8331, "erlijden": 8332, "verlijden": 8333, "kredie": 8334, "handv": 8335, "ubb": 8336, "fficie\u00eb": 8337, "fficie\u00ebn": 8338, "rsone": 8339, "ersone": 8340, "persone": 8341, "handve": 8342, "andves": 8343, "handves": 8344, "andvest": 8345, "handvest": 8346, "hied": 8347, "chied": 8348, "schied": 8349, "eschied": 8350, "geschied": 8351, "them": 8352, "fficie\u00ebnt": 8353, "ombi": 8354, "ym": 8355, "reem": 8356, "thema": 8357, "luis": 8358, "oeld": 8359, "sus": 8360, "otu": 8361, "lof": 8362, "xter": 8363, "exter": 8364, "xtern": 8365, "extern": 8366, "nua": 8367, "nsioe": 8368, "ensioe": 8369, "pensioe": 8370, "nsioen": 8371, "ensioen": 8372, "pensioen": 8373, "gedr": 8374, "rwee": 8375, "overg": 8376, "'s": 8377, "itsp": 8378, "tradi": 8379, "emp": 8380, "nsla": 8381, "dmi": 8382, "resse": 8383, "diet": 8384, "tol": 8385, "erwee": 8386, "sonee": 8387, "rsonee": 8388, "soneel": 8389, "ersonee": 8390, "rsoneel": 8391, "personee": 8392, "ersoneel": 8393, "personeel": 8394, "efficie\u00eb": 8395, "efficie\u00ebn": 8396, "eeu": 8397, "inb": 8398, "eag": 8399, "tj": 8400, "ghe": 8401, "teres": 8402, "bewijs": 8403, "dich": 8404, "efficie\u00ebnt": 8405, "gnaa": 8406, "verwee": 8407, "iaans": 8408, "dicht": 8409, "adm": 8410, "nteres": 8411, "navo": 8412, "straa": 8413, "admi": 8414, "fst": 8415, "ignaa": 8416, "gnaal": 8417, "ignaal": 8418, "ratif": 8419, "atifi": 8420, "ratifi": 8421, "atific": 8422, "ratific": 8423, "signaa": 8424, "ivid": 8425, "signaal": 8426, "divid": 8427, "ediet": 8428, "rediet": 8429, "krediet": 8430, "eress": 8431, "teress": 8432, "nteress": 8433, "uen": 8434, "anaf": 8435, "taf": 8436, "vanaf": 8437, "atifice": 8438, "ratifice": 8439, "atificee": 8440, "ratificee": 8441, "atificeer": 8442, "ratificeer": 8443, "git": 8444, "ateri": 8445, "rven": 8446, "isa": 8447, "inu": 8448, "tje": 8449, "ntral": 8450, "entral": 8451, "central": 8452, "rweeg": 8453, "kb": 8454, "moti": 8455, "eresse": 8456, "teresse": 8457, "nteresse": 8458, "erweeg": 8459, "overwee": 8460, "verweeg": 8461, "overweeg": 8462, "nistr": 8463, "ptie": 8464, "eea": 8465, "ego": 8466, "ntu": 8467, "ronte": 8468, "adit": 8469, "radit": 8470, "aditi": 8471, "tradit": 8472, "raditi": 8473, "traditi": 8474, "onta": 8475, "overga": 8476, "fronte": 8477, "ngst": 8478, "poed": 8479, "oordel": 8480, "fval": 8481, "afval": 8482, "sisc": 8483, "tail": 8484, "bla": 8485, "temb": 8486, "mijd": 8487, "sisch": 8488, "-t": 8489, "isw": 8490, "pb": 8491, "aditie": 8492, "raditie": 8493, "traditie": 8494, "mater": 8495, "menta": 8496, "teren": 8497, "materi": 8498, "fact": 8499, "ndiv": 8500, "iswa": 8501, "gedra": 8502, "emie": 8503, "iswaa": 8504, "iswaar": 8505, "epub": 8506, "repub": 8507, "cyp": 8508, "welis": 8509, "cypr": 8510, "lisw": 8511, "elisw": 8512, "liswa": 8513, "welisw": 8514, "eliswa": 8515, "liswaa": 8516, "weliswa": 8517, "eliswaa": 8518, "liswaar": 8519, "weliswaa": 8520, "eliswaar": 8521, "weliswaar": 8522, "nderha": 8523, "gne": 8524, "gati": 8525, "ndivi": 8526, "ndivid": 8527, "epubl": 8528, "republ": 8529, "epubli": 8530, "republi": 8531, "vidu": 8532, "indiv": 8533, "ividu": 8534, "indivi": 8535, "dividu": 8536, "individ": 8537, "ndividu": 8538, "individu": 8539, "sma": 8540, "ssis": 8541, "etail": 8542, "delin": 8543, "elek": 8544, "rvan": 8545, "jfer": 8546, "ijfer": 8547, "lh": 8548, "herhaa": 8549, "herhaal": 8550, "tact": 8551, "isten": 8552, "rsteu": 8553, "ersteu": 8554, "rsteun": 8555, "ersteun": 8556, "gatie": 8557, "dersteu": 8558, "ndersteu": 8559, "dersteun": 8560, "ondersteu": 8561, "ndersteun": 8562, "ondersteun": 8563, "rokke": 8564, "epte": 8565, "tande": 8566, "cijf": 8567, "cijfe": 8568, "cijfer": 8569, "meel": 8570, "abel": 8571, "rtd": 8572, "ekr": 8573, "spoed": 8574, "manit": 8575, "umanit": 8576, "humanit": 8577, "ie-": 8578, "alter": 8579, "manita": 8580, "umanita": 8581, "humanita": 8582, "bul": 8583, "mpel": 8584, "tten": 8585, "manitai": 8586, "umanitai": 8587, "manitair": 8588, "humanitai": 8589, "umanitair": 8590, "humanitair": 8591, "orsta": 8592, "oorsta": 8593, "oss": 8594, "reag": 8595, "stande": 8596, "cel": 8597, "roeg": 8598, "detai": 8599, "gest": 8600, "-0": 8601, "detail": 8602, "anig": 8603, "ubbe": 8604, "ineel": 8605, "hoon": 8606, "lism": 8607, "eage": 8608, "denti": 8609, "voorsta": 8610, "aterie": 8611, "materie": 8612, "ervan": 8613, "kara": 8614, "vroe": 8615, "doeld": 8616, "dsc": 8617, "ouv": 8618, "uver": 8619, "lisme": 8620, "reage": 8621, "crati": 8622, "tabil": 8623, "entre": 8624, "tabili": 8625, "trale": 8626, "st-": 8627, "enee": 8628, "eerbiedi": 8629, "eerbiedig": 8630, "rgo": 8631, "weed": 8632, "tembe": 8633, "ktr": 8634, "infr": 8635, "rnem": 8636, "tember": 8637, "eagee": 8638, "reagee": 8639, "eageer": 8640, "reageer": 8641, "emm": 8642, "nmid": 8643, "nmidd": 8644, "deling": 8645, "offi": 8646, "uder": 8647, "helde": 8648, "nega": 8649, "ocol": 8650, "lekt": 8651, "ouder": 8652, "vroeg": 8653, "eeuw": 8654, "elekt": 8655, "pitaa": 8656, "ektr": 8657, "lektr": 8658, "danig": 8659, "rstande": 8660, "elektr": 8661, "choon": 8662, "schoon": 8663, "tander": 8664, "lda": 8665, "agd": 8666, "evrede": 8667, "et-": 8668, "stander": 8669, "pru": 8670, "sept": 8671, "orstan": 8672, "oorstan": 8673, "orstand": 8674, "voorstan": 8675, "oorstand": 8676, "orstande": 8677, "rstander": 8678, "voorstand": 8679, "oorstande": 8680, "orstander": 8681, "voorstande": 8682, "oorstander": 8683, "voorstander": 8684, "helder": 8685, "opb": 8686, "nfra": 8687, "ntrale": 8688, "entrale": 8689, "centrale": 8690, "ptem": 8691, "septe": 8692, "eptem": 8693, "ptemb": 8694, "septem": 8695, "eptemb": 8696, "ptembe": 8697, "septemb": 8698, "eptembe": 8699, "ptember": 8700, "septembe": 8701, "eptember": 8702, "september": 8703, "gesl": 8704, "ubbel": 8705, "tdu": 8706, "21": 8707, "epublie": 8708, "republie": 8709, "epubliek": 8710, "republiek": 8711, "luist": 8712, "luiste": 8713, "luister": 8714, "apitaa": 8715, "kapitaa": 8716, "infra": 8717, "rastr": 8718, "isto": 8719, "verei": 8720, "rvang": 8721, "ervang": 8722, "pitaal": 8723, "astru": 8724, "rastru": 8725, "astruc": 8726, "rastruc": 8727, "astruct": 8728, "rastruct": 8729, "astructu": 8730, "rastructu": 8731, "opg": 8732, "ortd": 8733, "thou": 8734, "nfras": 8735, "frast": 8736, "infras": 8737, "nfrast": 8738, "infrast": 8739, "car": 8740, "frastr": 8741, "nfrastr": 8742, "frastru": 8743, "infrastr": 8744, "nfrastru": 8745, "frastruc": 8746, "infrastru": 8747, "nfrastruc": 8748, "frastruct": 8749, "infrastruc": 8750, "nfrastruct": 8751, "frastructu": 8752, "infrastruct": 8753, "nfrastructu": 8754, "infrastructu": 8755, "rtdu": 8756, "ortdu": 8757, "priv": 8758, "astructuu": 8759, "rastructuu": 8760, "astructuur": 8761, "rastructuur": 8762, "dmin": 8763, "centre": 8764, "admin": 8765, "anj": 8766, "frastructuu": 8767, "nfrastructuu": 8768, "frastructuur": 8769, "infrastructuu": 8770, "nfrastructuur": 8771, "infrastructuur": 8772, "inistr": 8773, "ministr": 8774, "pbo": 8775, "opbo": 8776, "dmini": 8777, "admini": 8778, "dminis": 8779, "adminis": 8780, "dminist": 8781, "administ": 8782, "dministr": 8783, "administr": 8784, "moor": 8785, "pbou": 8786, "opbou": 8787, "pbouw": 8788, "opbouw": 8789, "itsl": 8790, "ltern": 8791, "altern": 8792, "lieg": 8793, "otie": 8794, "okken": 8795, "inen": 8796, "dubb": 8797, "dubbe": 8798, "dubbel": 8799, "mpo": 8800, "vreden": 8801, "evreden": 8802, "tevr": 8803, "itsla": 8804, "ouve": 8805, "tevre": 8806, "tevred": 8807, "tevrede": 8808, "tevreden": 8809, "ncen": 8810, "apitaal": 8811, "kapitaal": 8812, "tdur": 8813, "tdure": 8814, "tduren": 8815, "rtdur": 8816, "ortdur": 8817, "rtdure": 8818, "ortdure": 8819, "rtduren": 8820, "ortduren": 8821, "dsch": 8822, "meni\u00eb": 8823, "gatief": 8824, "ra\u00ef": 8825, "kwijt": 8826, "aalde": 8827, "ace": 8828, "stere": 8829, "gesla": 8830, "egat": 8831, "uitsl": 8832, "rov": 8833, "hist": 8834, "elg": 8835, "deu": 8836, "uitsla": 8837, "dscha": 8838, "gim": 8839, "nri": 8840, "fens": 8841, "prem": 8842, "tslan": 8843, "duitsl": 8844, "itslan": 8845, "tsland": 8846, "duitsla": 8847, "uitslan": 8848, "itsland": 8849, "duitslan": 8850, "uitsland": 8851, "duitsland": 8852, "ncent": 8853, "oortd": 8854, "voortd": 8855, "oortdu": 8856, "voortdu": 8857, "oortdur": 8858, "voortdur": 8859, "oortdure": 8860, "voortdure": 8861, "oortduren": 8862, "voortduren": 8863, "dschap": 8864, "ocht": 8865, "facto": 8866, "egati": 8867, "rokken": 8868, "oz": 8869, "nlang": 8870, "egim": 8871, "rnaa": 8872, "gime": 8873, "onla": 8874, "regim": 8875, "egime": 8876, "regime": 8877, "onlan": 8878, "onlang": 8879, "ouver": 8880, "ctr": 8881, "al-": 8882, "luid": 8883, "twa": 8884, "ngo": 8885, "ierl": 8886, "oege": 8887, "olda": 8888, "gouv": 8889, "gouve": 8890, "ncentr": 8891, "uvern": 8892, "gouver": 8893, "egatie": 8894, "ouvern": 8895, "gouvern": 8896, "ierla": 8897, "ierlan": 8898, "ierland": 8899, "bode": 8900, "tdurend": 8901, "nlangs": 8902, "onlangs": 8903, "rtdurend": 8904, "ortdurend": 8905, "derwe": 8906, "uverne": 8907, "ouverne": 8908, "gouverne": 8909, "etwi": 8910, "oncen": 8911, "concen": 8912, "oncent": 8913, "concent": 8914, "oncentr": 8915, "concentr": 8916, "ugd": 8917, "enri": 8918, "rneme": 8919, "aren": 8920, "oorn": 8921, "caa": 8922, "ewijz": 8923, "vli": 8924, "sek": 8925, "nsief": 8926, "ulie": 8927, "eto": 8928, "non": 8929, "ensief": 8930, "stabil": 8931, "stabili": 8932, "tude": 8933, "ternee": 8934, "terneer": 8935, "ulier": 8936, "oortdurend": 8937, "voortdurend": 8938, "afi": 8939, "vervan": 8940, "vervang": 8941, "enaar": 8942, "jonge": 8943, "tart": 8944, "entu": 8945, "rnemen": 8946, "ii": 8947, "ncentre": 8948, "oncentre": 8949, "concentre": 8950, "hech": 8951, "reis": 8952, "hecht": 8953, "lterne": 8954, "alterne": 8955, "lternee": 8956, "alternee": 8957, "lterneer": 8958, "alterneer": 8959, "bine": 8960, "aki": 8961, "..": 8962, "vernee": 8963, "ldo": 8964, "uvernee": 8965, "verneer": 8966, "ouvernee": 8967, "uverneer": 8968, "gouvernee": 8969, "ouverneer": 8970, "gouverneer": 8971, "ah": 8972, "cial": 8973, "mone": 8974, "hans": 8975, "alism": 8976, "kra\u00ef": 8977, "eugd": 8978, "xpo": 8979, "expo": 8980, "alisme": 8981, "vlie": 8982, "sf": 8983, "start": 8984, "zone": 8985, "loot": 8986, "nje": 8987, "stude": 8988, "gedu": 8989, "oning": 8990, "ril": 8991, "huw": 8992, "negat": 8993, "negati": 8994, "ntegen": 8995, "premi": 8996, "than": 8997, "motie": 8998, "avon": 8999, "getw": 9000, "getwi": 9001, "etwij": 9002, "getwij": 9003, "etwijf": 9004, "getwijf": 9005, "etwijfe": 9006, "getwijfe": 9007, "etwijfel": 9008, "getwijfel": 9009, "honder": 9010, "tudee": 9011, "studee": 9012, "tudeer": 9013, "studeer": 9014, "ntex": 9015, "jnen": 9016, "ijnen": 9017, "ties": 9018, "ontex": 9019, "negatie": 9020, "egatief": 9021, "negatief": 9022, "sanc": 9023, "tenr": 9024, "honderd": 9025, "agne": 9026, "rwer": 9027, "ndum": 9028, "ngeg": 9029, "paci": 9030, "ikt": 9031, "rofi": 9032, "ife": 9033, "steren": 9034, "ali\u00eb": 9035, "lor": 9036, "vlieg": 9037, "arne": 9038, "hip": 9039, "tenri": 9040, "geni": 9041, "nege": 9042, "ione": 9043, "istere": 9044, "isteren": 9045, "fici\u00eb": 9046, "ici\u00ebn": 9047, "ffici\u00eb": 9048, "ventu": 9049, "ci\u00ebnt": 9050, "fici\u00ebn": 9051, "ici\u00ebnt": 9052, "ffici\u00ebn": 9053, "fici\u00ebnt": 9054, "ffici\u00ebnt": 9055, "gistere": 9056, "gisteren": 9057, "stenr": 9058, "stenri": 9059, "listi": 9060, "effici\u00eb": 9061, "effici\u00ebn": 9062, "effici\u00ebnt": 9063, "stren": 9064, "ructi": 9065, "tructi": 9066, "structi": 9067, "moord": 9068, "ranse": 9069, "pean": 9070, "eune": 9071, "unde": 9072, "traag": 9073, "digd": 9074, "azi": 9075, "opean": 9076, "ropean": 9077, "uropean": 9078, "european": 9079, "mvan": 9080, "ructie": 9081, "tructie": 9082, "structie": 9083, "eferen": 9084, "omvan": 9085, "eger": 9086, "daal": 9087, "mvang": 9088, "omvang": 9089, "referen": 9090, "wr": 9091, "essee": 9092, "esseer": 9093, "franse": 9094, "paalde": 9095, "epaalde": 9096, "bepaalde": 9097, "ressee": 9098, "resseer": 9099, "kas": 9100, "remie": 9101, "ering": 9102, "ekra": 9103, "ntens": 9104, "treng": 9105, "streng": 9106, "mpli": 9107, "istor": 9108, "bewee": 9109, "fensi": 9110, "histo": 9111, "offic": 9112, "endu": 9113, "fensie": 9114, "beweeg": 9115, "dime": 9116, "anct": 9117, "listis": 9118, "odsc": 9119, "odsch": 9120, "odscha": 9121, "dimen": 9122, "gemo": 9123, "sanct": 9124, "onsta": 9125, "nrij": 9126, "enrij": 9127, "listisc": 9128, "listisch": 9129, "premie": 9130, "nrijk": 9131, "enrijk": 9132, "orre": 9133, "tenrij": 9134, "tenrijk": 9135, "bood": 9136, "odschap": 9137, "nbe": 9138, "ostenr": 9139, "oostenr": 9140, "ostenri": 9141, "stenrij": 9142, "oostenri": 9143, "ostenrij": 9144, "stenrijk": 9145, "oostenrij": 9146, "ostenrijk": 9147, "oostenrijk": 9148, "ancti": 9149, "sancti": 9150, "08": 9151, "boods": 9152, "oodsc": 9153, "boodsc": 9154, "oodsch": 9155, "boodsch": 9156, "oodscha": 9157, "boodscha": 9158, "stori": 9159, "oodschap": 9160, "boodschap": 9161, "emin": 9162, "histor": 9163, "eressee": 9164, "teressee": 9165, "eresseer": 9166, "nteressee": 9167, "teresseer": 9168, "nteresseer": 9169, "anctie": 9170, "sanctie": 9171, "jdragen": 9172, "ijdragen": 9173, "bijdragen": 9174, "imens": 9175, "post": 9176, "ngege": 9177, "ngegev": 9178, "ngegeve": 9179, "ngegeven": 9180, "profi": 9181, "mensi": 9182, "dimens": 9183, "imensi": 9184, "dimensi": 9185, "onet": 9186, "mensie": 9187, "imensie": 9188, "dimensie": 9189, "gevo": 9190, "nderwe": 9191, "istori": 9192, "histori": 9193, "icus": 9194, "paan": 9195, "tast": 9196, "jpe": 9197, "ijpe": 9198, "-pr": 9199, "erwer": 9200, "aagd": 9201, "mass": 9202, "sens": 9203, "ada": 9204, "vi\u00eb": 9205, "briek": 9206, "bus": 9207, "intens": 9208, "onderwe": 9209, "vond": 9210, "trok": 9211, "conta": 9212, "cratis": 9213, "oemen": 9214, "ipl": 9215, "nar": 9216, "etrok": 9217, "pul": 9218, "ti\u00eb": 9219, "neta": 9220, "sef": 9221, "spaan": 9222, "\u00efne": 9223, "sof": 9224, "ratisc": 9225, "ratisch": 9226, "eln": 9227, "eris": 9228, "tak": 9229, "eventu": 9230, "ntue": 9231, "entue": 9232, "ntuee": 9233, "ventue": 9234, "entuee": 9235, "ntueel": 9236, "eventue": 9237, "ventuee": 9238, "entueel": 9239, "eventuee": 9240, "ventueel": 9241, "eventueel": 9242, "gari": 9243, "roto": 9244, "kis": 9245, "cratisc": 9246, "cratisch": 9247, "17": 9248, "offici": 9249, "defe": 9250, "hat": 9251, "tag": 9252, "ty": 9253, "jpen": 9254, "ijpen": 9255, "linge": 9256, "fou": 9257, "nspo": 9258, "proto": 9259, "xpor": 9260, "expor": 9261, "ontee": 9262, "rho": 9263, "rwerp": 9264, "ichte": 9265, "onteer": 9266, "roemen": 9267, "panj": 9268, "spanj": 9269, "lende": 9270, "xport": 9271, "export": 9272, "unen": 9273, "monet": 9274, "capa": 9275, "llec": 9276, "teune": 9277, "eunen": 9278, "steune": 9279, "teunen": 9280, "steunen": 9281, "dro": 9282, "rote": 9283, "consta": 9284, "oneta": 9285, "n-o": 9286, "moneta": 9287, "paans": 9288, "spaans": 9289, "garij": 9290, "arije": 9291, "garije": 9292, "toco": 9293, "otoc": 9294, "erwerp": 9295, "rsteune": 9296, "ersteune": 9297, "rsteunen": 9298, "ersteunen": 9299, "alia": 9300, "avond": 9301, "dersteune": 9302, "ndersteune": 9303, "dersteunen": 9304, "ondersteune": 9305, "ndersteunen": 9306, "ondersteunen": 9307, "rotoc": 9308, "derwer": 9309, "iers": 9310, "otoco": 9311, "tocol": 9312, "protoc": 9313, "rotoco": 9314, "otocol": 9315, "protoco": 9316, "rotocol": 9317, "protocol": 9318, "derwerp": 9319, "esef": 9320, "gebo": 9321, "nderwer": 9322, "onderwer": 9323, "nderwerp": 9324, "onderwerp": 9325, "defen": 9326, "achten": 9327, "anje": 9328, "bese": 9329, "iez": 9330, "besef": 9331, "traat": 9332, "-oo": 9333, "ngere": 9334, "pin": 9335, "rijpe": 9336, "antee": 9337, "pie": 9338, "nisee": 9339, "niseer": 9340, "erra": 9341, "grijpe": 9342, "ongev": 9343, "anteer": 9344, "dk": 9345, "half": 9346, "ntho": 9347, "hre": 9348, "efens": 9349, "rijpen": 9350, "enei": 9351, "storis": 9352, "istoris": 9353, "historis": 9354, "ns-": 9355, "terv": 9356, "storisc": 9357, "istorisc": 9358, "storisch": 9359, "historisc": 9360, "istorisch": 9361, "historisch": 9362, "grijpen": 9363, "iege": 9364, "defens": 9365, "lage": 9366, "etair": 9367, "a\u00efn": 9368, "nthou": 9369, "gent": 9370, "netai": 9371, "netair": 9372, "janu": 9373, "onetai": 9374, "monetai": 9375, "onetair": 9376, "monetair": 9377, "eaf": 9378, "emme": 9379, "akte": 9380, "mineel": 9381, "imineel": 9382, "rimineel": 9383, "crimineel": 9384, "ey": 9385, "anise": 9386, "liaa": 9387, "aarn": 9388, "intere": 9389, "talia": 9390, "erlo": 9391, "anisee": 9392, "aniseer": 9393, "40": 9394, "insp": 9395, "ri\u00eb": 9396, "anua": 9397, "apac": 9398, "eslaa": 9399, "capac": 9400, "nein": 9401, "enein": 9402, "neind": 9403, "eneind": 9404, "neinde": 9405, "eneinde": 9406, "aarne": 9407, "wart": 9408, "acit": 9409, "apaci": 9410, "pacit": 9411, "capaci": 9412, "apacit": 9413, "capacit": 9414, "tenei": 9415, "tenein": 9416, "teneind": 9417, "teneinde": 9418, "nuar": 9419, "janua": 9420, "anuar": 9421, "nuari": 9422, "januar": 9423, "anuari": 9424, "januari": 9425, "italia": 9426, "ntac": 9427, "ense": 9428, "oeder": 9429, "ra\u00efn": 9430, "kra\u00efn": 9431, "proe": 9432, "bak": 9433, "rwerpe": 9434, "erwerpe": 9435, "rwerpen": 9436, "erwerpen": 9437, "5-": 9438, "ompe": 9439, "ddels": 9440, "iddels": 9441, "middels": 9442, "hisc": 9443, "hisch": 9444, "onis": 9445, "derwerpe": 9446, "nderwerpe": 9447, "derwerpen": 9448, "onderwerpe": 9449, "nderwerpen": 9450, "onderwerpen": 9451, "geea": 9452, "eeaf": 9453, "geeaf": 9454, "acite": 9455, "pacite": 9456, "acitei": 9457, "apacite": 9458, "pacitei": 9459, "aciteit": 9460, "capacite": 9461, "apacitei": 9462, "paciteit": 9463, "capacitei": 9464, "apaciteit": 9465, "capaciteit": 9466, "ntact": 9467, "ngeve": 9468, "nspor": 9469, "koning": 9470, "pge": 9471, "nstruc": 9472, "nstruct": 9473, "asso": 9474, "eveer": 9475, "tam": 9476, "gevee": 9477, "ongeve": 9478, "ngevee": 9479, "geveer": 9480, "ongevee": 9481, "ngeveer": 9482, "ongeveer": 9483, "llect": 9484, "voorn": 9485, "kaart": 9486, "nterv": 9487, "thans": 9488, "onfr": 9489, "trokk": 9490, "trokke": 9491, "trokken": 9492, "nfro": 9493, "confr": 9494, "onfro": 9495, "nfron": 9496, "confro": 9497, "onfron": 9498, "nfront": 9499, "confron": 9500, "onfront": 9501, "confront": 9502, "geslaa": 9503, "eslaag": 9504, "geslaag": 9505, "interv": 9506, "etrokk": 9507, "etrokke": 9508, "etrokken": 9509, "sor": 9510, "kond": 9511, "enwe": 9512, "emeni": 9513, "tabilit": 9514, "ieel": 9515, "oemeni": 9516, "roemeni": 9517, "ialist": 9518, "rontee": 9519, "ronteer": 9520, "nfronte": 9521, "frontee": 9522, "onfronte": 9523, "nfrontee": 9524, "fronteer": 9525, "confronte": 9526, "onfrontee": 9527, "nfronteer": 9528, "confrontee": 9529, "onfronteer": 9530, "confronteer": 9531, "rees": 9532, "onal": 9533, "mde": 9534, "tabilite": 9535, "tabilitei": 9536, "tabiliteit": 9537, "opol": 9538, "vrees": 9539, "aap": 9540, "tensi": 9541, "interes": 9542, "chip": 9543, "nstructi": 9544, "comme": 9545, "liaan": 9546, "nstructie": 9547, "betro": 9548, "jonger": 9549, "thi": 9550, "llende": 9551, "betrok": 9552, "betrokk": 9553, "betrokke": 9554, "betrokken": 9555, "alisti": 9556, "evol": 9557, "opge": 9558, "interess": 9559, "endum": 9560, "uaa": 9561, "actor": 9562, "eane": 9563, "eque": 9564, "edo": 9565, "onderha": 9566, "emeni\u00eb": 9567, "oemeni\u00eb": 9568, "roemeni\u00eb": 9569, "pend": 9570, "geren": 9571, "alk": 9572, "ongere": 9573, "interesse": 9574, "eanen": 9575, "legi": 9576, "prei": 9577, "culi": 9578, "loon": 9579, "sprei": 9580, "akel": 9581, "ober": 9582, "preid": 9583, "ussis": 9584, "eafe": 9585, "eeafe": 9586, "geeafe": 9587, "spreid": 9588, "alistis": 9589, "erven": 9590, "erho": 9591, "stil": 9592, "ntit": 9593, "alistisc": 9594, "alistisch": 9595, "comb": 9596, "-oos": 9597, "-oost": 9598, "trei": 9599, "gedrag": 9600, "russi": 9601, "tensie": 9602, "ura": 9603, "camp": 9604, "ferend": 9605, "eferend": 9606, "referend": 9607, "rendu": 9608, "erendu": 9609, "rendum": 9610, "ferendu": 9611, "erendum": 9612, "eferendu": 9613, "ferendum": 9614, "referendu": 9615, "eferendum": 9616, "referendum": 9617, "urks": 9618, "turks": 9619, "olan": 9620, "werken": 9621, "dhaa": 9622, "ndhaa": 9623, "dhaaf": 9624, "andhaa": 9625, "ndhaaf": 9626, "handhaa": 9627, "andhaaf": 9628, "handhaaf": 9629, "culie": 9630, "hind": 9631, "eorga": 9632, "ganise": 9633, "rganise": 9634, "organise": 9635, "ktis": 9636, "aktis": 9637, "raktis": 9638, "praktis": 9639, "ciali": 9640, "efensi": 9641, "defensi": 9642, "georga": 9643, "evel": 9644, "euk": 9645, "ssisc": 9646, "ssisch": 9647, "efensie": 9648, "defensie": 9649, "eorgan": 9650, "ganisee": 9651, "rganisee": 9652, "ganiseer": 9653, "organisee": 9654, "rganiseer": 9655, "organiseer": 9656, "culier": 9657, "georgan": 9658, "eorgani": 9659, "georgani": 9660, "eorganis": 9661, "georganis": 9662, "eorganise": 9663, "georganise": 9664, "eorganisee": 9665, "georganisee": 9666, "eorganiseer": 9667, "georganiseer": 9668, "u-l": 9669, "rgu": 9670, "cialis": 9671, "dg": 9672, "tieu": 9673, "nere": 9674, "etal": 9675, "mbin": 9676, "combi": 9677, "mbine": 9678, "rraa": 9679, "ieze": 9680, "russis": 9681, "ussisc": 9682, "ussisch": 9683, "russisc": 9684, "russisch": 9685, "uic": 9686, "ombin": 9687, "combin": 9688, "ombine": 9689, "combine": 9690, "verlo": 9691, "onth": 9692, "peane": 9693, "opeane": 9694, "peanen": 9695, "ropeane": 9696, "opeanen": 9697, "uropeane": 9698, "ropeanen": 9699, "europeane": 9700, "uropeanen": 9701, "europeanen": 9702, "gep": 9703, "rmeel": 9704, "straat": 9705, "emde": 9706, "eu-l": 9707, "geest": 9708, "fsta": 9709, "tieus": 9710, "binee": 9711, "mbinee": 9712, "bineer": 9713, "ombinee": 9714, "mbineer": 9715, "combinee": 9716, "ombineer": 9717, "combineer": 9718, "emiss": 9719, "orie": 9720, "quo": 9721, "brok": 9722, "tine": 9723, "tensief": 9724, "nha": 9725, "16": 9726, "gor": 9727, "panje": 9728, "spanje": 9729, "nsens": 9730, "ktisc": 9731, "aktisc": 9732, "ktisch": 9733, "raktisc": 9734, "aktisch": 9735, "praktisc": 9736, "raktisch": 9737, "praktisch": 9738, "stati": 9739, "gum": 9740, "rmat": 9741, "a-": 9742, "lga": 9743, "omple": 9744, "rres": 9745, "igh": 9746, "uich": 9747, "comple": 9748, "liaans": 9749, "fw": 9750, "ensl": 9751, "ongen": 9752, "waarn": 9753, "identi": 9754, "rgang": 9755, "ngeren": 9756, "zwee": 9757, "genee": 9758, "waarne": 9759, "ontac": 9760, "egens": 9761, "contac": 9762, "ontact": 9763, "contact": 9764, "argu": 9765, "ongeren": 9766, "schip": 9767, "hinde": 9768, "a\u00efne": 9769, "stop": 9770, "hinder": 9771, "ntensi": 9772, "intensi": 9773, "eaa": 9774, "adee": 9775, "jongere": 9776, "sbu": 9777, "onstru": 9778, "999": 9779, "emoe": 9780, "ati\u00eb": 9781, "eiz": 9782, "iran": 9783, "jongeren": 9784, "stabilit": 9785, "rooi": 9786, "teli": 9787, "oekr": 9788, "stabilite": 9789, "stabilitei": 9790, "stabiliteit": 9791, "impl": 9792, "barr": 9793, "emissi": 9794, "asti": 9795, "mbt": 9796, "ambt": 9797, "1999": 9798, "hz": 9799, "n-oo": 9800, "oekra": 9801, "sbur": 9802, "itieu": 9803, "bitieu": 9804, "mbitieu": 9805, "ambitieu": 9806, "ratief": 9807, "ekra\u00ef": 9808, "oekra\u00ef": 9809, "handi": 9810, "rgum": 9811, "gume": 9812, "argum": 9813, "rgume": 9814, "gumen": 9815, "argume": 9816, "rgumen": 9817, "gument": 9818, "argumen": 9819, "rgument": 9820, "argument": 9821, "constr": 9822, "vige": 9823, "emissie": 9824, "rvi": 9825, "ra\u00efne": 9826, "kra\u00efne": 9827, "icul": 9828, "constru": 9829, "uga": 9830, "uent": 9831, "velen": 9832, "itieus": 9833, "bitieus": 9834, "mbitieus": 9835, "ambitieus": 9836, "anke": 9837, "laagd": 9838, "sco": 9839, "ekra\u00efn": 9840, "oekra\u00efn": 9841, "ax": 9842, "sburg": 9843, "quen": 9844, "diversi": 9845, "-dem": 9846, "quent": 9847, "nslag": 9848, "ormeel": 9849, "formeel": 9850, "en-o": 9851, "aliaa": 9852, "taliaa": 9853, "aliaan": 9854, "italiaa": 9855, "taliaan": 9856, "italiaan": 9857, "oct": 9858, "juic": 9859, "lai": 9860, "18": 9861, "ntensie": 9862, "intensie": 9863, "-demo": 9864, "juich": 9865, "ekra\u00efne": 9866, "oekra\u00efne": 9867, "chz": 9868, "emisc": 9869, "emisch": 9870, "ntensief": 9871, "intensief": 9872, "conte": 9873, "xe": 9874, "hze": 9875, "ichz": 9876, "chze": 9877, "hzel": 9878, "zichz": 9879, "ichze": 9880, "chzel": 9881, "hzelf": 9882, "zichze": 9883, "ichzel": 9884, "chzelf": 9885, "zichzel": 9886, "ichzelf": 9887, "zichzelf": 9888, "-democ": 9889, "-democr": 9890, "-democra": 9891, "lecti": 9892, "arnee": 9893, "nera": 9894, "verzoeke": 9895, "compe": 9896, "ensu": 9897, "verzoeken": 9898, "aarnee": 9899, "waarnee": 9900, "arneem": 9901, "aarneem": 9902, "waarneem": 9903, "var": 9904, "niver": 9905, "ndica": 9906, "also": 9907, "aal-": 9908, "ediu": 9909, "mediu": 9910, "edium": 9911, "medium": 9912, "atus": 9913, "manda": 9914, "eits": 9915, "cis": 9916, "98": 9917, "eiger": 9918, "lectie": 9919, "eemd": 9920, "gemoe": 9921, "mari": 9922, "kopp": 9923, "ampa": 9924, "kenl": 9925, "onstruc": 9926, "onstruct": 9927, "construc": 9928, "construct": 9929, "en-oo": 9930, "pectief": 9931, "spectief": 9932, "avig": 9933, "kenla": 9934, "kenlan": 9935, "kenland": 9936, "kn": 9937, "den-o": 9938, "den-oo": 9939, "massa": 9940, "n-oos": 9941, "dden-o": 9942, "en-oos": 9943, "n-oost": 9944, "idden-o": 9945, "dden-oo": 9946, "en-oost": 9947, "midden-o": 9948, "idden-oo": 9949, "midden-oo": 9950, "ersp": 9951, "angeg": 9952, "aangeg": 9953, "angege": 9954, "aangege": 9955, "angegev": 9956, "aangegev": 9957, "angegeve": 9958, "aangegeve": 9959, "angegeven": 9960, "aangegeven": 9961, "den-oos": 9962, "dden-oos": 9963, "den-oost": 9964, "idden-oos": 9965, "dden-oost": 9966, "midden-oos": 9967, "idden-oost": 9968, "midden-oost": 9969, "fsc": 9970, "teits": 9971, "vaat": 9972, "nitief": 9973, "preke": 9974, "univ": 9975, "initief": 9976, "finitief": 9977, "efinitief": 9978, "definitief": 9979, "-be": 9980, "iteits": 9981, "preken": 9982, "unive": 9983, "onstructi": 9984, "constructi": 9985, "koppe": 9986, "oppel": 9987, "koppel": 9988, "terve": 9989, "ulle": 9990, "fsch": 9991, "univer": 9992, "onstructie": 9993, "constructie": 9994, "ucr": 9995, "ntbr": 9996, "ontbr": 9997, "kame": 9998, "tatus": 9999, "status": 10000, "woe": 10001, "drug": 10002, "oepe": 10003, "vui": 10004, "ucra": 10005, "ry": 10006, "nivers": 10007, "univers": 10008, "chaal": 10009, "terven": 10010, "nterve": 10011, "nterven": 10012, "nwer": 10013, "interve": 10014, "interven": 10015, "eraan": 10016, "heen": 10017, "roef": 10018, "dio": 10019, "bonde": 10020, "cod": 10021, "seks": 10022, "-ooste": 10023, "-oosten": 10024, "rlei": 10025, "equen": 10026, "jul": 10027, "kamer": 10028, "equent": 10029, "aliaans": 10030, "taliaans": 10031, "italiaans": 10032, "arre": 10033, "ticul": 10034, "tob": 10035, "fit": 10036, "ndaat": 10037, "mandaa": 10038, "andaat": 10039, "mandaat": 10040, "nker": 10041, "fout": 10042, "spreke": 10043, "ansl": 10044, "spreken": 10045, "nwerk": 10046, "kus": 10047, "weig": 10048, "ting": 10049, "osov": 10050, "ticus": 10051, "weige": 10052, "koso": 10053, "atten": 10054, "ectee": 10055, "aansl": 10056, "kene": 10057, "schaal": 10058, "ecteer": 10059, "kosov": 10060, "ance": 10061, "rab": 10062, "ndeli": 10063, "weiger": 10064, "rticu": 10065, "articu": 10066, "rticul": 10067, "articul": 10068, "taris": 10069, "zins": 10070, "ieken": 10071, "tspr": 10072, "particu": 10073, "particul": 10074, "zigd": 10075, "jzigd": 10076, "ijzigd": 10077, "wijzigd": 10078, "n-ooste": 10079, "en-ooste": 10080, "n-oosten": 10081, "en-oosten": 10082, "-democraa": 10083, "-democraat": 10084, "maart": 10085, "den-ooste": 10086, "dden-ooste": 10087, "den-oosten": 10088, "idden-ooste": 10089, "dden-oosten": 10090, "midden-ooste": 10091, "idden-oosten": 10092, "midden-oosten": 10093, "toot": 10094, "rali": 10095, "pagn": 10096, "xpl": 10097, "mpag": 10098, "mpagn": 10099, "campa": 10100, "kenen": 10101, "kter": 10102, "enwer": 10103, "uin": 10104, "uitsp": 10105, "okt": 10106, "expl": 10107, "itspr": 10108, "monde": 10109, "iculi": 10110, "ticuli": 10111, "iculie": 10112, "rticuli": 10113, "ticulie": 10114, "iculier": 10115, "articuli": 10116, "rticulie": 10117, "ticulier": 10118, "particuli": 10119, "articulie": 10120, "rticulier": 10121, "particulie": 10122, "articulier": 10123, "particulier": 10124, "uitspr": 10125, "rvent": 10126, "ervent": 10127, "ansla": 10128, "enwerk": 10129, "ampag": 10130, "chat": 10131, "ender": 10132, "ampagn": 10133, "jken": 10134, "neraa": 10135, "neraal": 10136, "tspre": 10137, "pagne": 10138, "mpagne": 10139, "itspre": 10140, "uitspre": 10141, "aansla": 10142, "stoot": 10143, "omo": 10144, "ampagne": 10145, "lena": 10146, "chuw": 10147, "schuw": 10148, "\u00e8": 10149, "anslag": 10150, "aanslag": 10151, "terd": 10152, "iev": 10153, "ijken": 10154, "uige": 10155, "aties": 10156, "5-0": 10157, "corre": 10158, "erlei": 10159, "slaagd": 10160, "tou": 10161, "lemm": 10162, "iva": 10163, "ester": 10164, "niee": 10165, "ws": 10166, "tuige": 10167, "ugg": 10168, "plen": 10169, "ntext": 10170, "contex": 10171, "ontext": 10172, "context": 10173, "auc": 10174, "gaand": 10175, "nzel": 10176, "prote": 10177, "etig": 10178, "eslaagd": 10179, "geslaagd": 10180, "ulg": 10181, "elv": 10182, "ullen": 10183, "ndelin": 10184, "ndeling": 10185, "yc": 10186, "pecte": 10187, "specte": 10188, "ulga": 10189, "reide": 10190, "nsc": 10191, "equa": 10192, "delen": 10193, "pret": 10194, "ula": 10195, "menw": 10196, "tsprek": 10197, "tspreke": 10198, "tspreken": 10199, "bulg": 10200, "bulga": 10201, "iett": 10202, "plu": 10203, "itsprek": 10204, "uitsprek": 10205, "itspreke": 10206, "uitspreke": 10207, "itspreken": 10208, "uitspreken": 10209, "dko": 10210, "hine": 10211, "amenw": 10212, "menwe": 10213, "samenw": 10214, "amenwe": 10215, "menwer": 10216, "samenwe": 10217, "amenwer": 10218, "menwerk": 10219, "samenwer": 10220, "amenwerk": 10221, "samenwerk": 10222, "vuil": 10223, "rspe": 10224, "campag": 10225, "chui": 10226, "campagn": 10227, "campagne": 10228, "tafe": 10229, "oork": 10230, "ofte": 10231, "teur": 10232, "rrest": 10233, "ntbre": 10234, "ontbre": 10235, "schui": 10236, "nstat": 10237, "praat": 10238, "afel": 10239, "de-": 10240, "wend": 10241, "berg": 10242, "rieke": 10243, "rieken": 10244, "octr": 10245, "onsen": 10246, "kust": 10247, "eauc": 10248, "eteer": 10249, "chine": 10250, "hot": 10251, "inent": 10252, "lans": 10253, "sensu": 10254, "onsens": 10255, "enai": 10256, "egrij": 10257, "ieti": 10258, "enden": 10259, "grieke": 10260, "grieken": 10261, "nvu": 10262, "nvul": 10263, "vull": 10264, "vulle": 10265, "arak": 10266, "icap": 10267, "anvu": 10268, "aanvu": 10269, "anvul": 10270, "nvull": 10271, "aanvul": 10272, "nvulle": 10273, "vullen": 10274, "ullend": 10275, "anvull": 10276, "aanvull": 10277, "anvulle": 10278, "nvullen": 10279, "vullend": 10280, "aanvulle": 10281, "anvullen": 10282, "nvullend": 10283, "aanvullen": 10284, "anvullend": 10285, "aanvullend": 10286, "aucr": 10287, "reauc": 10288, "eaucr": 10289, "ureauc": 10290, "reaucr": 10291, "bureauc": 10292, "ureaucr": 10293, "bureaucr": 10294, "nzelf": 10295, "iette": 10296, "pectee": 10297, "spectee": 10298, "pecteer": 10299, "specteer": 10300, "aucra": 10301, "eaucra": 10302, "reaucra": 10303, "ureaucra": 10304, "bureaucra": 10305, "serve": 10306, "begrij": 10307, "egrijp": 10308, "begrijp": 10309, "nstate": 10310, "erspe": 10311, "hris": 10312, "istre": 10313, "chris": 10314, "vic": 10315, "istree": 10316, "istreer": 10317, "onstat": 10318, "undi": 10319, "ennen": 10320, "-g": 10321, "constat": 10322, "onstate": 10323, "constate": 10324, "tatee": 10325, "statee": 10326, "tateer": 10327, "nstatee": 10328, "stateer": 10329, "onstatee": 10330, "nstateer": 10331, "constatee": 10332, "onstateer": 10333, "constateer": 10334, "andic": 10335, "dicap": 10336, "handic": 10337, "andica": 10338, "ndicap": 10339, "handica": 10340, "andicap": 10341, "handicap": 10342, "haad": 10343, "chaad": 10344, "schaad": 10345, "ao": 10346, "ntis": 10347, "schat": 10348, "nsus": 10349, "ensus": 10350, "nieti": 10351, "ietig": 10352, "ilan": 10353, "niett": 10354, "niette": 10355, "-pro": 10356, "sensus": 10357, "nietig": 10358, "ervi": 10359, "rkenn": 10360, "erkenn": 10361, "uden": 10362, "opr": 10363, "enere": 10364, "genere": 10365, "ergan": 10366, "erce": 10367, "tafel": 10368, "laf": 10369, "ergang": 10370, "temi": 10371, "rau": 10372, "vergan": 10373, "vergang": 10374, "consen": 10375, "kto": 10376, "erko": 10377, "eite": 10378, "overgan": 10379, "overgang": 10380, "nsensu": 10381, "onsensu": 10382, "plena": 10383, "lenai": 10384, "plenai": 10385, "ellig": 10386, "kennen": 10387, "consens": 10388, "consensu": 10389, "enair": 10390, "lenair": 10391, "plenair": 10392, "rkenne": 10393, "erkenne": 10394, "rkennen": 10395, "erkennen": 10396, "chre": 10397, "prest": 10398, "voork": 10399, "ulk": 10400, "schre": 10401, "ndo": 10402, "\u00e1": 10403, "wt": 10404, "dda": 10405, "kba": 10406, "olen": 10407, "fam": 10408, "antis": 10409, "bezo": 10410, "nsensus": 10411, "onsensus": 10412, "geda": 10413, "consensus": 10414, "bonden": 10415, "dek": 10416, "nwerke": 10417, "szi": 10418, "sovo": 10419, "osovo": 10420, "kosovo": 10421, "hant": 10422, "enera": 10423, "genera": 10424, "nwerken": 10425, "tmo": 10426, "edac": 10427, "r.": 10428, "vem": 10429, "loei": 10430, "isb": 10431, "ucrat": 10432, "afis": 10433, "breide": 10434, "nsch": 10435, "afisc": 10436, "tervent": 10437, "ntervent": 10438, "intervent": 10439, "fite": 10440, "regis": 10441, "oele": 10442, "rakte": 10443, "ucrati": 10444, "hante": 10445, "enees": 10446, "afisch": 10447, "genees": 10448, "hantee": 10449, "hanteer": 10450, "kbaa": 10451, "kbaar": 10452, "ebreide": 10453, "gebreide": 10454, "ppl": 10455, "nij": 10456, "tellig": 10457, "htst": 10458, "chtst": 10459, "amil": 10460, "elh": 10461, "gek": 10462, "tali\u00eb": 10463, "itali\u00eb": 10464, "tatie": 10465, "rspec": 10466, "erspec": 10467, "enwerke": 10468, "interessee": 10469, "interesseer": 10470, "itic": 10471, "enwerken": 10472, "ionee": 10473, "rbaa": 10474, "oegen": 10475, "akter": 10476, "frikaa": 10477, "afrikaa": 10478, "frikaan": 10479, "afrikaan": 10480, "iland": 10481, "rakter": 10482, "inze": 10483, "oemde": 10484, "karak": 10485, "ovem": 10486, "huldi": 10487, "huldig": 10488, "arakt": 10489, "karakt": 10490, "arakte": 10491, "karakte": 10492, "arakter": 10493, "karakter": 10494, "rrec": 10495, "zul": 10496, "wto": 10497, "ypru": 10498, "prus": 10499, "cypru": 10500, "yprus": 10501, "cyprus": 10502, "toeri": 10503, "tbree": 10504, "ntbree": 10505, "tbreek": 10506, "ontbree": 10507, "ntbreek": 10508, "ontbreek": 10509, "fil": 10510, "oeris": 10511, "toeris": 10512, "nzet": 10513, "isu": 10514, "tobe": 10515, "avige": 10516, "egist": 10517, "rman": 10518, "tage": 10519, "arres": 10520, "regist": 10521, "arrest": 10522, "ost-": 10523, "lijken": 10524, "orrec": 10525, "inzet": 10526, "vemb": 10527, "novem": 10528, "ovemb": 10529, "vembe": 10530, "novemb": 10531, "ovembe": 10532, "vember": 10533, "novembe": 10534, "ovember": 10535, "november": 10536, "sbr": 10537, "noemde": 10538, "tici": 10539, "niu": 10540, "enoemde": 10541, "hrist": 10542, "gewij": 10543, "verko": 10544, "christ": 10545, "enha": 10546, "arro": 10547, "ktob": 10548, "genoemde": 10549, "okto": 10550, "ional": 10551, "oktob": 10552, "ktobe": 10553, "oktobe": 10554, "misb": 10555, "havi": 10556, "rhou": 10557, "rse": 10558, "tober": 10559, "ktober": 10560, "oktober": 10561, "ibil": 10562, "kamp": 10563, "erhou": 10564, "a5": 10565, "uot": 10566, "quot": 10567, "tle": 10568, "ekenl": 10569, "iekenl": 10570, "ekenla": 10571, "riekenl": 10572, "iekenla": 10573, "ekenlan": 10574, "griekenl": 10575, "riekenla": 10576, "iekenlan": 10577, "ekenland": 10578, "griekenla": 10579, "riekenlan": 10580, "iekenland": 10581, "griekenlan": 10582, "riekenland": 10583, "griekenland": 10584, "rbon": 10585, "rspect": 10586, "erspect": 10587, "euge": 10588, "persp": 10589, "perspe": 10590, "perspec": 10591, "perspect": 10592, "sbru": 10593, "frikaans": 10594, "afrikaans": 10595, "rspecti": 10596, "erspecti": 10597, "perspecti": 10598, "trein": 10599, "erism": 10600, "ruch": 10601, "overa": 10602, "gedur": 10603, "rspectie": 10604, "erspectie": 10605, "perspectie": 10606, "isbr": 10607, "misbr": 10608, "isbru": 10609, "sbrui": 10610, "misbru": 10611, "isbrui": 10612, "misbrui": 10613, "rhoud": 10614, "menwerke": 10615, "amenwerke": 10616, "menwerken": 10617, "samenwerke": 10618, "amenwerken": 10619, "samenwerken": 10620, "visu": 10621, "erisme": 10622, "belg": 10623, "sbruik": 10624, "isbruik": 10625, "misbruik": 10626, "erhoud": 10627, "each": 10628, "rkend": 10629, "sni": 10630, "ntm": 10631, "tatuu": 10632, "rucht": 10633, "veral": 10634, "overal": 10635, "axi": 10636, "leur": 10637, "erkend": 10638, "enie": 10639, "rspectief": 10640, "erspectief": 10641, "perspectief": 10642, "koer": 10643, "eneraa": 10644, "generaa": 10645, "eneraal": 10646, "generaal": 10647, "oerism": 10648, "toerism": 10649, "oerisme": 10650, "toerisme": 10651, "zulk": 10652, "upt": 10653, "urende": 10654, "trooi": 10655, "ttem": 10656, "weste": 10657, "eduren": 10658, "durende": 10659, "neree": 10660, "nereer": 10661, "gedure": 10662, "geduren": 10663, "edurend": 10664, "gedurend": 10665, "edurende": 10666, "gedurende": 10667, "nif": 10668, "zev": 10669, "zeve": 10670, "pote": 10671, "oever": 10672, "ted": 10673, "ldaa": 10674, "zeven": 10675, "pole": 10676, "bestan": 10677, "bestand": 10678, "r-": 10679, "waak": 10680, "erman": 10681, "tiee": 10682, "blic": 10683, "illi": 10684, "noege": 10685, "noegen": 10686, "oldaa": 10687, "rhav": 10688, "erhav": 10689, "derhav": 10690, "nderhav": 10691, "onderhav": 10692, "verho": 10693, "rhavi": 10694, "havig": 10695, "erhavi": 10696, "rhavig": 10697, "derhavi": 10698, "erhavig": 10699, "nderhavi": 10700, "derhavig": 10701, "onderhavi": 10702, "nderhavig": 10703, "onderhavig": 10704, "rbond": 10705, "otent": 10706, "vle": 10707, "erbon": 10708, "erbond": 10709, "ontm": 10710, "fab": 10711, "poten": 10712, "giti": 10713, "potent": 10714, "enko": 10715, "verbon": 10716, "verbond": 10717, "ttemi": 10718, "xibi": 10719, "exibi": 10720, "xibil": 10721, "lexibi": 10722, "exibil": 10723, "flexibi": 10724, "lexibil": 10725, "flexibil": 10726, "szin": 10727, "egit": 10728, "egiti": 10729, "dse": 10730, "rrect": 10731, "correc": 10732, "orrect": 10733, "correct": 10734, "ublic": 10735, "public": 10736, "digde": 10737, "temin": 10738, "szins": 10739, "ettem": 10740, "iettem": 10741, "ettemi": 10742, "ttemin": 10743, "niettem": 10744, "iettemi": 10745, "ettemin": 10746, "niettemi": 10747, "iettemin": 10748, "niettemin": 10749, "pda": 10750, "lea": 10751, "enoege": 10752, "genoege": 10753, "enoegen": 10754, "genoegen": 10755, "pdat": 10756, "legit": 10757, "legiti": 10758, "quaa": 10759, "tsta": 10760, "idia": 10761, "iticu": 10762, "iticus": 10763, "mier": 10764, "ocie": 10765, "dachte": 10766, "rventi": 10767, "erventi": 10768, "terventi": 10769, "nterventi": 10770, "interventi": 10771, "trati": 10772, "uwel": 10773, "gitie": 10774, "egitie": 10775, "gitiem": 10776, "legitie": 10777, "egitiem": 10778, "legitiem": 10779, "socie": 10780, "rventie": 10781, "erventie": 10782, "terventie": 10783, "nterventie": 10784, "interventie": 10785, "eloos": 10786, "ommer": 10787, "tarie": 10788, "sidia": 10789, "bsidia": 10790, "ubsidia": 10791, "subsidia": 10792, "yr": 10793, "max": 10794, "veld": 10795, "aucrat": 10796, "eaucrat": 10797, "reaucrat": 10798, "ureaucrat": 10799, "bureaucrat": 10800, "inm": 10801, "urt": 10802, "bst": 10803, "strati": 10804, "dend": 10805, "oestan": 10806, "toestan": 10807, "terg": 10808, "rd-": 10809, "ieks": 10810, "merc": 10811, "istra": 10812, "aucrati": 10813, "eaucrati": 10814, "reaucrati": 10815, "ureaucrati": 10816, "bureaucrati": 10817, "oestand": 10818, "toestand": 10819, "opda": 10820, "-europe": 10821, "mbo": 10822, "oost-": 10823, "opdat": 10824, "elov": 10825, "uaat": 10826, "istrat": 10827, "lstr": 10828, "tist": 10829, "fwe": 10830, "houde": 10831, "gv": 10832, "ump": 10833, "balk": 10834, "rbonde": 10835, "erbonde": 10836, "rbonden": 10837, "verbonde": 10838, "erbonden": 10839, "verbonden": 10840, "istrati": 10841, "dge": 10842, "nts": 10843, "espro": 10844, "amili": 10845, "ky": 10846, "gi\u00eb": 10847, "fstan": 10848, "fstand": 10849, "ctro": 10850, "ndeel": 10851, "lsm": 10852, "stal": 10853, "eneree": 10854, "generee": 10855, "enereer": 10856, "genereer": 10857, "oldo": 10858, "ox": 10859, "tratie": 10860, "perm": 10861, "ressi": 10862, "-2": 10863, "rente": 10864, "bis": 10865, "betal": 10866, "gede": 10867, "xim": 10868, "ocial": 10869, "social": 10870, "endeel": 10871, "ibili": 10872, "peer": 10873, "stratie": 10874, "lemme": 10875, "maxi": 10876, "ulen": 10877, "axim": 10878, "maxim": 10879, "deq": 10880, "adeq": 10881, "voldo": 10882, "ucratis": 10883, "aucratis": 10884, "eaucratis": 10885, "reaucratis": 10886, "ureaucratis": 10887, "bureaucratis": 10888, "raai": 10889, "sati": 10890, "octro": 10891, "istratie": 10892, "quaat": 10893, "emmer": 10894, "ucratisc": 10895, "aucratisc": 10896, "ucratisch": 10897, "eaucratisc": 10898, "aucratisch": 10899, "reaucratisc": 10900, "eaucratisch": 10901, "ureaucratisc": 10902, "reaucratisch": 10903, "bureaucratisc": 10904, "ureaucratisch": 10905, "bureaucratisch": 10906, "dequ": 10907, "adequ": 10908, "dequa": 10909, "adequa": 10910, "lkome": 10911, "lies": 10912, "ropo": 10913, "lkomen": 10914, "nistra": 10915, "equaa": 10916, "dequaa": 10917, "equaat": 10918, "adequaa": 10919, "dequaat": 10920, "adequaat": 10921, "cle": 10922, "thoud": 10923, "ressie": 10924, "ctroo": 10925, "octroo": 10926, "ctrooi": 10927, "octrooi": 10928, "inistra": 10929, "nistrat": 10930, "ministra": 10931, "inistrat": 10932, "ministrat": 10933, "nistrati": 10934, "dministra": 10935, "inistrati": 10936, "administra": 10937, "dministrat": 10938, "ministrati": 10939, "administrat": 10940, "olko": 10941, "volko": 10942, "olkom": 10943, "volkom": 10944, "olkome": 10945, "volkome": 10946, "olkomen": 10947, "volkomen": 10948, "dministrati": 10949, "administrati": 10950, "zweed": 10951, "22": 10952, "nr.": 10953, "elt": 10954, "nmidde": 10955, "nmiddel": 10956, "hra": 10957, "nma": 10958, "espre": 10959, "cid": 10960, "inmi": 10961, "inmid": 10962, "inmidd": 10963, "inmidde": 10964, "inmiddel": 10965, "nmiddels": 10966, "inmiddels": 10967, "nium": 10968, "ighe": 10969, "rieks": 10970, "xibili": 10971, "exibili": 10972, "lexibili": 10973, "flexibili": 10974, "esprek": 10975, "fami": 10976, "famil": 10977, "traal": 10978, "ham": 10979, "famili": 10980, "arief": 10981, "tarief": 10982, "grieks": 10983, "ibilit": 10984, "echtst": 10985, "egem": 10986, "riste": 10987, "rechtst": 10988, "27": 10989, "\u00ebli": 10990, "nistratie": 10991, "inistratie": 10992, "ministratie": 10993, "dministratie": 10994, "administratie": 10995, "udie": 10996, "edach": 10997, "edacht": 10998, "-ru": 10999, "chel": 11000, "rer": 11001, "gespre": 11002, "lgar": 11003, "gesprek": 11004, "tudi": 11005, "studi": 11006, "ibilite": 11007, "ibilitei": 11008, "ibiliteit": 11009, "reuk": 11010, "blice": 11011, "ublice": 11012, "blicee": 11013, "publice": 11014, "ublicee": 11015, "bliceer": 11016, "publicee": 11017, "ubliceer": 11018, "publiceer": 11019, "cialist": 11020, "lemmer": 11021, "rschu": 11022, "amilie": 11023, "familie": 11024, "belem": 11025, "elemm": 11026, "belemm": 11027, "elemme": 11028, "belemme": 11029, "elemmer": 11030, "belemmer": 11031, "ssoc": 11032, "ssoci": 11033, "nadee": 11034, "xibilit": 11035, "exibilit": 11036, "xibilite": 11037, "lexibilit": 11038, "exibilite": 11039, "xibilitei": 11040, "flexibilit": 11041, "lexibilite": 11042, "exibilitei": 11043, "xibiliteit": 11044, "flexibilite": 11045, "lexibilitei": 11046, "exibiliteit": 11047, "flexibilitei": 11048, "lexibiliteit": 11049, "flexibiliteit": 11050, "lik": 11051, "rwez": 11052, "ugge": 11053, "ghei": 11054, "assoc": 11055, "associ": 11056, "oppo": 11057, "tratief": 11058, "stratief": 11059, "erwez": 11060, "gheid": 11061, "mpu": 11062, "sted": 11063, "ay": 11064, "istratief": 11065, "ontra": 11066, "ighei": 11067, "igheid": 11068, "pon": 11069, "jdel": 11070, "ijdel": 11071, "nistratief": 11072, "inistratief": 11073, "ministratief": 11074, "dministratief": 11075, "administratief": 11076, "tudie": 11077, "studie": 11078, "weeds": 11079, "zweeds": 11080, "can": 11081, "chot": 11082, "aba": 11083, "gha": 11084, "vreem": 11085, "contra": 11086, "rweze": 11087, "erweze": 11088, "rwezen": 11089, "erwezen": 11090, "ile": 11091, "iet-": 11092, "undig": 11093, "emier": 11094, "munt": 11095, "ximu": 11096, "aximu": 11097, "ximum": 11098, "maximu": 11099, "aximum": 11100, "maximum": 11101, "tris": 11102, "egemo": 11103, "cal": 11104, "lgi": 11105, "risten": 11106, "ntite": 11107, "litic": 11108, "olitic": 11109, "politic": 11110, "atl": 11111, "ullende": 11112, "vullende": 11113, "nvullende": 11114, "anvullende": 11115, "aanvullende": 11116, "a\u00ebli": 11117, "rlin": 11118, "ra\u00ebli": 11119, "ingr": 11120, "remier": 11121, "premier": 11122, "isat": 11123, "hriste": 11124, "alsm": 11125, "onderda": 11126, "gm": 11127, "christe": 11128, "naties": 11129, "de-f": 11130, "tie-": 11131, "plau": 11132, "riva": 11133, "de-fr": 11134, "de-fra": 11135, "de-frac": 11136, "de-fract": 11137, "de-fracti": 11138, "de-fractie": 11139, "plaus": 11140, "ekene": 11141, "ekenen": 11142, "reemd": 11143, "vreemd": 11144, "breu": 11145, "kundi": 11146, "stin": 11147, "niet-": 11148, "breuk": 11149, "kundig": 11150, "schot": 11151, "rontr": 11152, "seq": 11153, "sequ": 11154, "erontr": 11155, "verontr": 11156, "eser": 11157, "seque": 11158, "sequen": 11159, "ata": 11160, "estel": 11161, "sequent": 11162, "oriu": 11163, "orium": 11164, "toriu": 11165, "torium": 11166, "diversit": 11167, "colo": 11168, "anspo": 11169, "chuldi": 11170, "schuldi": 11171, "chuldig": 11172, "schuldig": 11173, "tisti": 11174, "appl": 11175, "rabi": 11176, "t-e": 11177, "apr": 11178, "pz": 11179, "tekene": 11180, "tekenen": 11181, "diversite": 11182, "diversitei": 11183, "diversiteit": 11184, "servi": 11185, "abr": 11186, "omin": 11187, "assi": 11188, "tric": 11189, "ord-": 11190, "put": 11191, "satie": 11192, "rup": 11193, "edw": 11194, "jam": 11195, "emoet": 11196, "aude": 11197, "geru": 11198, "nseq": 11199, "nsequ": 11200, "nseque": 11201, "nsequen": 11202, "ppla": 11203, "appla": 11204, "pplau": 11205, "applau": 11206, "pplaus": 11207, "applaus": 11208, "hristen": 11209, "eila": 11210, "onseq": 11211, "conseq": 11212, "onsequ": 11213, "consequ": 11214, "onseque": 11215, "conseque": 11216, "onsequen": 11217, "nsequent": 11218, "consequen": 11219, "rade": 11220, "onsti": 11221, "pijl": 11222, "erein": 11223, "verein": 11224, "christen": 11225, "onsequent": 11226, "consequent": 11227, "verwez": 11228, "verweze": 11229, "verwezen": 11230, "fed": 11231, "raud": 11232, "chand": 11233, "erent": 11234, "alka": 11235, "eilan": 11236, "lore": 11237, "tul": 11238, "doord": 11239, "ulgar": 11240, "bulgar": 11241, "tinen": 11242, "eiland": 11243, "nterg": 11244, "interg": 11245, "ldoe": 11246, "tstr": 11247, "tti": 11248, "elig": 11249, "ergo": 11250, "oldoe": 11251, "ldoen": 11252, "voldoe": 11253, "oldoen": 11254, "voldoen": 11255, "oord-": 11256, "dict": 11257, "bloe": 11258, "nlijke": 11259, "fede": 11260, "trisc": 11261, "trisch": 11262, "rling": 11263, "feder": 11264, "anker": 11265, "ldoend": 11266, "oldoend": 11267, "voldoend": 11268, "noord-": 11269, "consti": 11270, "onstit": 11271, "constit": 11272, "ian": 11273, "tegem": 11274, "tegemo": 11275, "egemoe": 11276, "gemoet": 11277, "tegemoe": 11278, "egemoet": 11279, "tegemoet": 11280, "zenl": 11281, "zenli": 11282, "enlijke": 11283, "onstitu": 11284, "constitu": 11285, "esk": 11286, "sion": 11287, "zenlij": 11288, "zenlijk": 11289, "isl": 11290, "tgebreide": 11291, "itgebreide": 11292, "uitgebreide": 11293, "ezenl": 11294, "wezenl": 11295, "ezenli": 11296, "wezenli": 11297, "ezenlij": 11298, "wezenlij": 11299, "ezenlijk": 11300, "wezenlijk": 11301, "liticu": 11302, "oliticu": 11303, "liticus": 11304, "politicu": 11305, "oliticus": 11306, "politicus": 11307, "impe": 11308, "perc": 11309, "nver": 11310, "zenlijke": 11311, "hy": 11312, "rwezenl": 11313, "nlijken": 11314, "erwezenl": 11315, "rwezenli": 11316, "verwezenl": 11317, "erwezenli": 11318, "rwezenlij": 11319, "ezenlijke": 11320, "verwezenli": 11321, "erwezenlij": 11322, "rwezenlijk": 11323, "wezenlijke": 11324, "verwezenlij": 11325, "erwezenlijk": 11326, "verwezenlijk": 11327, "schan": 11328, "enlijken": 11329, "zenlijken": 11330, "uweli": 11331, "etekene": 11332, "betekene": 11333, "etekenen": 11334, "betekenen": 11335, "ezenlijken": 11336, "rwezenlijke": 11337, "wezenlijken": 11338, "erwezenlijke": 11339, "rwezenlijken": 11340, "verwezenlijke": 11341, "erwezenlijken": 11342, "verwezenlijken": 11343, "reser": 11344, "kste": 11345, "frau": 11346, "fraud": 11347, "alif": 11348, "eserv": 11349, "reserv": 11350, "lkan": 11351, "ngew": 11352, "tip": 11353, "sym": 11354, "amme": 11355, "clau": 11356, "atum": 11357, "ofit": 11358, "rofit": 11359, "profit": 11360, "havige": 11361, "rhavige": 11362, "erhavige": 11363, "derhavige": 11364, "nderhavige": 11365, "onderhavige": 11366, "urs": 11367, "tstre": 11368, "-europee": 11369, "-europees": 11370, "008": 11371, "anze": 11372, "nso": 11373, "tule": 11374, "iaar": 11375, "ompli": 11376, "compli": 11377, "sim": 11378, "nka": 11379, "emid": 11380, "diaar": 11381, "keni": 11382, "emidd": 11383, "tatis": 11384, "anist": 11385, "nami": 11386, "opin": 11387, "idiaa": 11388, "sidiaa": 11389, "idiaar": 11390, "bsidiaa": 11391, "sidiaar": 11392, "ubsidiaa": 11393, "bsidiaar": 11394, "subsidiaa": 11395, "ubsidiaar": 11396, "subsidiaar": 11397, "rgou": 11398, "cide": 11399, "tergo": 11400, "ntergo": 11401, "intergo": 11402, "schand": 11403, "etn": 11404, "ergou": 11405, "rgouv": 11406, "ergouv": 11407, "rgouve": 11408, "ergouve": 11409, "rgouver": 11410, "ergouver": 11411, "emidde": 11412, "tinent": 11413, "tergou": 11414, "ntergou": 11415, "tergouv": 11416, "intergou": 11417, "ntergouv": 11418, "tergouve": 11419, "rgouvern": 11420, "intergouv": 11421, "ntergouve": 11422, "tergouver": 11423, "ergouvern": 11424, "intergouve": 11425, "ntergouver": 11426, "intergouver": 11427, "otenti": 11428, "tergouvern": 11429, "ntergouvern": 11430, "intergouvern": 11431, "potenti": 11432, "balka": 11433, "dy": 11434, "elgi": 11435, "rgouverne": 11436, "ergouverne": 11437, "rto": 11438, "tergouverne": 11439, "ntergouverne": 11440, "intergouverne": 11441, "gespro": 11442, "alkan": 11443, "balkan": 11444, "welij": 11445, "uwelij": 11446, "otentie": 11447, "potentie": 11448, "uan": 11449, "wing": 11450, "lgari": 11451, "itor": 11452, "ulgari": 11453, "bulgari": 11454, "belgi": 11455, "ngri": 11456, "statuu": 11457, "leng": 11458, "statis": 11459, "meng": 11460, "erschij": 11461, "ossi": 11462, "lgarij": 11463, "lgarije": 11464, "atuut": 11465, "ulgarij": 11466, "bulgarij": 11467, "ulgarije": 11468, "bulgarije": 11469, "welijk": 11470, "uwelijk": 11471, "-20": 11472, "tatuut": 11473, "statuut": 11474, "verschij": 11475, "lhe": 11476, "ugal": 11477, "ociali": 11478, "sociali": 11479, "ocialis": 11480, "socialis": 11481, "erschijn": 11482, "verschijn": 11483, "jle": 11484, "ijle": 11485, "ondel": 11486, "tuga": 11487, "rtuga": 11488, "tugal": 11489, "ortuga": 11490, "rtugal": 11491, "portuga": 11492, "ortugal": 11493, "portugal": 11494, "mondel": 11495, "ondeli": 11496, "mondeli": 11497, "ondelin": 11498, "mondelin": 11499, "ondeling": 11500, "mondeling": 11501, "kwaa": 11502, "anspor": 11503, "rele": 11504, "haam": 11505, "chaam": 11506, "dwin": 11507, "iezen": 11508, "tges": 11509, "dwing": 11510, "tina": 11511, "prok": 11512, "perce": 11513, "eldi": 11514, "sprok": 11515, "eserve": 11516, "reserve": 11517, "mt": 11518, "jdeli": 11519, "ijdeli": 11520, "lifi": 11521, "rgouvernee": 11522, "ergouvernee": 11523, "rgouverneer": 11524, "ergouverneer": 11525, "smed": 11526, "atla": 11527, "liez": 11528, "tergouvernee": 11529, "ntergouvernee": 11530, "tergouverneer": 11531, "intergouvernee": 11532, "ntergouverneer": 11533, "intergouverneer": 11534, "ngrij": 11535, "-k": 11536, "ociee": 11537, "ssocie": 11538, "sociee": 11539, "ocieer": 11540, "ssociee": 11541, "socieer": 11542, "ssocieer": 11543, "ecr": 11544, "derzoeke": 11545, "nderzoeke": 11546, "onderzoeke": 11547, "kro": 11548, "associe": 11549, "associee": 11550, "associeer": 11551, "rliez": 11552, "lieze": 11553, "erliez": 11554, "rlieze": 11555, "liezen": 11556, "verliez": 11557, "erlieze": 11558, "rliezen": 11559, "verlieze": 11560, "erliezen": 11561, "verliezen": 11562, "stelli": 11563, "derzoeken": 11564, "nderzoeken": 11565, "onderzoeken": 11566, "ghan": 11567, "bijs": 11568, "zwi": 11569, "rete": 11570, "db": 11571, "chra": 11572, "schra": 11573, "nista": 11574, "elhe": 11575, "emiddel": 11576, "iment": 11577, "notu": 11578, "sier": 11579, "blok": 11580, "lific": 11581, "tional": 11582, "otul": 11583, "sku": 11584, "atist": 11585, "nistan": 11586, "itges": 11587, "uitges": 11588, "notul": 11589, "tland": 11590, "otule": 11591, "notule": 11592, "cheide": 11593, "scheide": 11594, "ofite": 11595, "rofite": 11596, "profite": 11597, "lanti": 11598, "cheiden": 11599, "scheiden": 11600, "alifi": 11601, "gedw": 11602, "mic": 11603, "lhei": 11604, "ntiee": 11605, "mos": 11606, "ntag": 11607, "elhei": 11608, "lheid": 11609, "elheid": 11610, "fitee": 11611, "ofitee": 11612, "fiteer": 11613, "rofitee": 11614, "ofiteer": 11615, "profitee": 11616, "rofiteer": 11617, "profiteer": 11618, "angel": 11619, "nsa": 11620, "-ve": 11621, "atlan": 11622, "ronde": 11623, "alific": 11624, "smede": 11625, "esprok": 11626, "ntisc": 11627, "ntisch": 11628, "ivie": 11629, "eelh": 11630, "tlant": 11631, "atlant": 11632, "antisc": 11633, "antisch": 11634, "atisti": 11635, "ngrijp": 11636, "gewijz": 11637, "aden": 11638, "lifice": 11639, "lificee": 11640, "lificeer": 11641, "/0": 11642, "zov": 11643, "geac": 11644, "skun": 11645, "tistis": 11646, "ntine": 11647, "terp": 11648, "eelhe": 11649, "dwo": 11650, "anm": 11651, "rbr": 11652, "rzic": 11653, "walif": 11654, "kwalif": 11655, "walifi": 11656, "kwalifi": 11657, "walific": 11658, "kwalific": 11659, "intege": 11660, "nada": 11661, "rzich": 11662, "ecre": 11663, "tistisc": 11664, "tistisch": 11665, "ezoe": 11666, "ptim": 11667, "optim": 11668, "rni": 11669, "rzicht": 11670, "bezoe": 11671, "ligh": 11672, "ehal": 11673, "skund": 11674, "oute": 11675, "veelh": 11676, "eveelh": 11677, "veelhe": 11678, "oeveelh": 11679, "eveelhe": 11680, "hoeveelh": 11681, "oeveelhe": 11682, "hoeveelhe": 11683, "edwo": 11684, "dwon": 11685, "rdw": 11686, "wong": 11687, "gedwo": 11688, "edwon": 11689, "dwong": 11690, "gedwon": 11691, "polen": 11692, "ndige": 11693, "itte": 11694, "eelhei": 11695, "veelhei": 11696, "eelheid": 11697, "eveelhei": 11698, "veelheid": 11699, "oeveelhei": 11700, "eveelheid": 11701, "hoeveelhei": 11702, "oeveelheid": 11703, "hoeveelheid": 11704, "wonge": 11705, "edwong": 11706, "dwonge": 11707, "wongen": 11708, "gedwong": 11709, "edwonge": 11710, "dwongen": 11711, "gedwonge": 11712, "edwongen": 11713, "gedwongen": 11714, "slist": 11715, "eslist": 11716, "beslist": 11717, "tulen": 11718, "otulen": 11719, "notulen": 11720, "tatist": 11721, "tatisti": 11722, "empe": 11723, "\u00fc": 11724, "statist": 11725, "statisti": 11726, "rsche": 11727, "tlanti": 11728, "atlanti": 11729, "ersche": 11730, "alifice": 11731, "walifice": 11732, "alificee": 11733, "kwalifice": 11734, "walificee": 11735, "alificeer": 11736, "kwalificee": 11737, "walificeer": 11738, "kwalificeer": 11739, "prete": 11740, "tbe": 11741, "gepa": 11742, "juli": 11743, "ncep": 11744, "fsp": 11745, "rta": 11746, "ational": 11747, "arts": 11748, "adeel": 11749, "nadeel": 11750, "stl": 11751, "loren": 11752, "ilo": 11753, "ereik": 11754, "oncep": 11755, "concep": 11756, "lide": 11757, "bijst": 11758, "enoo": 11759, "baat": 11760, "atistis": 11761, "will": 11762, "rlies": 11763, "erlies": 11764, "verlies": 11765, "atistisc": 11766, "atistisch": 11767, "ncept": 11768, "oncept": 11769, "concept": 11770, "nterp": 11771, "rstandi": 11772, "erstandi": 11773, "anzel": 11774, "tuge": 11775, "rtuge": 11776, "ortuge": 11777, "portuge": 11778, "vloei": 11779, "fgh": 11780, "afgh": 11781, "fgha": 11782, "afgha": 11783, "anzelf": 11784, "jler": 11785, "ijler": 11786, "india": 11787, "vanz": 11788, "vanze": 11789, "vanzel": 11790, "vanzelf": 11791, "fghan": 11792, "afghan": 11793, "dip": 11794, "jdelij": 11795, "ijdelij": 11796, "jdelijk": 11797, "ijdelijk": 11798, "loge": 11799, "eldig": 11800, "mper": 11801, "sve": 11802, "ibel": 11803, "edit": 11804, "tatistis": 11805, "tijdel": 11806, "tijdeli": 11807, "tijdelij": 11808, "tijdelijk": 11809, "abri": 11810, "wets": 11811, "id-": 11812, "osl": 11813, "xtre": 11814, "extre": 11815, "statistis": 11816, "icaa": 11817, "pijle": 11818, "pijler": 11819, "qui": 11820, "tatistisc": 11821, "tatistisch": 11822, "barro": 11823, "statistisc": 11824, "statistisch": 11825, "plom": 11826, "dwij": 11827, "trag": 11828, "nkom": 11829, "ezoek": 11830, "bezoek": 11831, "genoo": 11832, "akis": 11833, "jen": 11834, "lsme": 11835, "ndels": 11836, "alsme": 11837, "lsmed": 11838, "alsmed": 11839, "lsmede": 11840, "alsmede": 11841, "draai": 11842, "interp": 11843, "iplo": 11844, "fspr": 11845, "dipl": 11846, "diplo": 11847, "andels": 11848, "iplom": 11849, "diplom": 11850, "nslo": 11851, "ossie": 11852, "t-la": 11853, "geha": 11854, "tede": 11855, "23": 11856, "usu": 11857, "vit": 11858, "nslot": 11859, "dos": 11860, "lighe": 11861, "lighei": 11862, "ligheid": 11863, "stede": 11864, "ontine": 11865, "ntinen": 11866, "contine": 11867, "ontinen": 11868, "ntinent": 11869, "continen": 11870, "ontinent": 11871, "continent": 11872, "\u00ebnti": 11873, "arit": 11874, "gelov": 11875, "iligh": 11876, "eiligh": 11877, "ilighe": 11878, "veiligh": 11879, "eilighe": 11880, "ilighei": 11881, "veilighe": 11882, "eilighei": 11883, "iligheid": 11884, "veilighei": 11885, "eiligheid": 11886, "veiligheid": 11887, "oere": 11888, "sfe": 11889, "oeit": 11890, "vuld": 11891, "t-lan": 11892, "t-land": 11893, "temp": 11894, "loma": 11895, "mg": 11896, "verstandi": 11897, "liteits": 11898, "entag": 11899, "erdw": 11900, "-i": 11901, "rstandig": 11902, "erstandig": 11903, "verstandig": 11904, "verdw": 11905, "\u00ebntie": 11906, "skundi": 11907, "skundig": 11908, "rdwi": 11909, "rdwij": 11910, "ralis": 11911, "rcen": 11912, "erdwi": 11913, "verdwi": 11914, "erdwij": 11915, "verdwij": 11916, "rcent": 11917, "raude": 11918, "esa": 11919, "ercen": 11920, "percen": 11921, "ercent": 11922, "percent": 11923, "tensl": 11924, "dwijn": 11925, "national": 11926, "rdwijn": 11927, "fraude": 11928, "erdwijn": 11929, "verdwijn": 11930, "lantis": 11931, "tlantis": 11932, "atlantis": 11933, "bsta": 11934, "nzo": 11935, "isati": 11936, "c-": 11937, "verp": 11938, "lantisc": 11939, "tlantisc": 11940, "lantisch": 11941, "atlantisc": 11942, "tlantisch": 11943, "atlantisch": 11944, "enslo": 11945, "tenslo": 11946, "enslot": 11947, "nslott": 11948, "tenslot": 11949, "enslott": 11950, "nslotte": 11951, "tenslott": 11952, "enslotte": 11953, "tenslotte": 11954, "fabr": 11955, "eeln": 11956, "ugee": 11957, "deeln": 11958, "fspra": 11959, "gesprok": 11960, "dol": 11961, "nto": 11962, "ntell": 11963, "isla": 11964, "afsp": 11965, "datu": 11966, "sda": 11967, "ploma": 11968, "iploma": 11969, "diploma": 11970, "centa": 11971, "arke": 11972, "afspr": 11973, "afspra": 11974, "nsz": 11975, "hanist": 11976, "anista": 11977, "loft": 11978, "anistan": 11979, "overs": 11980, "doorda": 11981, "proke": 11982, "sproke": 11983, "proken": 11984, "sproken": 11985, "titei": 11986, "titeit": 11987, "ontho": 11988, "onthou": 11989, "ntage": 11990, "t-eu": 11991, "ndse": 11992, "ocialist": 11993, "socialist": 11994, "mane": 11995, "rib": 11996, "esproke": 11997, "esproken": 11998, "ntitei": 11999, "ntiteit": 12000, "at-la": 12001, "aat-la": 12002, "at-lan": 12003, "daat-la": 12004, "aat-lan": 12005, "at-land": 12006, "idaat-la": 12007, "daat-lan": 12008, "aat-land": 12009, "didaat-la": 12010, "idaat-lan": 12011, "daat-land": 12012, "ndidaat-la": 12013, "didaat-lan": 12014, "idaat-land": 12015, "andidaat-la": 12016, "ndidaat-lan": 12017, "didaat-land": 12018, "kandidaat-la": 12019, "andidaat-lan": 12020, "ndidaat-land": 12021, "kandidaat-lan": 12022, "andidaat-land": 12023, "kandidaat-land": 12024, "sca": 12025, "cret": 12026, "hanista": 12027, "hanistan": 12028, "enc": 12029, "tsb": 12030, "tgesp": 12031, "tgespr": 12032, "tgespro": 12033, "tgesprok": 12034, "gesproke": 12035, "gesproken": 12036, "oden": 12037, "rcenta": 12038, "centag": 12039, "entage": 12040, "ercenta": 12041, "rcentag": 12042, "centage": 12043, "percenta": 12044, "ercentag": 12045, "rcentage": 12046, "percentag": 12047, "ercentage": 12048, "percentage": 12049, "gedac": 12050, "gedach": 12051, "gedacht": 12052, "oeite": 12053, "uba": 12054, "24": 12055, "fabri": 12056, "itgesp": 12057, "uitgesp": 12058, "itgespr": 12059, "uitgespr": 12060, "itgespro": 12061, "uitgespro": 12062, "itgesprok": 12063, "uitgesprok": 12064, "ae": 12065, "oha": 12066, "fspraa": 12067, "afspraa": 12068, "fspraak": 12069, "afspraak": 12070, "esku": 12071, "eskun": 12072, "eskund": 12073, "migen": 12074, "tmoe": 12075, "euri": 12076, "-rus": 12077, "mmigen": 12078, "ommigen": 12079, "sommigen": 12080, "igs": 12081, "verhou": 12082, "verhoud": 12083, "elof": 12084, "datum": 12085, "eloft": 12086, "lofte": 12087, "hed": 12088, "ghani": 12089, "nthoud": 12090, "elofte": 12091, "graf": 12092, "ath": 12093, "hemi": 12094, "fghani": 12095, "ghanis": 12096, "afghani": 12097, "fghanis": 12098, "ghanist": 12099, "afghanis": 12100, "fghanist": 12101, "ghanista": 12102, "afghanist": 12103, "fghanista": 12104, "ghanistan": 12105, "afghanista": 12106, "fghanistan": 12107, "afghanistan": 12108, "perma": 12109, "tgesproke": 12110, "tgesproken": 12111, "onthoud": 12112, "tugee": 12113, "rtugee": 12114, "ortugee": 12115, "portugee": 12116, "cate": 12117, "vuldi": 12118, "vuldig": 12119, "uid-": 12120, "erbaa": 12121, "itgesproke": 12122, "uitgesproke": 12123, "itgesproken": 12124, "uitgesproken": 12125, "isatie": 12126, "ugees": 12127, "zuid-": 12128, "-h": 12129, "plem": 12130, "pleme": 12131, "plemen": 12132, "plement": 12133, "ammer": 12134, "belof": 12135, "beloft": 12136, "tugees": 12137, "rtugees": 12138, "ortugees": 12139, "portugees": 12140, "rschei": 12141, "erschei": 12142, "rscheid": 12143, "erscheid": 12144, "enoot": 12145, "wd": 12146, "claus": 12147, "belofte": 12148, "tsto": 12149, "trik": 12150, "it-": 12151, "itori": 12152, "evere": 12153, "genoot": 12154, "telij": 12155, "ernem": 12156, "herp": 12157, "ethi": 12158, "reta": 12159, "strik": 12160, "telijk": 12161, "acis": 12162, "eskundi": 12163, "eskundig": 12164, "mplem": 12165, "mpleme": 12166, "mplemen": 12167, "mplement": 12168, "anent": 12169, "gheids": 12170, "igheids": 12171, "sver": 12172, "tmoet": 12173, "gres": 12174, "sule": 12175, "pril": 12176, "by": 12177, "versche": 12178, "beri": 12179, "trach": 12180, "manen": 12181, "ntmo": 12182, "ntmoe": 12183, "edachte": 12184, "tba": 12185, "ntmoet": 12186, "ontmo": 12187, "ontmoe": 12188, "hiep": 12189, "chiep": 12190, "schiep": 12191, "spaar": 12192, "ontmoet": 12193, "chemi": 12194, "estem": 12195, "tracht": 12196, "cherp": 12197, "scherp": 12198, "hrap": 12199, "chrap": 12200, "schrap": 12201, "pool": 12202, "60": 12203, "moeit": 12204, "moeite": 12205, "l-d": 12206, "dif": 12207, "intel": 12208, "tstoo": 12209, "vols": 12210, "aare": 12211, "rpl": 12212, "everei": 12213, "gedachte": 12214, "-am": 12215, "igend": 12216, "brief": 12217, "verschei": 12218, "verscheid": 12219, "iterr": 12220, "rmane": 12221, "rmanen": 12222, "intell": 12223, "erlin": 12224, "tun": 12225, "manent": 12226, "ouden": 12227, "cos": 12228, "dite": 12229, "tstoot": 12230, "ofs": 12231, "adr": 12232, "unis": 12233, "priva": 12234, "perman": 12235, "sman": 12236, "ermane": 12237, "permane": 12238, "ermanen": 12239, "rmanent": 12240, "permanen": 12241, "ermanent": 12242, "permanent": 12243, "soev": 12244, "soeve": 12245, "soever": 12246, "oevere": 12247, "soevere": 12248, "cub": 12249, "oeverei": 12250, "everein": 12251, "soeverei": 12252, "oeverein": 12253, "soeverein": 12254, "lad": 12255, "rpre": 12256, "desk": 12257, "jamm": 12258, "ligheids": 12259, "iligheids": 12260, "eiligheids": 12261, "veiligheids": 12262, "vac": 12263, "erpre": 12264, "engel": 12265, "erling": 12266, ".000": 12267, "e\u00ebnti": 12268, "ie\u00ebnti": 12269, "cie\u00ebnti": 12270, "ausu": 12271, "uif": 12272, "itsto": 12273, "ologe": 12274, "pir": 12275, "lausu": 12276, "erpl": 12277, "uitsto": 12278, "itstoo": 12279, "uitstoo": 12280, "itstoot": 12281, "uitstoot": 12282, "t-r": 12283, "usul": 12284, "clausu": 12285, "rmate": 12286, "ausul": 12287, "usule": 12288, "lausul": 12289, "ausule": 12290, "clausul": 12291, "lausule": 12292, "clausule": 12293, "nderl": 12294, "uwd": 12295, "etu": 12296, "ngaa": 12297, "e\u00ebntie": 12298, "ie\u00ebntie": 12299, "cie\u00ebntie": 12300, "pe-": 12301, "mpen": 12302, "especte": 12303, "respecte": 12304, "dernem": 12305, "ndernem": 12306, "ondernem": 12307, "angst": 12308, "apri": 12309, "-w": 12310, "iraa": 12311, "-europa": 12312, "ya": 12313, "espectee": 12314, "respectee": 12315, "especteer": 12316, "respecteer": 12317, "reli": 12318, "cuba": 12319, "igie": 12320, "erse": 12321, "rome": 12322, "rscheide": 12323, "erscheide": 12324, "rscheiden": 12325, "erscheiden": 12326, "treeks": 12327, "terpr": 12328, "rvange": 12329, "ervange": 12330, "rvangen": 12331, "ervangen": 12332, "verscheide": 12333, "verscheiden": 12334, "97": 12335, "streeks": 12336, "uwens": 12337, "verla": 12338, "t-eur": 12339, "t-euro": 12340, "on-": 12341, "ouwens": 12342, "ekeni": 12343, "gori": 12344, "troe": 12345, "nterpr": 12346, "rouwens": 12347, "stoor": 12348, "t-europ": 12349, "houden": 12350, "onderl": 12351, "tract": 12352, "april": 12353, "rang": 12354, "derli": 12355, "alan": 12356, "lisc": 12357, "e-d": 12358, "lisch": 12359, "icie\u00ebnti": 12360, "ficie\u00ebnti": 12361, "icie\u00ebntie": 12362, "ficie\u00ebntie": 12363, "line": 12364, "teel": 12365, "ensc": 12366, "80": 12367, "etar": 12368, "nderli": 12369, "ligi": 12370, "trouwens": 12371, "-ame": 12372, "terpre": 12373, "nterpre": 12374, "onderli": 12375, "rpret": 12376, "erpret": 12377, "interpr": 12378, "terpret": 12379, "interpre": 12380, "nterpret": 12381, "interpret": 12382, "erneme": 12383, "minu": 12384, "roso": 12385, "jamme": 12386, "jammer": 12387, "andse": 12388, "ewijzi": 12389, "tstree": 12390, "desku": 12391, "deskun": 12392, "deskund": 12393, "ewijzig": 12394, "fficie\u00ebnti": 12395, "fficie\u00ebntie": 12396, "landse": 12397, "dist": 12398, "rama": 12399, "efficie\u00ebnti": 12400, "efficie\u00ebntie": 12401, "erden": 12402, "retee": 12403, "rprete": 12404, "pretee": 12405, "reteer": 12406, "erprete": 12407, "rpretee": 12408, "preteer": 12409, "terprete": 12410, "erpretee": 12411, "rpreteer": 12412, "nterprete": 12413, "terpretee": 12414, "erpreteer": 12415, "nterpretee": 12416, "terpreteer": 12417, "nterpreteer": 12418, "verpl": 12419, "otst": 12420, "rita": 12421, "interprete": 12422, "interpretee": 12423, "interpreteer": 12424, "deskundi": 12425, "deskundig": 12426, "2008": 12427, "vru": 12428, "vruc": 12429, "vruch": 12430, "vrucht": 12431, "onstituu": 12432, "constituu": 12433, "onstituut": 12434, "constituut": 12435, "kenis": 12436, "tekeni": 12437, "gewijzi": 12438, "gewijzig": 12439, "ewijzigd": 12440, "gewijzigd": 12441, "vant": 12442, "hm": 12443, "etari": 12444, "ekenis": 12445, "etekeni": 12446, "tekenis": 12447, "betekeni": 12448, "etekenis": 12449, "betekenis": 12450, "inko": 12451, "zol": 12452, "ewa": 12453, "erks": 12454, "rtel": 12455, "deur": 12456, "derlin": 12457, "nderlin": 12458, "derling": 12459, "onderlin": 12460, "nderling": 12461, "onderling": 12462, "besc": 12463, "ernemen": 12464, "besch": 12465, "-amer": 12466, "otsta": 12467, "egor": 12468, "-ameri": 12469, "-amerik": 12470, "-amerika": 12471, "entiee": 12472, "rru": 12473, "gier": 12474, "tego": 12475, "htstr": 12476, "chtstr": 12477, "rkst": 12478, "erkst": 12479, "rkste": 12480, "erkste": 12481, "relig": 12482, "eligi": 12483, "religi": 12484, "pdr": 12485, "opdr": 12486, "pdra": 12487, "opdra": 12488, "pdrac": 12489, "opdrac": 12490, "pdrach": 12491, "opdrach": 12492, "pdracht": 12493, "opdracht": 12494, "ligie": 12495, "eligie": 12496, "religie": 12497, "htstre": 12498, "echtstr": 12499, "chtstre": 12500, "htstree": 12501, "tstreek": 12502, "rechtstr": 12503, "echtstre": 12504, "chtstree": 12505, "htstreek": 12506, "tstreeks": 12507, "rechtstre": 12508, "echtstree": 12509, "chtstreek": 12510, "htstreeks": 12511, "rechtstree": 12512, "echtstreek": 12513, "chtstreeks": 12514, "rechtstreek": 12515, "echtstreeks": 12516, "rechtstreeks": 12517, "proef": 12518, "olst": 12519, "tstan": 12520, "tstand": 12521, "rekt": 12522, "tbaa": 12523, "tbaar": 12524, "otstan": 12525, "otstand": 12526, "mart": 12527, "rafi": 12528, "tots": 12529, "totst": 12530, "totsta": 12531, "totstan": 12532, "totstand": 12533, "-rusl": 12534, "-rusla": 12535, "-ruslan": 12536, "-rusland": 12537, "onver": 12538, "wond": 12539, "atsb": 12540, "aatsb": 12541, "rupt": 12542, "leva": 12543, "egori": 12544, "schem": 12545, "oree": 12546, "tende": 12547, "ppe-": 12548, "kist": 12549, "tsbu": 12550, "atsbu": 12551, "tsbur": 12552, "aatsbu": 12553, "atsbur": 12554, "tsburg": 12555, "aatsbur": 12556, "atsburg": 12557, "aatsburg": 12558, "ulke": 12559, "zulke": 12560, "ux": 12561, "werks": 12562, "categ": 12563, "atego": 12564, "tegor": 12565, "catego": 12566, "ategor": 12567, "tegori": 12568, "categor": 12569, "ategori": 12570, "categori": 12571, "ensch": 12572, "sag": 12573, "oca": 12574, "god": 12575, "raats": 12576, "traats": 12577, "raatsb": 12578, "straats": 12579, "traatsb": 12580, "straatsb": 12581, "l-de": 12582, "raatsbu": 12583, "traatsbu": 12584, "raatsbur": 12585, "straatsbu": 12586, "traatsbur": 12587, "raatsburg": 12588, "straatsbur": 12589, "traatsburg": 12590, "straatsburg": 12591, "kstel": 12592, "vlee": 12593, "derneme": 12594, "nderneme": 12595, "onderneme": 12596, "zi\u00eb": 12597, "werkst": 12598, "rkstel": 12599, "werkste": 12600, "erkstel": 12601, "werkstel": 12602, "low": 12603, "levan": 12604, "auwe": 12605, "relev": 12606, "eleva": 12607, "trekt": 12608, "strekt": 12609, "elevan": 12610, "oru": 12611, "ranspo": 12612, "transpo": 12613, "evant": 12614, "releva": 12615, "levant": 12616, "relevan": 12617, "elevant": 12618, "evis": 12619, "enma": 12620, "derp": 12621, "relevant": 12622, "uide": 12623, "rikt": 12624, "bestem": 12625, "commer": 12626, "mmerc": 12627, "ommerc": 12628, "commerc": 12629, "rros": 12630, "abrie": 12631, "lleer": 12632, "trikt": 12633, "strikt": 12634, "dernemen": 12635, "ndernemen": 12636, "ondernemen": 12637, "entit": 12638, "t-ru": 12639, "t-rus": 12640, "ifo": 12641, "smet": 12642, "entite": 12643, "entitei": 12644, "entiteit": 12645, "noorde": 12646, "rci": 12647, "iaal-": 12648, "arros": 12649, "eim": 12650, "goo": 12651, "taba": 12652, "rrup": 12653, "rrupt": 12654, "amis": 12655, "ekk": 12656, "ifor": 12657, "grafi": 12658, "vervange": 12659, "elon": 12660, "nuu": 12661, "baas": 12662, "vervangen": 12663, "raci": 12664, "nval": 12665, "etter": 12666, "itat": 12667, "ierd": 12668, "lair": 12669, "wit-": 12670, "ekw": 12671, "urig": 12672, "muu": 12673, "barros": 12674, "fabrie": 12675, "abriek": 12676, "fabriek": 12677, "-st": 12678, "undige": 12679, "kundige": 12680, "anee": 12681, "inuu": 12682, "ansa": 12683, "nuut": 12684, "minuu": 12685, "inuut": 12686, "minuut": 12687, "werf": 12688, "edite": 12689, "it-r": 12690, "wit-r": 12691, "rroso": 12692, "arroso": 12693, "barroso": 12694, "nologe": 12695, "epr": 12696, "it-ru": 12697, "wit-ru": 12698, "it-rus": 12699, "wit-rus": 12700, "hnologe": 12701, "chnologe": 12702, "echnologe": 12703, "technologe": 12704, "i-": 12705, "dide": 12706, "secr": 12707, "ecret": 12708, "sup": 12709, "ompen": 12710, "secre": 12711, "retar": 12712, "secret": 12713, "dhe": 12714, "ranspor": 12715, "transpor": 12716, "creta": 12717, "ecreta": 12718, "cretar": 12719, "secreta": 12720, "ecretar": 12721, "secretar": 12722, "gaar": 12723, "afst": 12724, "nsport": 12725, "u-li": 12726, "kwet": 12727, "vice": 12728, "e-de": 12729, "ndide": 12730, "retari": 12731, "cretari": 12732, "ecretari": 12733, "secretari": 12734, "pet": 12735, "ansport": 12736, "ransport": 12737, "transport": 12738, "erraa": 12739, "didee": 12740, "andide": 12741, "ndidee": 12742, "eu-li": 12743, "uds": 12744, "dsm": 12745, "ograf": 12746, "dideer": 12747, "kandide": 12748, "andidee": 12749, "ndideer": 12750, "kandidee": 12751, "andideer": 12752, "kandideer": 12753, "epen": 12754, "geze": 12755, "eurig": 12756, "ming": 12757, "aniem": 12758, "al-d": 12759, "blik": 12760, "kwets": 12761, "ografi": 12762, "alli": 12763, "matie": 12764, "kkeli": 12765, "unan": 12766, "nani": 12767, "ransa": 12768, "transa": 12769, "ain": 12770, "beto": 12771, "unani": 12772, "nanie": 12773, "unanie": 12774, "naniem": 12775, "unaniem": 12776, "alar": 12777, "nop": 12778, "lna": 12779, "doele": 12780, "olla": 12781, "rook": 12782, "meens": 12783, "al-de": 12784, "dera": 12785, "racis": 12786, "aal-d": 12787, "rbij": 12788, "elna": 12789, "sfee": 12790, "l-dem": 12791, "aal-de": 12792, "al-dem": 12793, "l-demo": 12794, "aal-dem": 12795, "al-demo": 12796, "l-democ": 12797, "aal-demo": 12798, "al-democ": 12799, "l-democr": 12800, "aal-democ": 12801, "al-democr": 12802, "l-democra": 12803, "aal-democr": 12804, "al-democra": 12805, "aal-democra": 12806, "enem": 12807, "eelna": 12808, "deelna": 12809, "sfeer": 12810, "redig": 12811, "ecu": 12812, "negen": 12813, "arschu": 12814, "aarschu": 12815, "waarschu": 12816, "dsma": 12817, "orru": 12818, "sug": 12819, "lnam": 12820, "elnam": 12821, "corru": 12822, "lname": 12823, "eelnam": 12824, "elname": 12825, "deelnam": 12826, "eelname": 12827, "deelname": 12828, "enzo": 12829, "aaren": 12830, "pati": 12831, "this": 12832, "eindi": 12833, "onn": 12834, "mbud": 12835, "iket": 12836, "indig": 12837, "ombu": 12838, "ombud": 12839, "t-li": 12840, "mpens": 12841, "kstell": 12842, "rkstell": 12843, "erkstell": 12844, "werkstell": 12845, "prim": 12846, "sugg": 12847, "sugge": 12848, "elso": 12849, "eindig": 12850, "gorie": 12851, "egorie": 12852, "tegorie": 12853, "ategorie": 12854, "categorie": 12855, "kstelli": 12856, "rkstelli": 12857, "erkstelli": 12858, "werkstelli": 12859, "xc": 12860, "exc": 12861, "olide": 12862, "volst": 12863, "agie": 12864, "uns": 12865, "lb": 12866, "lstre": 12867, "etik": 12868, "etike": 12869, "tiket": 12870, "etiket": 12871, "etoo": 12872, "kat": 12873, "stric": 12874, "twaa": 12875, "compen": 12876, "ovoo": 12877, "ovoor": 12878, "\u00ebr": 12879, "azi\u00eb": 12880, "t-rusl": 12881, "t-rusla": 12882, "t-ruslan": 12883, "t-rusland": 12884, "ompens": 12885, "compens": 12886, "solide": 12887, "chema": 12888, "schema": 12889, "buds": 12890, "mbuds": 12891, "ombuds": 12892, "nauwe": 12893, "rlor": 12894, "lerl": 12895, "jsta": 12896, "ijsta": 12897, "olstr": 12898, "volstr": 12899, "olstre": 12900, "lstrek": 12901, "volstre": 12902, "olstrek": 12903, "lstrekt": 12904, "volstrek": 12905, "olstrekt": 12906, "volstrekt": 12907, "\u00eblis": 12908, "a\u00eblis": 12909, "\u00eblisc": 12910, "a\u00eblisc": 12911, "\u00eblisch": 12912, "a\u00eblisch": 12913, "assen": 12914, "ibu": 12915, "lerle": 12916, "rze": 12917, "slam": 12918, "ra\u00eblis": 12919, "ra\u00eblisc": 12920, "ra\u00eblisch": 12921, "pini": 12922, "betoo": 12923, "lerlei": 12924, "ngeni": 12925, "u-lid": 12926, "eam": 12927, "cas": 12928, "erlor": 12929, "rlore": 12930, "verlor": 12931, "erlore": 12932, "rloren": 12933, "verlore": 12934, "erloren": 12935, "verloren": 12936, "orrup": 12937, "corrup": 12938, "orrupt": 12939, "corrupt": 12940, "-u": 12941, "tanda": 12942, "eu-lid": 12943, "gedi": 12944, "nuc": 12945, "etaris": 12946, "deld": 12947, "aderp": 12948, "xplo": 12949, "gol": 12950, "islam": 12951, "rschuw": 12952, "arschuw": 12953, "aarschuw": 12954, "waarschuw": 12955, "standa": 12956, "rodi": 12957, "hiet": 12958, "mmen": 12959, "eike": 12960, "dsman": 12961, "aangel": 12962, "abak": 12963, "chiet": 12964, "schiet": 12965, "explo": 12966, "udsm": 12967, "udsma": 12968, "ppos": 12969, "oppos": 12970, "rstr": 12971, "budsm": 12972, "mbudsm": 12973, "budsma": 12974, "udsman": 12975,
[...]
