{"byte_pairs": {"__eow": 5, "__sow": 6, "**<vz><init>**": 7, "**<let>**": 8, "**<n><soort><ev><basis><zijd><stan>**": 9, "**<lid><bep><stan><rest>**": 10, "**<bw>**": 11, "**<n><soort><mv><basis>**": 12, "**<n><soort><ev><basis><onz><stan>**": 13, "**<ww><inf><vrij><zonder>**": 14, "**<adj><prenom><basis><met-e><stan>**": 15, "**<spec><deeleigen>**": 16, "**<vg><neven>**": 17, "**<ww><pv><tgw><ev>**": 18, "**<adj><vrij><basis><zonder>**": 19, "**<lid><bep><stan><evon>**": 20, "**<ww><pv><tgw><met-t>**": 21, "**<ww><vd><vrij><zonder>**": 22, "**<lid><onbep><stan><agr>**": 23, "**<ww><pv><tgw><mv>**": 24, "**<vg><onder>**": 25, "**<adj><prenom><basis><zonder>**": 26, "**<vnw><pers><pron><nomin><vol><1><ev>**": 27, "**<ww><pv><verl><ev>**": 28, "**<tw><hoofd><vrij>**": 29, "**<vz><fin>**": 30, "**<tw><hoofd><prenom><stan>**": 31, "**<vnw><pers><pron><stan><red><3><ev><onz>**": 32, "**<vnw><betr><pron><stan><vol><persoon><getal>**": 33, "**<vnw><pers><pron><nomin><vol><1><mv>**": 34, "**<vnw><aanw><pron><stan><vol><3o><ev>**": 35, "**<vnw><aanw><adv-pron><stan><red><3><getal>**": 36, "**<vnw><aanw><det><stan><prenom><met-e><rest>**": 37, "**<spec><vreemd>**": 38, "**<vnw><aanw><det><stan><prenom><zonder><evon>**": 39, "**<vnw><pers><pron><nomin><red><1><mv>**": 40, "**<spec><symb>**": 41, "**<vnw><pers><pron><nomin><red><2v><ev>**": 42, "**<vnw><pers><pron><nomin><vol><2b><getal>**": 43, "**<ww><vd><prenom><met-e>**": 44, "**<vnw><bez><det><stan><vol><3><ev><prenom><zonder><agr>**": 45, "**<ww><pv><verl><mv>**": 46, "**<ww><inf><nom><zonder><zonder-n>**": 47, "**<adj><vrij><comp><zonder>**": 48, "**<vnw><aanw><adv-pron><obl><vol><3o><getal>**": 49, "**<ww><od><prenom><met-e>**": 50, "**<vnw><bez><det><stan><vol><1><mv><prenom><met-e><rest>**": 51, "**<vnw><onbep><det><stan><prenom><zonder><agr>**": 52, "**<vnw><vb><pron><stan><vol><3o><ev>**": 53, "**<tw><rang><prenom><stan>**": 54, "**<vnw><refl><pron><obl><red><3><getal>**": 55, "**<vnw><onbep><pron><stan><vol><3o><ev>**": 56, "**<vnw><onbep><grad><stan><vrij><zonder><comp>**": 57, "**<vz><versm>**": 58, "**<spec><afk>**": 59, "**<vnw><bez><det><stan><vol><1><ev><prenom><zonder><agr>**": 60, "**<vnw><onbep><det><stan><prenom><met-e><agr>**": 61, "**<vnw><pr><pron><obl><vol><1><mv>**": 62, "**<vnw><aanw><det><stan><prenom><zonder><rest>**": 63, "**<vnw><bez><det><stan><vol><3><mv><prenom><zonder><agr>**": 64, "**<adj><prenom><sup><met-e><stan>**": 65, "**<vnw><pers><pron><stan><red><3><mv>**": 66, "**<vnw><pers><pron><nomin><vol><3><ev><masc>**": 67, "**<n><soort><ev><dim><onz><stan>**": 68, "**<n><soort><ev><basis><dat>**": 69, "**<vnw><bez><det><stan><vol><2><getal><prenom><zonder><agr>**": 70, "**<vnw><betr><pron><stan><vol><3><ev>**": 71, "**<vnw><vb><adv-pron><obl><vol><3o><getal>**": 72, "**<vnw><pers><pron><nomin><vol><3p><mv>**": 73, "**<ww><vd><prenom><zonder>**": 74, "**<vnw><onbep><det><stan><prenom><met-e><rest>**": 75, "**<vnw><pr><pron><obl><vol><1><ev>**": 76, "**<spec><afgebr>**": 77, "**<adj><prenom><comp><met-e><stan>**": 78, "**<vnw><onbep><grad><stan><prenom><zonder><agr><basis>**": 79, "**<vnw><onbep><grad><stan><prenom><zonder><agr><comp>**": 80, "**<n><soort><mv><dim>**": 81, "**<vnw><aanw><pron><stan><vol><3><getal>**": 82, "**<vnw><onbep><grad><stan><vrij><zonder><basis>**": 83, "**<vnw><pers><pron><nomin><red><3p><ev><masc>**": 84, "**<vnw><bez><det><stan><red><2v><ev><prenom><zonder><agr>**": 85, "**<vnw><onbep><pron><stan><vol><3p><ev>**": 86, "**<ww><od><vrij><zonder>**": 87, "**<vnw><bez><det><stan><vol><1><mv><prenom><zonder><evon>**": 88, "**<vnw><onbep><det><stan><prenom><met-e><evz>**": 89, "**<vnw><onbep><det><stan><prenom><zonder><evon>**": 90, "**<vnw><pr><pron><obl><vol><2><getal>**": 91, "**<adj><nom><basis><met-e><zonder-n><stan>**": 92, "**<vnw><aanw><det><stan><nom><met-e><zonder-n>**": 93, "**<vnw><pers><pron><stan><red><3><ev><fem>**": 94, "**<adj><nom><basis><zonder><zonder-n>**": 95, "**<ww><od><prenom><zonder>**": 96, "**<vnw><pers><pron><nomin><vol><3v><ev><fem>**": 97, "**<vnw><vb><det><stan><prenom><met-e><rest>**": 98, "**<adj><nom><basis><met-e><mv-n>**": 99, "**<tw><rang><nom><zonder-n>**": 100, "**<vnw><recip><pron><obl><vol><persoon><mv>**": 101, "**<vnw><pr><pron><obl><red><1><ev>**": 102, "**<vnw><pers><pron><obl><vol><3><ev><masc>**": 103, "**<vnw><onbep><det><stan><vrij><zonder>**": 104, "**<n><soort><ev><basis><genus><stan>**": 105, "**<vnw><onbep><grad><stan><vrij><zonder><sup>**": 106, "**<n><soort><ev><basis><gen>**": 107, "**<tsw>**": 108, "**<ww><vd><nom><met-e><mv-n>**": 109, "**<vnw><vb><pron><stan><vol><3p><getal>**": 110, "**<vnw><onbep><grad><stan><prenom><met-e><agr><basis>**": 111, "**<vnw><pers><pron><obl><vol><3p><mv>**": 112, "**<adj><vrij><sup><zonder>**": 113, "**<vnw><pr><pron><obl><red><2v><getal>**": 114, "**<vnw><bez><det><stan><vol><2v><ev><prenom><zonder><agr>**": 115, "**<adj><prenom><comp><zonder>**": 116, "**<adj><nom><sup><met-e><zonder-n><stan>**": 117, "**<vnw><onbep><grad><stan><prenom><met-e><mv><basis>**": 118, "**<vnw><pers><pron><obl><vol><3><getal><fem>**": 119, "**<vnw><onbep><det><stan><nom><met-e><mv-n>**": 120, "**<vnw><onbep><adv-pron><obl><vol><3o><getal>**": 121, "**<vnw><onbep><grad><stan><prenom><met-e><agr><sup>**": 122, "**<vnw><pers><pron><nomin><vol><2v><ev>**": 123, "**<tw><hoofd><nom><zonder-n><basis>**": 124, "**<vnw><bez><det><gen><vol><1><ev><prenom><zonder><evmo>**": 125, "**<vnw><aanw><det><stan><nom><met-e><mv-n>**": 126, "**<vnw><aanw><det><stan><prenom><zonder><agr>**": 127, "**<adj><postnom><basis><met-s>**": 128, "**<vnw><betr><det><stan><nom><zonder><zonder-n>**": 129, "**<adj><nom><comp><met-e><mv-n>**": 130, "**<vnw><pers><pron><obl><vol><2v><ev>**": 131, "**<ww><vd><nom><met-e><zonder-n>**": 132, "**<vnw><pers><pron><stan><nadr><2v><mv>**": 133, "**<lid><bep><gen><rest3>**": 134, "**<vnw><onbep><det><stan><prenom><met-e><mv>**": 135, "**<vnw><refl><pron><obl><nadr><3><getal>**": 136, "**<vnw><onbep><grad><stan><nom><met-e><mv-n><basis>**": 137, "**<vnw><vb><det><stan><prenom><zonder><evon>**": 138, "**<lid><bep><gen><evmo>**": 139, "**<adj><nom><sup><zonder><zonder-n>**": 140, "**<adj><postnom><basis><zonder>**": 141, "**<lid><bep><dial>**": 142, "**<tw><rang><nom><mv-n>**": 143, "**<ww><pv><conj><ev>**": 144, "**<vnw><vb><det><stan><nom><met-e><zonder-n>**": 145, "**<vnw><pr><pron><obl><nadr><2v><getal>**": 146, "**<vnw><pers><pron><dial>**": 147, "**<vnw><pr><pron><obl><nadr><1><ev>**": 148, "**<tw><hoofd><nom><mv-n><basis>**": 149, "**<ww><od><nom><met-e><zonder-n>**": 150, "**<vnw><aanw><det><dial>**": 151, "**<adj><vrij><dim><zonder>**": 152, "**<vnw><onbep><grad><stan><nom><met-e><zonder-n><sup>**": 153, "**<vnw><bez><det><stan><red><3><ev><prenom><zonder><agr>**": 154, "**<vnw><pr><pron><obl><nadr><1><mv>**": 155, "**<vnw><bez><det><stan><nadr><2v><mv><prenom><zonder><agr>**": 156, "**<vnw><aanw><det><dat><prenom><met-e><evmo>**": 157, "**<vnw><onbep><pron><gen><vol><3p><ev>**": 158, "**<vnw><pers><pron><nomin><red><3><ev><masc>**": 159, "**<vnw><pers><pron><nomin><nadr><1><ev>**": 160, "**<adj><prenom><basis><met-e><bijz>**": 161, "**<vnw><vb><pron><gen><vol><3m><ev>**": 162, "**<vnw><bez><det><dial>**": 163, "**<vnw><aanw><pron><gen><vol><3m><ev>**": 164, "**<vnw><bez><det><stan><red><1><ev><prenom><zonder><agr>**": 165, "**<vnw><onbep><det><dat><prenom><met-e><evmo>**": 166, "**<adj><dial>**": 167, "**<tw><hoofd><nom><zonder-n><dim>**": 168, "**<lid><bep><dat><evmo>**": 169, "**<vnw><onbep><det><stan><nom><met-e><zonder-n>**": 170, "**<vnw><excl><pron><stan><vol><3><getal>**": 171, "**<vnw><pers><pron><nomin><vol><2><getal>**": 172, "**<vnw><recip><pron><gen><vol><persoon><mv>**": 173, "**<vnw><onbep><grad><stan><nom><met-e><mv-n><sup>**": 174, "**<vnw><pers><pron><obl><red><3><ev><masc>**": 175, "**<adj><nom><sup><met-e><mv-n>**": 176, "**<vnw><onbep><adv-pron><gen><red><3><getal>**": 177, "**<ww><od><nom><met-e><mv-n>**": 178, "**<vnw><onbep><det><gen><prenom><met-e><mv>**": 179, "**<vnw><pr><pron><obl><nadr><2><getal>**": 180, "**<vnw><betr><pron><gen><vol><3o><getal>**": 181, "**<vnw><onbep><grad><stan><prenom><met-e><agr><comp>**": 182, "**<adj><nom><basis><met-e><zonder-n><bijz>**": 183, "**<vnw><bez><det><dat><vol><3><ev><prenom><met-e><evf>**": 184, "**<vnw><pers><pron><nomin><red><2><getal>**": 185, "**<lid><onbep><dial>**": 186, "**<adj><nom><comp><met-e><zonder-n><stan>**": 187, "**<ww><inf><prenom><met-e>**": 188, "**<vnw><onbep><det><dial>**": 189, "**<vnw><onbep><grad><stan><nom><met-e><zonder-n><basis>**": 190, "**<adj><postnom><comp><met-s>**": 191, "**<vnw><pers><pron><obl><nadr><3v><getal><fem>**": 192, "**<vnw><aanw><pron><dial>**": 193, "**<adj><prenom><sup><zonder>**": 194, "**<vnw><vb><pron><gen><vol><3p><mv>**": 195, "**<vnw><pers><pron><nomin><nadr><3v><ev><fem>**": 196, "**<vnw><onbep><det><stan><nom><zonder><zonder-n>**": 197, "**<ww><pv><verl><met-t>**": 198, "**<vnw><bez><det><stan><vol><1><ev><nom><met-e><zonder-n>**": 199, "**<vnw><pers><pron><nomin><nadr><1><mv>**": 200, "**<vnw><bez><det><gen><vol><1><mv><prenom><met-e><evmo>**": 201, "**<spec><enof>**": 202, "**<ww><inf><prenom><zonder>**": 203, "**<vnw><onbep><det><gen><nom><met-e><mv-n>**": 204, "**<vnw><pers><pron><nomin><red><1><ev>**": 205, "**<adj><nom><basis><zonder><mv-n>**": 206, "**<vnw><pers><pron><nomin><nadr><3m><ev><masc>**": 207, "**<vnw><aanw><det><gen><prenom><met-e><rest3>**": 208, "**<vnw><bez><det><stan><vol><1><mv><nom><met-e><zonder-n>**": 209, "**<vnw><onbep><grad><gen><nom><met-e><mv-n><basis>**": 210, "**<n><soort><dial>**": 211, "**<vnw><aanw><det><stan><vrij><zonder>**": 212, "**<tw><rang><prenom><bijz>**": 213, "**<spec><meta>**": 214, "**<vnw><pers><pron><obl><nadr><3m><ev><masc>**": 215, "**<vnw><pers><pron><obl><nadr><3p><mv>**": 216, "**<ww><dial>**": 217, "**<vnw><onbep><grad><stan><nom><zonder><zonder-n><sup>**": 218, "**<vnw><aanw><det><dat><nom><met-e><zonder-n>**": 219, "**<vnw><bez><det><stan><vol><3m><ev><nom><met-e><zonder-n>**": 220, "**<vnw><aanw><pron><gen><vol><3o><ev>**": 221, "**<vnw><bez><det><stan><vol><2v><ev><nom><met-e><zonder-n>**": 222, "**<adj><postnom><comp><zonder>**": 223, "**<tw><hoofd><dial>**": 224, "**<tw><rang><dial>**": 225, "**<adj><nom><comp><zonder><zonder-n>**": 226, "**<tsw><dial>**": 227, "**<tw><hoofd><prenom><bijz>**": 228, "**<vnw><onbep><pron><dial>**": 229, "**<vnw><refl><pron><dial>**": 230, "**<vnw><vrag><det><dial>**": 231, "**<vnw><bez><det><gen><vol><2><getal><prenom><zonder><evmo>**": 232, "**<vnw><bez><det><stan><vol><3v><ev><nom><met-e><zonder-n>**": 233, "**<vnw><pers><pron><nomin><nadr><2v><ev>**": 234, "**<vnw><pers><pron><nomin><nadr><2b><getal>**": 235, "**<vnw><bez><det><gen><vol><1><mv><prenom><met-e><rest3>**": 236, "**<vnw><betr><det><stan><nom><met-e><zonder-n>**": 237, "**<vnw><pers><pron><nomin><nadr><3p><mv>**": 238, "**<vnw><bez><det><stan><vol><1><ev><prenom><met-e><rest>**": 239, "**<tw><hoofd><nom><mv-n><dim>**": 240, "**<vnw><bez><det><gen><vol><3v><ev><prenom><zonder><evmo>**": 241, "**<vnw><bez><det><stan><vol><1><mv><nom><met-e><mv-n>**": 242, "**<vnw><bez><det><gen><vol><3p><mv><prenom><met-e><rest3>**": 243, "**<vnw><bez><det><stan><vol><2><getal><nom><met-e><zonder-n>**": 244, "**<vnw><bez><det><gen><vol><3p><mv><prenom><zonder><evmo>**": 245, "**<vnw><vb><pron><gen><vol><3v><ev>**": 246, "**<vnw><bez><det><stan><vol><3m><ev><prenom><met-e><rest>**": 247, "**<vnw><pers><pron><gen><vol><3m><ev>**": 248, "**<vnw><pers><pron><gen><vol><1><mv>**": 249, "**<lid><bep><dat><evf>**": 250, "**<bw><dial>**": 251, "**<vg><onder><dial>**": 252, "**<vnw><vrag><pron><dial>**": 253, "**<vnw><bez><det><dat><vol><1><ev><prenom><met-e><evf>**": 254, "**<vnw><vrag><pron><stan><nadr><3o><ev>**": 255, "**<vnw><bez><det><stan><red><3><getal><prenom><zonder><agr>**": 256, "**<vnw><bez><det><gen><vol><3><ev><prenom><zonder><evmo>**": 257, "**<vnw><bez><det><gen><vol><1><ev><prenom><met-e><rest3>**": 258, "**<vnw><bez><det><stan><vol><3m><ev><nom><met-e><mv-n>**": 259, "**<vnw><pers><pron><obl><red><3v><getal><fem>**": 260, "**<vnw><recip><pron><dial>**": 261, "**<vnw><bez><det><stan><vol><2v><ev><nom><met-e><mv-n>**": 262, "e": 263, "n": 264, "i": 265, "a": 266, "r": 267, "t": 268, "o": 269, "d": 270, "en": 271, "l": 272, "s": 273, "g": 274, "v": 275, "de": 276, "m": 277, "er": 278, "k": 279, "h": 280, "u": 281, "an": 282, "j": 283, "b": 284, "p": 285, "ij": 286, "z": 287, "in": 288, "c": 289, "w": 290, "te": 291, "aa": 292, "et": 293, "ie": 294, "el": 295, "ee": 296, "he": 297, "or": 298, "ge": 299, ".": 300, "ve": 301, "oo": 302, "va": 303, "re": 304, "st": 305, "at": 306, "me": 307, "be": 308, "le": 309, "ng": 310, "ar": 311, "nd": 312, "zi": 313, "van": 314, "f": 315, "li": 316, "ch": 317, ",": 318, "on": 319, "ti": 320, "it": 321, "al": 322, "vo": 323, "een": 324, "oe": 325, "jn": 326, "ijn": 327, "da": 328, "het": 329, "ver": 330, "oor": 331, "ing": 332, "di": 333, "ri": 334, "ke": 335, "zij": 336, "op": 337, "ro": 338, "ne": 339, "aar": 340, "we": 341, "zijn": 342, "nt": 343, "om": 344, "ra": 345, "ni": 346, "den": 347, "la": 348, "rd": 349, "is": 350, "ei": 351, "gen": 352, "ns": 353, "voo": 354, "voor": 355, "aan": 356, "es": 357, "ll": 358, "mi": 359, "ma": 360, "ui": 361, "men": 362, "ed": 363, "nde": 364, "ten": 365, "ze": 366, "id": 367, "em": 368, "len": 369, "eg": 370, "der": 371, "ken": 372, "dat": 373, "ig": 374, "lle": 375, "ta": 376, "jk": 377, "ijk": 378, "pe": 379, "na": 380, "sc": 381, "lij": 382, "ren": 383, "wi": 384, "eb": 385, "ek": 386, "and": 387, "ur": 388, "se": 389, "ik": 390, "un": 391, "to": 392, "ter": 393, "ere": 394, "tie": 395, "ht": 396, "sch": 397, "cht": 398, "rde": 399, "eu": 400, "ord": 401, "ste": 402, "co": 403, "ev": 404, "tr": 405, "lijk": 406, "eli": 407, "mo": 408, "wa": 409, "rs": 410, "wo": 411, "llen": 412, "nen": 413, "nie": 414, "eel": 415, "ec": 416, "orde": 417, "nn": 418, "ha": 419, "pr": 420, "bi": 421, "die": 422, "ag": 423, "ss": 424, "ol": 425, "si": 426, "nder": 427, "uit": 428, "ho": 429, "pa": 430, "zo": 431, "rk": 432, "do": 433, "eren": 434, "am": 435, "met": 436, "ben": 437, "il": 438, "ent": 439, "rt": 440, "eid": 441, "rden": 442, "bb": 443, "nne": 444, "ak": 445, "ic": 446, "ez": 447, "bbe": 448, "ov": 449, "orden": 450, "ond": 451, "ebb": 452, "heb": 453, "ebbe": 454, "hebb": 455, "hebbe": 456, "bben": 457, "gr": 458, "ebben": 459, "hebben": 460, "ers": 461, "ens": 462, "og": 463, "wor": 464, "elij": 465, "elijk": 466, "sta": 467, "-": 468, "ot": 469, "ove": 470, "word": 471, "worde": 472, "worden": 473, "no": 474, "eme": 475, "lan": 476, "0": 477, "eer": 478, "ati": 479, "iet": 480, "ul": 481, "ou": 482, "ko": 483, "ven": 484, "ac": 485, "ete": 486, "ls": 487, "nnen": 488, "wij": 489, "erk": 490, "rij": 491, "ga": 492, "ts": 493, "as": 494, "ct": 495, "over": 496, "hi": 497, "sp": 498, "mm": 499, "lo": 500, "niet": 501, "eve": 502, "uw": 503, "eur": 504, "ru": 505, "ad": 506, "tel": 507, "gel": 508, "maa": 509, "ege": 510, "ok": 511, "rg": 512, "tu": 513, "vi": 514, "sl": 515, "ele": 516, "eten": 517, "eze": 518, "1": 519, "aat": 520, "rm": 521, "onde": 522, "del": 523, "ku": 524, "als": 525, "ds": 526, "rl": 527, "emen": 528, "ien": 529, "eri": 530, "aal": 531, "bij": 532, "tt": 533, "kun": 534, "us": 535, "end": 536, "ich": 537, "onder": 538, "ite": 539, "wer": 540, "dr": 541, "ind": 542, "nk": 543, "gi": 544, "rin": 545, "ba": 546, "unn": 547, "of": 548, "ede": 549, "ang": 550, "br": 551, "unne": 552, "unnen": 553, "kunn": 554, "kunne": 555, "kunnen": 556, "ope": 557, "kk": 558, "hei": 559, "moe": 560, "ki": 561, "ook": 562, "ef": 563, "raa": 564, "lin": 565, "est": 566, "taa": 567, "atie": 568, "naa": 569, "je": 570, "heid": 571, "waa": 572, "pro": 573, "2": 574, "oet": 575, "ech": 576, "du": 577, "rz": 578, "waar": 579, "ld": 580, "vr": 581, "pl": 582, "com": 583, "od": 584, "mis": 585, "af": 586, "ull": 587, "eke": 588, "ment": 589, "ap": 590, "zu": 591, "tte": 592, "dit": 593, "stel": 594, "ons": 595, "tre": 596, "ant": 597, "iss": 598, "dez": 599, "daa": 600, "deze": 601, "even": 602, "ulle": 603, "ande": 604, "ullen": 605, "so": 606, "bo": 607, "rop": 608, "moet": 609, "oete": 610, "bes": 611, "dig": 612, "fe": 613, "oeten": 614, "gev": 615, "moete": 616, "moeten": 617, "ling": 618, "echt": 619, "hee": 620, "ep": 621, "jd": 622, "ijd": 623, "nge": 624, "ame": 625, "pen": 626, "tw": 627, "ell": 628, "bel": 629, "ssi": 630, "ier": 631, "zul": 632, "po": 633, "ka": 634, "uro": 635, "euro": 636, "zull": 637, "zulle": 638, "zullen": 639, "sie": 640, "vee": 641, "mij": 642, "kel": 643, "rb": 644, "ring": 645, "doo": 646, "omm": 647, "mmi": 648, "ont": 649, "lu": 650, "kom": 651, "kke": 652, "ill": 653, "sa": 654, "ce": 655, "oed": 656, "con": 657, "str": 658, "isc": 659, "oc": 660, "staa": 661, "door": 662, "toe": 663, "go": 664, "veel": 665, "rv": 666, "vol": 667, "werk": 668, "gro": 669, "ake": 670, "vers": 671, "comm": 672, "hu": 673, "urop": 674, "europ": 675, "land": 676, "sen": 677, "ach": 678, "icht": 679, "ci": 680, "dan": 681, "io": 682, "ille": 683, "miss": 684, "bl": 685, "y": 686, "os": 687, "eken": 688, "ome": 689, "nte": 690, "ud": 691, "tell": 692, "rst": 693, "maar": 694, "min": 695, "ene": 696, "sti": 697, "par": 698, "mee": 699, "isch": 700, "ia": 701, "ommi": 702, "hte": 703, "acht": 704, "chte": 705, "gs": 706, "oen": 707, "eld": 708, "daar": 709, "rec": 710, "rn": 711, "erin": 712, "illen": 713, "tij": 714, "ige": 715, "nst": 716, "stell": 717, "ard": 718, "wel": 719, "mijn": 720, "rek": 721, "kin": 722, "doe": 723, "commi": 724, "cha": 725, "laa": 726, "mmis": 727, "ommis": 728, "commis": 729, "mmiss": 730, "ommiss": 731, "commiss": 732, "omen": 733, "eni": 734, "art": 735, "nem": 736, "inde": 737, "ssie": 738, "tot": 739, "gaa": 740, "za": 741, "ide": 742, "ort": 743, "uu": 744, "im": 745, "bet": 746, "ut": 747, "erd": 748, "fi": 749, "deli": 750, "egen": 751, "ement": 752, "ela": 753, "wil": 754, "gg": 755, "geb": 756, "sse": 757, "lei": 758, "ate": 759, "ering": 760, "per": 761, "oek": 762, "erv": 763, "sla": 764, "all": 765, "ja": 766, "han": 767, "rope": 768, "din": 769, "issi": 770, "ouw": 771, "urope": 772, "europe": 773, "will": 774, "oord": 775, "gaan": 776, "oud": 777, "tra": 778, "gin": 779, "lang": 780, "cti": 781, "mer": 782, "reg": 783, "voe": 784, "nh": 785, "rke": 786, "chi": 787, "rui": 788, "igen": 789, "age": 790, "rzi": 791, "ran": 792, "lg": 793, "wille": 794, "neme": 795, "heer": 796, "scha": 797, "erl": 798, "goe": 799, "rw": 800, "ngs": 801, "gge": 802, "ger": 803, "goed": 804, "pp": 805, "ari": 806, "nc": 807, "missi": 808, "willen": 809, "zie": 810, "issie": 811, "missie": 812, "tin": 813, "aard": 814, "rge": 815, "nin": 816, "ander": 817, "itt": 818, "nl": 819, "kl": 820, "lem": 821, ":": 822, "ker": 823, "nke": 824, "orm": 825, "ber": 826, "uur": 827, "vin": 828, "aken": 829, "naar": 830, "iti": 831, "mmissi": 832, "ommissi": 833, "commissi": 834, "mmissie": 835, "ommissie": 836, "commissie": 837, "bu": 838, "erg": 839, "lee": 840, "au": 841, "eit": 842, "mak": 843, "rle": 844, "kome": 845, "ding": 846, "ese": 847, "komen": 848, "oge": 849, "elen": 850, "uc": 851, "ied": 852, "ree": 853, "ist": 854, "hie": 855, "orz": 856, "leg": 857, "alle": 858, "amen": 859, "elle": 860, "oorz": 861, "wee": 862, "ggen": 863, "king": 864, "geli": 865, "erke": 866, "itte": 867, "ning": 868, "fo": 869, "zit": 870, "nu": 871, "ect": 872, "ea": 873, "elin": 874, "ieu": 875, "zitt": 876, "eling": 877, "ngen": 878, "teg": 879, ")": 880, "ca": 881, "ellen": 882, "rech": 883, "wat": 884, "recht": 885, "rie": 886, "ew": 887, "lk": 888, "ting": 889, "(": 890, "enk": 891, "00": 892, "era": 893, "5": 894, "ff": 895, "hou": 896, "roo": 897, "x": 898, "ern": 899, "zitte": 900, "ndi": 901, "nis": 902, "nemen": 903, "org": 904, "pla": 905, "ast": 906, "iek": 907, "um": 908, "ali": 909, "voorz": 910, "taan": 911, "rh": 912, "schi": 913, "ins": 914, "make": 915, "orzi": 916, "oorzi": 917, "telle": 918, "keli": 919, "zic": 920, "zich": 921, "eden": 922, "tter": 923, "kr": 924, "tijd": 925, "voorzi": 926, "zien": 927, "act": 928, "staan": 929, "tellen": 930, "nti": 931, "gelij": 932, "gelijk": 933, "ctie": 934, "geve": 935, "ili": 936, "ief": 937, "tei": 938, "rag": 939, "nog": 940, "ai": 941, "maken": 942, "erw": 943, "eh": 944, "20": 945, "int": 946, "nv": 947, "aag": 948, "spr": 949, "nden": 950, "leid": 951, "rei": 952, "ir": 953, "3": 954, "ings": 955, "res": 956, "ids": 957, "9": 958, "oer": 959, "'": 960, "pes": 961, "ntw": 962, "che": 963, "egg": 964, "uite": 965, "ms": 966, "lag": 967, "itei": 968, "aad": 969, "pre": 970, "erz": 971, "tig": 972, "zen": 973, "her": 974, "gra": 975, "ssen": 976, "stelle": 977, "erb": 978, "pese": 979, "opes": 980, "ropes": 981, "uropes": 982, "europes": 983, "opese": 984, "ropese": 985, "uropese": 986, "europese": 987, "bela": 988, "stellen": 989, "ion": 990, "lf": 991, "ert": 992, "ein": 993, "uni": 994, "mog": 995, "edi": 996, "nhe": 997, "lie": 998, "moge": 999, "nat": 1000, "kken": 1001, "hand": 1002, "ser": 1003, "bre": 1004, "open": 1005, "erm": 1006, "ans": 1007, "rsc": 1008, "gee": 1009, "lt": 1010, "elan": 1011, "tan": 1012, "erh": 1013, "lli": 1014, "rsch": 1015, "itter": 1016, "uk": 1017, "rat": 1018, "ron": 1019, "houd": 1020, "kt": 1021, "delij": 1022, "doen": 1023, "delijk": 1024, "rste": 1025, "ks": 1026, "teit": 1027, "ure": 1028, "laat": 1029, "leme": 1030, "th": 1031, "hier": 1032, "roe": 1033, "lemen": 1034, "su": 1035, "egge": 1036, "lement": 1037, "tere": 1038, "rege": 1039, "dien": 1040, "etr": 1041, "lit": 1042, "woo": 1043, "spe": 1044, "iteit": 1045, "arl": 1046, "aak": 1047, "ude": 1048, "lig": 1049, "ster": 1050, "rzit": 1051, "orzit": 1052, "oorzit": 1053, "hap": 1054, "rzitt": 1055, "orzitt": 1056, "oorzitt": 1057, "dra": 1058, "oot": 1059, "voorzit": 1060, "rzitte": 1061, "voorzitt": 1062, "orzitte": 1063, "oorzitte": 1064, "voorzitte": 1065, "zitter": 1066, "rzitter": 1067, "orzitter": 1068, "oorzitter": 1069, "voorzitter": 1070, "eggen": 1071, "erst": 1072, "geven": 1073, "app": 1074, "euw": 1075, "egi": 1076, "enen": 1077, "tten": 1078, "chap": 1079, "lge": 1080, "schap": 1081, "gem": 1082, "ank": 1083, "zel": 1084, "tal": 1085, "pu": 1086, "slag": 1087, "vere": 1088, "hoo": 1089, "best": 1090, "geen": 1091, "bru": 1092, "ors": 1093, "tege": 1094, "bie": 1095, "ade": 1096, "dri": 1097, "ob": 1098, "ffe": 1099, "nw": 1100, "twe": 1101, "ging": 1102, "ndel": 1103, "rr": 1104, "jaa": 1105, "rou": 1106, "bli": 1107, "cr": 1108, "ike": 1109, "ris": 1110, "ats": 1111, "wet": 1112, "jaar": 1113, "taat": 1114, "inte": 1115, "4": 1116, "nter": 1117, "elang": 1118, "jz": 1119, "dee": 1120, "belan": 1121, "ijz": 1122, "tee": 1123, "elf": 1124, "egel": 1125, "pel": 1126, "jv": 1127, "iv": 1128, "inn": 1129, "ijv": 1130, "rp": 1131, "baa": 1132, "zoe": 1133, "itie": 1134, "zon": 1135, "belang": 1136, "mp": 1137, "stan": 1138, "oel": 1139, "ric": 1140, "rken": 1141, "gri": 1142, "lid": 1143, "aats": 1144, "rte": 1145, "pi": 1146, "olg": 1147, "hoe": 1148, "ekk": 1149, "rli": 1150, "etre": 1151, "?": 1152, "volg": 1153, "eens": 1154, "lat": 1155, "dd": 1156, "esc": 1157, "man": 1158, "lev": 1159, "ende": 1160, "vor": 1161, "ieuw": 1162, "nieu": 1163, "betr": 1164, "arle": 1165, "ebr": 1166, "aro": 1167, "ersc": 1168, "agen": 1169, "oude": 1170, "nieuw": 1171, "evo": 1172, "rouw": 1173, "rlem": 1174, "arlem": 1175, "oors": 1176, "oms": 1177, "bied": 1178, "rbe": 1179, "ming": 1180, "bed": 1181, "nta": 1182, "beg": 1183, "erken": 1184, "ersch": 1185, "parl": 1186, "rleme": 1187, "rlemen": 1188, "rlement": 1189, "parle": 1190, "parlem": 1191, "arleme": 1192, "parleme": 1193, "arlemen": 1194, "parlemen": 1195, "arlement": 1196, "parlement": 1197, "nse": 1198, "ner": 1199, "sche": 1200, "vra": 1201, "zoek": 1202, "nda": 1203, "tem": 1204, "zelf": 1205, "lui": 1206, "tro": 1207, "eng": 1208, "tv": 1209, "tis": 1210, "ale": 1211, "val": 1212, "raad": 1213, "inden": 1214, "tegen": 1215, "tio": 1216, "jke": 1217, "ijke": 1218, "mat": 1219, "ass": 1220, "rijk": 1221, "haa": 1222, "rac": 1223, "uid": 1224, "ikk": 1225, "mens": 1226, "tion": 1227, "fr": 1228, "hter": 1229, "enin": 1230, "uik": 1231, "ini": 1232, "chter": 1233, "rti": 1234, "nz": 1235, "one": 1236, "brui": 1237, "lic": 1238, "ett": 1239, "eder": 1240, "eff": 1241, "esch": 1242, "ntie": 1243, "ona": 1244, "iten": 1245, "betre": 1246, "mst": 1247, "teu": 1248, "nb": 1249, "..": 1250, "fen": 1251, "ening": 1252, "rich": 1253, "aam": 1254, "aaro": 1255, "\u00eb": 1256, "rdi": 1257, "erp": 1258, "tief": 1259, "teren": 1260, "richt": 1261, "nee": 1262, "root": 1263, "groo": 1264, "zaa": 1265, "sm": 1266, "groot": 1267, "ees": 1268, "pri": 1269, "oog": 1270, "ani": 1271, "inne": 1272, "gebr": 1273, "rme": 1274, "uis": 1275, "cu": 1276, "sit": 1277, "ju": 1278, "baar": 1279, "idi": 1280, "zond": 1281, "rvo": 1282, "oon": 1283, "vaa": 1284, "ero": 1285, "acti": 1286, "voer": 1287, "ikke": 1288, "voors": 1289, "gh": 1290, "woor": 1291, "woord": 1292, "beh": 1293, "ruik": 1294, "houde": 1295, "reke": 1296, "tand": 1297, "elk": 1298, "kelij": 1299, "deel": 1300, "kelijk": 1301, "red": 1302, "elli": 1303, "staat": 1304, "ab": 1305, "rsl": 1306, "sin": 1307, "bruik": 1308, "rom": 1309, "tuu": 1310, "geme": 1311, "ex": 1312, "dag": 1313, "kkel": 1314, "stand": 1315, "rstel": 1316, "lis": 1317, "vind": 1318, "dst": 1319, "orst": 1320, "rati": 1321, "hten": 1322, "chten": 1323, "ori": 1324, "ina": 1325, "uiten": 1326, "ebru": 1327, "vinde": 1328, "ersl": 1329, "hij": 1330, "vinden": 1331, "ler": 1332, "ema": 1333, "mu": 1334, "gan": 1335, "grij": 1336, "uden": 1337, "6": 1338, "8": 1339, "eem": 1340, "ppe": 1341, "raag": 1342, "tor": 1343, "verb": 1344, "rki": 1345, "bev": 1346, "rsla": 1347, "/": 1348, "tri": 1349, "regel": 1350, "unie": 1351, "reken": 1352, "jde": 1353, "ijde": 1354, "omst": 1355, "jken": 1356, "ijken": 1357, "iede": 1358, "ann": 1359, "emee": 1360, "nds": 1361, "jf": 1362, "meen": 1363, "dde": 1364, "fs": 1365, "mb": 1366, "versl": 1367, "ijf": 1368, "leve": 1369, "js": 1370, "effe": 1371, "ezi": 1372, "ijs": 1373, "ersla": 1374, "eva": 1375, "enke": 1376, "plaa": 1377, "dem": 1378, "slu": 1379, "inter": 1380, "rage": 1381, "kri": 1382, "trek": 1383, "oep": 1384, "vro": 1385, "uss": 1386, "oa": 1387, "gebru": 1388, "for": 1389, "ebrui": 1390, "gebrui": 1391, "oorst": 1392, "twi": 1393, "nati": 1394, "oli": 1395, "andel": 1396, "ebruik": 1397, "gebruik": 1398, "aten": 1399, "gemee": 1400, "sel": 1401, "tuur": 1402, "rslag": 1403, "versla": 1404, "inst": 1405, "stu": 1406, "mid": 1407, "tg": 1408, "its": 1409, "nf": 1410, "oll": 1411, "kw": 1412, "jnh": 1413, "ijnh": 1414, "nhee": 1415, "plaat": 1416, "jnhe": 1417, "ijnhe": 1418, "por": 1419, "nig": 1420, "nheer": 1421, "mijnh": 1422, "mijnhe": 1423, "jnhee": 1424, "ijnhee": 1425, "jnheer": 1426, "mijnhee": 1427, "ijnheer": 1428, "mijnheer": 1429, "ouden": 1430, "voorst": 1431, "tb": 1432, "emeen": 1433, "slui": 1434, "erslag": 1435, "nken": 1436, "blij": 1437, "idd": 1438, "ntr": 1439, "gemeen": 1440, "dere": 1441, "ontw": 1442, "ette": 1443, "verslag": 1444, "enl": 1445, "luit": 1446, "mme": 1447, "elei": 1448, "7": 1449, "houden": 1450, "eed": 1451, "eide": 1452, "hun": 1453, "bin": 1454, "rva": 1455, "innen": 1456, "wijz": 1457, "midd": 1458, "sluit": 1459, "wen": 1460, "enge": 1461, "!": 1462, "zeg": 1463, "laats": 1464, "orste": 1465, "ug": 1466, "ngr": 1467, "\"": 1468, "rekk": 1469, "jo": 1470, "rga": 1471, "orstel": 1472, "verw": 1473, "erki": 1474, "iden": 1475, "igh": 1476, "ffen": 1477, "bele": 1478, "eil": 1479, "oorste": 1480, "hti": 1481, "chti": 1482, "plaats": 1483, "werke": 1484, "weg": 1485, "voorste": 1486, "rlij": 1487, "trekk": 1488, "llin": 1489, "oorstel": 1490, "voorstel": 1491, "eleid": 1492, "tek": 1493, "rmi": 1494, "enti": 1495, "jve": 1496, "ijve": 1497, "echte": 1498, "01": 1499, "drag": 1500, "heel": 1501, "unt": 1502, "lling": 1503, "ise": 1504, "ange": 1505, "olge": 1506, "sam": 1507, "idde": 1508, "rond": 1509, "besc": 1510, "besch": 1511, "nli": 1512, "este": 1513, "zegg": 1514, "volge": 1515, "av": 1516, "ogen": 1517, "hande": 1518, "hui": 1519, "kan": 1520, "midde": 1521, "verk": 1522, "epa": 1523, "enw": 1524, "uct": 1525, "koms": 1526, "komst": 1527, "lgen": 1528, "dus": 1529, "ong": 1530, "vrou": 1531, "maat": 1532, "vrouw": 1533, "mar": 1534, "ervo": 1535, "stem": 1536, "same": 1537, "zegge": 1538, "handel": 1539, "sb": 1540, "samen": 1541, "vri": 1542, "ogel": 1543, "olgen": 1544, "zeggen": 1545, "volgen": 1546, "tisc": 1547, "tisch": 1548, "waard": 1549, "ghe": 1550, "zet": 1551, "jven": 1552, "ip": 1553, "ijven": 1554, "telli": 1555, "els": 1556, "ega": 1557, "esta": 1558, "nsc": 1559, "vl": 1560, "twee": 1561, "pt": 1562, "ine": 1563, "erde": 1564, "rma": 1565, "iona": 1566, "eig": 1567, "rlijk": 1568, "dui": 1569, "hr": 1570, "iaa": 1571, "actie": 1572, "rob": 1573, "ust": 1574, "port": 1575, "verd": 1576, "nsch": 1577, "i\u00eb": 1578, "pas": 1579, "vert": 1580, "eds": 1581, "mil": 1582, "verl": 1583, "olle": 1584, "oeg": 1585, "edr": 1586, "ngri": 1587, "ente": 1588, "ref": 1589, "ost": 1590, "ellin": 1591, "stra": 1592, "krij": 1593, "omi": 1594, "ogeli": 1595, "ogelij": 1596, "mogel": 1597, "ogelijk": 1598, "mogeli": 1599, "mogelij": 1600, "mogelijk": 1601, "ngrij": 1602, "elling": 1603, "ekke": 1604, "jg": 1605, "nkel": 1606, "rkin": 1607, "gd": 1608, "ijg": 1609, "sto": 1610, "ighe": 1611, "ghei": 1612, "oal": 1613, "gheid": 1614, "ara": 1615, "late": 1616, "ets": 1617, "sn": 1618, "zor": 1619, "stelli": 1620, "ighei": 1621, "igheid": 1622, "oi": 1623, "ub": 1624, "evi": 1625, "oorde": 1626, "zorg": 1627, "rking": 1628, "rzo": 1629, "fa": 1630, "stee": 1631, "aand": 1632, "effen": 1633, "tus": 1634, "erkin": 1635, "naal": 1636, "ple": 1637, "mel": 1638, "mati": 1639, "erking": 1640, "tst": 1641, "nwe": 1642, "gez": 1643, "chr": 1644, "angr": 1645, "rit": 1646, "eige": 1647, "zoa": 1648, "zoal": 1649, "oals": 1650, "zoals": 1651, "ua": 1652, "kkeli": 1653, "achte": 1654, "tl": 1655, "angri": 1656, "tellin": 1657, "telling": 1658, "angrij": 1659, "ikkel": 1660, "wan": 1661, "rna": 1662, "arti": 1663, "uren": 1664, "arin": 1665, "doel": 1666, "loo": 1667, "cia": 1668, "versc": 1669, "versch": 1670, "egr": 1671, "atio": 1672, "vaar": 1673, "prob": 1674, "stellin": 1675, "stelling": 1676, "grijk": 1677, "ngrijk": 1678, "bee": 1679, "verg": 1680, "kh": 1681, "usse": 1682, "ation": 1683, "angrijk": 1684, "haar": 1685, "pun": 1686, "cho": 1687, "ever": 1688, "arm": 1689, "air": 1690, "jden": 1691, "ijden": 1692, "eree": 1693, "erzo": 1694, "bur": 1695, "200": 1696, "idst": 1697, "nko": 1698, "punt": 1699, "wik": 1700, "rder": 1701, "zonde": 1702, "ragen": 1703, "hel": 1704, "langr": 1705, "elangr": 1706, "belangr": 1707, "langri": 1708, "elangri": 1709, "langrij": 1710, "belangri": 1711, "langrijk": 1712, "elangrij": 1713, "belangrij": 1714, "elangrijk": 1715, "belangrijk": 1716, "rgen": 1717, "belei": 1718, "beleid": 1719, "leen": 1720, "verz": 1721, "dsta": 1722, "pra": 1723, "sh": 1724, "zonder": 1725, "rbi": 1726, "uwe": 1727, "wikk": 1728, "spre": 1729, "wikke": 1730, "alen": 1731, "onaa": 1732, "llee": 1733, "enst": 1734, "wikkel": 1735, "rwe": 1736, "rdig": 1737, "pol": 1738, "iaal": 1739, "lich": 1740, "sv": 1741, "jge": 1742, "ijge": 1743, "ssa": 1744, "ddel": 1745, "form": 1746, "ader": 1747, "rod": 1748, "allee": 1749, "if": 1750, "kla": 1751, "stri": 1752, "noo": 1753, "gens": 1754, "lleen": 1755, "alleen": 1756, "err": 1757, "veren": 1758, "nste": 1759, "ies": 1760, "fd": 1761, "iken": 1762, "reng": 1763, "iddel": 1764, "bep": 1765, "laten": 1766, "tref": 1767, "enn": 1768, "middel": 1769, "deren": 1770, "esti": 1771, "md": 1772, "reff": 1773, "reffe": 1774, "ving": 1775, "eili": 1776, "treff": 1777, "treffe": 1778, "eigen": 1779, "zee": 1780, "igi": 1781, "pec": 1782, "idsta": 1783, "bou": 1784, "entie": 1785, "dstaa": 1786, "emm": 1787, "ntwi": 1788, "vorm": 1789, "lids": 1790, "lidst": 1791, "lidsta": 1792, "idstaa": 1793, "duc": 1794, "dstaat": 1795, "echter": 1796, "lidstaa": 1797, "idstaat": 1798, "lidstaat": 1799, "eker": 1800, "cen": 1801, "engen": 1802, "esl": 1803, "bere": 1804, "reffen": 1805, "tru": 1806, "spec": 1807, "treffen": 1808, "fin": 1809, "anda": 1810, "ps": 1811, "nscha": 1812, "nlij": 1813, "ore": 1814, "ontwi": 1815, "ezen": 1816, "akk": 1817, "lde": 1818, "odu": 1819, "jgen": 1820, "ijgen": 1821, "eun": 1822, "sten": 1823, "rel": 1824, "twik": 1825, "cie": 1826, "ntwik": 1827, "twikk": 1828, "ontwik": 1829, "ntwikk": 1830, "ontwikk": 1831, "twikke": 1832, "ntwikke": 1833, "ontwikke": 1834, "tiek": 1835, "twikkel": 1836, "ntwikkel": 1837, "ontwikkel": 1838, "wete": 1839, "cont": 1840, "rzoe": 1841, "weten": 1842, "erzoe": 1843, "eco": 1844, "kle": 1845, "ode": 1846, "anc": 1847, "jze": 1848, "reen": 1849, "enh": 1850, "ijze": 1851, "arom": 1852, "dele": 1853, "rede": 1854, "tiona": 1855, "ussen": 1856, "tern": 1857, "etten": 1858, "ensc": 1859, "nam": 1860, "gew": 1861, "bedr": 1862, "schr": 1863, "maal": 1864, "ark": 1865, "rne": 1866, "aarom": 1867, "teun": 1868, "anne": 1869, "rzoek": 1870, "ft": 1871, "egin": 1872, "steu": 1873, "steun": 1874, "erzoek": 1875, "fra": 1876, "nlijk": 1877, "sing": 1878, "rijg": 1879, "ensch": 1880, "zin": 1881, "atu": 1882, "ena": 1883, "arb": 1884, "onaal": 1885, "fl": 1886, "hri": 1887, "gele": 1888, "rodu": 1889, "tat": 1890, "eids": 1891, "khe": 1892, "ewe": 1893, "bren": 1894, "ionaa": 1895, "lijke": 1896, "ionaal": 1897, "teri": 1898, "prod": 1899, "chri": 1900, "oduc": 1901, "roduc": 1902, "ban": 1903, "kaa": 1904, "jkh": 1905, "ijkh": 1906, "zett": 1907, "ereen": 1908, "rhe": 1909, "jkhe": 1910, "ijkhe": 1911, "khei": 1912, "breng": 1913, "kheid": 1914, "lijkh": 1915, "krijg": 1916, "lijkhe": 1917, "part": 1918, "urg": 1919, "jkhei": 1920, "ijkhei": 1921, "licht": 1922, "jkheid": 1923, "ijkheid": 1924, "ono": 1925, "erli": 1926, "led": 1927, "lijkhei": 1928, "lijkheid": 1929, "rschi": 1930, "ebi": 1931, "scho": 1932, "rig": 1933, "ive": 1934, "net": 1935, "ble": 1936, "delin": 1937, "erge": 1938, "tuss": 1939, "spa": 1940, "deri": 1941, "tusse": 1942, "tussen": 1943, "deling": 1944, "orge": 1945, "arde": 1946, "col": 1947, "med": 1948, "orb": 1949, "bouw": 1950, "roc": 1951, "aut": 1952, "cent": 1953, "geva": 1954, "ndeli": 1955, "aans": 1956, "rijge": 1957, "nschap": 1958, "vrij": 1959, "inge": 1960, "ebie": 1961, "ationa": 1962, "enscha": 1963, "oeke": 1964, "gebi": 1965, "groe": 1966, "soo": 1967, "ebied": 1968, "uide": 1969, "nm": 1970, "gebie": 1971, "gebied": 1972, "vraa": 1973, "vraag": 1974, "vera": 1975, "bs": 1976, "nci": 1977, "enschap": 1978, "och": 1979, "kki": 1980, "dh": 1981, "erwe": 1982, "natio": 1983, "nation": 1984, "produ": 1985, "poli": 1986, "ekken": 1987, "verv": 1988, "nationa": 1989, "erva": 1990, "ram": 1991, "stig": 1992, "prek": 1993, "rijgen": 1994, "ink": 1995, "sprek": 1996, "krijge": 1997, "krijgen": 1998, "produc": 1999, "renge": 2000, "temm": 2001, "hil": 2002, "oort": 2003, "oorb": 2004, "stemm": 2005, "rant": 2006, "are": 2007, "ood": 2008, "uike": 2009, "ders": 2010, "eeds": 2011, "hal": 2012, "besl": 2013, "oce": 2014, "rot": 2015, "brenge": 2016, "odi": 2017, "rengen": 2018, "verh": 2019, "brengen": 2020, "tai": 2021, "rla": 2022, "emi": 2023, "evin": 2024, "mogen": 2025, "ratie": 2026, "roep": 2027, "lp": 2028, "win": 2029, "uits": 2030, "evr": 2031, "wijze": 2032, "har": 2033, "pee": 2034, "pers": 2035, "appe": 2036, "name": 2037, "hts": 2038, "epe": 2039, "aarde": 2040, "daaro": 2041, "ral": 2042, "eiden": 2043, "rak": 2044, "igin": 2045, "rol": 2046, "elijkh": 2047, "elijkhe": 2048, "lop": 2049, "tge": 2050, "chts": 2051, "erei": 2052, "burg": 2053, "eno": 2054, "pass": 2055, "elijkhei": 2056, "elijkheid": 2057, "oven": 2058, "inder": 2059, "schri": 2060, "rijd": 2061, "nni": 2062, "ermi": 2063, "zaak": 2064, "eta": 2065, "legg": 2066, "ater": 2067, "delen": 2068, "idin": 2069, "rach": 2070, "obl": 2071, "teke": 2072, "iding": 2073, "dige": 2074, "derin": 2075, "iser": 2076, "oni": 2077, "inf": 2078, "zak": 2079, "liti": 2080, "nkom": 2081, "eeld": 2082, "nr": 2083, "zette": 2084, "orgen": 2085, "dering": 2086, "voorb": 2087, "robl": 2088, "teken": 2089, "racht": 2090, "oble": 2091, "aant": 2092, "eidi": 2093, "roble": 2094, "proc": 2095, "opa": 2096, "probl": 2097, "proble": 2098, "eidin": 2099, "erla": 2100, "eiding": 2101, "denk": 2102, "chil": 2103, "rea": 2104, "iets": 2105, "olit": 2106, "reid": 2107, "opl": 2108, "sere": 2109, "roce": 2110, "rmin": 2111, "beel": 2112, "iene": 2113, "proce": 2114, "rand": 2115, "ooi": 2116, "iee": 2117, "polit": 2118, "zetten": 2119, "anta": 2120, "beeld": 2121, "las": 2122, "rvan": 2123, "eran": 2124, "seren": 2125, "ssin": 2126, "enig": 2127, "rwi": 2128, "gie": 2129, "ess": 2130, "ue": 2131, "oliti": 2132, "politi": 2133, "ruike": 2134, "lite": 2135, "werken": 2136, "iging": 2137, "schil": 2138, "ssing": 2139, "binn": 2140, "binne": 2141, "binnen": 2142, "erwi": 2143, "indi": 2144, "happ": 2145, "spo": 2146, "ita": 2147, "...": 2148, "dru": 2149, "idel": 2150, "hoog": 2151, "naam": 2152, "orma": 2153, "bruike": 2154, "tionaa": 2155, "tionaal": 2156, "lijn": 2157, "ationaa": 2158, "ationaal": 2159, "nationaa": 2160, "nationaal": 2161, "rre": 2162, "two": 2163, "erschi": 2164, "rha": 2165, "eval": 2166, "rdel": 2167, "ideli": 2168, "log": 2169, "idelij": 2170, "idelijk": 2171, "ume": 2172, "begr": 2173, "chapp": 2174, "schapp": 2175, "ardi": 2176, "eind": 2177, "verschi": 2178, "leem": 2179, "lec": 2180, "veran": 2181, "diene": 2182, "leven": 2183, "ropa": 2184, "201": 2185, "blee": 2186, "litie": 2187, "kie": 2188, "enken": 2189, "antw": 2190, "inz": 2191, "duid": 2192, "orbe": 2193, "anke": 2194, "oei": 2195, "nom": 2196, "duct": 2197, "bleem": 2198, "ieel": 2199, "rso": 2200, "oblee": 2201, "roblee": 2202, "obleem": 2203, "problee": 2204, "robleem": 2205, "probleem": 2206, "rda": 2207, "ciaa": 2208, "twoo": 2209, "ciaal": 2210, "ult": 2211, "ienen": 2212, "stre": 2213, "twoor": 2214, "twoord": 2215, "erha": 2216, "kkin": 2217, "dienen": 2218, "kking": 2219, "ebruike": 2220, "gebruike": 2221, "alis": 2222, "ntern": 2223, "uropa": 2224, "europa": 2225, "intern": 2226, "mark": 2227, "zw": 2228, "bez": 2229, "kelin": 2230, "noe": 2231, "nfo": 2232, "vas": 2233, "keling": 2234, "ikkeli": 2235, "19": 2236, "iter": 2237, "orga": 2238, "ezo": 2239, "nel": 2240, "oduct": 2241, "roduct": 2242, "duide": 2243, "erso": 2244, "ow": 2245, "weer": 2246, "etref": 2247, "zeer": 2248, "olitie": 2249, "politie": 2250, "uidel": 2251, "betref": 2252, "etreff": 2253, "betreff": 2254, "etreffe": 2255, "betreffe": 2256, "etreffen": 2257, "betreffen": 2258, "oorbe": 2259, "drij": 2260, "uideli": 2261, "eving": 2262, "uidelij": 2263, "uidelijk": 2264, "kenn": 2265, "ntwo": 2266, "uwen": 2267, "eers": 2268, "nders": 2269, "aardi": 2270, "erne": 2271, "oeken": 2272, "denke": 2273, "luite": 2274, "tur": 2275, "econ": 2276, "lijken": 2277, "derz": 2278, "boe": 2279, "antwo": 2280, "dank": 2281, "ntwoo": 2282, "antwoo": 2283, "ntwoor": 2284, "antwoor": 2285, "voorbe": 2286, "ntwoord": 2287, "antwoord": 2288, "oren": 2289, "litei": 2290, "umen": 2291, "liteit": 2292, "zake": 2293, "bui": 2294, "ana": 2295, "les": 2296, "derh": 2297, "edig": 2298, "the": 2299, "erle": 2300, "sluite": 2301, "denken": 2302, "rwij": 2303, "erwij": 2304, "ument": 2305, "asse": 2306, "cl": 2307, "eek": 2308, "ys": 2309, "anti": 2310, "luiten": 2311, "preke": 2312, "ilig": 2313, "werp": 2314, "kkelin": 2315, "kkeling": 2316, "spreke": 2317, "nal": 2318, "eilig": 2319, "ouwe": 2320, "ehe": 2321, "lijv": 2322, "lega": 2323, "ikkelin": 2324, "ikkeling": 2325, "wikkeli": 2326, "wikkelin": 2327, "wikkeling": 2328, "lijve": 2329, "ichte": 2330, "product": 2331, "sluiten": 2332, "lijven": 2333, "bew": 2334, "lere": 2335, "deme": 2336, "vast": 2337, "blijv": 2338, "blijve": 2339, "ppel": 2340, "besta": 2341, "blijven": 2342, "enko": 2343, "twikkeli": 2344, "ntwikkeli": 2345, "twikkelin": 2346, "ntwikkelin": 2347, "twikkeling": 2348, "ntwikkeling": 2349, "ontwikkeli": 2350, "ontwikkelin": 2351, "ontwikkeling": 2352, "vei": 2353, "duidel": 2354, "duideli": 2355, "duidelij": 2356, "duidelijk": 2357, "atr": 2358, "onom": 2359, "oere": 2360, "rap": 2361, "ndie": 2362, "ardig": 2363, "ogr": 2364, "veil": 2365, "dis": 2366, "ichti": 2367, "aardig": 2368, "rekke": 2369, "evol": 2370, "ieden": 2371, "e-": 2372, "eerd": 2373, "aris": 2374, "odig": 2375, "zek": 2376, "nomi": 2377, "itiek": 2378, "demen": 2379, "eks": 2380, "lope": 2381, "elde": 2382, "atuu": 2383, "zig": 2384, "veili": 2385, "zeke": 2386, "vis": 2387, "zeker": 2388, "bete": 2389, "atief": 2390, "ora": 2391, "ntal": 2392, "anis": 2393, "soc": 2394, "rhei": 2395, "trekke": 2396, "amm": 2397, "daarom": 2398, "ands": 2399, "etrek": 2400, "legge": 2401, "etrekk": 2402, "ndien": 2403, "esp": 2404, "werki": 2405, "werkin": 2406, "betrek": 2407, "betrekk": 2408, "rheid": 2409, "atis": 2410, "opee": 2411, "werking": 2412, "peli": 2413, "estaa": 2414, "begi": 2415, "onc": 2416, "begin": 2417, "urge": 2418, "nan": 2419, "mend": 2420, "nod": 2421, "mili": 2422, "htin": 2423, "rwa": 2424, "sy": 2425, "onomi": 2426, "ruk": 2427, "oci": 2428, "chtin": 2429, "fu": 2430, "ogra": 2431, "veilig": 2432, "hting": 2433, "omd": 2434, "sme": 2435, "chting": 2436, "onge": 2437, "erhe": 2438, "kij": 2439, "eru": 2440, "att": 2441, "oos": 2442, "dement": 2443, "nsp": 2444, "teli": 2445, "nodi": 2446, "nodig": 2447, "eschi": 2448, "ndem": 2449, "iste": 2450, "estaan": 2451, "pees": 2452, "perso": 2453, "soci": 2454, "info": 2455, "ges": 2456, "sol": 2457, "ebe": 2458, "ense": 2459, "leggen": 2460, "lopen": 2461, "paa": 2462, "mon": 2463, "cono": 2464, "sle": 2465, "mda": 2466, "econo": 2467, "rkt": 2468, "rschil": 2469, "tz": 2470, "itu": 2471, "ropee": 2472, "uropee": 2473, "europee": 2474, "opees": 2475, "ropees": 2476, "uropees": 2477, "europees": 2478, "erschil": 2479, "endem": 2480, "verschil": 2481, "ndig": 2482, "omda": 2483, "mdat": 2484, "omdat": 2485, "sne": 2486, "cons": 2487, "ingen": 2488, "ndeme": 2489, "endeme": 2490, "ndemen": 2491, "ndement": 2492, "rijf": 2493, "endemen": 2494, "endement": 2495, "conom": 2496, "econom": 2497, "druk": 2498, "oeren": 2499, "rgan": 2500, "mende": 2501, "coll": 2502, "echts": 2503, "rmee": 2504, "drie": 2505, "conomi": 2506, "economi": 2507, "mmer": 2508, "ces": 2509, "aanta": 2510, "conc": 2511, "gron": 2512, "alt": 2513, "nderz": 2514, "aas": 2515, "ocia": 2516, "socia": 2517, "rbij": 2518, "aart": 2519, "vang": 2520, "mev": 2521, "huis": 2522, "rc": 2523, "evro": 2524, "amend": 2525, "los": 2526, "vrag": 2527, "enwe": 2528, "amende": 2529, "db": 2530, "mevr": 2531, "cher": 2532, "akke": 2533, "vrage": 2534, "orte": 2535, "evrou": 2536, "evrouw": 2537, "ichten": 2538, "atuur": 2539, "mevro": 2540, "mevrou": 2541, "mevrouw": 2542, "toc": 2543, "zoeke": 2544, "arv": 2545, "vaard": 2546, "rger": 2547, "emo": 2548, "were": 2549, "rug": 2550, "sis": 2551, "rekken": 2552, "colle": 2553, "nfor": 2554, "mendem": 2555, "amendem": 2556, "mendeme": 2557, "amendeme": 2558, "mendemen": 2559, "amendemen": 2560, "mendement": 2561, "amendement": 2562, "drijf": 2563, "meens": 2564, "zicht": 2565, "geld": 2566, "vragen": 2567, "pelij": 2568, "pelijk": 2569, "elo": 2570, "emeens": 2571, "sk": 2572, "waaro": 2573, "itv": 2574, "reden": 2575, "bevo": 2576, "nform": 2577, "eho": 2578, "rog": 2579, "trekken": 2580, "waarde": 2581, "aarv": 2582, "oti": 2583, "eensc": 2584, "eensch": 2585, "nve": 2586, "matie": 2587, "eenscha": 2588, "eo": 2589, "burge": 2590, "taal": 2591, "gemeens": 2592, "eenschap": 2593, "meensc": 2594, "emeensc": 2595, "meensch": 2596, "gemeensc": 2597, "emeensch": 2598, "meenscha": 2599, "gemeensch": 2600, "emeenscha": 2601, "meenschap": 2602, "gemeenscha": 2603, "emeenschap": 2604, "gemeenschap": 2605, "tse": 2606, "leu": 2607, "uitv": 2608, "edri": 2609, "derl": 2610, "gang": 2611, "fer": 2612, "eci": 2613, "tair": 2614, "bepa": 2615, "veree": 2616, "rlan": 2617, "rming": 2618, "antal": 2619, "overe": 2620, "vereen": 2621, "ica": 2622, "preken": 2623, "rnem": 2624, "spreken": 2625, "plo": 2626, "enkom": 2627, "gis": 2628, "berei": 2629, "keu": 2630, "aantal": 2631, "digen": 2632, "cat": 2633, "rmat": 2634, "eter": 2635, "olk": 2636, "grond": 2637, "bedri": 2638, "anci": 2639, "oev": 2640, "dv": 2641, "iez": 2642, "merk": 2643, "ordel": 2644, "kor": 2645, "edrij": 2646, "bedrij": 2647, "amer": 2648, "kend": 2649, "t-": 2650, "lleg": 2651, "sbe": 2652, "kee": 2653, "tvo": 2654, "nhei": 2655, "scher": 2656, "infor": 2657, "oop": 2658, "inform": 2659, "dhe": 2660, "oordel": 2661, "issa": 2662, "eis": 2663, "gl": 2664, "uiken": 2665, "eraa": 2666, "voere": 2667, "enli": 2668, "voeren": 2669, "nit": 2670, "enb": 2671, "litiek": 2672, "erel": 2673, "olitiek": 2674, "politiek": 2675, "gu": 2676, "ieder": 2677, "regi": 2678, "bek": 2679, "nheid": 2680, "buit": 2681, "uch": 2682, "biede": 2683, "uist": 2684, "bestaa": 2685, "omis": 2686, "bestaan": 2687, "spel": 2688, "bas": 2689, "dhei": 2690, "urger": 2691, "enhe": 2692, "dheid": 2693, "nzi": 2694, "burger": 2695, "erlan": 2696, "ncie": 2697, "dur": 2698, "stru": 2699, "angen": 2700, "ouwen": 2701, "sar": 2702, "site": 2703, "erna": 2704, "edrijf": 2705, "bedrijf": 2706, "omp": 2707, "wes": 2708, "rvoo": 2709, "rvoor": 2710, "rus": 2711, "arkt": 2712, "markt": 2713, "erste": 2714, "happe": 2715, "gram": 2716, "amel": 2717, "ole": 2718, "nkoms": 2719, "enlij": 2720, "treg": 2721, "nkomst": 2722, "forma": 2723, "fina": 2724, "np": 2725, "appel": 2726, "andi": 2727, "eenk": 2728, "enhei": 2729, "trege": 2730, "chappe": 2731, "vie": 2732, "schappe": 2733, "sat": 2734, "eenko": 2735, "enheid": 2736, "geval": 2737, "kant": 2738, "eha": 2739, "tregel": 2740, "war": 2741, "oss": 2742, ";": 2743, "deb": 2744, "gst": 2745, "leren": 2746, "sg": 2747, "overee": 2748, "overeen": 2749, "trij": 2750, "hem": 2751, "reld": 2752, "buite": 2753, "leide": 2754, "werel": 2755, "ereld": 2756, "wereld": 2757, "ontr": 2758, "eenkom": 2759, "ruiken": 2760, "keer": 2761, "nanc": 2762, "anv": 2763, "buiten": 2764, "koo": 2765, "inan": 2766, "assen": 2767, "ck": 2768, "eko": 2769, "aatr": 2770, "atre": 2771, "uto": 2772, "hor": 2773, "mma": 2774, "rland": 2775, "edin": 2776, "kwe": 2777, "lend": 2778, "aatre": 2779, "organ": 2780, "bruiken": 2781, "ib": 2782, "ppeli": 2783, "nstel": 2784, "pan": 2785, "west": 2786, "lege": 2787, "hul": 2788, "rite": 2789, "fun": 2790, "eet": 2791, "gevo": 2792, "bieden": 2793, "zorge": 2794, "atreg": 2795, "aatreg": 2796, "atrege": 2797, "aatrege": 2798, "prog": 2799, "lm": 2800, "atregel": 2801, "aatregel": 2802, "graa": 2803, "maatr": 2804, "maatre": 2805, "maatreg": 2806, "maatrege": 2807, "maatregel": 2808, "isse": 2809, "stie": 2810, "aanv": 2811, "rogr": 2812, "drage": 2813, "volk": 2814, "llega": 2815, "misc": 2816, "seri": 2817, "verst": 2818, "twer": 2819, "hen": 2820, "onderz": 2821, "heids": 2822, "misch": 2823, "isa": 2824, "disc": 2825, "enlijk": 2826, "cc": 2827, "finan": 2828, "ichtin": 2829, "snel": 2830, "inanc": 2831, "financ": 2832, "rik": 2833, "progr": 2834, "ters": 2835, "ichting": 2836, "nanci": 2837, "inanci": 2838, "financi": 2839, "10": 2840, "ancie": 2841, "strij": 2842, "rko": 2843, "eleg": 2844, "ramm": 2845, "derzo": 2846, "eding": 2847, "tli": 2848, "ogram": 2849, "nderzo": 2850, "kind": 2851, "onderzo": 2852, "ormat": 2853, "derzoe": 2854, "nderzoe": 2855, "onderzoe": 2856, "derzoek": 2857, "nderzoek": 2858, "onderzoek": 2859, "verm": 2860, "hrij": 2861, "chrij": 2862, "schrij": 2863, "rmati": 2864, "udi": 2865, "stat": 2866, "ilie": 2867, "nvo": 2868, "itvo": 2869, "format": 2870, "inv": 2871, "asi": 2872, "aarb": 2873, "ndaa": 2874, "uitvo": 2875, "lti": 2876, "lands": 2877, "rogra": 2878, "rwer": 2879, "bat": 2880, "eure": 2881, "erte": 2882, "beho": 2883, "inste": 2884, "rogram": 2885, "ves": 2886, "tijde": 2887, "gramm": 2888, "ebruiken": 2889, "gebruiken": 2890, "progra": 2891, "program": 2892, "ormati": 2893, "terr": 2894, "dens": 2895, "ppelij": 2896, "ppelijk": 2897, "erland": 2898, "happel": 2899, "teur": 2900, "appeli": 2901, "chappel": 2902, "happeli": 2903, "schappel": 2904, "chappeli": 2905, "schappeli": 2906, "appelij": 2907, "happelij": 2908, "appelijk": 2909, "chappelij": 2910, "happelijk": 2911, "schappelij": 2912, "chappelijk": 2913, "schappelijk": 2914, "ogramm": 2915, "zorgen": 2916, "rogramm": 2917, "rbee": 2918, "programm": 2919, "gani": 2920, "milie": 2921, "lv": 2922, "dw": 2923, "formati": 2924, "uat": 2925, "hik": 2926, "\u00e9": 2927, "ener": 2928, "herm": 2929, "auto": 2930, "nwer": 2931, "hill": 2932, "ract": 2933, "emb": 2934, "enne": 2935, "natu": 2936, "uim": 2937, "chik": 2938, "rbeel": 2939, "rbeeld": 2940, "ganis": 2941, "nad": 2942, "alit": 2943, "schik": 2944, "oem": 2945, "rent": 2946, "ekki": 2947, "nstell": 2948, "ppo": 2949, "vat": 2950, "rgani": 2951, "rmatie": 2952, "ormatie": 2953, "amma": 2954, "neel": 2955, "tec": 2956, "rijv": 2957, "ruc": 2958, "organi": 2959, "evoe": 2960, "derw": 2961, "dam": 2962, "rijs": 2963, "iens": 2964, "lever": 2965, "formatie": 2966, "nforma": 2967, "erder": 2968, "ucht": 2969, "hop": 2970, "rapp": 2971, "informa": 2972, "ogi": 2973, "rganis": 2974, "organis": 2975, "tlij": 2976, "nformat": 2977, "ice": 2978, "telij": 2979, "eau": 2980, "informat": 2981, "nformati": 2982, "itb": 2983, "kijk": 2984, "isere": 2985, "euren": 2986, "informati": 2987, "afs": 2988, "iel": 2989, "sr": 2990, "orbee": 2991, "enkoms": 2992, "enkomst": 2993, "iseren": 2994, "chill": 2995, "raf": 2996, "oorbee": 2997, "voorbee": 2998, "orbeel": 2999, "orbeeld": 3000, "oorbeel": 3001, "voorbeel": 3002, "oorbeeld": 3003, "voorbeeld": 3004, "kene": 3005, "tui": 3006, "pal": 3007, "kos": 3008, "ehee": 3009, "enkel": 3010, "ukk": 3011, "kort": 3012, "eba": 3013, "jzen": 3014, "rdeli": 3015, "telijk": 3016, "ijzen": 3017, "rtij": 3018, "natuu": 3019, "schill": 3020, "pos": 3021, "uti": 3022, "natuur": 3023, "geri": 3024, "uati": 3025, "htl": 3026, "aren": 3027, "pli": 3028, "chtl": 3029, "gevi": 3030, "vero": 3031, "aari": 3032, "andaa": 3033, "ewo": 3034, "tva": 3035, "ramma": 3036, "lden": 3037, "gramma": 3038, "derd": 3039, "aarin": 3040, "ligh": 3041, "ged": 3042, "ici": 3043, "ogramma": 3044, "rogramma": 3045, "programma": 3046, "toch": 3047, "jui": 3048, "gre": 3049, "gere": 3050, "kenen": 3051, "nformatie": 3052, "sd": 3053, "uatie": 3054, "informatie": 3055, "tlijn": 3056, "cto": 3057, "nbe": 3058, "llend": 3059, "trijd": 3060, "eslu": 3061, "cre": 3062, "rdr": 3063, "plan": 3064, "eslui": 3065, "isi": 3066, "hille": 3067, "beslu": 3068, "beslui": 3069, "esluit": 3070, "gevin": 3071, "besluit": 3072, "eenkoms": 3073, "olleg": 3074, "eenkomst": 3075, "ichtl": 3076, "nsen": 3077, "strijd": 3078, "colleg": 3079, "geving": 3080, "htli": 3081, "kb": 3082, "chtli": 3083, "chille": 3084, "nwerk": 3085, "htlij": 3086, "chtlij": 3087, "sli": 3088, "dp": 3089, "rschill": 3090, "erschill": 3091, "verschill": 3092, "nla": 3093, "lein": 3094, "ienst": 3095, "dia": 3096, "diens": 3097, "hillen": 3098, "vest": 3099, "chillen": 3100, "dienst": 3101, "schille": 3102, "schillen": 3103, "erwer": 3104, "htlijn": 3105, "chtlijn": 3106, "zoeken": 3107, "ichtli": 3108, "ichtlij": 3109, "ichtlijn": 3110, "sari": 3111, "richtl": 3112, "richtli": 3113, "richtlij": 3114, "richtlijn": 3115, "ekkin": 3116, "ekking": 3117, "q": 3118, "ssar": 3119, "comp": 3120, "ssari": 3121, "missa": 3122, "issar": 3123, "missar": 3124, "issari": 3125, "missari": 3126, "mmissa": 3127, "ommissa": 3128, "mmissar": 3129, "commissa": 3130, "ommissar": 3131, "mmissari": 3132, "commissar": 3133, "ommissari": 3134, "commissari": 3135, "nderw": 3136, "neer": 3137, "nancie": 3138, "inancie": 3139, "financie": 3140, "saris": 3141, "tste": 3142, "rsoo": 3143, "ersoo": 3144, "top": 3145, "ssaris": 3146, "bov": 3147, "issaris": 3148, "missaris": 3149, "mmissaris": 3150, "ommissaris": 3151, "commissaris": 3152, "sati": 3153, "ote": 3154, "erlij": 3155, "kwa": 3156, "rschille": 3157, "erschille": 3158, "rschillen": 3159, "verschille": 3160, "erschillen": 3161, "verschillen": 3162, "tvoe": 3163, "ociaa": 3164, "sociaa": 3165, "ociaal": 3166, "sociaal": 3167, "eschik": 3168, "mede": 3169, "ernem": 3170, "kra": 3171, "ekene": 3172, "bove": 3173, "pak": 3174, "verle": 3175, "ekenen": 3176, "kop": 3177, "erbe": 3178, "oof": 3179, "einde": 3180, "vu": 3181, "boven": 3182, "verwe": 3183, "enwer": 3184, "nsta": 3185, "parti": 3186, "welk": 3187, "soon": 3188, "grot": 3189, "onderw": 3190, "cherm": 3191, "scherm": 3192, "lighe": 3193, "lighei": 3194, "ligheid": 3195, "erhei": 3196, "rsoon": 3197, "ersoon": 3198, "persoo": 3199, "persoon": 3200, "atte": 3201, "erheid": 3202, "ruim": 3203, "kijke": 3204, "etg": 3205, "igg": 3206, "dure": 3207, "tvoer": 3208, "fic": 3209, "oora": 3210, "eerde": 3211, "ned": 3212, "satie": 3213, "rmen": 3214, "zaam": 3215, "contr": 3216, "mini": 3217, "htig": 3218, "chtig": 3219, "tik": 3220, "rekki": 3221, "tar": 3222, "ton": 3223, "voora": 3224, "lek": 3225, "ister": 3226, "mani": 3227, "rza": 3228, "ivi": 3229, "kaar": 3230, "aang": 3231, "antie": 3232, "ppor": 3233, "fel": 3234, "pport": 3235, "meli": 3236, "uitb": 3237, "eger": 3238, "rba": 3239, "enwerk": 3240, "kijken": 3241, "etge": 3242, "ligg": 3243, "itvoe": 3244, "itvoer": 3245, "nderd": 3246, "uitvoe": 3247, "uitvoer": 3248, "tijden": 3249, "omisc": 3250, "nschapp": 3251, "isat": 3252, "enschapp": 3253, "nschappe": 3254, "eest": 3255, "omisch": 3256, "enschappe": 3257, "teed": 3258, "steed": 3259, "jl": 3260, "spra": 3261, "jdens": 3262, "nlan": 3263, "ijdens": 3264, "bei": 3265, "nomis": 3266, "teeds": 3267, "steeds": 3268, "onomis": 3269, "ione": 3270, "wijzen": 3271, "akel": 3272, "mmen": 3273, "nomisc": 3274, "nomisch": 3275, "onomisc": 3276, "onomisch": 3277, "nor": 3278, "tbr": 3279, "und": 3280, "mente": 3281, "lar": 3282, "olu": 3283, "tijdens": 3284, "ijl": 3285, "url": 3286, "nede": 3287, "bsi": 3288, "mun": 3289, "lst": 3290, "loe": 3291, "elden": 3292, "rekkin": 3293, "rekking": 3294, "trekki": 3295, "trekkin": 3296, "trekking": 3297, "web": 3298, "eerst": 3299, "achter": 3300, "vervo": 3301, "terna": 3302, "olo": 3303, "ekend": 3304, "fie": 3305, "conomis": 3306, "economis": 3307, "beha": 3308, "conomisc": 3309, "economisc": 3310, "conomisch": 3311, "economisch": 3312, "igge": 3313, "ollega": 3314, "collega": 3315, "vel": 3316, "dern": 3317, "menw": 3318, "erme": 3319, "ndelin": 3320, "ndeling": 3321, "juis": 3322, "juist": 3323, "esche": 3324, "erdr": 3325, "gend": 3326, "ndere": 3327, "onl": 3328, "uri": 3329, "tit": 3330, "sec": 3331, "amenw": 3332, "samenw": 3333, "last": 3334, "andeli": 3335, "deba": 3336, "ctu": 3337, "anb": 3338, "erda": 3339, "tua": 3340, "des": 3341, "ligge": 3342, "cer": 3343, "ism": 3344, "ebat": 3345, "lgens": 3346, "menwe": 3347, "olgens": 3348, "volgens": 3349, "toek": 3350, "kost": 3351, "nderh": 3352, "debat": 3353, "mind": 3354, "amp": 3355, "teru": 3356, "menwer": 3357, "alite": 3358, "amenwe": 3359, "samenwe": 3360, "ecti": 3361, "mom": 3362, "old": 3363, "amenwer": 3364, "td": 3365, "menwerk": 3366, "samenwer": 3367, "amenwerk": 3368, "samenwerk": 3369, "boek": 3370, "illend": 3371, "pele": 3372, "iggen": 3373, "woorde": 3374, "liggen": 3375, "dz": 3376, "geh": 3377, "cri": 3378, "ika": 3379, "chie": 3380, "ire": 3381, "mmin": 3382, "nist": 3383, "achten": 3384, "imm": 3385, "estie": 3386, "alg": 3387, "mming": 3388, "cra": 3389, "rnat": 3390, "tti": 3391, "tsc": 3392, "iligh": 3393, "ilighe": 3394, "ilighei": 3395, "iligheid": 3396, "eiligh": 3397, "eilighe": 3398, "eilighei": 3399, "eiligheid": 3400, "dre": 3401, "tens": 3402, "rdo": 3403, "luc": 3404, "ernat": 3405, "yst": 3406, "uurl": 3407, "ntro": 3408, "son": 3409, "legen": 3410, "tati": 3411, "ternat": 3412, "alitei": 3413, "aliteit": 3414, "ieze": 3415, "isati": 3416, "rnati": 3417, "nderen": 3418, "rstell": 3419, "oto": 3420, "ndh": 3421, "ernati": 3422, "erbi": 3423, "vre": 3424, "appo": 3425, "rans": 3426, "ternati": 3427, "veiligh": 3428, "veilighe": 3429, "veilighei": 3430, "veiligheid": 3431, "rande": 3432, "isatie": 3433, "onee": 3434, "fde": 3435, "arme": 3436, "appor": 3437, "apport": 3438, "rappo": 3439, "iem": 3440, "rappor": 3441, "rapport": 3442, "hillend": 3443, "chillend": 3444, "schillend": 3445, "rschillend": 3446, "erschillend": 3447, "verschillend": 3448, "99": 3449, "spro": 3450, "minde": 3451, "terk": 3452, "rio": 3453, "ctor": 3454, "endi": 3455, "onders": 3456, "hn": 3457, "reed": 3458, "prak": 3459, "ameli": 3460, "lema": 3461, "pres": 3462, "minder": 3463, "tgev": 3464, "entr": 3465, "porte": 3466, "igd": 3467, "nschappel": 3468, "enschappel": 3469, "nschappeli": 3470, "enschappeli": 3471, "nschappelij": 3472, "enschappelij": 3473, "nschappelijk": 3474, "enschappelijk": 3475, "aring": 3476, "n-": 3477, "emmi": 3478, "tbre": 3479, "mome": 3480, "vall": 3481, "emaa": 3482, "ledi": 3483, "emme": 3484, "oment": 3485, "lez": 3486, "momen": 3487, "moment": 3488, "reenk": 3489, "reenko": 3490, "reenkom": 3491, "ereenk": 3492, "vereenk": 3493, "ereenko": 3494, "vereenko": 3495, "ereenkom": 3496, "vereenkom": 3497, "overeenk": 3498, "overeenko": 3499, "overeenkom": 3500, "besche": 3501, "mod": 3502, "ordeli": 3503, "pect": 3504, "nts": 3505, "ritei": 3506, "spect": 3507, "riteit": 3508, "emmin": 3509, "temmi": 3510, "stemmi": 3511, "emming": 3512, "vend": 3513, "rscha": 3514, "oordeli": 3515, "racti": 3516, "hrijv": 3517, "chrijv": 3518, "schrijv": 3519, "oeve": 3520, "aanb": 3521, "melij": 3522, "melijk": 3523, "som": 3524, "erug": 3525, "orl": 3526, "temmin": 3527, "temming": 3528, "alge": 3529, "stemmin": 3530, "stemming": 3531, "peci": 3532, "terug": 3533, "speci": 3534, "oes": 3535, "arn": 3536, "tike": 3537, "yste": 3538, "ensen": 3539, "nere": 3540, "pn": 3541, "ikel": 3542, "loss": 3543, "passe": 3544, "via": 3545, "situ": 3546, "rum": 3547, "kn": 3548, "twoorde": 3549, "up": 3550, "ntwoorde": 3551, "ciee": 3552, "antwoorde": 3553, "derla": 3554, "edu": 3555, "cieel": 3556, "angs": 3557, "eti": 3558, "verdr": 3559, "itua": 3560, "erscha": 3561, "rkl": 3562, "vent": 3563, "kiez": 3564, "ifi": 3565, "demo": 3566, "tsch": 3567, "neder": 3568, "tuat": 3569, "urli": 3570, "tuati": 3571, "anie": 3572, "sys": 3573, "uurli": 3574, "ractie": 3575, "situa": 3576, "ituat": 3577, "situat": 3578, "ituati": 3579, "situati": 3580, "itg": 3581, "tuatie": 3582, "anse": 3583, "xt": 3584, "dk": 3585, "erga": 3586, "klei": 3587, "beid": 3588, "erzi": 3589, "ermin": 3590, "qu": 3591, "allen": 3592, "tuurl": 3593, "ituatie": 3594, "situatie": 3595, "amelij": 3596, "amelijk": 3597, "mbe": 3598, "ldi": 3599, "urlij": 3600, "uurlij": 3601, "oste": 3602, "urlijk": 3603, "uurlijk": 3604, "richte": 3605, "kad": 3606, "ture": 3607, "escher": 3608, "derlan": 3609, "derland": 3610, "tuurli": 3611, "vaardi": 3612, "syst": 3613, "rve": 3614, "orme": 3615, "keni": 3616, "nsi": 3617, "erlijk": 3618, "ops": 3619, "tuurlij": 3620, "tuurlijk": 3621, "escherm": 3622, "bescher": 3623, "erkl": 3624, "syste": 3625, "egro": 3626, "000": 3627, "isme": 3628, "raal": 3629, "uitg": 3630, "gewo": 3631, "ennen": 3632, "eik": 3633, "verzo": 3634, "uig": 3635, "bescherm": 3636, "etrekki": 3637, "betrekki": 3638, "etrekkin": 3639, "betrekkin": 3640, "etrekking": 3641, "betrekking": 3642, "roti": 3643, "arbi": 3644, "ror": 3645, "lieu": 3646, "klein": 3647, "reni": 3648, "akt": 3649, "ule": 3650, "nwerki": 3651, "nwerkin": 3652, "tof": 3653, "nwerking": 3654, "luch": 3655, "valle": 3656, "ima": 3657, "assi": 3658, "gio": 3659, "ereni": 3660, "ilieu": 3661, "milieu": 3662, "wal": 3663, "trou": 3664, "ork": 3665, "rijve": 3666, "renig": 3667, "erenig": 3668, "rgel": 3669, "lfs": 3670, "ext": 3671, "lucht": 3672, "env": 3673, "opn": 3674, "beu": 3675, "gene": 3676, "rf": 3677, "ederl": 3678, "vaardig": 3679, "nier": 3680, "oj": 3681, "oneel": 3682, "rmo": 3683, "aarbi": 3684, "ppen": 3685, "tech": 3686, "mig": 3687, "ctief": 3688, "toen": 3689, "s-": 3690, "neren": 3691, "prij": 3692, "ave": 3693, "wens": 3694, "rander": 3695, "iep": 3696, "aarm": 3697, "lech": 3698, "ltij": 3699, "sma": 3700, "ltijd": 3701, "ekom": 3702, "tuk": 3703, "erba": 3704, "trouw": 3705, "ederla": 3706, "lecht": 3707, "sterk": 3708, "gerin": 3709, "sw": 3710, "enr": 3711, "kade": 3712, "kenne": 3713, "ehan": 3714, "nederl": 3715, "nstelli": 3716, "nstellin": 3717, "nstelling": 3718, "nederla": 3719, "out": 3720, "bro": 3721, "centr": 3722, "tho": 3723, "richten": 3724, "stuk": 3725, "atuurl": 3726, "tic": 3727, "schie": 3728, "natuurl": 3729, "atuurli": 3730, "ectie": 3731, "natuurli": 3732, "bri": 3733, "voort": 3734, "geno": 3735, "verte": 3736, "beste": 3737, "atuurlij": 3738, "oede": 3739, "natuurlij": 3740, "atuurlijk": 3741, "natuurlijk": 3742, "tori": 3743, "egio": 3744, "tiv": 3745, "andelin": 3746, "andeling": 3747, "init": 3748, "ederlan": 3749, "ederland": 3750, "oda": 3751, "slo": 3752, "gering": 3753, "ekeni": 3754, "nau": 3755, "nederlan": 3756, "nederland": 3757, "elfs": 3758, "trat": 3759, "leidi": 3760, "leidin": 3761, "leiding": 3762, "want": 3763, "alti": 3764, "passen": 3765, "tran": 3766, "ehand": 3767, "vens": 3768, "nzie": 3769, "rstelle": 3770, "gezi": 3771, "zelfs": 3772, "eerder": 3773, "derha": 3774, "oplo": 3775, "lise": 3776, "jec": 3777, "oeko": 3778, "plic": 3779, "regio": 3780, "fei": 3781, "rstellen": 3782, "nood": 3783, "vereni": 3784, "kwes": 3785, "kwest": 3786, "westi": 3787, "rtr": 3788, "kwesti": 3789, "westie": 3790, "kwestie": 3791, "verenig": 3792, "zwa": 3793, "rdra": 3794, "voeg": 3795, "arbij": 3796, "aarbij": 3797, "onen": 3798, "ald": 3799, "oorl": 3800, "tn": 3801, "beur": 3802, "waari": 3803, "waarin": 3804, "kader": 3805, "vallen": 3806, "ocr": 3807, "brei": 3808, "altij": 3809, "rad": 3810, "altijd": 3811, "enwerki": 3812, "enwerkin": 3813, "lgem": 3814, "une": 3815, "too": 3816, "enwerking": 3817, "ntere": 3818, "pz": 3819, "zod": 3820, "var": 3821, "itten": 3822, "nze": 3823, "iezen": 3824, "ial": 3825, "namel": 3826, "lot": 3827, "nameli": 3828, "grat": 3829, "namelij": 3830, "namelijk": 3831, "genh": 3832, "rer": 3833, "natie": 3834, "reenkoms": 3835, "ereenkoms": 3836, "reenkomst": 3837, "vereenkoms": 3838, "ereenkomst": 3839, "vereenkomst": 3840, "overeenkoms": 3841, "overeenkomst": 3842, "orw": 3843, "nzien": 3844, "ervan": 3845, "band": 3846, "menwerki": 3847, "amenwerki": 3848, "menwerkin": 3849, "samenwerki": 3850, "amenwerkin": 3851, "samenwerkin": 3852, "menwerking": 3853, "amenwerking": 3854, "samenwerking": 3855, "cati": 3856, "emaal": 3857, "slec": 3858, "won": 3859, "chn": 3860, "niti": 3861, "toeko": 3862, "frac": 3863, "oekom": 3864, "toekom": 3865, "tred": 3866, "chu": 3867, "grati": 3868, "fract": 3869, "fracti": 3870, "truc": 3871, "enla": 3872, "fractie": 3873, "slech": 3874, "slecht": 3875, "gsp": 3876, "dza": 3877, "erant": 3878, "ergel": 3879, "rov": 3880, "rgi": 3881, "dac": 3882, "tm": 3883, "fv": 3884, "rijven": 3885, "blo": 3886, "ratis": 3887, "lgeme": 3888, "oef": 3889, "wac": 3890, "rzie": 3891, "handeli": 3892, "nisa": 3893, "elg": 3894, "vange": 3895, "ontro": 3896, "oorw": 3897, "beschi": 3898, "mber": 3899, "begro": 3900, "hore": 3901, "cul": 3902, "nnin": 3903, "echn": 3904, "noem": 3905, "oral": 3906, "lemaa": 3907, "achti": 3908, "techn": 3909, "erdra": 3910, "rneme": 3911, "ool": 3912, "iz": 3913, "wach": 3914, "nten": 3915, "wacht": 3916, "eda": 3917, "mt": 3918, "nisat": 3919, "armee": 3920, "gelijkh": 3921, "gelijkhe": 3922, "choo": 3923, "algem": 3924, "onderh": 3925, "algeme": 3926, "aarme": 3927, "nning": 3928, "trol": 3929, "opp": 3930, "mmu": 3931, "handelin": 3932, "schoo": 3933, "vand": 3934, "handeling": 3935, "para": 3936, "boo": 3937, "beschik": 3938, "rtik": 3939, "verdra": 3940, "aarmee": 3941, "solu": 3942, "artik": 3943, "otin": 3944, "tikel": 3945, "breid": 3946, "rgeli": 3947, "rtike": 3948, "artike": 3949, "rtikel": 3950, "artikel": 3951, "leiden": 3952, "contro": 3953, "rgelij": 3954, "rgelijk": 3955, "get": 3956, "emmen": 3957, "teel": 3958, "crat": 3959, "reik": 3960, "ooral": 3961, "vooral": 3962, "tim": 3963, "catie": 3964, "initi": 3965, "gelijkhei": 3966, "gelijkheid": 3967, "rika": 3968, "ocra": 3969, "rtu": 3970, "rze": 3971, "prijs": 3972, "lemaal": 3973, "gt": 3974, "ergeli": 3975, "ergelij": 3976, "ergelijk": 3977, "niv": 3978, "opt": 3979, "evere": 3980, "oting": 3981, "norm": 3982, "moo": 3983, "anken": 3984, "groti": 3985, "lj": 3986, "pelen": 3987, "ldo": 3988, "rzien": 3989, "liser": 3990, "nce": 3991, "plos": 3992, "lla": 3993, "mmun": 3994, "embe": 3995, "feit": 3996, "nive": 3997, "rotin": 3998, "roting": 3999, "grotin": 4000, "groting": 4001, "lb": 4002, "adi": 4003, "itbr": 4004, "mul": 4005, "nre": 4006, "verant": 4007, "ngsp": 4008, "uitbr": 4009, "euk": 4010, "oeme": 4011, "graag": 4012, "sve": 4013, "rend": 4014, "rantw": 4015, "indie": 4016, "off": 4017, "erantw": 4018, "rantwo": 4019, "verantw": 4020, "erantwo": 4021, "rantwoo": 4022, "verantwo": 4023, "erantwoo": 4024, "rantwoor": 4025, "verantwoo": 4026, "erantwoor": 4027, "verantwoor": 4028, "egev": 4029, "rantwoord": 4030, "erantwoord": 4031, "verantwoord": 4032, "nterna": 4033, "interna": 4034, "jzi": 4035, "ijzi": 4036, "anier": 4037, "ruit": 4038, "mpe": 4039, "ekoms": 4040, "iver": 4041, "ntrol": 4042, "ekomst": 4043, "manie": 4044, "terin": 4045, "tev": 4046, "oekoms": 4047, "toekoms": 4048, "oekomst": 4049, "toekomst": 4050, "ontrol": 4051, "manier": 4052, "nct": 4053, "reger": 4054, "control": 4055, "lgemee": 4056, "lgemeen": 4057, "onv": 4058, "iat": 4059, "egeri": 4060, "indien": 4061, "ruct": 4062, "rlo": 4063, "zitten": 4064, "groep": 4065, "nsti": 4066, "egrot": 4067, "struc": 4068, "truct": 4069, "moc": 4070, "crati": 4071, "begrot": 4072, "rnatio": 4073, "ernatio": 4074, "rnation": 4075, "ernation": 4076, "struct": 4077, "rnationa": 4078, "ernationa": 4079, "ffi": 4080, "nternat": 4081, "internat": 4082, "obe": 4083, "elege": 4084, "nternati": 4085, "ternatio": 4086, "internati": 4087, "nternatio": 4088, "ternation": 4089, "internatio": 4090, "nternation": 4091, "internation": 4092, "gar": 4093, "ternationa": 4094, "nternationa": 4095, "internationa": 4096, "agi": 4097, "rschap": 4098, "ail": 4099, "enlan": 4100, "logi": 4101, "ember": 4102, "emer": 4103, "gde": 4104, "geg": 4105, "nnee": 4106, "instel": 4107, "ept": 4108, "kennen": 4109, "sge": 4110, "enta": 4111, "lac": 4112, "strat": 4113, "evolg": 4114, "gevol": 4115, "vanda": 4116, "artij": 4117, "nisati": 4118, "gevolg": 4119, "ject": 4120, "algemee": 4121, "algemeen": 4122, "egerin": 4123, "verp": 4124, "mocr": 4125, "role": 4126, "egroti": 4127, "begroti": 4128, "egrotin": 4129, "begrotin": 4130, "egroting": 4131, "begroting": 4132, "anw": 4133, "ria": 4134, "emoc": 4135, "democ": 4136, "nisatie": 4137, "emocr": 4138, "democr": 4139, "mocra": 4140, "alin": 4141, "schu": 4142, "emocra": 4143, "democra": 4144, "erschap": 4145, "itbre": 4146, "uitbre": 4147, "ndu": 4148, "danke": 4149, "beta": 4150, "danken": 4151, "onf": 4152, "aran": 4153, "geleg": 4154, "oplos": 4155, "egering": 4156, "instell": 4157, "ebs": 4158, "egenh": 4159, "mense": 4160, "vandaa": 4161, "horen": 4162, "aange": 4163, "pporte": 4164, "webs": 4165, "meni": 4166, "teem": 4167, "partij": 4168, "vangen": 4169, "tekene": 4170, "ecto": 4171, "regeri": 4172, "regerin": 4173, "regering": 4174, "tekenen": 4175, "woon": 4176, "ystee": 4177, "steem": 4178, "ysteem": 4179, "ensi": 4180, "systee": 4181, "systeem": 4182, "onli": 4183, "elegen": 4184, "egeve": 4185, "gelege": 4186, "gelegen": 4187, "rdee": 4188, "opz": 4189, "ukke": 4190, "kam": 4191, "ndb": 4192, "lus": 4193, "ommu": 4194, "ploss": 4195, "%": 4196, "oploss": 4197, "verga": 4198, "ezel": 4199, "commu": 4200, "ommun": 4201, "nva": 4202, "commun": 4203, "veri": 4204, "bijv": 4205, "oemen": 4206, "eper": 4207, "egeven": 4208, "isti": 4209, "kenin": 4210, "lati": 4211, "zing": 4212, "kening": 4213, "tga": 4214, "wann": 4215, "tap": 4216, "oudi": 4217, "oele": 4218, "rdeel": 4219, "trole": 4220, "npa": 4221, "rechts": 4222, "conf": 4223, "wanne": 4224, "tione": 4225, "nneer": 4226, "tscha": 4227, "annee": 4228, "eenschapp": 4229, "meenschapp": 4230, "emeenschapp": 4231, "gemeenschapp": 4232, "eenschappe": 4233, "meenschappe": 4234, "emeenschappe": 4235, "gemeenschappe": 4236, "spele": 4237, "wannee": 4238, "anneer": 4239, "wanneer": 4240, "ntrole": 4241, "apporte": 4242, "eenschappel": 4243, "meenschappel": 4244, "eenschappeli": 4245, "emeenschappel": 4246, "meenschappeli": 4247, "eenschappelij": 4248, "gemeenschappel": 4249, "emeenschappeli": 4250, "meenschappelij": 4251, "eenschappelijk": 4252, "gemeenschappeli": 4253, "emeenschappelij": 4254, "meenschappelijk": 4255, "gemeenschappelij": 4256, "emeenschappelijk": 4257, "gemeenschappelijk": 4258, "ontrole": 4259, "rapporte": 4260, "hoev": 4261, "lles": 4262, "atisc": 4263, "ledig": 4264, "atisch": 4265, "controle": 4266, "hoeve": 4267, "hope": 4268, "etal": 4269, "sul": 4270, "verbe": 4271, "rteu": 4272, "jp": 4273, "rteur": 4274, "ector": 4275, "orteu": 4276, "porteu": 4277, "orteur": 4278, "porteur": 4279, "ndr": 4280, "nwo": 4281, "elp": 4282, "rdelij": 4283, "evens": 4284, "15": 4285, "voll": 4286, "rdelijk": 4287, "temme": 4288, "gehe": 4289, "lka": 4290, "ncti": 4291, "keur": 4292, "nsu": 4293, "nsel": 4294, "span": 4295, "genhe": 4296, "stemme": 4297, "alise": 4298, "nstr": 4299, "ilit": 4300, "lled": 4301, "ofd": 4302, "ars": 4303, "wijzi": 4304, "genhei": 4305, "genheid": 4306, "volle": 4307, "ekenin": 4308, "ekening": 4309, "ndelij": 4310, "ndelijk": 4311, "osi": 4312, "temmen": 4313, "wez": 4314, "edo": 4315, "emin": 4316, "stemmen": 4317, "aarn": 4318, "gege": 4319, "spor": 4320, "epal": 4321, "nland": 4322, "wijs": 4323, "oofd": 4324, "ije": 4325, "egenhe": 4326, "rect": 4327, "everen": 4328, "tali": 4329, "behan": 4330, "bra": 4331, "uiter": 4332, "dach": 4333, "rnationaa": 4334, "ernationaa": 4335, "rnationaal": 4336, "ternationaa": 4337, "ernationaal": 4338, "nternationaa": 4339, "ternationaal": 4340, "internationaa": 4341, "nternationaal": 4342, "internationaal": 4343, "epas": 4344, "egenhei": 4345, "egenheid": 4346, "legenh": 4347, "legenhe": 4348, "anz": 4349, "egeli": 4350, "verge": 4351, "dacht": 4352, "tuig": 4353, "ijp": 4354, "hrijve": 4355, "chrijve": 4356, "schrijve": 4357, "legenhei": 4358, "legenheid": 4359, "bil": 4360, "ller": 4361, "ehande": 4362, "ehandel": 4363, "uz": 4364, "pporteu": 4365, "apporteu": 4366, "pporteur": 4367, "rapporteu": 4368, "apporteur": 4369, "rapporteur": 4370, "elegenh": 4371, "gelegenh": 4372, "verhe": 4373, "elegenhe": 4374, "gelegenhe": 4375, "alles": 4376, "kst": 4377, "gn": 4378, "ewi": 4379, "vul": 4380, "asti": 4381, "mac": 4382, "ekt": 4383, "ced": 4384, "inis": 4385, "elegenhei": 4386, "gelegenhei": 4387, "elegenheid": 4388, "gelegenheid": 4389, "daad": 4390, "rto": 4391, "atten": 4392, "kba": 4393, "vit": 4394, "rpl": 4395, "rdrag": 4396, "ester": 4397, "edur": 4398, "pij": 4399, "oces": 4400, "roces": 4401, "proces": 4402, "inc": 4403, "aast": 4404, "owe": 4405, "behand": 4406, "ordi": 4407, "behande": 4408, "behandel": 4409, "basi": 4410, "edure": 4411, "hoof": 4412, "tsl": 4413, "lings": 4414, "mate": 4415, "olled": 4416, "jvo": 4417, "\u00ebn": 4418, "akeli": 4419, "lledi": 4420, "ijvo": 4421, "uee": 4422, "tera": 4423, "daag": 4424, "olledi": 4425, "lledig": 4426, "olledig": 4427, "volled": 4428, "volledi": 4429, "volledig": 4430, "ilj": 4431, "levere": 4432, "leveren": 4433, "ndele": 4434, "anisa": 4435, "anisat": 4436, "tab": 4437, "nemer": 4438, "ntee": 4439, "hoofd": 4440, "afv": 4441, "bijvo": 4442, "pd": 4443, "aliser": 4444, "traa": 4445, "ndelen": 4446, "pv": 4447, "ndern": 4448, "ganisa": 4449, "rganisa": 4450, "organisa": 4451, "ganisat": 4452, "rganisat": 4453, "organisat": 4454, "bepal": 4455, "erdrag": 4456, "ocrat": 4457, "bezo": 4458, "verzoe": 4459, "toep": 4460, "eso": 4461, "nov": 4462, "ertr": 4463, "jvoo": 4464, "verdrag": 4465, "ijvoo": 4466, "jvoor": 4467, "ijvoor": 4468, "ime": 4469, "arva": 4470, "erij": 4471, "orit": 4472, "dic": 4473, "lfd": 4474, "ikken": 4475, "bijvoo": 4476, "lta": 4477, "jvoorb": 4478, "jvoorbe": 4479, "bijvoor": 4480, "jvoorbee": 4481, "ezin": 4482, "week": 4483, "jvoorbeel": 4484, "jvoorbeeld": 4485, "ijvoorb": 4486, "bijvoorb": 4487, "ijvoorbe": 4488, "bijvoorbe": 4489, "ijvoorbee": 4490, "bijvoorbee": 4491, "ijvoorbeel": 4492, "bijvoorbeel": 4493, "ijvoorbeeld": 4494, "bijvoorbeeld": 4495, "asis": 4496, "oeri": 4497, "eac": 4498, "elfd": 4499, "ueel": 4500, "jds": 4501, "ijds": 4502, "erpl": 4503, "orstell": 4504, "maan": 4505, "ezig": 4506, "rere": 4507, "rantwoorde": 4508, "erantwoorde": 4509, "verantwoorde": 4510, "zelfd": 4511, "oorstell": 4512, "voorstell": 4513, "dent": 4514, "lede": 4515, "aarva": 4516, "oepa": 4517, "arvan": 4518, "nger": 4519, "ereik": 4520, "toepa": 4521, "aarvan": 4522, "ossi": 4523, "oepas": 4524, "toepas": 4525, "lfde": 4526, "bor": 4527, "elfde": 4528, "cere": 4529, "rsp": 4530, "rho": 4531, "zelfde": 4532, "meer": 4533, "ulp": 4534, "basis": 4535, "ntra": 4536, "naf": 4537, "eike": 4538, "ordelij": 4539, "ordelijk": 4540, "ezie": 4541, "eune": 4542, "entee": 4543, "tatie": 4544, "reren": 4545, "tering": 4546, "unc": 4547, "oordelij": 4548, "ogelijkh": 4549, "mogelijkh": 4550, "ogelijkhe": 4551, "mogelijkhe": 4552, "oordelijk": 4553, "wali": 4554, "aling": 4555, "kbaa": 4556, "unen": 4557, "pti": 4558, "kbaar": 4559, "rwerp": 4560, "adv": 4561, "nkeli": 4562, "kwal": 4563, "erze": 4564, "stij": 4565, "blijk": 4566, "sho": 4567, "ane": 4568, "rdoo": 4569, "ezon": 4570, "deni": 4571, "derst": 4572, "mie": 4573, "ket": 4574, "kwali": 4575, "ocrati": 4576, "ubl": 4577, "nteel": 4578, "eunen": 4579, "noeme": 4580, "derne": 4581, "hale": 4582, "digh": 4583, "epass": 4584, "nderne": 4585, "epen": 4586, "dighe": 4587, "enteel": 4588, "vertr": 4589, "lte": 4590, "oepass": 4591, "toepass": 4592, "hrijven": 4593, "chrijven": 4594, "schrijven": 4595, "rbet": 4596, "iu": 4597, "mocrat": 4598, "gezo": 4599, "12": 4600, "ogelijkhei": 4601, "mogelijkhei": 4602, "ogelijkheid": 4603, "mogelijkheid": 4604, "andb": 4605, "emocrat": 4606, "democrat": 4607, "erwa": 4608, "verkl": 4609, "tschap": 4610, "ase": 4611, "nderst": 4612, "ondern": 4613, "ervoo": 4614, "ervoor": 4615, "onderne": 4616, "ece": 4617, "rdige": 4618, "sect": 4619, "dernem": 4620, "ndernem": 4621, "ondernem": 4622, "vold": 4623, "etgev": 4624, "espr": 4625, "stis": 4626, "pakk": 4627, "inist": 4628, "usi": 4629, "ober": 4630, "nisc": 4631, "ezond": 4632, "enni": 4633, "wetg": 4634, "wetge": 4635, "wetgev": 4636, "onderd": 4637, "erec": 4638, "erre": 4639, "odz": 4640, "eiken": 4641, "tbrei": 4642, "hulp": 4643, "menin": 4644, "mocrati": 4645, "gezon": 4646, "mening": 4647, "itbrei": 4648, "tbreid": 4649, "uitbrei": 4650, "itbreid": 4651, "uitbreid": 4652, "utie": 4653, "gegev": 4654, "emocrati": 4655, "democrati": 4656, "gegeve": 4657, "gegeven": 4658, "mers": 4659, "ndaag": 4660, "anisati": 4661, "oldo": 4662, "stisc": 4663, "renti": 4664, "stisch": 4665, "gezond": 4666, "dighei": 4667, "digheid": 4668, "sum": 4669, "noemen": 4670, "pm": 4671, "iati": 4672, "cor": 4673, "adr": 4674, "ldoe": 4675, "trum": 4676, "anisatie": 4677, "voldo": 4678, "onds": 4679, "ganisati": 4680, "rganisati": 4681, "organisati": 4682, "igde": 4683, "fec": 4684, "bsit": 4685, "bsite": 4686, "gisc": 4687, "mentee": 4688, "etek": 4689, "ebsi": 4690, "websi": 4691, "ebsit": 4692, "websit": 4693, "nkelij": 4694, "nkelijk": 4695, "oodz": 4696, "akelij": 4697, "ebsite": 4698, "website": 4699, "iger": 4700, "ganisatie": 4701, "rganisatie": 4702, "organisatie": 4703, "voord": 4704, "sco": 4705, "minis": 4706, "teune": 4707, "ldoen": 4708, "steune": 4709, "osten": 4710, "akelijk": 4711, "perk": 4712, "18": 4713, "nisch": 4714, "tk": 4715, "oldoe": 4716, "voldoe": 4717, "oldoen": 4718, "voldoen": 4719, "halen": 4720, "beve": 4721, "verzoek": 4722, "enland": 4723, "ubli": 4724, "fect": 4725, "teunen": 4726, "zoda": 4727, "steunen": 4728, "gisch": 4729, "onderst": 4730, "menteel": 4731, "minist": 4732, "bijz": 4733, "mode": 4734, "rwaa": 4735, "rdoor": 4736, "odza": 4737, "plich": 4738, "oodza": 4739, "plicht": 4740, "kg": 4741, "leden": 4742, "noodz": 4743, "rake": 4744, "noodza": 4745, "reike": 4746, "reiken": 4747, "sver": 4748, "stap": 4749, "moed": 4750, "eteke": 4751, "arte": 4752, "eteken": 4753, "rwaar": 4754, "pale": 4755, "jon": 4756, "ndp": 4757, "nnem": 4758, "daarv": 4759, "rsta": 4760, "dragen": 4761, "lant": 4762, "moei": 4763, "erbet": 4764, "andele": 4765, "ute": 4766, "siti": 4767, "term": 4768, "andelen": 4769, "nle": 4770, "elst": 4771, "nho": 4772, "evoeg": 4773, "fil": 4774, "erech": 4775, "beter": 4776, "rev": 4777, "erecht": 4778, "ormi": 4779, "rkel": 4780, "erwerp": 4781, "posi": 4782, "onta": 4783, "ngev": 4784, "betek": 4785, "beteke": 4786, "beteken": 4787, "krac": 4788, "rvoe": 4789, "verba": 4790, "krach": 4791, "risi": 4792, "ceren": 4793, "kracht": 4794, "ucti": 4795, "woordel": 4796, "lut": 4797, "tele": 4798, "secto": 4799, "sector": 4800, "woordeli": 4801, "woordelij": 4802, "maand": 4803, "vatt": 4804, "woordelijk": 4805, "let": 4806, "rukk": 4807, "ndhe": 4808, "mmig": 4809, "osit": 4810, "dbo": 4811, "tad": 4812, "verbet": 4813, "cce": 4814, "lve": 4815, "erho": 4816, "twoordel": 4817, "ntwoordel": 4818, "antwoordel": 4819, "rantwoordel": 4820, "erantwoordel": 4821, "verantwoordel": 4822, "roj": 4823, "itga": 4824, "rkla": 4825, "twoordeli": 4826, "ntwoordeli": 4827, "twoordelij": 4828, "antwoordeli": 4829, "ntwoordelij": 4830, "rantwoordeli": 4831, "antwoordelij": 4832, "erantwoordeli": 4833, "rantwoordelij": 4834, "verantwoordeli": 4835, "erantwoordelij": 4836, "verantwoordelij": 4837, "twoordelijk": 4838, "ntwoordelijk": 4839, "antwoordelijk": 4840, "rantwoordelijk": 4841, "erantwoordelijk": 4842, "verantwoordelijk": 4843, "rakt": 4844, "andaag": 4845, "vandaag": 4846, "uitga": 4847, "nza": 4848, "rbete": 4849, "erbete": 4850, "verbete": 4851, "redi": 4852, "efe": 4853, "huid": 4854, "ebo": 4855, "ingsp": 4856, "hart": 4857, "erkla": 4858, "trans": 4859, "rbeter": 4860, "orstelle": 4861, "oorstelle": 4862, "orstellen": 4863, "voorstelle": 4864, "oorstellen": 4865, "voorstellen": 4866, "erbeter": 4867, "verbeter": 4868, "\u00ebr": 4869, "vern": 4870, "uut": 4871, "onin": 4872, "jks": 4873, "voorw": 4874, "ijks": 4875, "sult": 4876, "tend": 4877, "derg": 4878, "uder": 4879, "posit": 4880, "nciee": 4881, "anciee": 4882, "nanciee": 4883, "inanciee": 4884, "financiee": 4885, "ncieel": 4886, "ancieel": 4887, "nancieel": 4888, "inancieel": 4889, "financieel": 4890, "rri": 4891, "az": 4892, "edel": 4893, "jzo": 4894, "ijzo": 4895, "jzon": 4896, "ijzon": 4897, "i\u00ebn": 4898, "ndhei": 4899, "auw": 4900, "ndheid": 4901, "wei": 4902, "orite": 4903, "reidi": 4904, "reidin": 4905, "erie": 4906, "acc": 4907, "bijzo": 4908, "jzond": 4909, "bijzon": 4910, "ijzond": 4911, "jzonde": 4912, "bijzond": 4913, "ijzonde": 4914, "jzonder": 4915, "bijzonde": 4916, "ijzonder": 4917, "bijzonder": 4918, "reiding": 4919, "rbo": 4920, "rten": 4921, "rentie": 4922, "ositi": 4923, "betal": 4924, "positi": 4925, "erneme": 4926, "ginn": 4927, "oritei": 4928, "oriteit": 4929, "sitie": 4930, "geren": 4931, "drukk": 4932, "elka": 4933, "ewel": 4934, "icat": 4935, "vaak": 4936, "egri": 4937, "kkelij": 4938, "kkelijk": 4939, "wate": 4940, "hin": 4941, "ginne": 4942, "ergi": 4943, "edra": 4944, "hopen": 4945, "esu": 4946, "water": 4947, "rouwe": 4948, "tp": 4949, "ami": 4950, "iev": 4951, "clu": 4952, "mte": 4953, "instelli": 4954, "instellin": 4955, "instelling": 4956, "enaa": 4957, "eginn": 4958, "beginn": 4959, "bereik": 4960, "eginne": 4961, "beginne": 4962, "elem": 4963, "anp": 4964, "kli": 4965, "pte": 4966, "jst": 4967, "elu": 4968, "afl": 4969, "ijst": 4970, "rate": 4971, "tstel": 4972, "vlo": 4973, "aanda": 4974, "oordi": 4975, "enis": 4976, "duu": 4977, "stad": 4978, "xi": 4979, "dse": 4980, "estr": 4981, "duur": 4982, "jong": 4983, "kieze": 4984, "vla": 4985, "oork": 4986, "rest": 4987, "erve": 4988, "pub": 4989, "liss": 4990, "oelen": 4991, "verze": 4992, "lach": 4993, "milj": 4994, "doc": 4995, "bal": 4996, "tac": 4997, "ositie": 4998, "positie": 4999, "olog": 5000, "erkel": 5001, "rove": 5002, "ionee": 5003, "oom": 5004, "andp": 5005, "elt": 5006, "unct": 5007, "wie": 5008, "ginnen": 5009, "rnemen": 5010, "verpl": 5011, "eginnen": 5012, "beginnen": 5013, "ctiv": 5014, "199": 5015, "aanp": 5016, "raak": 5017, "woordi": 5018, "rekeni": 5019, "rekenin": 5020, "rekening": 5021, "anwe": 5022, "11": 5023, "zijd": 5024, "ewoo": 5025, "sts": 5026, "onsu": 5027, "consu": 5028, "uctie": 5029, "kte": 5030, "rens": 5031, "sio": 5032, "klar": 5033, "jou": 5034, "kele": 5035, "raat": 5036, "nsl": 5037, "inig": 5038, "stere": 5039, "iatie": 5040, "serv": 5041, "ereike": 5042, "ereiken": 5043, "andig": 5044, "publ": 5045, "vormi": 5046, "verkla": 5047, "odat": 5048, "publi": 5049, "fte": 5050, "dir": 5051, "rein": 5052, "resu": 5053, "cus": 5054, "esi": 5055, "naas": 5056, "rim": 5057, "oma": 5058, "urk": 5059, "abi": 5060, "nderha": 5061, "brek": 5062, "rep": 5063, "ida": 5064, "imme": 5065, "aald": 5066, "nic": 5067, "ngel": 5068, "achtig": 5069, "verwa": 5070, "esul": 5071, "eerl": 5072, "resul": 5073, "ulta": 5074, "passi": 5075, "tsp": 5076, "esult": 5077, "result": 5078, "ras": 5079, "kelen": 5080, "hav": 5081, "slan": 5082, "naast": 5083, "dpu": 5084, "50": 5085, "rkeli": 5086, "ologi": 5087, "agin": 5088, "erkeli": 5089, "rkelij": 5090, "erkelij": 5091, "dpun": 5092, "dpunt": 5093, "rkelijk": 5094, "erkelijk": 5095, "oest": 5096, "avo": 5097, "bar": 5098, "enste": 5099, "enm": 5100, "enwo": 5101, "bod": 5102, "rklar": 5103, "erklar": 5104, "verklar": 5105, "jur": 5106, "ukken": 5107, "tsen": 5108, "sser": 5109, "andere": 5110, "rwaard": 5111, "ople": 5112, "ormen": 5113, "ngst": 5114, "ndbo": 5115, "voork": 5116, "waarb": 5117, "zow": 5118, "kope": 5119, "arna": 5120, "voel": 5121, "erig": 5122, "aanse": 5123, "tandp": 5124, "wege": 5125, "vea": 5126, "anpa": 5127, "begri": 5128, "ags": 5129, "anderen": 5130, "lkaa": 5131, "aanpa": 5132, "standp": 5133, "nerg": 5134, "tze": 5135, "edrag": 5136, "sulta": 5137, "elaa": 5138, "kz": 5139, "andbo": 5140, "oje": 5141, "ium": 5142, "eini": 5143, "rkom": 5144, "eming": 5145, "rmij": 5146, "ivea": 5147, "stin": 5148, "mooi": 5149, "steren": 5150, "genw": 5151, "medi": 5152, "veau": 5153, "eperk": 5154, "bepe": 5155, "beper": 5156, "beperk": 5157, "ermij": 5158, "nivea": 5159, "rwaarde": 5160, "oris": 5161, "iveau": 5162, "niveau": 5163, "ioneel": 5164, "rust": 5165, "oru": 5166, "fh": 5167, "owel": 5168, "roje": 5169, "derwe": 5170, "luti": 5171, "tba": 5172, "soor": 5173, "sport": 5174, "ustr": 5175, "fva": 5176, "olut": 5177, "oluti": 5178, "slot": 5179, "ringe": 5180, "ssc": 5181, "voed": 5182, "ewoon": 5183, "proj": 5184, "nneme": 5185, "rover": 5186, "afva": 5187, "ormin": 5188, "uncti": 5189, "proje": 5190, "paal": 5191, "oost": 5192, "orming": 5193, "ojec": 5194, "rojec": 5195, "projec": 5196, "oject": 5197, "roject": 5198, "project": 5199, "ndpu": 5200, "opm": 5201, "ndpun": 5202, "ndpunt": 5203, "oedi": 5204, "spelen": 5205, "orwa": 5206, "vormin": 5207, "vorming": 5208, "orn": 5209, "eus": 5210, "erf": 5211, "ansp": 5212, "enre": 5213, "zowe": 5214, "gewoo": 5215, "gewoon": 5216, "ntwe": 5217, "zowel": 5218, "lkaar": 5219, "rijp": 5220, "behe": 5221, "rvoer": 5222, "hermi": 5223, "elkaa": 5224, "rings": 5225, "raan": 5226, "tia": 5227, "walit": 5228, "kwalit": 5229, "anva": 5230, "elkaar": 5231, "leze": 5232, "meri": 5233, "ape": 5234, "tent": 5235, "peri": 5236, "ntv": 5237, "andpu": 5238, "func": 5239, "dame": 5240, "gad": 5241, "andpun": 5242, "andpunt": 5243, "wed": 5244, "tige": 5245, "twerp": 5246, "ttin": 5247, "oced": 5248, "roced": 5249, "proced": 5250, "tivi": 5251, "pakke": 5252, "ntwer": 5253, "fw": 5254, "itst": 5255, "funct": 5256, "oorwa": 5257, "dire": 5258, "ossin": 5259, "erko": 5260, "functi": 5261, "irec": 5262, "cedu": 5263, "order": 5264, "voorwa": 5265, "ocedu": 5266, "cedur": 5267, "rocedu": 5268, "ocedur": 5269, "cedure": 5270, "procedu": 5271, "rocedur": 5272, "ocedure": 5273, "procedur": 5274, "rocedure": 5275, "procedure": 5276, "ossing": 5277, "orwaa": 5278, "orwaar": 5279, "ntwerp": 5280, "tandpu": 5281, "standpu": 5282, "tandpun": 5283, "standpun": 5284, "tandpunt": 5285, "standpunt": 5286, "tstell": 5287, "oorwaa": 5288, "voorwaa": 5289, "oorwaar": 5290, "voorwaar": 5291, "onve": 5292, "30": 5293, "vull": 5294, "aderi": 5295, "sid": 5296, "ervoe": 5297, "egenw": 5298, "tgevi": 5299, "tgevin": 5300, "tgeving": 5301, "handele": 5302, "handelen": 5303, "lste": 5304, "nba": 5305, "direc": 5306, "inza": 5307, "irect": 5308, "direct": 5309, "spi": 5310, "oit": 5311, "elings": 5312, "ret": 5313, "nderi": 5314, "tting": 5315, "rban": 5316, "tale": 5317, "ringen": 5318, "mor": 5319, "ateg": 5320, "soort": 5321, "nto": 5322, "assin": 5323, "ln": 5324, "gelu": 5325, "hermin": 5326, "chermi": 5327, "erming": 5328, "schermi": 5329, "chermin": 5330, "schermin": 5331, "kti": 5332, "ssch": 5333, "onderha": 5334, "herming": 5335, "cherming": 5336, "scherming": 5337, "esulta": 5338, "resulta": 5339, "oppe": 5340, "lossi": 5341, "lossin": 5342, "lossing": 5343, "vite": 5344, "nrec": 5345, "uctu": 5346, "ereid": 5347, "rhan": 5348, "ltaa": 5349, "bereid": 5350, "mand": 5351, "dbou": 5352, "ph": 5353, "aderin": 5354, "adering": 5355, "aanva": 5356, "erti": 5357, "nmi": 5358, "nrech": 5359, "nrecht": 5360, "hol": 5361, "kiezen": 5362, "etgevi": 5363, "wetgevi": 5364, "etgevin": 5365, "wetgevin": 5366, "etgeving": 5367, "wetgeving": 5368, "div": 5369, "ivit": 5370, "rhand": 5371, "eschermi": 5372, "beschermi": 5373, "eschermin": 5374, "beschermin": 5375, "escherming": 5376, "bescherming": 5377, "reide": 5378, "uidi": 5379, "icati": 5380, "vorme": 5381, "assing": 5382, "ructu": 5383, "tructu": 5384, "structu": 5385, "verde": 5386, "insp": 5387, "tegenw": 5388, "rzaa": 5389, "landb": 5390, "ronde": 5391, "blijke": 5392, "gesc": 5393, "cte": 5394, "uitst": 5395, "gesch": 5396, "lak": 5397, "nga": 5398, "seli": 5399, "arop": 5400, "gebe": 5401, "vitei": 5402, "viteit": 5403, "dbouw": 5404, "stof": 5405, "ndbou": 5406, "andbou": 5407, "ndbouw": 5408, "andbouw": 5409, "nsum": 5410, "luk": 5411, "erand": 5412, "toes": 5413, "plossi": 5414, "plossin": 5415, "plossing": 5416, "onsum": 5417, "consum": 5418, "oplossi": 5419, "oplossin": 5420, "oplossing": 5421, "landbo": 5422, "landbou": 5423, "landbouw": 5424, "jdi": 5425, "tien": 5426, "ijdi": 5427, "-l": 5428, "jzig": 5429, "ijzig": 5430, "aarop": 5431, "nderin": 5432, "ivite": 5433, "verke": 5434, "enz": 5435, "ivitei": 5436, "iviteit": 5437, "lasti": 5438, "imi": 5439, "lutie": 5440, "14": 5441, "olutie": 5442, "rijde": 5443, "zodat": 5444, "ly": 5445, "02": 5446, "nemi": 5447, "stit": 5448, "lon": 5449, "jpe": 5450, "pann": 5451, "pin": 5452, "cur": 5453, "edere": 5454, "verand": 5455, "omb": 5456, "ijpe": 5457, "rpe": 5458, "eerli": 5459, "nwoo": 5460, "ultaa": 5461, "wijzig": 5462, "uld": 5463, "blijken": 5464, "verwi": 5465, "genwo": 5466, "fst": 5467, "tings": 5468, "elste": 5469, "tivit": 5470, "stst": 5471, "ltaat": 5472, "sultaa": 5473, "ultaat": 5474, "esultaa": 5475, "sultaat": 5476, "resultaa": 5477, "esultaat": 5478, "resultaat": 5479, "ordig": 5480, "egenwo": 5481, "leur": 5482, "hon": 5483, "bon": 5484, "aars": 5485, "nderwe": 5486, "nemin": 5487, "neming": 5488, "nnemen": 5489, "enwoo": 5490, "ndering": 5491, "stek": 5492, "gehee": 5493, "inke": 5494, "fran": 5495, "eheel": 5496, "geheel": 5497, "gade": 5498, "erop": 5499, "jdr": 5500, "ijdr": 5501, "lpe": 5502, "onderwe": 5503, "nwoor": 5504, "nwoord": 5505, "reiden": 5506, "activ": 5507, "zakel": 5508, "icatie": 5509, "erande": 5510, "zakeli": 5511, "zakelij": 5512, "zakelijk": 5513, "aarna": 5514, "erander": 5515, "vormen": 5516, "ty": 5517, "rgie": 5518, "verande": 5519, "verander": 5520, "tivite": 5521, "tivitei": 5522, "tiviteit": 5523, "latie": 5524, "enwoor": 5525, "enwoord": 5526, "genwoo": 5527, "egenwoo": 5528, "16": 5529, "oordig": 5530, "tegenwo": 5531, "genwoor": 5532, "woordig": 5533, "tegenwoo": 5534, "egenwoor": 5535, "wit": 5536, "nwoordi": 5537, "genwoord": 5538, "enwoordi": 5539, "tegenwoor": 5540, "egenwoord": 5541, "genwoordi": 5542, "egenwoordi": 5543, "arbe": 5544, "rukke": 5545, "nwoordig": 5546, "enwoordig": 5547, "tegenwoord": 5548, "genwoordig": 5549, "tegenwoordi": 5550, "egenwoordig": 5551, "tegenwoordig": 5552, "lad": 5553, "bereike": 5554, "bereiken": 5555, "edk": 5556, "ala": 5557, "einig": 5558, "eki": 5559, "amens": 5560, "fon": 5561, "werkel": 5562, "orwaard": 5563, "orwaarde": 5564, "rof": 5565, "oorwaard": 5566, "voorwaard": 5567, "oorwaarde": 5568, "voorwaarde": 5569, "ontv": 5570, "tigen": 5571, "lim": 5572, "drin": 5573, "etekene": 5574, "betekene": 5575, "etekenen": 5576, "betekenen": 5577, "nspa": 5578, "endie": 5579, "immer": 5580, "lari": 5581, "itz": 5582, "list": 5583, "ankel": 5584, "aanz": 5585, "nver": 5586, "tne": 5587, "una": 5588, "mbi": 5589, "digi": 5590, "vendi": 5591, "loos": 5592, "inat": 5593, "rsi": 5594, "mensen": 5595, "erban": 5596, "ewer": 5597, "joe": 5598, "sst": 5599, "nhou": 5600, "werkeli": 5601, "werkelij": 5602, "werkelijk": 5603, "reso": 5604, "ebeu": 5605, "ndin": 5606, "rleg": 5607, "elas": 5608, "ded": 5609, "ebeur": 5610, "zui": 5611, "ile": 5612, "rkee": 5613, "endien": 5614, "rkeer": 5615, "gader": 5616, "iema": 5617, "lijks": 5618, "san": 5619, "ezien": 5620, "estel": 5621, "ergie": 5622, "elast": 5623, "bijd": 5624, "onts": 5625, "roei": 5626, "nstru": 5627, "gren": 5628, "ctivi": 5629, "maats": 5630, "d-": 5631, "sf": 5632, "rgad": 5633, "idig": 5634, "imt": 5635, "ergad": 5636, "rgade": 5637, "vergad": 5638, "ergade": 5639, "vergade": 5640, "rgader": 5641, "ergader": 5642, "vergader": 5643, "uidig": 5644, "bijdr": 5645, "drukke": 5646, "cit": 5647, "jdra": 5648, "ijdra": 5649, "gelde": 5650, "bijdra": 5651, "jdrag": 5652, "jdrage": 5653, "ijdrag": 5654, "bijdrag": 5655, "ijdrage": 5656, "bijdrage": 5657, "spann": 5658, "imte": 5659, "gebeu": 5660, "kenni": 5661, "ress": 5662, "ldig": 5663, "gebeur": 5664, "enoe": 5665, "passin": 5666, "passing": 5667, "ziek": 5668, "nzak": 5669, "anni": 5670, "eft": 5671, "uimt": 5672, "praa": 5673, "lpen": 5674, "erhan": 5675, "ruimt": 5676, "tle": 5677, "uimte": 5678, "ruimte": 5679, "ankeli": 5680, "lezen": 5681, "ankelij": 5682, "ankelijk": 5683, "sting": 5684, "lichti": 5685, "ssel": 5686, "mees": 5687, "derge": 5688, "lacht": 5689, "rkg": 5690, "ovend": 5691, "gara": 5692, "amb": 5693, "insta": 5694, "istis": 5695, "erhand": 5696, "pst": 5697, "eth": 5698, "erkg": 5699, "vier": 5700, "indel": 5701, "istisc": 5702, "001": 5703, "vred": 5704, "istisch": 5705, "energ": 5706, "pb": 5707, "mpl": 5708, "ardo": 5709, "oels": 5710, "nteg": 5711, "ivers": 5712, "kon": 5713, "help": 5714, "fere": 5715, "gelo": 5716, ".0": 5717, "ndac": 5718, "randere": 5719, "rouwen": 5720, "nzake": 5721, "randeren": 5722, "flo": 5723, "teraa": 5724, "iend": 5725, "fee": 5726, "svo": 5727, "inzak": 5728, "fg": 5729, "overh": 5730, "mmers": 5731, "werkg": 5732, "ndach": 5733, "ico": 5734, "terd": 5735, "ndacht": 5736, "inzake": 5737, "lder": 5738, "ische": 5739, "andac": 5740, "\u00ebre": 5741, "lstel": 5742, "derwer": 5743, "\u00ebren": 5744, "grijp": 5745, "uli": 5746, "elstel": 5747, "opr": 5748, "aandac": 5749, "andach": 5750, "andacht": 5751, "aandach": 5752, "aandacht": 5753, "rlen": 5754, "mei": 5755, "dier": 5756, "esol": 5757, "voeri": 5758, "yp": 5759, "jfe": 5760, "ijfe": 5761, "koop": 5762, "wachte": 5763, "rband": 5764, "nergi": 5765, "chij": 5766, "ontwe": 5767, "sj": 5768, "nergie": 5769, "erlen": 5770, "herv": 5771, "oelst": 5772, "dels": 5773, "kge": 5774, "ontwer": 5775, "ontwerp": 5776, "kame": 5777, "resol": 5778, "schij": 5779, "rijpe": 5780, "bla": 5781, "erband": 5782, "doels": 5783, "orzie": 5784, "oorzie": 5785, "oepe": 5786, "oelste": 5787, "lstell": 5788, "eug": 5789, "elstell": 5790, "oege": 5791, "doelst": 5792, "lstelli": 5793, "elstelli": 5794, "lstellin": 5795, "elstellin": 5796, "lstelling": 5797, "elstelling": 5798, "akken": 5799, "doelste": 5800, "oelstel": 5801, "doelstel": 5802, "oelstell": 5803, "doelstell": 5804, "esolu": 5805, "oelstelli": 5806, "doelstelli": 5807, "oelstellin": 5808, "doelstellin": 5809, "oelstelling": 5810, "doelstelling": 5811, "enba": 5812, "resolu": 5813, "orzien": 5814, "voorzie": 5815, "oorzien": 5816, "ondh": 5817, "onst": 5818, "aanw": 5819, "huidi": 5820, "sent": 5821, "voorzien": 5822, "alv": 5823, "huidig": 5824, "verlen": 5825, "nhoud": 5826, "ctivit": 5827, "vervoe": 5828, "oedk": 5829, "afh": 5830, "ots": 5831, "uler": 5832, "walite": 5833, "kwalite": 5834, "etw": 5835, "pens": 5836, "vij": 5837, "walitei": 5838, "kwalitei": 5839, "waliteit": 5840, "kwaliteit": 5841, "uta": 5842, "espre": 5843, "mit": 5844, "erpe": 5845, "grijpe": 5846, "orr": 5847, "solut": 5848, "soluti": 5849, "kamer": 5850, "ervoer": 5851, "goedk": 5852, "atsc": 5853, "sume": 5854, "o-": 5855, "beke": 5856, "ctivite": 5857, "ctivitei": 5858, "ctiviteit": 5859, "rzoeke": 5860, "wachten": 5861, "spar": 5862, "pme": 5863, "-a": 5864, "verban": 5865, "lichtin": 5866, "nderwer": 5867, "ondhe": 5868, "elijke": 5869, "vendie": 5870, "vendien": 5871, "lect": 5872, "edoe": 5873, "vervoer": 5874, "ondhei": 5875, "sland": 5876, "onderwer": 5877, "nsume": 5878, "onsume": 5879, "consume": 5880, "htv": 5881, "chtv": 5882, "prin": 5883, "rijden": 5884, "rbei": 5885, "aatsc": 5886, "ieg": 5887, "energi": 5888, "ieb": 5889, "derwerp": 5890, "ndo": 5891, "tiat": 5892, "nderwerp": 5893, "onderwerp": 5894, "ondheid": 5895, "energie": 5896, "pat": 5897, "rse": 5898, "slaa": 5899, "erzoeke": 5900, "\u00f6": 5901, "talen": 5902, "vord": 5903, "vorde": 5904, "zondh": 5905, "ezondh": 5906, "gezondh": 5907, "venti": 5908, "inati": 5909, "lechts": 5910, "slechts": 5911, "ato": 5912, "lichting": 5913, "zondhe": 5914, "ezondhe": 5915, "gezondhe": 5916, "epaa": 5917, "zondhei": 5918, "ezondhei": 5919, "zondheid": 5920, "gezondhei": 5921, "ezondheid": 5922, "gezondheid": 5923, "mach": 5924, "tiati": 5925, "xtr": 5926, "tersc": 5927, "rbeid": 5928, "line": 5929, "eal": 5930, "aller": 5931, "ift": 5932, "opme": 5933, "itsl": 5934, "gelden": 5935, "g-": 5936, "tiatie": 5937, "uitz": 5938, "lage": 5939, "vorder": 5940, "bovend": 5941, "immers": 5942, "elpe": 5943, "17": 5944, "plei": 5945, "extr": 5946, "verband": 5947, "itia": 5948, "ota": 5949, "kere": 5950, "conta": 5951, "atsch": 5952, "reeds": 5953, "orig": 5954, "ecia": 5955, "aatsch": 5956, "paald": 5957, "ovendi": 5958, "hikk": 5959, "esolut": 5960, "esoluti": 5961, "trede": 5962, "bovendi": 5963, "chikk": 5964, "schikk": 5965, "resolut": 5966, "resoluti": 5967, "arbei": 5968, "ovendie": 5969, "bovendie": 5970, "ovendien": 5971, "bovendien": 5972, "tact": 5973, "meest": 5974, "erings": 5975, "solutie": 5976, "nteren": 5977, "epaal": 5978, "esolutie": 5979, "resolutie": 5980, "atscha": 5981, "aatscha": 5982, "epaald": 5983, "pecia": 5984, "bepaa": 5985, "maatsc": 5986, "atschap": 5987, "aatschap": 5988, "nitia": 5989, "ntva": 5990, "bepaal": 5991, "bepaald": 5992, "maatsch": 5993, "maatscha": 5994, "initia": 5995, "tvan": 5996, "rkome": 5997, "maatschap": 5998, "rts": 5999, "ontva": 6000, "specia": 6001, "bili": 6002, "vana": 6003, "arbeid": 6004, "coo": 6005, "ntvan": 6006, "ontvan": 6007, "dec": 6008, "issc": 6009, "erik": 6010, "estig": 6011, "itiat": 6012, "nitiat": 6013, "initiat": 6014, "issch": 6015, "tate": 6016, "mas": 6017, "spraa": 6018, "don": 6019, "ibe": 6020, "tersch": 6021, "trouwe": 6022, "ernemen": 6023, "\u201d": 6024, "laan": 6025, "lov": 6026, "rteg": 6027, "nbaa": 6028, "itiati": 6029, "nitiati": 6030, "rra": 6031, "initiati": 6032, "eman": 6033, "rkomen": 6034, "esprek": 6035, "vatte": 6036, "uitsl": 6037, "dsc": 6038, "ooit": 6039, "gewe": 6040, "ngeve": 6041, "laar": 6042, "trie": 6043, "itiatie": 6044, "nitiatie": 6045, "initiatie": 6046, "praak": 6047, "elpen": 6048, "spraak": 6049, "helpe": 6050, "twerk": 6051, "vatten": 6052, "gb": 6053, "bank": 6054, "vari": 6055, "sumen": 6056, "nsumen": 6057, "sument": 6058, "onsumen": 6059, "nsument": 6060, "consumen": 6061, "onsument": 6062, "consument": 6063, "fend": 6064, "opd": 6065, "iete": 6066, "aardo": 6067, "def": 6068, "&": 6069, "vrie": 6070, "fle": 6071, "feren": 6072, "uige": 6073, "ersi": 6074, "nes": 6075, "kker": 6076, "waarv": 6077, "helpen": 6078, "mh": 6079, "dzak": 6080, "nbaar": 6081, "ezelf": 6082, "sre": 6083, "denin": 6084, "pmer": 6085, "opmer": 6086, "pmerk": 6087, "opmerk": 6088, "mot": 6089, "dzake": 6090, "daarn": 6091, "kopen": 6092, "rien": 6093, "teen": 6094, "iatief": 6095, "vesti": 6096, "ekst": 6097, "akti": 6098, "en-": 6099, "treden": 6100, "ffend": 6101, "dergel": 6102, "stste": 6103, "garan": 6104, "rpli": 6105, "rplic": 6106, "rtege": 6107, "rplich": 6108, "rplicht": 6109, "tters": 6110, "avi": 6111, "ouder": 6112, "meld": 6113, "dergeli": 6114, "dergelij": 6115, "dergelijk": 6116, "cam": 6117, "urs": 6118, "uin": 6119, "oh": 6120, "erpli": 6121, "erplic": 6122, "pie": 6123, "erplich": 6124, "erplicht": 6125, "jh": 6126, "tiatief": 6127, "eldi": 6128, "rni": 6129, "serin": 6130, "itiatief": 6131, "nitiatief": 6132, "initiatief": 6133, "terscha": 6134, "effend": 6135, "reffend": 6136, "treffend": 6137, "vloe": 6138, "belas": 6139, "belast": 6140, "\u00ebnt": 6141, "dg": 6142, "ehoe": 6143, "ststel": 6144, "rstr": 6145, "ststell": 6146, "rtegen": 6147, "indeli": 6148, "ijh": 6149, "prakt": 6150, "chen": 6151, "2001": 6152, "rakti": 6153, "llig": 6154, "prakti": 6155, "keren": 6156, "13": 6157, "verpli": 6158, "verplic": 6159, "verplich": 6160, "verplicht": 6161, "beure": 6162, "beuren": 6163, "sering": 6164, "rhande": 6165, "tvang": 6166, "ntvang": 6167, "ontvang": 6168, "i\u00ebnt": 6169, "jpen": 6170, "ctuu": 6171, "ctuur": 6172, "ersta": 6173, "ijpen": 6174, "uns": 6175, "had": 6176, "kko": 6177, "enrec": 6178, "eie": 6179, "stal": 6180, "terschap": 6181, "activi": 6182, "esli": 6183, "egan": 6184, "daarna": 6185, "enrech": 6186, "enrecht": 6187, "grens": 6188, "rdeni": 6189, "asts": 6190, "ardoo": 6191, "dening": 6192, "aardoo": 6193, "ardoor": 6194, "aardoor": 6195, "rdenin": 6196, "tionee": 6197, "rdening": 6198, "ordeni": 6199, "merke": 6200, "ordenin": 6201, "ordening": 6202, "evee": 6203, "rif": 6204, "urt": 6205, "toeg": 6206, "laag": 6207, "rschr": 6208, "nha": 6209, "ict": 6210, "estu": 6211, "arc": 6212, "lande": 6213, "dzakel": 6214, "indu": 6215, "mete": 6216, "dzakeli": 6217, "dzakelij": 6218, "dzakelijk": 6219, "tioneel": 6220, "hijn": 6221, "chijn": 6222, "schijn": 6223, "niste": 6224, "itters": 6225, "jt": 6226, "tsta": 6227, "egd": 6228, "inh": 6229, "state": 6230, "cult": 6231, "ams": 6232, "rnaa": 6233, "love": 6234, "reis": 6235, "ific": 6236, "erc": 6237, "ntac": 6238, "ltu": 6239, "beren": 6240, "zitters": 6241, "tandi": 6242, "aann": 6243, "imaa": 6244, "deree": 6245, "vasts": 6246, "astst": 6247, "standi": 6248, "xp": 6249, "rtel": 6250, "iedere": 6251, "vastst": 6252, "rzitters": 6253, "orzitters": 6254, "oorzitters": 6255, "voorzitters": 6256, "oner": 6257, "-e": 6258, "-s": 6259, "rvi": 6260, "dden": 6261, "opst": 6262, "oerin": 6263, "ederee": 6264, "ijt": 6265, "rschri": 6266, "traf": 6267, "dereen": 6268, "geschi": 6269, "reve": 6270, "iederee": 6271, "edereen": 6272, "iedereen": 6273, "imp": 6274, "-p": 6275, "tud": 6276, "vrede": 6277, "kleu": 6278, "erkee": 6279, "erkeer": 6280, "nade": 6281, "mal": 6282, "verkee": 6283, "verkeer": 6284, "gat": 6285, "dvi": 6286, "ntact": 6287, "annem": 6288, "itief": 6289, "ndus": 6290, "tandig": 6291, "standig": 6292, "stor": 6293, "ttersc": 6294, "ttersch": 6295, "tterscha": 6296, "sic": 6297, "llem": 6298, "ittersc": 6299, "ittersch": 6300, "itterscha": 6301, "zittersc": 6302, "rzittersc": 6303, "zittersch": 6304, "tterschap": 6305, "orzittersc": 6306, "rzittersch": 6307, "zitterscha": 6308, "itterschap": 6309, "oorzittersc": 6310, "orzittersch": 6311, "rzitterscha": 6312, "zitterschap": 6313, "voorzittersc": 6314, "oorzittersch": 6315, "orzitterscha": 6316, "rzitterschap": 6317, "voorzittersch": 6318, "oorzitterscha": 6319, "orzitterschap": 6320, "voorzitterscha": 6321, "oorzitterschap": 6322, "voorzitterschap": 6323, "evel": 6324, "iniste": 6325, "oering": 6326, "dust": 6327, "overhe": 6328, "alo": 6329, "opv": 6330, "nister": 6331, "hni": 6332, "inister": 6333, "nwi": 6334, "erma": 6335, "rro": 6336, "indus": 6337, "ndust": 6338, "eindel": 6339, "behoe": 6340, "dustr": 6341, "ndustr": 6342, "iseri": 6343, "inzi": 6344, "indust": 6345, "industr": 6346, "hool": 6347, "-m": 6348, "ministe": 6349, "minister": 6350, "ontac": 6351, "verwij": 6352, "contac": 6353, "eheer": 6354, "lh": 6355, "ustri": 6356, "iserin": 6357, "link": 6358, "isering": 6359, "ontact": 6360, "contact": 6361, "erika": 6362, "groei": 6363, "ljo": 6364, "voerin": 6365, "odzak": 6366, "stud": 6367, "tant": 6368, "oodzak": 6369, "slis": 6370, "voering": 6371, "behee": 6372, "chni": 6373, "odzake": 6374, "noodzak": 6375, "dustri": 6376, "ndustri": 6377, "terre": 6378, "beheer": 6379, "afr": 6380, "oodzake": 6381, "noodzake": 6382, "industri": 6383, "-b": 6384, "besli": 6385, "eslis": 6386, "beslis": 6387, "aanne": 6388, "beken": 6389, "aai": 6390, "aannem": 6391, "erhande": 6392, "e\u00eb": 6393, "eln": 6394, "echni": 6395, "techni": 6396, "activit": 6397, "straf": 6398, "iljo": 6399, "ducti": 6400, "erteg": 6401, "erent": 6402, "rvar": 6403, "trouwen": 6404, "delijkh": 6405, "ertege": 6406, "delijkhe": 6407, "erstr": 6408, "delijkhei": 6409, "delijkheid": 6410, "astste": 6411, "vastste": 6412, "aststel": 6413, "vaststel": 6414, "aststell": 6415, "vaststell": 6416, "vulle": 6417, "inatie": 6418, "nove": 6419, "robe": 6420, "enbaa": 6421, "exp": 6422, "rkge": 6423, "ertegen": 6424, "erkge": 6425, "cier": 6426, "ameri": 6427, "fha": 6428, "joen": 6429, "sschi": 6430, "nding": 6431, "ljoe": 6432, "bewe": 6433, "ljoen": 6434, "verli": 6435, "vullen": 6436, "iljoe": 6437, "iljoen": 6438, "arvo": 6439, "anzi": 6440, "abe": 6441, "ervar": 6442, "verr": 6443, "activite": 6444, "activitei": 6445, "activiteit": 6446, "gm": 6447, "lisere": 6448, "liseren": 6449, "enbaar": 6450, "lok": 6451, "aarvo": 6452, "ted": 6453, "zam": 6454, "von": 6455, "afha": 6456, "2000": 6457, "arvoo": 6458, "envo": 6459, "arvoor": 6460, "dm": 6461, "orko": 6462, "tschapp": 6463, "aarvoo": 6464, "aarvoor": 6465, "advi": 6466, "werkge": 6467, "ilite": 6468, "zov": 6469, "chool": 6470, "school": 6471, "bestr": 6472, "fot": 6473, "tstelle": 6474, "tstellen": 6475, "nise": 6476, "hien": 6477, "zend": 6478, "aanzi": 6479, "ertu": 6480, "bezi": 6481, "unst": 6482, "chien": 6483, "rzoeken": 6484, "ultu": 6485, "nnis": 6486, "ident": 6487, "vak": 6488, "esse": 6489, "schien": 6490, "atschapp": 6491, "aatschapp": 6492, "maatschapp": 6493, "vestig": 6494, "miljo": 6495, "etrekke": 6496, "reven": 6497, "rijpen": 6498, "derhan": 6499, "sschie": 6500, "oki": 6501, "estri": 6502, "derhand": 6503, "rhandel": 6504, "erhandel": 6505, "sschien": 6506, "isschi": 6507, "viss": 6508, "lik": 6509, "missc": 6510, "missch": 6511, "misschi": 6512, "isschie": 6513, "misschie": 6514, "isschien": 6515, "misschien": 6516, "oorko": 6517, "odzakel": 6518, "cultu": 6519, "oodzakel": 6520, "noodzakel": 6521, "strie": 6522, "odzakeli": 6523, "odzakelij": 6524, "odzakelijk": 6525, "oodzakeli": 6526, "noodzakeli": 6527, "oodzakelij": 6528, "noodzakelij": 6529, "oodzakelijk": 6530, "noodzakelijk": 6531, "rese": 6532, "mg": 6533, "erzoeken": 6534, "entra": 6535, "foto": 6536, "genoe": 6537, "miljoe": 6538, "miljoen": 6539, "raar": 6540, "ussi": 6541, "rvor": 6542, "verbi": 6543, "\u201c": 6544, "prof": 6545, "chad": 6546, "lam": 6547, "grijpen": 6548, "betrekke": 6549, "edeli": 6550, "riend": 6551, "gist": 6552, "ws": 6553, "ezoe": 6554, "paar": 6555, "verwer": 6556, "gezie": 6557, "gezien": 6558, "ustrie": 6559, "dustrie": 6560, "ndustrie": 6561, "industrie": 6562, "epte": 6563, "arant": 6564, "schad": 6565, "iner": 6566, "rvorm": 6567, ".00": 6568, "orkom": 6569, "besp": 6570, "oorkom": 6571, "bezoe": 6572, "ervor": 6573, "epr": 6574, "our": 6575, "nderhan": 6576, "nderhand": 6577, "atig": 6578, "ervi": 6579, "ezoek": 6580, "bezoek": 6581, "aags": 6582, "rweg": 6583, "indelij": 6584, "rip": 6585, "indelijk": 6586, "ervorm": 6587, "rober": 6588, "voorko": 6589, "ffic": 6590, "mai": 6591, "kleur": 6592, "nzet": 6593, "voorkom": 6594, "vori": 6595, "oegen": 6596, "senr": 6597, "overi": 6598, "istr": 6599, "star": 6600, "jar": 6601, "annin": 6602, "ilitei": 6603, "iliteit": 6604, "gspr": 6605, "eindeli": 6606, "verteg": 6607, "vertege": 6608, "vertegen": 6609, "eindelij": 6610, "rwijs": 6611, "rtegenw": 6612, "ertegenw": 6613, "rtegenwo": 6614, "vertegenw": 6615, "ertegenwo": 6616, "rtegenwoo": 6617, "vertegenwo": 6618, "ertegenwoo": 6619, "vertegenwoo": 6620, "eindelijk": 6621, "dwi": 6622, "erwijs": 6623, "tone": 6624, "rtegenwoor": 6625, "ertegenwoor": 6626, "rtegenwoord": 6627, "vertegenwoor": 6628, "ertegenwoord": 6629, "rtegenwoordi": 6630, "vertegenwoord": 6631, "ertegenwoordi": 6632, "rtegenwoordig": 6633, "vertegenwoordi": 6634, "ertegenwoordig": 6635, "vertegenwoordig": 6636, "bekend": 6637, "senre": 6638, "onis": 6639, "derste": 6640, "menl": 6641, "riv": 6642, "bestu": 6643, "enu": 6644, "rmijn": 6645, "ermijn": 6646, "anning": 6647, "senrec": 6648, "fac": 6649, "senrech": 6650, "senrecht": 6651, "nderste": 6652, "venw": 6653, "pag": 6654, "onderhan": 6655, "onderhand": 6656, "disch": 6657, "ventie": 6658, "eschikk": 6659, "beschikk": 6660, "eror": 6661, "rijh": 6662, "wein": 6663, "merik": 6664, "dring": 6665, "anzie": 6666, "nsenr": 6667, "verko": 6668, "waarop": 6669, "ensenr": 6670, "mensenr": 6671, "usie": 6672, "amerik": 6673, "nsenre": 6674, "nsenrec": 6675, "amenl": 6676, "aven": 6677, "onderste": 6678, "aanzie": 6679, "ensenre": 6680, "mensenre": 6681, "ensenrec": 6682, "nsenrech": 6683, "mensenrec": 6684, "ensenrech": 6685, "nsenrecht": 6686, "mensenrech": 6687, "ensenrecht": 6688, "mensenrecht": 6689, "merika": 6690, "amerika": 6691, "anzien": 6692, "aanzien": 6693, "etrekken": 6694, "oducti": 6695, "roducti": 6696, "itai": 6697, "koor": 6698, "eien": 6699, "vrien": 6700, "levi": 6701, "terw": 6702, "weini": 6703, "weinig": 6704, "jan": 6705, "vriend": 6706, "rtui": 6707, "derhande": 6708, "verig": 6709, "nderhande": 6710, "itair": 6711, "moede": 6712, "derhandel": 6713, "nderhandel": 6714, "vrijh": 6715, "uigen": 6716, "gte": 6717, "fhan": 6718, "wijl": 6719, "liek": 6720, "gaderi": 6721, "gaderin": 6722, "rgaderi": 6723, "ergaderi": 6724, "rgaderin": 6725, "vergaderi": 6726, "ergaderin": 6727, "vergaderin": 6728, "betrekken": 6729, "rdin": 6730, "gadering": 6731, "rgadering": 6732, "ergadering": 6733, "vergadering": 6734, "afhan": 6735, "msti": 6736, "namen": 6737, "bedo": 6738, "deg": 6739, "centra": 6740, "rvol": 6741, "okk": 6742, "epale": 6743, "tes": 6744, "zame": 6745, "tue": 6746, "atse": 6747, "iere": 6748, "anden": 6749, "palen": 6750, "hervo": 6751, "ppi": 6752, "vijf": 6753, "omsti": 6754, "rem": 6755, "ngspr": 6756, "dringe": 6757, "hervor": 6758, "hervorm": 6759, "oning": 6760, "aflo": 6761, "ervol": 6762, "gv": 6763, "bind": 6764, "komsti": 6765, "ffec": 6766, "onderhande": 6767, "rord": 6768, "elasti": 6769, "ondi": 6770, "mstig": 6771, "omstig": 6772, "komstig": 6773, "onderhandel": 6774, "ffect": 6775, "fici": 6776, "oeil": 6777, "vid": 6778, "aatse": 6779, "ocht": 6780, "ductie": 6781, "eerlij": 6782, "stuu": 6783, "bepale": 6784, "urr": 6785, "event": 6786, "rbr": 6787, "terda": 6788, "erord": 6789, "rpen": 6790, "rpr": 6791, "ingspr": 6792, "effec": 6793, "epalen": 6794, "bepalen": 6795, "effect": 6796, "overig": 6797, "veror": 6798, "daarb": 6799, "rorde": 6800, "onn": 6801, "erorde": 6802, "asp": 6803, "larin": 6804, "digd": 6805, "verord": 6806, "rechte": 6807, "bouwe": 6808, "klari": 6809, "klarin": 6810, "ncier": 6811, "orkome": 6812, "orkomen": 6813, "gle": 6814, "oorkome": 6815, "oorkomen": 6816, "vou": 6817, "rorden": 6818, "verorde": 6819, "erorden": 6820, "ilij": 6821, "richti": 6822, "jne": 6823, "cep": 6824, "verorden": 6825, "eerlijk": 6826, "fond": 6827, "radi": 6828, "edoel": 6829, "visse": 6830, "richtin": 6831, "oeili": 6832, "eilij": 6833, "ilijk": 6834, "oeilij": 6835, "eilijk": 6836, "oeilijk": 6837, "weli": 6838, "eraar": 6839, "rordeni": 6840, "erordeni": 6841, "rordenin": 6842, "erordenin": 6843, "rordening": 6844, "erordening": 6845, "richting": 6846, "ott": 6847, "verordeni": 6848, "verordenin": 6849, "verordening": 6850, "termi": 6851, "laring": 6852, "nbo": 6853, "overl": 6854, "klaring": 6855, "ancier": 6856, "nlands": 6857, "etale": 6858, "dringen": 6859, "niser": 6860, "inse": 6861, "tvaa": 6862, "clus": 6863, "estrij": 6864, "probe": 6865, "orlo": 6866, "tvaar": 6867, "evenw": 6868, "matig": 6869, "oega": 6870, "rklari": 6871, "erklari": 6872, "rklarin": 6873, "verklari": 6874, "erklarin": 6875, "rklaring": 6876, "verklarin": 6877, "erklaring": 6878, "verklaring": 6879, "poo": 6880, "voorkome": 6881, "voorkomen": 6882, "moeil": 6883, "moeili": 6884, "moeilij": 6885, "moeilijk": 6886, "ooki": 6887, "reu": 6888, "namens": 6889, "epassi": 6890, "loven": 6891, "teks": 6892, "obere": 6893, "gea": 6894, "derwi": 6895, "gratie": 6896, "inds": 6897, "oepassi": 6898, "epassin": 6899, "toepassi": 6900, "oepassin": 6901, "epassing": 6902, "toepassin": 6903, "oepassing": 6904, "toepassing": 6905, "enlands": 6906, "rhal": 6907, "ateri": 6908, "ider": 6909, "derwij": 6910, "oberen": 6911, "ennis": 6912, "dwe": 6913, "tekst": 6914, "efen": 6915, "prober": 6916, "robere": 6917, "steke": 6918, "probere": 6919, "roberen": 6920, "proberen": 6921, "llema": 6922, "rid": 6923, "offe": 6924, "rachti": 6925, "erhal": 6926, "isser": 6927, "oeie": 6928, "ijne": 6929, "naut": 6930, "nstig": 6931, "astin": 6932, "eging": 6933, "menta": 6934, "breidi": 6935, "breidin": 6936, "breiding": 6937, "ermo": 6938, "versi": 6939, "allem": 6940, "sor": 6941, "enad": 6942, "anders": 6943, "asting": 6944, "fli": 6945, "alist": 6946, "rwac": 6947, "erwac": 6948, "rwach": 6949, "erwach": 6950, "rwacht": 6951, "erwacht": 6952, "merken": 6953, "dro": 6954, "bevoe": 6955, "bevoeg": 6956, "gspro": 6957, "allema": 6958, "laatse": 6959, "rta": 6960, "llemaa": 6961, "reek": 6962, "bestri": 6963, "plaatse": 6964, "bestrij": 6965, "llemaal": 6966, "tbreidi": 6967, "itbreidi": 6968, "tbreidin": 6969, "uitbreidi": 6970, "itbreidin": 6971, "tbreiding": 6972, "uitbreidin": 6973, "itbreiding": 6974, "uitbreiding": 6975, "blie": 6976, "allemaa": 6977, "allemaal": 6978, "toest": 6979, "oegd": 6980, "verwac": 6981, "verwach": 6982, "verwacht": 6983, "erpen": 6984, "sliss": 6985, "esliss": 6986, "besliss": 6987, "lusi": 6988, "niets": 6989, "dsch": 6990, "car": 6991, "oeli": 6992, "waarom": 6993, "evaa": 6994, "evaar": 6995, "tom": 6996, "ewerk": 6997, "bedoe": 6998, "voegd": 6999, "rtn": 7000, "nderwi": 7001, "hang": 7002, "iod": 7003, "kkele": 7004, "evoegd": 7005, "nderwij": 7006, "auta": 7007, "loed": 7008, "verhei": 7009, "ezing": 7010, "erat": 7011, "verheid": 7012, "jhe": 7013, "kkelen": 7014, "bedoel": 7015, "ijhe": 7016, "oeien": 7017, "bevoegd": 7018, "erse": 7019, "cratis": 7020, "sso": 7021, "nme": 7022, "draa": 7023, "instr": 7024, "ay": 7025, "oegan": 7026, "tve": 7027, "ublie": 7028, "erro": 7029, "sprak": 7030, "tsv": 7031, "ocu": 7032, "steken": 7033, "ngspro": 7034, "toega": 7035, "lma": 7036, "estrijd": 7037, "ktij": 7038, "anaf": 7039, "jhei": 7040, "ijhei": 7041, "jheid": 7042, "ijheid": 7043, "ingspro": 7044, "rtuig": 7045, "integ": 7046, "artn": 7047, "eenv": 7048, "ffici": 7049, "vanaf": 7050, "bena": 7051, "rist": 7052, "somm": 7053, "rwijl": 7054, "erwijl": 7055, "cces": 7056, "arr": 7057, "toegan": 7058, "jul": 7059, "roepe": 7060, "stur": 7061, "mule": 7062, "assa": 7063, "dings": 7064, "inho": 7065, "haal": 7066, "ize": 7067, "onderwi": 7068, "onderwij": 7069, "hard": 7070, "cite": 7071, "nks": 7072, "onte": 7073, "ecte": 7074, "rdigen": 7075, "dom": 7076, "cook": 7077, "trate": 7078, "ila": 7079, "urz": 7080, "rachtig": 7081, "kans": 7082, "tenl": 7083, "cip": 7084, "rkenn": 7085, "koord": 7086, "scu": 7087, "rtne": 7088, "ieman": 7089, "oductie": 7090, "roductie": 7091, "ffer": 7092, "ooru": 7093, "pne": 7094, "daarbi": 7095, "elm": 7096, "ola": 7097, "tner": 7098, "-v": 7099, "rzaam": 7100, "overhei": 7101, "overheid": 7102, "lse": 7103, "waarm": 7104, "essi": 7105, "waarbi": 7106, "ieve": 7107, "gent": 7108, "rok": 7109, "cy": 7110, "artne": 7111, "ain": 7112, "ikb": 7113, "evor": 7114, "merki": 7115, "okie": 7116, "bestrijd": 7117, "rtner": 7118, "merkin": 7119, "merking": 7120, "derwijs": 7121, "artner": 7122, "cooki": 7123, "nderwijs": 7124, "sz": 7125, "ookie": 7126, "alisere": 7127, "aliseren": 7128, "bran": 7129, "partn": 7130, "isen": 7131, "daarbij": 7132, "partne": 7133, "partner": 7134, "rzij": 7135, "cum": 7136, "anneme": 7137, "nctie": 7138, "etere": 7139, "aanneme": 7140, "cookie": 7141, "afg": 7142, "strate": 7143, "werpe": 7144, "ordee": 7145, "muna": 7146, "orui": 7147, "sind": 7148, "oruit": 7149, "mmuna": 7150, "ommuna": 7151, "enter": 7152, "opti": 7153, "rijhe": 7154, "lastin": 7155, "communa": 7156, "ordeel": 7157, "erkenn": 7158, "rukken": 7159, "nkr": 7160, "lasting": 7161, "nauta": 7162, "oorui": 7163, "elov": 7164, "vooru": 7165, "voorui": 7166, "ooruit": 7167, "vooruit": 7168, "vrijhe": 7169, "daat": 7170, "eteren": 7171, "sief": 7172, "unau": 7173, "his": 7174, "unaut": 7175, "eite": 7176, "enda": 7177, "kkoo": 7178, "munau": 7179, "mmunau": 7180, "munaut": 7181, "unauta": 7182, "ommunau": 7183, "mmunaut": 7184, "communau": 7185, "ommunaut": 7186, "communaut": 7187, "zwe": 7188, "munauta": 7189, "mmunauta": 7190, "ommunauta": 7191, "communauta": 7192, "ikkele": 7193, "ikkelen": 7194, "jnen": 7195, "kkoor": 7196, "uurz": 7197, "derda": 7198, "ijnen": 7199, "elastin": 7200, "kkoord": 7201, "urza": 7202, "oordee": 7203, "elasting": 7204, "verste": 7205, "uurza": 7206, "tuee": 7207, "belasti": 7208, "belastin": 7209, "belasting": 7210, "oordeel": 7211, "akko": 7212, "rijhei": 7213, "vrijhei": 7214, "rijheid": 7215, "vrijheid": 7216, "duurz": 7217, "duurza": 7218, "rali": 7219, "itin": 7220, "oorlo": 7221, "rvormi": 7222, "rzijd": 7223, "ior": 7224, "betale": 7225, "akkoo": 7226, "akkoor": 7227, "akkoord": 7228, "ikba": 7229, "opne": 7230, "teve": 7231, "ervormi": 7232, "eenvo": 7233, "penb": 7234, "ax": 7235, "rvormin": 7236, "rvorming": 7237, "onderwijs": 7238, "pnem": 7239, "opnem": 7240, "sub": 7241, "xtra": 7242, "enem": 7243, "inci": 7244, "voud": 7245, "utai": 7246, "inhou": 7247, "ieri": 7248, "genl": 7249, "vervol": 7250, "selij": 7251, "eluk": 7252, "wijd": 7253, "cept": 7254, "geluk": 7255, "ervormin": 7256, "ervorming": 7257, "selijk": 7258, "termij": 7259, "termijn": 7260, "inhoud": 7261, "meerd": 7262, "uiti": 7263, "iting": 7264, "emand": 7265, "noeg": 7266, "extra": 7267, "lki": 7268, "gins": 7269, "gdh": 7270, "dve": 7271, "utair": 7272, "rateg": 7273, "trateg": 7274, "strateg": 7275, "lusie": 7276, "imu": 7277, "oonl": 7278, "aden": 7279, "tbe": 7280, "tueel": 7281, "riaa": 7282, "waarme": 7283, "terwi": 7284, "rsteu": 7285, "rsteun": 7286, "enoeg": 7287, "genoeg": 7288, "bilit": 7289, "vermi": 7290, "tegi": 7291, "ersteu": 7292, "ersteun": 7293, "ikbaa": 7294, "ikbaar": 7295, "dersteu": 7296, "dersteun": 7297, "visser": 7298, "ategi": 7299, "rategi": 7300, "trategi": 7301, "ndersteu": 7302, "ondersteu": 7303, "ndersteun": 7304, "ondersteun": 7305, "kies": 7306, "rnemi": 7307, "strategi": 7308, "rnemin": 7309, "rneming": 7310, "producti": 7311, "prake": 7312, "stro": 7313, "kne": 7314, "waarmee": 7315, "nderda": 7316, "instru": 7317, "iemand": 7318, "eeln": 7319, "erzij": 7320, "autai": 7321, "nautai": 7322, "autair": 7323, "unautai": 7324, "nautair": 7325, "unautair": 7326, "cial": 7327, "chin": 7328, "munautai": 7329, "mmunautai": 7330, "munautair": 7331, "ommunautai": 7332, "mmunautair": 7333, "communautai": 7334, "ommunautair": 7335, "communautair": 7336, "elove": 7337, "lkin": 7338, "sprake": 7339, "gdhe": 7340, "wikkele": 7341, "wikkelen": 7342, "deeln": 7343, "urzaa": 7344, "uurzaa": 7345, "rgr": 7346, "overt": 7347, "drukken": 7348, "tc": 7349, "lib": 7350, "eent": 7351, "uitin": 7352, "urzaam": 7353, "duurzaa": 7354, "uurzaam": 7355, "duurzaam": 7356, "onal": 7357, "erio": 7358, "uiting": 7359, "waardi": 7360, "koe": 7361, "rvolg": 7362, "ervolg": 7363, "each": 7364, "chei": 7365, "tiep": 7366, "hervormi": 7367, "hervormin": 7368, "hervorming": 7369, "waardig": 7370, "schei": 7371, "hele": 7372, "nvaa": 7373, "hot": 7374, "ewij": 7375, "bevol": 7376, "drac": 7377, "terwij": 7378, "\u2026": 7379, "nvaar": 7380, "pze": 7381, "sommi": 7382, "ersp": 7383, "oonli": 7384, "lking": 7385, "aanwe": 7386, "oez": 7387, "bliek": 7388, "ubliek": 7389, "lgi": 7390, "publie": 7391, "publiek": 7392, "ststelle": 7393, "fri": 7394, "ertui": 7395, "ststellen": 7396, "erzijd": 7397, "api": 7398, "erni": 7399, "ieten": 7400, "ager": 7401, "tha": 7402, "wezi": 7403, "clusi": 7404, "openb": 7405, "terwijl": 7406, "rdele": 7407, "erenti": 7408, "wezig": 7409, "ezelfd": 7410, "ezelfde": 7411, "beide": 7412, "ncl": 7413, "onlij": 7414, "oonlij": 7415, "rker": 7416, "itse": 7417, "drach": 7418, "gdhei": 7419, "gdheid": 7420, "evolk": 7421, "edse": 7422, "olki": 7423, "wone": 7424, "gelin": 7425, "opze": 7426, "bevolk": 7427, "penba": 7428, "vervolg": 7429, "voudi": 7430, "ratisc": 7431, "ratisch": 7432, "flop": 7433, "udig": 7434, "oudig": 7435, "voudig": 7436, "onlijk": 7437, "oonlijk": 7438, "ry": 7439, "olkin": 7440, "mv": 7441, "erpr": 7442, "fsp": 7443, "dge": 7444, "dracht": 7445, "oeven": 7446, "cratisc": 7447, "cratisch": 7448, "tver": 7449, "leer": 7450, "openba": 7451, "tonen": 7452, "duren": 7453, "dege": 7454, "ieni": 7455, "eente": 7456, "waarbij": 7457, "ransp": 7458, "transp": 7459, "\u00f3": 7460, "egins": 7461, "flope": 7462, "flopen": 7463, "begins": 7464, "etalen": 7465, "tvange": 7466, "aflop": 7467, "aflope": 7468, "aflopen": 7469, "ntvange": 7470, "ontvange": 7471, "meerde": 7472, "tuige": 7473, "cheid": 7474, "scheid": 7475, "mater": 7476, "uar": 7477, "terec": 7478, "rdelen": 7479, "lichte": 7480, "insel": 7481, "akkel": 7482, "aarl": 7483, "ante": 7484, "olking": 7485, "weld": 7486, "terech": 7487, "terecht": 7488, "pneme": 7489, "opneme": 7490, "meent": 7491, "emeent": 7492, "gemeent": 7493, "ierv": 7494, "icer": 7495, "mond": 7496, "langs": 7497, "uctuu": 7498, "uctuur": 7499, "meente": 7500, "emeente": 7501, "gemeente": 7502, "pnemen": 7503, "opnemen": 7504, "ructuu": 7505, "tructuu": 7506, "ructuur": 7507, "structuu": 7508, "tructuur": 7509, "structuur": 7510, "klo": 7511, "zove": 7512, "vorig": 7513, "ginse": 7514, "perio": 7515, "erleg": 7516, "abo": 7517, "ommig": 7518, "ooste": 7519, "makk": 7520, "verva": 7521, "leuk": 7522, "eria": 7523, "eginse": 7524, "ginsel": 7525, "beginse": 7526, "eginsel": 7527, "beginsel": 7528, "wic": 7529, "materi": 7530, "sommig": 7531, "tgan": 7532, "tgang": 7533, "ni\u00eb": 7534, "gevaa": 7535, "gevaar": 7536, "eits": 7537, "geni": 7538, "nigd": 7539, "trati": 7540, "eraal": 7541, "nvaard": 7542, "anvaa": 7543, "aanvaa": 7544, "anvaar": 7545, "aanvaar": 7546, "nma": 7547, "rstan": 7548, "nali": 7549, "trac": 7550, "genli": 7551, "geling": 7552, "erbo": 7553, "onda": 7554, "nvoe": 7555, "enigd": 7556, "itd": 7557, "aci": 7558, "anvaard": 7559, "aanvaard": 7560, "twikkele": 7561, "ntwikkele": 7562, "twikkelen": 7563, "ontwikkele": 7564, "ntwikkelen": 7565, "ontwikkelen": 7566, "htva": 7567, "chtva": 7568, "renigd": 7569, "erenigd": 7570, "verenigd": 7571, "avon": 7572, "rstand": 7573, "igr": 7574, "makke": 7575, "usti": 7576, "itera": 7577, "benad": 7578, "invo": 7579, "oten": 7580, "ctio": 7581, "riod": 7582, "beids": 7583, "rbeids": 7584, "arbeids": 7585, "aaf": 7586, "turen": 7587, "bilite": 7588, "tma": 7589, "oorden": 7590, "volki": 7591, "volkin": 7592, "volking": 7593, "ction": 7594, "htvaa": 7595, "chtvaa": 7596, "htvaar": 7597, "chtvaar": 7598, "uge": 7599, "verho": 7600, "roor": 7601, "bilitei": 7602, "biliteit": 7603, "annemen": 7604, "aannemen": 7605, "hank": 7606, "clusie": 7607, "nkome": 7608, "genlij": 7609, "rgaa": 7610, "rschij": 7611, "eloven": 7612, "stati": 7613, "ordige": 7614, "oordige": 7615, "woordige": 7616, "nwoordige": 7617, "enwoordige": 7618, "genwoordige": 7619, "egenwoordige": 7620, "tegenwoordige": 7621, "lw": 7622, "teits": 7623, "rtegenwoordige": 7624, "ertegenwoordige": 7625, "vertegenwoordige": 7626, "nkomen": 7627, "pste": 7628, "eriod": 7629, "period": 7630, "digin": 7631, "-o": 7632, "dl": 7633, "diging": 7634, "opb": 7635, "penbaa": 7636, "openbaa": 7637, "penbaar": 7638, "openbaar": 7639, "agst": 7640, "makkel": 7641, "akkeli": 7642, "erdi": 7643, "anm": 7644, "twij": 7645, "troo": 7646, "makkeli": 7647, "akkelij": 7648, "akkelijk": 7649, "iscu": 7650, "eroe": 7651, "ferent": 7652, "makkelij": 7653, "makkelijk": 7654, "sinds": 7655, "itenl": 7656, "ocratis": 7657, "eral": 7658, "elat": 7659, "evolki": 7660, "bevolki": 7661, "evolkin": 7662, "bevolkin": 7663, "evolking": 7664, "bevolking": 7665, "kennis": 7666, "uitd": 7667, "ebeure": 7668, "gebeure": 7669, "ebeuren": 7670, "gebeuren": 7671, "ertuig": 7672, "rschijn": 7673, "fvaa": 7674, "ogis": 7675, "wich": 7676, "lijs": 7677, "fvaar": 7678, "iteits": 7679, "riek": 7680, "tari": 7681, "afvaa": 7682, "itste": 7683, "lz": 7684, "gstu": 7685, "afvaar": 7686, "fvaard": 7687, "fvaardi": 7688, "fvaardig": 7689, "stige": 7690, "fonds": 7691, "afvaard": 7692, "afvaardi": 7693, "afvaardig": 7694, "rgaan": 7695, "rift": 7696, "cif": 7697, "sted": 7698, "ntu": 7699, "gena": 7700, "tein": 7701, "risc": 7702, "verla": 7703, "tratie": 7704, "rror": 7705, "elic": 7706, "lijst": 7707, "hanke": 7708, "hankel": 7709, "sproc": 7710, "eled": 7711, "hankeli": 7712, "hankelij": 7713, "hankelijk": 7714, "sproce": 7715, "cuss": 7716, "tenla": 7717, "nooi": 7718, "kaan": 7719, "sico": 7720, "doele": 7721, "l-": 7722, "afw": 7723, "ulere": 7724, "uleren": 7725, "zwaa": 7726, "fhank": 7727, "afhank": 7728, "fhanke": 7729, "afhanke": 7730, "fhankel": 7731, "afhankel": 7732, "alve": 7733, "isic": 7734, "aststelle": 7735, "vaststelle": 7736, "aststellen": 7737, "vaststellen": 7738, "fhankeli": 7739, "afhankeli": 7740, "fhankelij": 7741, "afhankelij": 7742, "fhankelijk": 7743, "afhankelijk": 7744, "risic": 7745, "risch": 7746, "uitenl": 7747, "cifi": 7748, "ira": 7749, "steri": 7750, "roen": 7751, "reet": 7752, "nvou": 7753, "utor": 7754, "isico": 7755, "risico": 7756, "aagst": 7757, "eroo": 7758, "rtoe": 7759, "scr": 7760, "ferenti": 7761, "cree": 7762, "nvoud": 7763, "envou": 7764, "tree": 7765, "buitenl": 7766, "sex": 7767, "mocratis": 7768, "emocratis": 7769, "democratis": 7770, "envoud": 7771, "brie": 7772, "meerder": 7773, "efi": 7774, "mhe": 7775, "wense": 7776, "iker": 7777, "vies": 7778, "ties": 7779, "werpen": 7780, "toel": 7781, "i\u00ebr": 7782, "eenvou": 7783, "eenvoud": 7784, "eric": 7785, "wicht": 7786, "eacht": 7787, "klan": 7788, "25": 7789, "rijdi": 7790, "nisere": 7791, "niseren": 7792, "lier": 7793, "uitste": 7794, "lau": 7795, "bera": 7796, "wis": 7797, "daarm": 7798, "daarme": 7799, "lex": 7800, "soonl": 7801, "onm": 7802, "stuur": 7803, "rsoonl": 7804, "ersoonl": 7805, "soonli": 7806, "soonlij": 7807, "soonlijk": 7808, "rsoonli": 7809, "persoonl": 7810, "ersoonli": 7811, "rsoonlij": 7812, "ersoonlij": 7813, "rsoonlijk": 7814, "ersoonlijk": 7815, "ace": 7816, "error": 7817, "scus": 7818, "persoonli": 7819, "persoonlij": 7820, "persoonlijk": 7821, "tart": 7822, "ntre": 7823, "productie": 7824, "erentie": 7825, "betere": 7826, "daarmee": 7827, "kelings": 7828, "overs": 7829, "ranti": 7830, "imen": 7831, "have": 7832, "nstem": 7833, "armo": 7834, "urre": 7835, "beteren": 7836, "iscus": 7837, "stigen": 7838, "geac": 7839, "hrif": 7840, "hrift": 7841, "ienin": 7842, "iening": 7843, "chrif": 7844, "schrif": 7845, "chrift": 7846, "schrift": 7847, "noor": 7848, "utori": 7849, "perke": 7850, "rori": 7851, "raags": 7852, "perken": 7853, "idee": 7854, "htel": 7855, "chtel": 7856, "rbetere": 7857, "erbetere": 7858, "rbeteren": 7859, "verbetere": 7860, "erbeteren": 7861, "verbeteren": 7862, "iode": 7863, "opste": 7864, "tegr": 7865, "erbr": 7866, "autor": 7867, "itenla": 7868, "tenlan": 7869, "uitenla": 7870, "buitenla": 7871, "uze": 7872, "sture": 7873, "sturen": 7874, "geach": 7875, "geacht": 7876, "nkri": 7877, "lichten": 7878, "rantie": 7879, "egelin": 7880, "tenland": 7881, "elijks": 7882, "koste": 7883, "riode": 7884, "kkelings": 7885, "eise": 7886, "ieus": 7887, "nvoudi": 7888, "erri": 7889, "ikkelings": 7890, "wikkelings": 7891, "lko": 7892, "nvoudig": 7893, "icere": 7894, "twikkelings": 7895, "ntwikkelings": 7896, "ontwikkelings": 7897, "egeling": 7898, "envoudi": 7899, "eriode": 7900, "periode": 7901, "bero": 7902, "envoudig": 7903, "sda": 7904, "iceren": 7905, "itenlan": 7906, "uitenlan": 7907, "itenland": 7908, "buitenlan": 7909, "uitenland": 7910, "buitenland": 7911, "voorl": 7912, "ergr": 7913, "ecif": 7914, "pecif": 7915, "ecifi": 7916, "specif": 7917, "pecifi": 7918, "specifi": 7919, "offer": 7920, "nstemm": 7921, "nfe": 7922, "migr": 7923, "edan": 7924, "genlijk": 7925, "emp": 7926, "terro": 7927, "npak": 7928, "igenl": 7929, "raagst": 7930, "rber": 7931, "igenli": 7932, "igenlij": 7933, "igenlijk": 7934, "varin": 7935, "eenvoudi": 7936, "eenvoudig": 7937, "eigenl": 7938, "eigenli": 7939, "eigenlij": 7940, "eigenlijk": 7941, "vraags": 7942, "vraagst": 7943, "betalen": 7944, "tvangen": 7945, "rzek": 7946, "terror": 7947, "ntvangen": 7948, "ontvangen": 7949, "pzet": 7950, "opzet": 7951, "dt": 7952, "rzeke": 7953, "rzeker": 7954, "ndiene": 7955, "swa": 7956, "varing": 7957, "erzek": 7958, "rrori": 7959, "roris": 7960, "errori": 7961, "rroris": 7962, "terrori": 7963, "erroris": 7964, "terroris": 7965, "verzek": 7966, "erzeke": 7967, "erzeker": 7968, "rlegg": 7969, "verzeke": 7970, "verzeker": 7971, "inve": 7972, "adru": 7973, "discu": 7974, "nstan": 7975, "oepen": 7976, "autori": 7977, "appi": 7978, "nadr": 7979, "eroor": 7980, "vlak": 7981, "hade": 7982, "gstuk": 7983, "rkn": 7984, "cussi": 7985, "bedra": 7986, "toet": 7987, "ermee": 7988, "mste": 7989, "rvari": 7990, "aank": 7991, "real": 7992, "nj": 7993, "ervari": 7994, "rdelijkh": 7995, "rdelijkhe": 7996, "docu": 7997, "rdelijkhei": 7998, "rdelijkheid": 7999, "adruk": 8000, "uiker": 8001, "nadru": 8002, "nadruk": 8003, "cume": 8004, "cumen": 8005, "laas": 8006, "ordelijkh": 8007, "ordelijkhe": 8008, "rvarin": 8009, "ervarin": 8010, "ordelijkhei": 8011, "ordelijkheid": 8012, "rige": 8013, "dek": 8014, "dke": 8015, "rvaring": 8016, "ervaring": 8017, "oordelijkh": 8018, "woordelijkh": 8019, "oordelijkhe": 8020, "twoordelijkh": 8021, "woordelijkhe": 8022, "ntwoordelijkh": 8023, "twoordelijkhe": 8024, "antwoordelijkh": 8025, "ntwoordelijkhe": 8026, "rantwoordelijkh": 8027, "antwoordelijkhe": 8028, "erantwoordelijkh": 8029, "rantwoordelijkhe": 8030, "verantwoordelijkh": 8031, "erantwoordelijkhe": 8032, "verantwoordelijkhe": 8033, "ogie": 8034, "ntegr": 8035, "oordelijkhei": 8036, "woordelijkhei": 8037, "oordelijkheid": 8038, "twoordelijkhei": 8039, "woordelijkheid": 8040, "ntwoordelijkhei": 8041, "twoordelijkheid": 8042, "antwoordelijkhei": 8043, "ntwoordelijkheid": 8044, "rantwoordelijkhei": 8045, "antwoordelijkheid": 8046, "erantwoordelijkhei": 8047, "rantwoordelijkheid": 8048, "verantwoordelijkhei": 8049, "erantwoordelijkheid": 8050, "verantwoordelijkheid": 8051, "breke": 8052, "start": 8053, "curr": 8054, "ectief": 8055, "ocum": 8056, "docum": 8057, "ocume": 8058, "docume": 8059, "ocumen": 8060, "cument": 8061, "documen": 8062, "ocument": 8063, "document": 8064, "/2": 8065, "rren": 8066, "berg": 8067, "enie": 8068, "nauw": 8069, "ekij": 8070, "indiene": 8071, "iva": 8072, "nclu": 8073, "orda": 8074, "igra": 8075, "muler": 8076, "etreffend": 8077, "betreffend": 8078, "bedrag": 8079, "iali": 8080, "sje": 8081, "aff": 8082, "discus": 8083, "oper": 8084, "ilm": 8085, "ama": 8086, "muni": 8087, "egrij": 8088, "scuss": 8089, "roepen": 8090, "iscuss": 8091, "discuss": 8092, "ekijk": 8093, "scussi": 8094, "iscussi": 8095, "discussi": 8096, "egele": 8097, "rhandeli": 8098, "erhandeli": 8099, "rhandelin": 8100, "erhandelin": 8101, "rhandeling": 8102, "erhandeling": 8103, "bouwen": 8104, "teraar": 8105, "gewel": 8106, "eeu": 8107, "ompl": 8108, ".n": 8109, "ntru": 8110, "ofi": 8111, "panni": 8112, "eweld": 8113, "geweld": 8114, "gas": 8115, "brand": 8116, "ngi": 8117, "rster": 8118, "spanni": 8119, "ods": 8120, "effi": 8121, "eded": 8122, "huld": 8123, "egrijp": 8124, "dive": 8125, "begrij": 8126, "begrijp": 8127, "erkn": 8128, "aste": 8129, "pannin": 8130, "taak": 8131, "gsc": 8132, "panning": 8133, "pstel": 8134, "enha": 8135, "spannin": 8136, "iebe": 8137, "egrijpe": 8138, "spanning": 8139, "idden": 8140, "begrijpe": 8141, "gratis": 8142, "aspe": 8143, "meded": 8144, "aande": 8145, "eloo": 8146, "rtro": 8147, "anto": 8148, "compl": 8149, "apa": 8150, "derhandeli": 8151, "nderhandeli": 8152, "derhandelin": 8153, "onderhandeli": 8154, "nderhandelin": 8155, "derhandeling": 8156, "onderhandelin": 8157, "nderhandeling": 8158, "onderhandeling": 8159, "ekijke": 8160, "ww": 8161, "-c": 8162, "dkeu": 8163, "ware": 8164, "lom": 8165, "kgel": 8166, "ncu": 8167, "dezel": 8168, "chade": 8169, "tijk": 8170, "migra": 8171, "schade": 8172, "-d": 8173, "reel": 8174, "erster": 8175, "torit": 8176, "riaal": 8177, "logie": 8178, "loop": 8179, "alf": 8180, "aktij": 8181, "integr": 8182, "niek": 8183, "dezelf": 8184, "tag": 8185, "agstu": 8186, "aagstu": 8187, "agstuk": 8188, "raagstu": 8189, "aagstuk": 8190, "vraagstu": 8191, "raagstuk": 8192, "vraagstuk": 8193, "dezelfd": 8194, "dezelfde": 8195, "atsen": 8196, "aatsen": 8197, "raard": 8198, "raktij": 8199, "praktij": 8200, "ula": 8201, "ferentie": 8202, "utorit": 8203, "autorit": 8204, "nol": 8205, "ktijk": 8206, "aktijk": 8207, "raktijk": 8208, "praktijk": 8209, "edke": 8210, "eraard": 8211, "opstel": 8212, "kgele": 8213, "kgeleg": 8214, "nwez": 8215, "itsp": 8216, "oedke": 8217, "dkeur": 8218, "ji": 8219, "edkeu": 8220, "goedke": 8221, "oedkeu": 8222, "edkeur": 8223, "goedkeu": 8224, "oedkeur": 8225, "goedkeur": 8226, "logis": 8227, "ikaa": 8228, "gebo": 8229, "pakken": 8230, "ekijken": 8231, "anwez": 8232, "aanwez": 8233, "uari": 8234, "pni": 8235, "evord": 8236, "evorde": 8237, "eland": 8238, "derde": 8239, "beki": 8240, "zijds": 8241, "ombi": 8242, "curre": 8243, "egens": 8244, "pstell": 8245, "diver": 8246, "eeuw": 8247, "const": 8248, "amh": 8249, "regeli": 8250, "hteli": 8251, "chteli": 8252, "nwezi": 8253, "anwezi": 8254, "nwezig": 8255, "aanwezi": 8256, "anwezig": 8257, "aanwezig": 8258, "nkrij": 8259, "regelin": 8260, "ntst": 8261, "daarva": 8262, "nooit": 8263, "regeling": 8264, "kgelege": 8265, "kgelegen": 8266, "daarvan": 8267, "ieren": 8268, "ertro": 8269, "kgelegenh": 8270, "kgelegenhe": 8271, "imin": 8272, "rzijds": 8273, "erzijds": 8274, "ndienen": 8275, "dert": 8276, "ppa": 8277, "kgelegenhei": 8278, "kgelegenheid": 8279, "ocratisc": 8280, "ocratisch": 8281, "opni": 8282, "uil": 8283, "oeder": 8284, "rkgel": 8285, "erkgel": 8286, "werkgel": 8287, "omie": 8288, "lief": 8289, "eperke": 8290, "beperke": 8291, "eperken": 8292, "beperken": 8293, "\u2013": 8294, "evorder": 8295, "prec": 8296, "r-": 8297, "breken": 8298, "geled": 8299, "wb": 8300, "nth": 8301, "rkgele": 8302, "erkgele": 8303, "rkgeleg": 8304, "werkgele": 8305, "erkgeleg": 8306, "rkgelege": 8307, "werkgeleg": 8308, "erkgelege": 8309, "rkgelegen": 8310, "werkgelege": 8311, "erkgelegen": 8312, "werkgelegen": 8313, "opstell": 8314, "rkgelegenh": 8315, "erkgelegenh": 8316, "rkgelegenhe": 8317, "werkgelegenh": 8318, "erkgelegenhe": 8319, "rkgelegenhei": 8320, "werkgelegenhe": 8321, "erkgelegenhei": 8322, "rkgelegenheid": 8323, "werkgelegenhei": 8324, "erkgelegenheid": 8325, "werkgelegenheid": 8326, "uitera": 8327, "iteraa": 8328, "uiteraa": 8329, "teraard": 8330, "ierin": 8331, "ngez": 8332, "derhe": 8333, "iteraar": 8334, "uiteraar": 8335, "iteraard": 8336, "uiteraard": 8337, "ngaa": 8338, "arh": 8339, "wijf": 8340, "nner": 8341, "chaa": 8342, "veroo": 8343, "inzie": 8344, "rderi": 8345, "elema": 8346, "fund": 8347, "veroor": 8348, "divers": 8349, "vertro": 8350, "slac": 8351, "gal": 8352, "arke": 8353, "inze": 8354, "otings": 8355, "rotings": 8356, "grotings": 8357, "was": 8358, "mmuni": 8359, "inzien": 8360, "egrotings": 8361, "begrotings": 8362, "slach": 8363, "ncr": 8364, "krijk": 8365, "zwaar": 8366, "rkne": 8367, "ernemi": 8368, "ernemin": 8369, "erneming": 8370, "vermo": 8371, "aamh": 8372, "estige": 8373, "pleg": 8374, "film": 8375, "opi": 8376, "-i": 8377, "chul": 8378, "ci\u00eb": 8379, "emak": 8380, "ura": 8381, "ito": 8382, "daard": 8383, "nkrijk": 8384, "slacht": 8385, "schul": 8386, "nancier": 8387, "indienen": 8388, "ncur": 8389, "inancier": 8390, "financier": 8391, "rce": 8392, "eali": 8393, "werkn": 8394, "sep": 8395, "vond": 8396, "lukk": 8397, "laatsen": 8398, "plaatsen": 8399, "midden": 8400, "tiee": 8401, "bevor": 8402, "fsta": 8403, "oncu": 8404, "concu": 8405, "dernemi": 8406, "ndernemi": 8407, "dernemin": 8408, "ondernemi": 8409, "ndernemin": 8410, "derneming": 8411, "ondernemin": 8412, "nderneming": 8413, "onderneming": 8414, "pnie": 8415, "pnieu": 8416, "pnieuw": 8417, "dba": 8418, "erkne": 8419, "rns": 8420, "duit": 8421, "tas": 8422, "bevord": 8423, "bevorde": 8424, "oncur": 8425, "concur": 8426, "ologie": 8427, "rsterk": 8428, "ersterk": 8429, "bevorder": 8430, "nsie": 8431, "odel": 8432, "slaan": 8433, "mocratisc": 8434, "emocratisc": 8435, "mocratisch": 8436, "democratisc": 8437, "emocratisch": 8438, "democratisch": 8439, "she": 8440, "unda": 8441, "nvoer": 8442, "werkne": 8443, "opnie": 8444, "opnieu": 8445, "opnieuw": 8446, "nomie": 8447, "ncurr": 8448, "oncurr": 8449, "ncurre": 8450, "concurr": 8451, "oncurre": 8452, "concurre": 8453, "onomie": 8454, "jns": 8455, "hema": 8456, "u-": 8457, "elede": 8458, "aarh": 8459, "ey": 8460, "ijns": 8461, "ialis": 8462, "pg": 8463, "kaans": 8464, "bekij": 8465, "bekijk": 8466, "twa": 8467, "nigde": 8468, "ogisc": 8469, "ogisch": 8470, "enigde": 8471, "renigde": 8472, "erenigde": 8473, "verenigde": 8474, "proe": 8475, "eleden": 8476, "tvoere": 8477, "tvoeren": 8478, "estuu": 8479, "gelede": 8480, "rven": 8481, "ping": 8482, "tuigen": 8483, "estuur": 8484, "uce": 8485, "rtrou": 8486, "orie": 8487, "geleden": 8488, "enor": 8489, "tstaa": 8490, "izen": 8491, "rbin": 8492, "vene": 8493, "nlin": 8494, "jfel": 8495, "ijfel": 8496, "fb": 8497, "illi": 8498, "ertrou": 8499, "amhe": 8500, "torite": 8501, "utorite": 8502, "toritei": 8503, "autorite": 8504, "utoritei": 8505, "toriteit": 8506, "autoritei": 8507, "utoriteit": 8508, "autoriteit": 8509, "rtrouw": 8510, "ertrouw": 8511, "juri": 8512, "levin": 8513, "stant": 8514, "knem": 8515, "aamhe": 8516, "leving": 8517, "helem": 8518, "rank": 8519, "ipe": 8520, "appen": 8521, "twijf": 8522, "wijfe": 8523, "wijfel": 8524, "bekijke": 8525, "bekijken": 8526, "twijfe": 8527, "twijfel": 8528, "vaart": 8529, "groen": 8530, "mhei": 8531, "verster": 8532, "istere": 8533, "aranti": 8534, "arantie": 8535, "pdr": 8536, "rknem": 8537, "kneme": 8538, "erknem": 8539, "rkneme": 8540, "knemer": 8541, "erkneme": 8542, "rknemer": 8543, "erknemer": 8544, "elemaa": 8545, "tieel": 8546, "eisen": 8547, "jfs": 8548, "oorn": 8549, "ucc": 8550, "helema": 8551, "elemaal": 8552, "omme": 8553, "helemaa": 8554, "helemaal": 8555, "mail": 8556, "ijfs": 8557, "werknem": 8558, "werkneme": 8559, "werknemer": 8560, "versterk": 8561, "vestige": 8562, "estigen": 8563, "vestigen": 8564, "strum": 8565, "not": 8566, "vertrou": 8567, "fini": 8568, "mere": 8569, "beo": 8570, "vertrouw": 8571, "isteren": 8572, "trijdi": 8573, "strijdi": 8574, "ontst": 8575, "eef": 8576, "rism": 8577, "vig": 8578, "onver": 8579, "ansl": 8580, "iori": 8581, "etti": 8582, "ronder": 8583, "lne": 8584, "voorde": 8585, "bestuu": 8586, "suc": 8587, "fti": 8588, "bestuur": 8589, "tvoeri": 8590, "sion": 8591, "igens": 8592, "opdr": 8593, "etai": 8594, "arli": 8595, "verne": 8596, "kosten": 8597, "ego": 8598, "gelei": 8599, "creet": 8600, "zuid": 8601, "rume": 8602, "resp": 8603, "ehandele": 8604, "behandele": 8605, "ehandelen": 8606, "behandelen": 8607, "nmid": 8608, "okies": 8609, "pac": 8610, "nmidd": 8611, "ookies": 8612, "rumen": 8613, "vic": 8614, "cookies": 8615, "trume": 8616, "beroe": 8617, "arhe": 8618, "gati": 8619, "nstrum": 8620, "strume": 8621, "trumen": 8622, "rument": 8623, "trument": 8624, "egelij": 8625, "egelijk": 8626, "nstrume": 8627, "strumen": 8628, "nstrumen": 8629, "strument": 8630, "nstrument": 8631, "nno": 8632, "edie": 8633, "dea": 8634, "dsm": 8635, "udin": 8636, "instrum": 8637, "instrume": 8638, "instrumen": 8639, "instrument": 8640, "imaal": 8641, "duce": 8642, "inb": 8643, "derhei": 8644, "nvu": 8645, "rspr": 8646, "prio": 8647, "chuld": 8648, "schuld": 8649, "efin": 8650, "derheid": 8651, "mheid": 8652, "ional": 8653, "geleid": 8654, "nvul": 8655, "risme": 8656, "itvoere": 8657, "uitvoere": 8658, "itvoeren": 8659, "uitvoeren": 8660, "rwerk": 8661, "gelijke": 8662, "nsio": 8663, "gheids": 8664, ".nl": 8665, "traal": 8666, "kar": 8667, "enaar": 8668, "ebre": 8669, "gsb": 8670, "macht": 8671, "once": 8672, "igheids": 8673, "rmu": 8674, "aarhe": 8675, "oorda": 8676, "ehandeli": 8677, "ehandelin": 8678, "beda": 8679, "ehandeling": 8680, "apen": 8681, "rhou": 8682, "rdam": 8683, "haven": 8684, "rior": 8685, "espe": 8686, "lett": 8687, "nvull": 8688, "eron": 8689, "behandeli": 8690, "behandelin": 8691, "behandeling": 8692, "osse": 8693, "poe": 8694, "euz": 8695, "rlands": 8696, "defi": 8697, "arg": 8698, "oudin": 8699, "reali": 8700, "ament": 8701, "aspec": 8702, "ngaan": 8703, "houdi": 8704, "rver": 8705, "gatie": 8706, "did": 8707, "amhei": 8708, "aamhei": 8709, "houdin": 8710, "nline": 8711, "rgro": 8712, "genaa": 8713, "uv": 8714, "amheid": 8715, "aamheid": 8716, "uding": 8717, "voet": 8718, "taten": 8719, "sno": 8720, "wegen": 8721, "klant": 8722, "erto": 8723, "lagen": 8724, "aspect": 8725, "orti": 8726, "onlin": 8727, "egis": 8728, "thou": 8729, "ensio": 8730, "rnst": 8731, "efo": 8732, "ront": 8733, "nbi": 8734, "omg": 8735, "succ": 8736, "ucce": 8737, "succe": 8738, "ucces": 8739, "succes": 8740, "aansl": 8741, "online": 8742, "egang": 8743, "ouding": 8744, "houding": 8745, "erlands": 8746, "erns": 8747, "fiek": 8748, "hierv": 8749, "melde": 8750, "jdin": 8751, "ijdin": 8752, "ild": 8753, "avond": 8754, "tspr": 8755, "inkel": 8756, "ncre": 8757, "gevoe": 8758, "wink": 8759, "edank": 8760, "rson": 8761, "itgan": 8762, "uitgan": 8763, "itgang": 8764, "uitgang": 8765, "ulli": 8766, "tstaan": 8767, "elma": 8768, "ekker": 8769, "yo": 8770, "ieke": 8771, "straa": 8772, "arnaa": 8773, "sov": 8774, "ndam": 8775, "jding": 8776, "ijding": 8777, "gema": 8778, "nac": 8779, "angst": 8780, "aging": 8781, "rdere": 8782, "voege": 8783, "arhei": 8784, "lene": 8785, "veste": 8786, "priv": 8787, "bedan": 8788, "-g": 8789, "hoeven": 8790, "else": 8791, "bedank": 8792, "ndigh": 8793, "kaart": 8794, "overw": 8795, "arheid": 8796, "issen": 8797, "utt": 8798, "voegen": 8799, "ndighe": 8800, "ensie": 8801, "conce": 8802, "noord": 8803, "belg": 8804, "ernst": 8805, "waarva": 8806, "itvoeri": 8807, "uitvoeri": 8808, "actief": 8809, "waarvan": 8810, "erdam": 8811, "veer": 8812, "zaamh": 8813, "zaamhe": 8814, "afe": 8815, "dvie": 8816, "titu": 8817, "rief": 8818, "anpak": 8819, "strati": 8820, "aarhei": 8821, "oncr": 8822, "oncre": 8823, "rote": 8824, "aanpak": 8825, "concr": 8826, "concre": 8827, "taf": 8828, "aarheid": 8829, "hikb": 8830, "chikb": 8831, "hikba": 8832, "schikb": 8833, "chikba": 8834, "eschikb": 8835, "schikba": 8836, "beschikb": 8837, "eschikba": 8838, "beschikba": 8839, "ggi": 8840, "turk": 8841, "hikbaa": 8842, "chikbaa": 8843, "hikbaar": 8844, "schikbaa": 8845, "chikbaar": 8846, "eschikbaa": 8847, "schikbaar": 8848, "beschikbaa": 8849, "eschikbaar": 8850, "beschikbaar": 8851, "elig": 8852, "evoel": 8853, "tota": 8854, "ril": 8855, "etho": 8856, "cratie": 8857, "sig": 8858, "advie": 8859, "lette": 8860, "dvies": 8861, "advies": 8862, "gevoel": 8863, "eneme": 8864, "ifie": 8865, "ae": 8866, "ttel": 8867, "mge": 8868, "araa": 8869, "defin": 8870, "winke": 8871, "tabi": 8872, "sele": 8873, "dida": 8874, "dio": 8875, "40": 8876, "winkel": 8877, "ator": 8878, "duits": 8879, "ikaan": 8880, "ogt": 8881, "anen": 8882, "stab": 8883, "inu": 8884, "derlands": 8885, "aarli": 8886, "halv": 8887, "erhou": 8888, "edanke": 8889, "bedanke": 8890, "edanken": 8891, "bedanken": 8892, "aarnaa": 8893, "tijds": 8894, "levens": 8895, "inl": 8896, "rdie": 8897, "halve": 8898, "fre": 8899, "riori": 8900, "thu": 8901, "inere": 8902, "afst": 8903, "ndighei": 8904, "ndigheid": 8905, "euze": 8906, "sra": 8907, "enemen": 8908, "icu": 8909, "arlij": 8910, "toez": 8911, "morg": 8912, "abs": 8913, "otte": 8914, "nso": 8915, "chou": 8916, "hikke": 8917, "fspr": 8918, "rrei": 8919, "chikke": 8920, "schikke": 8921, "ktr": 8922, "lita": 8923, "ewa": 8924, "rikaa": 8925, "melden": 8926, "rstre": 8927, "teria": 8928, "soms": 8929, "aarlij": 8930, "rdigd": 8931, "iero": 8932, "rderen": 8933, "ngezi": 8934, "ineren": 8935, "schou": 8936, "iber": 8937, "kings": 8938, "inzet": 8939, "rikaan": 8940, "pzett": 8941, "opzett": 8942, "prior": 8943, "eres": 8944, "arlijk": 8945, "aarlijk": 8946, "km": 8947, "erstre": 8948, "iorit": 8949, "rhoud": 8950, "-r": 8951, "rdaa": 8952, "estan": 8953, "priori": 8954, "riorit": 8955, "eider": 8956, "hikken": 8957, "oegang": 8958, "toegang": 8959, "chikken": 8960, "schikken": 8961, "rela": 8962, "sitief": 8963, "okke": 8964, "stratie": 8965, "ederlands": 8966, "nederlands": 8967, "edige": 8968, "erson": 8969, "pensi": 8970, "stitu": 8971, "elh": 8972, "arov": 8973, "elev": 8974, "ean": 8975, "cla": 8976, "logisc": 8977, "logisch": 8978, "elne": 8979, "egie": 8980, "wing": 8981, "ikaans": 8982, "rai": 8983, "nclus": 8984, "annen": 8985, "kza": 8986, "nclusi": 8987, "wede": 8988, "arsc": 8989, "pdra": 8990, "zigi": 8991, "kand": 8992, "priorit": 8993, "hela": 8994, "etens": 8995, "ubs": 8996, "ifiek": 8997, "pmerki": 8998, "opmerki": 8999, "pmerkin": 9000, "opmerkin": 9001, "pmerking": 9002, "opmerking": 9003, "opdra": 9004, "til": 9005, "fsc": 9006, "jzigi": 9007, "ijzigi": 9008, "wijzigi": 9009, "erich": 9010, "ositief": 9011, "positief": 9012, "-f": 9013, "zigin": 9014, "jzigin": 9015, "ziging": 9016, "ijzigin": 9017, "jziging": 9018, "wijzigin": 9019, "ijziging": 9020, "wijziging": 9021, "rlie": 9022, "zaamhei": 9023, "zaamheid": 9024, "rikaans": 9025, "derli": 9026, "efini": 9027, "defini": 9028, "fas": 9029, "erdee": 9030, "erker": 9031, "nderde": 9032, "uwb": 9033, "onk": 9034, "derneme": 9035, "nderneme": 9036, "onderneme": 9037, "terst": 9038, "jw": 9039, "olie": 9040, "rdat": 9041, "tensc": 9042, "sseri": 9043, "tif": 9044, "ardigd": 9045, "aardigd": 9046, "tensch": 9047, "diti": 9048, "teven": 9049, "ommuni": 9050, "communi": 9051, "gsv": 9052, "cifie": 9053, "ecifie": 9054, "cifiek": 9055, "pecifie": 9056, "ecifiek": 9057, "specifie": 9058, "pecifiek": 9059, "specifiek": 9060, "....": 9061, "pensio": 9062, "mass": 9063, "vaardigd": 9064, "angez": 9065, "aangez": 9066, "riti": 9067, "ptie": 9068, "conomie": 9069, "economie": 9070, "nves": 9071, "stabi": 9072, "arsch": 9073, "nvest": 9074, "elek": 9075, "ormu": 9076, "meren": 9077, "errei": 9078, "strek": 9079, "rmul": 9080, "formu": 9081, "helaa": 9082, "ericht": 9083, "ormul": 9084, "formul": 9085, "inves": 9086, "ijw": 9087, "wegi": 9088, "elaas": 9089, "weze": 9090, "angezi": 9091, "aangezi": 9092, "oca": 9093, "invest": 9094, "wegin": 9095, "ncree": 9096, "oncree": 9097, "sbel": 9098, "ncreet": 9099, "concree": 9100, "oncreet": 9101, "concreet": 9102, "rijdin": 9103, "verdi": 9104, "schen": 9105, "erdeel": 9106, "erhoud": 9107, "mba": 9108, "agend": 9109, "rijding": 9110, "model": 9111, "gings": 9112, "abel": 9113, "rtrouwe": 9114, "ertrouwe": 9115, "terdam": 9116, "lekt": 9117, "room": 9118, "bespr": 9119, "tsb": 9120, "eza": 9121, "jna": 9122, "bure": 9123, "itaa": 9124, "mple": 9125, "nclusie": 9126, "nolo": 9127, "vertrouwe": 9128, "pzette": 9129, "opzette": 9130, "staten": 9131, "erdie": 9132, "ijna": 9133, "oogt": 9134, "erbin": 9135, "elb": 9136, "wezen": 9137, "subs": 9138, "arden": 9139, "euri": 9140, "zieni": 9141, "ngezie": 9142, "enee": 9143, "rzieni": 9144, "crim": 9145, "ngezien": 9146, "ggin": 9147, "oeft": 9148, "oduce": 9149, "roduce": 9150, "issin": 9151, "ppij": 9152, "erbij": 9153, "lnem": 9154, "elnem": 9155, "zienin": 9156, "ziening": 9157, "verbin": 9158, "ektr": 9159, "rzienin": 9160, "rziening": 9161, "itein": 9162, "aarsc": 9163, "tstek": 9164, "issing": 9165, "weging": 9166, "oew": 9167, "kandi": 9168, "ntsta": 9169, "helaas": 9170, "wensen": 9171, "gging": 9172, "elekt": 9173, "rimi": 9174, "nige": 9175, "ndid": 9176, "num": 9177, "tslu": 9178, "fsch": 9179, "oend": 9180, "bloe": 9181, "itw": 9182, "andid": 9183, "tslui": 9184, "ital": 9185, "bestel": 9186, "lektr": 9187, "elektr": 9188, "hno": 9189, "hoef": 9190, "ndv": 9191, "angezie": 9192, "aangezie": 9193, "rdag": 9194, "idis": 9195, "angezien": 9196, "aangezien": 9197, "re\u00eb": 9198, "happi": 9199, "ontsta": 9200, "anbi": 9201, "ndida": 9202, "andida": 9203, "eam": 9204, "kandid": 9205, "hiero": 9206, "ntstaa": 9207, "nolog": 9208, "aarov": 9209, "arove": 9210, "aarove": 9211, "arover": 9212, "aarover": 9213, "terrei": 9214, "ack": 9215, "chno": 9216, "ontstaa": 9217, "spl": 9218, "ntstaan": 9219, "ontstaan": 9220, "erweg": 9221, "eelt": 9222, "urea": 9223, "buu": 9224, "kandida": 9225, "tgeve": 9226, "echno": 9227, "techno": 9228, "rijfs": 9229, "aarsch": 9230, "evene": 9231, "funda": 9232, "kzaa": 9233, "eut": 9234, "rrein": 9235, "rece": 9236, "morge": 9237, "morgen": 9238, "onderde": 9239, "nfl": 9240, "invoe": 9241, "idisc": 9242, "damen": 9243, "ag-": 9244, "toev": 9245, "tbaa": 9246, "ogte": 9247, "matis": 9248, "errein": 9249, "03": 9250, "ergro": 9251, "itere": 9252, "eciaa": 9253, "peciaa": 9254, "speciaa": 9255, "ata": 9256, "nlo": 9257, "terrein": 9258, "onfe": 9259, "fende": 9260, "eciaal": 9261, "peciaal": 9262, "speciaal": 9263, "appij": 9264, "chappi": 9265, "happij": 9266, "schappi": 9267, "chappij": 9268, "schappij": 9269, "nveste": 9270, "edigen": 9271, "eu-": 9272, "landen": 9273, "reau": 9274, "oogte": 9275, "iteren": 9276, "erlie": 9277, "investe": 9278, "eriaa": 9279, "vernem": 9280, "ndee": 9281, "ndame": 9282, "ordat": 9283, "prom": 9284, "ndamen": 9285, "dament": 9286, "ndament": 9287, "rimin": 9288, "ussie": 9289, "serij": 9290, "undam": 9291, "crimi": 9292, "crimin": 9293, "eiz": 9294, "fundam": 9295, "undame": 9296, "fundame": 9297, "undamen": 9298, "fundamen": 9299, "undament": 9300, "fundament": 9301, "pleid": 9302, "egene": 9303, "confe": 9304, "edia": 9305, "eelne": 9306, "ci\u00ebn": 9307, "deelne": 9308, "tegie": 9309, "ategie": 9310, "rategie": 9311, "trategie": 9312, "oordat": 9313, "strategie": 9314, "ureau": 9315, "rnet": 9316, "verneme": 9317, "burea": 9318, "bureau": 9319, "ligheids": 9320, "cussie": 9321, "pdrac": 9322, "opdrac": 9323, "pdrach": 9324, "opdrach": 9325, "pdracht": 9326, "opdracht": 9327, "ikt": 9328, "mpa": 9329, "keri": 9330, "ateria": 9331, "materia": 9332, "erra": 9333, "enorm": 9334, "mina": 9335, "diep": 9336, "bus": 9337, "aanbi": 9338, "bijn": 9339, "gden": 9340, "kzaam": 9341, "ign": 9342, "sserij": 9343, "servi": 9344, "eelnem": 9345, "deelnem": 9346, "temb": 9347, "vernemen": 9348, "nologi": 9349, "abil": 9350, "gsproc": 9351, "ngsproc": 9352, "iligheids": 9353, "eiligheids": 9354, "veiligheids": 9355, "efte": 9356, "epro": 9357, "teind": 9358, "gsproce": 9359, "ngsproce": 9360, "uitei": 9361, "nctio": 9362, "nction": 9363, "binde": 9364, "tbaar": 9365, "teinde": 9366, "isseri": 9367, "tsluit": 9368, "dece": 9369, "enp": 9370, "wetens": 9371, "visseri": 9372, "isserij": 9373, "visserij": 9374, "toer": 9375, "neg": 9376, "llere": 9377, "ingsproc": 9378, "otaa": 9379, "lks": 9380, "breide": 9381, "enwi": 9382, "ehoef": 9383, "hoeft": 9384, "jker": 9385, "ijker": 9386, "ingsproce": 9387, "htb": 9388, "icit": 9389, "ffende": 9390, "behoef": 9391, "ehoeft": 9392, "behoeft": 9393, "ehou": 9394, "emd": 9395, "effende": 9396, "ngin": 9397, "test": 9398, "waars": 9399, "verdie": 9400, "reffende": 9401, "treffende": 9402, "rderin": 9403, "rdering": 9404, "ube": 9405, "chtb": 9406, "totaa": 9407, "verlie": 9408, "libe": 9409, "tschappi": 9410, "atschappi": 9411, "tschappij": 9412, "aatschappi": 9413, "atschappij": 9414, "maatschappi": 9415, "aatschappij": 9416, "maatschappij": 9417, "scussie": 9418, "iscussie": 9419, "discussie": 9420, "traat": 9421, "otaal": 9422, "doend": 9423, "vlu": 9424, "etwe": 9425, "esluite": 9426, "besluite": 9427, "totaal": 9428, "eroep": 9429, "uitein": 9430, "bespre": 9431, "iteind": 9432, "uiteind": 9433, "iteinde": 9434, "uiteinde": 9435, "hers": 9436, "elgi": 9437, "etreffende": 9438, "betreffende": 9439, "waarsc": 9440, "waarsch": 9441, "ridi": 9442, "drijfs": 9443, "oefte": 9444, "bree": 9445, "lekk": 9446, "hoefte": 9447, "ehoefte": 9448, "behoefte": 9449, "erwerk": 9450, "derdee": 9451, "nri": 9452, "pva": 9453, "uldi": 9454, "foo": 9455, "pzi": 9456, "oosten": 9457, "comb": 9458, "uldig": 9459, "eto": 9460, "acce": 9461, "unctio": 9462, "unction": 9463, "abili": 9464, "alu": 9465, "rnaas": 9466, "rnaast": 9467, "aka": 9468, "functio": 9469, "function": 9470, "rigen": 9471, "edrijfs": 9472, "bedrijfs": 9473, "oorg": 9474, "binden": 9475, "rgo": 9476, "digde": 9477, "neen": 9478, "hnis": 9479, "nbie": 9480, "hnisc": 9481, "hnisch": 9482, "post": 9483, "pot": 9484, "eriaal": 9485, "nut": 9486, "keure": 9487, "keuren": 9488, "esluiten": 9489, "besluiten": 9490, "/20": 9491, "urid": 9492, "echten": 9493, "liber": 9494, "hnol": 9495, "chnol": 9496, "echnol": 9497, "technol": 9498, "gelov": 9499, "belgi": 9500, "chnis": 9501, "echnis": 9502, "chnisc": 9503, "technis": 9504, "echnisc": 9505, "chnisch": 9506, "technisc": 9507, "echnisch": 9508, "technisch": 9509, "ridis": 9510, "idisch": 9511, "hnolo": 9512, "chnolo": 9513, "echnolo": 9514, "technolo": 9515, "tzi": 9516, "invoer": 9517, "person": 9518, "nderdee": 9519, "onderdee": 9520, "uridi": 9521, "derdeel": 9522, "jurid": 9523, "ridisc": 9524, "netw": 9525, "nderdeel": 9526, "onderdeel": 9527, "andigh": 9528, "andighe": 9529, "uridis": 9530, "uridisc": 9531, "ridisch": 9532, "gun": 9533, "scri": 9534, "nfer": 9535, "nim": 9536, "anbie": 9537, "juridi": 9538, "juridis": 9539, "juridisc": 9540, "uridisch": 9541, "juridisch": 9542, "teriaa": 9543, "ateriaa": 9544, "teriaal": 9545, "materiaa": 9546, "ateriaal": 9547, "materiaal": 9548, "hnolog": 9549, "chnolog": 9550, "echnolog": 9551, "technolog": 9552, "bijna": 9553, "poor": 9554, "dial": 9555, "xe": 9556, "rvolge": 9557, "ervolge": 9558, "wu": 9559, "tenscha": 9560, "fes": 9561, "dend": 9562, "nbied": 9563, "aanbie": 9564, "anbied": 9565, "aanbied": 9566, "dsel": 9567, "sup": 9568, "aus": 9569, "hod": 9570, "tenschap": 9571, "nspan": 9572, "ecen": 9573, "heu": 9574, "ezic": 9575, "ezich": 9576, "ongev": 9577, "ezicht": 9578, "bevel": 9579, "keuz": 9580, "keuze": 9581, "emid": 9582, "ermen": 9583, "ngsv": 9584, "msta": 9585, "egrijpen": 9586, "rvolgen": 9587, "ervolgen": 9588, "begrijpen": 9589, "enbe": 9590, "emidd": 9591, "nag": 9592, "dell": 9593, "pzetten": 9594, "opzetten": 9595, "titi": 9596, "oeds": 9597, "ehoud": 9598, "nspann": 9599, "liseri": 9600, "liserin": 9601, "lisering": 9602, "thi": 9603, "fro": 9604, "erati": 9605, "sca": 9606, "ndels": 9607, "oefe": 9608, "-t": 9609, "terne": 9610, "loog": 9611, "eeg": 9612, "emidde": 9613, "kers": 9614, "nderl": 9615, "tall": 9616, "cel": 9617, "etensc": 9618, "wetensc": 9619, "eat": 9620, "rkz": 9621, "sept": 9622, "etensch": 9623, "wetensch": 9624, "etenscha": 9625, "wetenscha": 9626, "etenschap": 9627, "wetenschap": 9628, "tevens": 9629, "hoogt": 9630, "onb": 9631, "erkz": 9632, "lkom": 9633, "tleg": 9634, "orza": 9635, "teindel": 9636, "iteindel": 9637, "uiteindel": 9638, "winn": 9639, "teindeli": 9640, "iteindeli": 9641, "teindelij": 9642, "uiteindeli": 9643, "iteindelij": 9644, "uiteindelij": 9645, "dersc": 9646, "teindelijk": 9647, "iteindelijk": 9648, "uiteindelijk": 9649, "beva": 9650, "appa": 9651, "rdigde": 9652, "-0": 9653, "oefen": 9654, "lekke": 9655, "hnologi": 9656, "chnologi": 9657, "echnologi": 9658, "technologi": 9659, "opzi": 9660, "besprek": 9661, "waardo": 9662, "camp": 9663, "onfer": 9664, "confer": 9665, "obi": 9666, "ardigde": 9667, "aardigde": 9668, "vaardigde": 9669, "nfere": 9670, "onfere": 9671, "nferen": 9672, "confere": 9673, "onferen": 9674, "conferen": 9675, "waardoo": 9676, "waardoor": 9677, "rlog": 9678, "rnsti": 9679, "ernsti": 9680, "rnstig": 9681, "ernstig": 9682, "lag-": 9683, "egdh": 9684, "oegdh": 9685, "egdhe": 9686, "voegdh": 9687, "oegdhe": 9688, "voegdhe": 9689, "media": 9690, "tandigh": 9691, "standigh": 9692, "tandighe": 9693, "standighe": 9694, "slag-": 9695, "evoegdh": 9696, "bevoegdh": 9697, "evoegdhe": 9698, "bevoegdhe": 9699, "nigi": 9700, "deu": 9701, "andels": 9702, "dersch": 9703, "hog": 9704, "andighei": 9705, "andigheid": 9706, "vervolge": 9707, "koni": 9708, "ossen": 9709, "nigin": 9710, "niging": 9711, "bak": 9712, "elz": 9713, "tegel": 9714, "atsv": 9715, "daarvo": 9716, "daarvoo": 9717, "daarvoor": 9718, "nmidde": 9719, "nmiddel": 9720, "tenlands": 9721, "itenlands": 9722, "uitenlands": 9723, "buitenlands": 9724, "aatsv": 9725, "bewi": 9726, "vervolgen": 9727, "toor": 9728, "uwel": 9729, "omsta": 9730, "oedin": 9731, "igden": 9732, "ngsb": 9733, "olks": 9734, "orlog": 9735, "ndeel": 9736, "ernet": 9737, "swaa": 9738, "alb": 9739, "emiddel": 9740, "combi": 9741, "umm": 9742, "uree": 9743, "genda": 9744, "elv": 9745, "beroep": 9746, "gemak": 9747, "eeks": 9748, "daarnaa": 9749, "volks": 9750, "kaanse": 9751, "gsl": 9752, "rkenne": 9753, "erkenne": 9754, "lba": 9755, "rslag-": 9756, "erslag-": 9757, "verslag-": 9758, "werkz": 9759, "ikaanse": 9760, "rikaanse": 9761, "lmat": 9762, "gina": 9763, "egaa": 9764, "hoogte": 9765, "erige": 9766, "itslu": 9767, "itslui": 9768, "breiden": 9769, "iege": 9770, "uitslu": 9771, "uitslui": 9772, "itsluit": 9773, "redin": 9774, "itali": 9775, "pit": 9776, "uitsluit": 9777, "vluc": 9778, "vluch": 9779, "vlucht": 9780, "cter": 9781, "reding": 9782, "ptem": 9783, "tembe": 9784, "wart": 9785, "egdhei": 9786, "oegdhei": 9787, "egdheid": 9788, "voegdhei": 9789, "oegdheid": 9790, "voegdheid": 9791, "evoegdhei": 9792, "bevoegdhei": 9793, "evoegdheid": 9794, "bevoegdheid": 9795, "gever": 9796, "caa": 9797, "tea": 9798, "tember": 9799, "oeding": 9800, "afsp": 9801, "vertu": 9802, "itstek": 9803, "doelen": 9804, "straat": 9805, "idaa": 9806, "ptemb": 9807, "swaar": 9808, "ros": 9809, "etz": 9810, "septe": 9811, "eptem": 9812, "verige": 9813, "septem": 9814, "eptemb": 9815, "septemb": 9816, "kuns": 9817, "anbe": 9818, "jee": 9819, "uitstek": 9820, "nferent": 9821, "onferent": 9822, "nferenti": 9823, "conferent": 9824, "onferenti": 9825, "conferenti": 9826, "overige": 9827, "estem": 9828, "nferentie": 9829, "onferentie": 9830, "conferentie": 9831, "rkza": 9832, "erkza": 9833, "gelove": 9834, "vertui": 9835, "rkzaa": 9836, "erkzaa": 9837, "overtu": 9838, "overtui": 9839, "digden": 9840, "inspa": 9841, "thod": 9842, "ptembe": 9843, "vertuig": 9844, "overtuig": 9845, "erigen": 9846, "mstan": 9847, "inspan": 9848, "inspann": 9849, "kunst": 9850, "estand": 9851, "geloven": 9852, "itspr": 9853, "rkzaam": 9854, "erkzaam": 9855, "rigens": 9856, "mstand": 9857, "tandighei": 9858, "standighei": 9859, "tandigheid": 9860, "standigheid": 9861, "tijn": 9862, "eptembe": 9863, "ptember": 9864, "septembe": 9865, "rks": 9866, "verigen": 9867, "erigens": 9868, "verigens": 9869, "svi": 9870, "o'": 9871, "isb": 9872, "overigen": 9873, "overigens": 9874, "eptember": 9875, "september": 9876, "dzaa": 9877, "hak": 9878, "omstan": 9879, "omstand": 9880, "elder": 9881, "oplei": 9882, "anise": 9883, "rdigden": 9884, "ardigden": 9885, "aardigden": 9886, "vaardigden": 9887, "002": 9888, "meth": 9889, "netwe": 9890, "etwer": 9891, "ntb": 9892, "ngsc": 9893, "rkennen": 9894, "erkennen": 9895, "titie": 9896, "inko": 9897, "tvoerin": 9898, "tvoering": 9899, "egat": 9900, "\u00f6r": 9901, "oorza": 9902, "opleid": 9903, "entru": 9904, "ruiker": 9905, "bruiker": 9906, "ian": 9907, "idaat": 9908, "ergen": 9909, "didaa": 9910, "ndidaa": 9911, "andidaa": 9912, "ocratie": 9913, "jun": 9914, "etwerk": 9915, "nav": 9916, "didaat": 9917, "ndidaat": 9918, "kandidaa": 9919, "andidaat": 9920, "vli": 9921, "netwer": 9922, "smi": 9923, "arnaas": 9924, "aarnaas": 9925, "arnaast": 9926, "aarnaast": 9927, "kandidaat": 9928, "daarnaas": 9929, "daarnaast": 9930, "erdaa": 9931, "mstandi": 9932, "omstandi": 9933, "mstandig": 9934, "omstandig": 9935, "bije": 9936, "pstelle": 9937, "bso": 9938, "wiss": 9939, "netwerk": 9940, "gewi": 9941, "vester": 9942, "eteri": 9943, "oz": 9944, "wak": 9945, "erschr": 9946, "mstandigh": 9947, "omstandigh": 9948, "mstandighe": 9949, "omstandighe": 9950, "nvester": 9951, "anl": 9952, "invester": 9953, "houw": 9954, "ingsb": 9955, "werkza": 9956, "elmat": 9957, "a-": 9958, "nhan": 9959, "werkzaa": 9960, "werkzaam": 9961, "ingsv": 9962, "nterne": 9963, "hange": 9964, "ternet": 9965, "opstelle": 9966, "enden": 9967, "rch": 9968, "urren": 9969, "mbin": 9970, "mulere": 9971, "muleren": 9972, "21": 9973, "rrent": 9974, "curren": 9975, "ngeven": 9976, "handels": 9977, "interne": 9978, "dew": 9979, "euge": 9980, "neu": 9981, "estell": 9982, "ralis": 9983, "bezig": 9984, "aniser": 9985, "ested": 9986, "eterin": 9987, "escho": 9988, "mocratie": 9989, "kap": 9990, "ureel": 9991, "emocratie": 9992, "democratie": 9993, "iorite": 9994, "trijdin": 9995, "strijdin": 9996, "laatsv": 9997, "opva": 9998, "riorite": 9999, "ntrum": 10000, "estrijdi": 10001, "trijding": 10002, "bestrijdi": 10003, "estrijdin": 10004, "strijding": 10005, "bestrijdin": 10006, "estrijding": 10007, "bestrijding": 10008, "tren": 10009, "anderi": 10010, "uiz": 10011, "centru": 10012, "entrum": 10013, "centrum": 10014, "ombin": 10015, "tsla": 10016, "bested": 10017, "lmati": 10018, "astr": 10019, "etro": 10020, "lecti": 10021, "vati": 10022, "breed": 10023, "pper": 10024, "nzett": 10025, "noc": 10026, "o\u00f6": 10027, "rtijd": 10028, "tede": 10029, "losse": 10030, "bio": 10031, "vice": 10032, "itaal": 10033, "combin": 10034, "urrent": 10035, "herme": 10036, "kund": 10037, "current": 10038, "anisere": 10039, "aniseren": 10040, "etin": 10041, "jeen": 10042, "ioritei": 10043, "ioriteit": 10044, "agenda": 10045, "ibera": 10046, "plaatsv": 10047, "rioritei": 10048, "rioriteit": 10049, "ierb": 10050, "base": 10051, "sidi": 10052, "gss": 10053, "libera": 10054, "gma": 10055, "priorite": 10056, "ganise": 10057, "rganise": 10058, "organise": 10059, "erschri": 10060, "verzoeke": 10061, "mstandighei": 10062, "omstandighei": 10063, "mstandigheid": 10064, "omstandigheid": 10065, "oods": 10066, "metho": 10067, "rtrouwen": 10068, "ertrouwen": 10069, "nternet": 10070, "que": 10071, "egati": 10072, "ppar": 10073, "ethod": 10074, "method": 10075, "internet": 10076, "pstellen": 10077, "aanm": 10078, "rmoe": 10079, "wisse": 10080, "luid": 10081, "uweli": 10082, "lia": 10083, "stl": 10084, "elge": 10085, "rwachte": 10086, "erwachte": 10087, "vergel": 10088, "ardige": 10089, "aardige": 10090, "vertrouwen": 10091, "rbind": 10092, "relat": 10093, "prioritei": 10094, "prioriteit": 10095, "hat": 10096, "ioe": 10097, "tral": 10098, "ano": 10099, "rmaa": 10100, "buur": 10101, "verzoeken": 10102, "cap": 10103, "nderli": 10104, "lossen": 10105, "elmati": 10106, "ordele": 10107, "lmatig": 10108, "elmatig": 10109, "egatie": 10110, "ordelen": 10111, "erbind": 10112, "verbind": 10113, "oordele": 10114, "oordelen": 10115, "teres": 10116, "opstellen": 10117, "eggi": 10118, "reci": 10119, "anu": 10120, "verwachte": 10121, "li\u00eb": 10122, "et-": 10123, "ganiser": 10124, "rganiser": 10125, "organiser": 10126, "elec": 10127, "nlev": 10128, "ganisere": 10129, "rganisere": 10130, "ganiseren": 10131, "organisere": 10132, "rganiseren": 10133, "organiseren": 10134, "espec": 10135, "lezi": 10136, "kwi": 10137, "gk": 10138, "anal": 10139, "appar": 10140, "exi": 10141, "esen": 10142, "stede": 10143, "lter": 10144, "elati": 10145, "eweg": 10146, "rwachten": 10147, "erwachten": 10148, "verwachten": 10149, "dich": 10150, "nitie": 10151, "rbere": 10152, "kas": 10153, "ioen": 10154, "ardigen": 10155, "aardigen": 10156, "rinc": 10157, "dor": 10158, "diger": 10159, "lissi": 10160, "ncurren": 10161, "oncurren": 10162, "concurren": 10163, "enc": 10164, "gla": 10165, "ncurrent": 10166, "oncurrent": 10167, "concurrent": 10168, "aliseri": 10169, "aliserin": 10170, "alisering": 10171, "lissin": 10172, "eggin": 10173, "iever": 10174, "hoon": 10175, "lissing": 10176, "egging": 10177, "ngew": 10178, "ingsc": 10179, "uitsp": 10180, "gsm": 10181, "lict": 10182, "orber": 10183, "ntiee": 10184, "itvoerin": 10185, "uitvoerin": 10186, "itvoering": 10187, "uitvoering": 10188, "itl": 10189, "unctie": 10190, "randeri": 10191, "tut": 10192, "ukki": 10193, "terie": 10194, "enstel": 10195, "anderin": 10196, "dicht": 10197, "tredi": 10198, "derdaa": 10199, "nderdaa": 10200, "tredin": 10201, "treding": 10202, "co\u00f6": 10203, "egra": 10204, "hond": 10205, "konin": 10206, "verwerk": 10207, "onere": 10208, "ioner": 10209, "cherme": 10210, "scherme": 10211, "arit": 10212, "aie": 10213, "lneme": 10214, "elneme": 10215, "sbele": 10216, "oneren": 10217, "plat": 10218, "serie": 10219, "verbo": 10220, "eranderi": 10221, "randerin": 10222, "andering": 10223, "veranderi": 10224, "eranderin": 10225, "randering": 10226, "veranderin": 10227, "erandering": 10228, "verandering": 10229, "onderl": 10230, "thui": 10231, "hef": 10232, "vergeli": 10233, "eschikke": 10234, "beschikke": 10235, "eschikken": 10236, "beschikken": 10237, "rkie": 10238, "vergelij": 10239, "vergelijk": 10240, "versta": 10241, "det": 10242, "omente": 10243, "momente": 10244, "choon": 10245, "schoon": 10246, "verha": 10247, "bos": 10248, "pon": 10249, "mgev": 10250, "aanbe": 10251, "tvaard": 10252, "ncip": 10253, "lenen": 10254, "ents": 10255, "pzic": 10256, "opzic": 10257, "pzich": 10258, "opzich": 10259, "side": 10260, "chouw": 10261, "schouw": 10262, "slissi": 10263, "eslissi": 10264, "beslissi": 10265, "ldin": 10266, "slissin": 10267, "eslissin": 10268, "slissing": 10269, "beslissin": 10270, "eslissing": 10271, "beslissing": 10272, "vaardige": 10273, "llo": 10274, "\u20ac": 10275, "tenti": 10276, "tda": 10277, "tvaardi": 10278, "tvaardig": 10279, "fz": 10280, "dy": 10281, "stree": 10282, "reeks": 10283, "orbere": 10284, "bestell": 10285, "pzicht": 10286, "opzicht": 10287, "aanl": 10288, "princ": 10289, "vaardigen": 10290, "omentee": 10291, "momentee": 10292, "omenteel": 10293, "momenteel": 10294, "welij": 10295, "uwelij": 10296, "arand": 10297, "yc": 10298, "tanti": 10299, "lekker": 10300, "turee": 10301, "rlene": 10302, "ebruiker": 10303, "gebruiker": 10304, "arande": 10305, "welijk": 10306, "uwelijk": 10307, "ntieel": 10308, "ngss": 10309, "oedse": 10310, "tekend": 10311, "oler": 10312, "jus": 10313, "kto": 10314, "svin": 10315, "angev": 10316, "ciali": 10317, "preci": 10318, "ndige": 10319, "erlene": 10320, "verlene": 10321, "verki": 10322, "sal": 10323, "stanti": 10324, "anko": 10325, "yn": 10326, "garand": 10327, "garande": 10328, "toff": 10329, "alig": 10330, "erkie": 10331, "nstit": 10332, "ontb": 10333, "ngsl": 10334, "tsteke": 10335, "tsteken": 10336, "aangev": 10337, "matisc": 10338, "matisch": 10339, "thuis": 10340, "aaie": 10341, "nstitu": 10342, "ijee": 10343, "ubsi": 10344, "subsi": 10345, "angeve": 10346, "gor": 10347, "git": 10348, "bijee": 10349, "ijeen": 10350, "bijeen": 10351, "bsid": 10352, "ubsid": 10353, "subsid": 10354, "i\u00ebre": 10355, "umme": 10356, "omv": 10357, "nteres": 10358, "bewij": 10359, "bsidi": 10360, "ubsidi": 10361, "subsidi": 10362, "i\u00ebren": 10363, "offi": 10364, "rende": 10365, "tsvi": 10366, "tail": 10367, "aangeve": 10368, "spoo": 10369, "heri": 10370, "svind": 10371, "rnie": 10372, "24": 10373, "drei": 10374, "atsvi": 10375, "verkie": 10376, "intere": 10377, "produce": 10378, "voeds": 10379, "edsel": 10380, "oedsel": 10381, "aatsvi": 10382, "tureel": 10383, "eelneme": 10384, "deelneme": 10385, "svinde": 10386, "svinden": 10387, "espect": 10388, "rtre": 10389, "voedse": 10390, "voedsel": 10391, "uitw": 10392, "tsvin": 10393, "atsvin": 10394, "tsvind": 10395, "atsvind": 10396, "npas": 10397, "oka": 10398, "laatsvi": 10399, "aatsvin": 10400, "tsvinde": 10401, "plaatsvi": 10402, "laatsvin": 10403, "aatsvind": 10404, "atsvinde": 10405, "tsvinden": 10406, "plaatsvin": 10407, "laatsvind": 10408, "atsvinden": 10409, "plaatsvind": 10410, "-ma": 10411, "evend": 10412, "lding": 10413, "aatsvinde": 10414, "laatsvinde": 10415, "aatsvinden": 10416, "plaatsvinde": 10417, "laatsvinden": 10418, "plaatsvinden": 10419, "respe": 10420, "nstant": 10421, "rkiez": 10422, "respec": 10423, "functie": 10424, "oorlog": 10425, "gete": 10426, "respect": 10427, "visi": 10428, "aarden": 10429, "dres": 10430, "ebel": 10431, "gion": 10432, "roni": 10433, "toffe": 10434, "erkiez": 10435, "bt": 10436, "angeven": 10437, "aangeven": 10438, "rheids": 10439, "gebre": 10440, "onderli": 10441, "itsteke": 10442, "uitsteke": 10443, "itsteken": 10444, "uitsteken": 10445, "5-": 10446, "resi": 10447, "tiem": 10448, "baarh": 10449, "baarhe": 10450, "neens": 10451, "pera": 10452, "genie": 10453, "hermen": 10454, "nseli": 10455, "isd": 10456, "ealis": 10457, "sbelei": 10458, "sbeleid": 10459, "ingss": 10460, "baarhei": 10461, "verkiez": 10462, "eact": 10463, "baarheid": 10464, "arander": 10465, "garander": 10466, "arandere": 10467, "garandere": 10468, "aranderen": 10469, "garanderen": 10470, "just": 10471, "hof": 10472, "oedig": 10473, "sba": 10474, "aser": 10475, "cris": 10476, "egion": 10477, "ulie": 10478, "eveel": 10479, "eleide": 10480, "edoele": 10481, "sign": 10482, "dewe": 10483, "r.": 10484, "moti": 10485, "tiev": 10486, "borg": 10487, "gne": 10488, "tels": 10489, "omin": 10490, "massa": 10491, "erstan": 10492, "nka": 10493, "lass": 10494, "adrukk": 10495, "nadrukk": 10496, "adrukke": 10497, "nadrukke": 10498, "tentie": 10499, "erstand": 10500, "lici": 10501, "baan": 10502, "chermen": 10503, "schermen": 10504, "trev": 10505, "2002": 10506, "-la": 10507, "leider": 10508, "woorden": 10509, "ummer": 10510, "hto": 10511, "dsl": 10512, "dscha": 10513, "romi": 10514, "hip": 10515, "inner": 10516, "erzie": 10517, "nale": 10518, "geza": 10519, "enle": 10520, "fis": 10521, "gener": 10522, "fstan": 10523, "oorber": 10524, "oorbere": 10525, "fstand": 10526, "fees": 10527, "rinci": 10528, "incip": 10529, "princi": 10530, "rincip": 10531, "princip": 10532, "lr": 10533, "llie": 10534, "vlie": 10535, "resta": 10536, "ingsl": 10537, "kp": 10538, "amst": 10539, "talin": 10540, "hode": 10541, "nica": 10542, "nings": 10543, "conv": 10544, "eniet": 10545, "interes": 10546, "ctere": 10547, "loc": 10548, "cteren": 10549, "zes": 10550, "terv": 10551, "prese": 10552, "rschrij": 10553, "iedi": 10554, "thode": 10555, "ntraa": 10556, "nader": 10557, "conve": 10558, "ie-": 10559, "chto": 10560, "fsl": 10561, "voele": 10562, "region": 10563, "dedi": 10564, "stekend": 10565, "realis": 10566, "ethode": 10567, "methode": 10568, "entraa": 10569, "lectie": 10570, "voordee": 10571, "entu": 10572, "erlo": 10573, "giona": 10574, "tstekend": 10575, "itstekend": 10576, "uitstekend": 10577, "voordeel": 10578, "rbie": 10579, "klaa": 10580, "eress": 10581, "plichti": 10582, "voelen": 10583, "egiona": 10584, "niem": 10585, "eq": 10586, "ada": 10587, "nmer": 10588, "teress": 10589, "ltuu": 10590, "ultuu": 10591, "feest": 10592, "regiona": 10593, "tabil": 10594, "ltuur": 10595, "ultuur": 10596, "luu": 10597, "treve": 10598, "inderd": 10599, "zige": 10600, "tabili": 10601, "riu": 10602, "edoelen": 10603, "ocen": 10604, "'s": 10605, "vloed": 10606, "cialis": 10607, "finit": 10608, "nteress": 10609, "ocent": 10610, "uws": 10611, "strev": 10612, "escherme": 10613, "kerin": 10614, "bescherme": 10615, "esent": 10616, "enten": 10617, "streve": 10618, "uter": 10619, "derb": 10620, "uitspr": 10621, "orsp": 10622, "cultuu": 10623, "cultuur": 10624, "fron": 10625, "vle": 10626, "erstel": 10627, "orgaa": 10628, "resen": 10629, "verei": 10630, "terke": 10631, "isis": 10632, "-in": 10633, "treven": 10634, "streven": 10635, "oppen": 10636, "pul": 10637, "bedoele": 10638, "bedoelen": 10639, "ertij": 10640, "orgaan": 10641, "degen": 10642, "presen": 10643, "abso": 10644, "erbie": 10645, "dbaa": 10646, "etering": 10647, "kering": 10648, "rfe": 10649, "resent": 10650, "present": 10651, "aly": 10652, "aanko": 10653, "ensel": 10654, "ols": 10655, "tage": 10656, "rberei": 10657, "wek": 10658, "rsche": 10659, "icite": 10660, "npass": 10661, "dsb": 10662, "agina": 10663, "raai": 10664, "vac": 10665, "rbereid": 10666, "ticu": 10667, "initie": 10668, "evat": 10669, "crisi": 10670, "sof": 10671, "luut": 10672, "by": 10673, "ewerke": 10674, "rkr": 10675, "voorber": 10676, "orberei": 10677, "voorbere": 10678, "oorberei": 10679, "orbereid": 10680, "voorberei": 10681, "oorbereid": 10682, "voorbereid": 10683, "aud": 10684, "goo": 10685, "equ": 10686, "ertijd": 10687, "herin": 10688, "ntraal": 10689, "entraal": 10690, "sterke": 10691, "instan": 10692, "centraa": 10693, "tafe": 10694, "russ": 10695, "reac": 10696, "ox": 10697, "issel": 10698, "warm": 10699, "e\u00ebr": 10700, "rdigh": 10701, "nach": 10702, "agr": 10703, "nselij": 10704, "nselijk": 10705, "oluu": 10706, "dica": 10707, "krit": 10708, "oder": 10709, "enseli": 10710, "mali": 10711, "enselij": 10712, "enselijk": 10713, "ctione": 10714, "nzette": 10715, "anpas": 10716, "chan": 10717, "nspanni": 10718, "nspannin": 10719, "nspanning": 10720, "nzetten": 10721, "rget": 10722, "aanpas": 10723, "rlin": 10724, "soluu": 10725, "oluut": 10726, "soluut": 10727, "ddell": 10728, "iddell": 10729, "middell": 10730, "ii": 10731, "itut": 10732, "afel": 10733, "istra": 10734, "estemm": 10735, "hierb": 10736, "rwijz": 10737, "titut": 10738, "stitut": 10739, "oorsp": 10740, "dwer": 10741, "bevat": 10742, "ehor": 10743, "rdighe": 10744, "rbied": 10745, "erbied": 10746, "kriti": 10747, "max": 10748, "bron": 10749, "pali": 10750, "tko": 10751, "rijw": 10752, "inspanni": 10753, "inspannin": 10754, "inspanning": 10755, "nging": 10756, "evatt": 10757, "oft": 10758, "ads": 10759, "bevatt": 10760, "evatte": 10761, "taling": 10762, "esid": 10763, "oeste": 10764, "geleide": 10765, "sone": 10766, "erwijz": 10767, "tantie": 10768, "bevatte": 10769, "\u00f6rd": 10770, "dbaar": 10771, "ock": 10772, "o\u00f6r": 10773, "co\u00f6r": 10774, "o\u00f6rd": 10775, "\u00f6rdi": 10776, "co\u00f6rd": 10777, "o\u00f6rdi": 10778, "co\u00f6rdi": 10779, "\u00f6rdin": 10780, "o\u00f6rdin": 10781, "co\u00f6rdin": 10782, "dso": 10783, "\u00ef": 10784, "rhaa": 10785, "stantie": 10786, "evatten": 10787, "bevatten": 10788, "kre": 10789, "ewu": 10790, "lieg": 10791, "rrenti": 10792, "ehore": 10793, "ehoren": 10794, "ovee": 10795, "zer": 10796, "pric": 10797, "rofi": 10798, "use": 10799, "nvl": 10800, "ulier": 10801, "urrenti": 10802, "currenti": 10803, "ncurrenti": 10804, "oncurrenti": 10805, "concurrenti": 10806, "omple": 10807, "entere": 10808, "wus": 10809, "bewu": 10810, "ewus": 10811, "wust": 10812, "bewus": 10813, "ewust": 10814, "bewust": 10815, "tifi": 10816, "nement": 10817, "beteri": 10818, "beterin": 10819, "betering": 10820, "tip": 10821, "evan": 10822, "oke": 10823, "at-": 10824, "behor": 10825, "behore": 10826, "behoren": 10827, "rium": 10828, "interess": 10829, "erhaa": 10830, "ordere": 10831, "palin": 10832, "anvu": 10833, "aanvu": 10834, "rrentie": 10835, "urrentie": 10836, "currentie": 10837, "ncurrentie": 10838, "oncurrentie": 10839, "concurrentie": 10840, "erandere": 10841, "numm": 10842, "centraal": 10843, "rbeteri": 10844, "erbeteri": 10845, "rbeterin": 10846, "verbeteri": 10847, "erbeterin": 10848, "rbetering": 10849, "verbeterin": 10850, "erbetering": 10851, "verbetering": 10852, "anvul": 10853, "aanvul": 10854, "verandere": 10855, "eranderen": 10856, "veranderen": 10857, "kaal": 10858, "etred": 10859, "eoo": 10860, "nua": 10861, "orderen": 10862, "100": 10863, "wijk": 10864, "spoor": 10865, "anks": 10866, "llec": 10867, "efinit": 10868, "definit": 10869, "paling": 10870, "anvull": 10871, "aanvull": 10872, "uke": 10873, "numme": 10874, "nummer": 10875, "rdighei": 10876, "finiti": 10877, "efiniti": 10878, "definiti": 10879, "unic": 10880, "04": 10881, "gesp": 10882, "eschermen": 10883, "tific": 10884, "anpass": 10885, "rdigheid": 10886, "cipe": 10887, "beschermen": 10888, "aanpass": 10889, "nop": 10890, "gedr": 10891, "ardigh": 10892, "ardighe": 10893, "react": 10894, "aardigh": 10895, "aardighe": 10896, "niete": 10897, "98": 10898, "onden": 10899, "amste": 10900, "stabil": 10901, "stabili": 10902, "pleidi": 10903, "pleidin": 10904, "pleiding": 10905, "tional": 10906, "nweg": 10907, "andr": 10908, "nigen": 10909, "undi": 10910, "nwic": 10911, "enwic": 10912, "nwich": 10913, "enwich": 10914, "resid": 10915, "dschap": 10916, "verme": 10917, "mpo": 10918, "behou": 10919, "arts": 10920, "ndan": 10921, "oveel": 10922, "fice": 10923, "epali": 10924, "bepali": 10925, "epalin": 10926, "bepalin": 10927, "epaling": 10928, "bepaling": 10929, "kanti": 10930, "comple": 10931, "enteren": 10932, "llect": 10933, "wissel": 10934, "sag": 10935, "qua": 10936, "nmerk": 10937, "finitie": 10938, "efinitie": 10939, "definitie": 10940, "nwicht": 10941, "enwicht": 10942, "moni": 10943, "vordere": 10944, "vorderen": 10945, "nacht": 10946, "gede": 10947, "eldin": 10948, "ionere": 10949, "ioneren": 10950, "zovee": 10951, "zoveel": 10952, "amente": 10953, "zaken": 10954, "tgaa": 10955, "iezi": 10956, "tude": 10957, "cke": 10958, "eoor": 10959, "reig": 10960, "erdag": 10961, "aloo": 10962, "jnl": 10963, "beri": 10964, "prot": 10965, "dstr": 10966, "behoud": 10967, "rdaad": 10968, "hetz": 10969, "egl": 10970, "/200": 10971, "stic": 10972, "dha": 10973, "nieten": 10974, "tzel": 10975, "tuti": 10976, "boeke": 10977, "istrat": 10978, "geniet": 10979, "eniete": 10980, "ijnl": 10981, "park": 10982, "opleidi": 10983, "opleidin": 10984, "opleiding": 10985, "geniete": 10986, "ituti": 10987, "sgr": 10988, "ardighei": 10989, "ardigheid": 10990, "tituti": 10991, "stituti": 10992, "entiee": 10993, "ugd": 10994, "ecie": 10995, "aardighei": 10996, "aardigheid": 10997, "wap": 10998, "damente": 10999, "ndamente": 11000, "undamente": 11001, "fundamente": 11002, "venwi": 11003, "herz": 11004, "sha": 11005, "amentee": 11006, "amenteel": 11007, "ptr": 11008, "jij": 11009, "damentee": 11010, "ndamentee": 11011, "damenteel": 11012, "undamentee": 11013, "ndamenteel": 11014, "fundamentee": 11015, "undamenteel": 11016, "fundamenteel": 11017, "risis": 11018, "crisis": 11019, "fvaardigd": 11020, "afvaardigd": 11021, "fvaardigde": 11022, "afvaardigde": 11023, "fvaardigden": 11024, "afvaardigden": 11025, "teni": 11026, "22": 11027, "tafel": 11028, "cies": 11029, "dal": 11030, "nij": 11031, "ldoend": 11032, "oldoend": 11033, "voldoend": 11034, "keuri": 11035, "cod": 11036, "onbe": 11037, "mbu": 11038, "evenwi": 11039, "nar": 11040, "lso": 11041, "anle": 11042, "rdelin": 11043, "rdeling": 11044, "rmoed": 11045, "vrijw": 11046, "jb": 11047, "nlei": 11048, "grip": 11049, "tstr": 11050, "rpa": 11051, "nage": 11052, "afz": 11053, "enieten": 11054, "dwerk": 11055, "pagi": 11056, "hy": 11057, "oene": 11058, "graf": 11059, "nleid": 11060, "genieten": 11061, "uitl": 11062, "kwij": 11063, "erov": 11064, "llan": 11065, "pagin": 11066, "erdo": 11067, "mpr": 11068, "elding": 11069, "endin": 11070, "tob": 11071, "immi": 11072, "aals": 11073, "opg": 11074, "pagina": 11075, "erikaa": 11076, "dekk": 11077, "aien": 11078, "aki": 11079, "cem": 11080, "akan": 11081, "merikaa": 11082, "erikaan": 11083, "amerikaa": 11084, "overle": 11085, "spu": 11086, "venwic": 11087, "evenwic": 11088, "venwich": 11089, "evenwich": 11090, "venwicht": 11091, "evenwicht": 11092, "merikaan": 11093, "amerikaan": 11094, "aaien": 11095, "lhe": 11096, "e\u00ebre": 11097, "e\u00ebren": 11098, "ance": 11099, "cre\u00eb": 11100, "erkr": 11101, "nbr": 11102, "icie": 11103, "aloog": 11104, "lef": 11105, "lsel": 11106, "rdien": 11107, "re\u00ebr": 11108, "ouwb": 11109, "ecies": 11110, "bsol": 11111, "cre\u00ebr": 11112, "enlev": 11113, "rman": 11114, "prich": 11115, "tgee": 11116, "rade": 11117, "recie": 11118, "mings": 11119, "tric": 11120, "stude": 11121, "optr": 11122, "pricht": 11123, "dede": 11124, "oewe": 11125, "iering": 11126, "precie": 11127, "recies": 11128, "precies": 11129, "aanle": 11130, "rdiger": 11131, "engel": 11132, "ogin": 11133, "asie": 11134, "tuin": 11135, "re\u00ebre": 11136, "cre\u00ebre": 11137, "re\u00ebren": 11138, "cre\u00ebren": 11139, "onne": 11140, "entieel": 11141, "rsterke": 11142, "ersterke": 11143, "gp": 11144, "mpi": 11145, "sdi": 11146, "versterke": 11147, "verweg": 11148, "rsone": 11149, "ersone": 11150, "persone": 11151, "flic": 11152, "shi": 11153, "ologis": 11154, "erove": 11155, "nera": 11156, "absol": 11157, "bsolu": 11158, "meter": 11159, "iezin": 11160, "iezing": 11161, "tzelf": 11162, "absolu": 11163, ".000": 11164, "prac": 11165, "tzelfd": 11166, "tzelfde": 11167, "gou": 11168, "istrati": 11169, "'n": 11170, "verstr": 11171, "azi": 11172, "erven": 11173, "eacti": 11174, "nvulle": 11175, "afspr": 11176, "rmoede": 11177, "erikaans": 11178, "relati": 11179, "merikaans": 11180, "amerikaans": 11181, "jnli": 11182, "ijnli": 11183, "akant": 11184, "abilit": 11185, "ptre": 11186, "ici\u00eb": 11187, "onfl": 11188, "etter": 11189, "vaka": 11190, "jnlij": 11191, "ijnlij": 11192, "fiet": 11193, "ologisc": 11194, "ologisch": 11195, "ernie": 11196, "overwe": 11197, "omge": 11198, "jnlijk": 11199, "ijnlijk": 11200, "can": 11201, "euke": 11202, "vakan": 11203, "vakant": 11204, "ersche": 11205, "ementa": 11206, "akanti": 11207, "kantie": 11208, "vakanti": 11209, "nctione": 11210, "ordiger": 11211, "oordiger": 11212, "woordiger": 11213, "nwoordiger": 11214, "enwoordiger": 11215, "genwoordiger": 11216, "egenwoordiger": 11217, "tegenwoordiger": 11218, "rtegenwoordiger": 11219, "ertegenwoordiger": 11220, "vertegenwoordiger": 11221, "iepr": 11222, "akantie": 11223, "vakantie": 11224, "stels": 11225, "rbl": 11226, "lc": 11227, "team": 11228, "edd": 11229, "nvullen": 11230, "dreig": 11231, "isie": 11232, "kzaamh": 11233, "kzaamhe": 11234, "bsoluu": 11235, "absoluu": 11236, "bsoluut": 11237, "absoluut": 11238, "tou": 11239, "eschou": 11240, "eschouw": 11241, "nfli": 11242, "aat-": 11243, "mster": 11244, "nbev": 11245, "profi": 11246, "erzien": 11247, "tegeli": 11248, "optre": 11249, "cou": 11250, "confl": 11251, "onfli": 11252, "nflic": 11253, "flict": 11254, "confli": 11255, "onflic": 11256, "nflict": 11257, "conflic": 11258, "onflict": 11259, "conflict": 11260, "tegelij": 11261, "tegelijk": 11262, "gsbe": 11263, "stop": 11264, "istratie": 11265, "60": 11266, "ijb": 11267, "afb": 11268, "plichtin": 11269, "plichting": 11270, "strekk": 11271, "ah": 11272, "telse": 11273, "ovi": 11274, "gionaa": 11275, "egionaa": 11276, "regionaa": 11277, "terken": 11278, "nstemmi": 11279, "nvlo": 11280, "gionaal": 11281, "egionaal": 11282, "regionaal": 11283, "luiti": 11284, "sterken": 11285, "nvloe": 11286, "immig": 11287, "siden": 11288, "haf": 11289, "ialo": 11290, "giste": 11291, "ntoo": 11292, "luitin": 11293, "luiting": 11294, "igrat": 11295, "cas": 11296, "listi": 11297, "erget": 11298, "-pr": 11299, "migrat": 11300, "plek": 11301, "ntai": 11302, "lementa": 11303, "vermin": 11304, "igrati": 11305, "lige": 11306, "mgevi": 11307, "mgevin": 11308, "nuu": 11309, "gezin": 11310, "wape": 11311, "wapen": 11312, "migrati": 11313, "oetr": 11314, "echtv": 11315, "unctione": 11316, "functione": 11317, "mgeving": 11318, "asere": 11319, "gw": 11320, "elsel": 11321, "dkeure": 11322, "edkeure": 11323, "dkeuren": 11324, "oedkeure": 11325, "edkeuren": 11326, "goedkeure": 11327, "oedkeuren": 11328, "goedkeuren": 11329, "upe": 11330, "adw": 11331, "idsm": 11332, "lijker": 11333, "toffer": 11334, "voorn": 11335, "etgee": 11336, "tgeen": 11337, "etgeen": 11338, "zamen": 11339, "aseren": 11340, "hetg": 11341, "hetge": 11342, "hetgee": 11343, "hetgeen": 11344, "edede": 11345, "medede": 11346, "them": 11347, "igratie": 11348, "migratie": 11349, "dedel": 11350, "orp": 11351, "isr": 11352, "htvaard": 11353, "chtvaard": 11354, "vlieg": 11355, "fiets": 11356, "htvaardi": 11357, "chtvaardi": 11358, "htvaardig": 11359, "chtvaardig": 11360, "kiezi": 11361, "rkiezi": 11362, "kiezin": 11363, "erkiezi": 11364, "rkiezin": 11365, "kiezing": 11366, "verkiezi": 11367, "erkiezin": 11368, "rkiezing": 11369, "verkiezin": 11370, "erkiezing": 11371, "verkiezing": 11372, "inga": 11373, "eves": 11374, "echtva": 11375, "rplichti": 11376, "erplichti": 11377, "ecter": 11378, "tj": 11379, "ededel": 11380, "mededel": 11381, "stelse": 11382, "shop": 11383, "telsel": 11384, "rechtv": 11385, "fwe": 11386, "06": 11387, "inderda": 11388, "stelsel": 11389, "gister": 11390, "alte": 11391, "eurt": 11392, "oetre": 11393, "sluiti": 11394, "sluitin": 11395, "sluiting": 11396, "plichte": 11397, "lai": 11398, "rtic": 11399, "fisc": 11400, "spaa": 11401, "echtvaa": 11402, "echtvaar": 11403, "echtvaard": 11404, "ialoo": 11405, "ialoog": 11406, "uize": 11407, "bea": 11408, "stv": 11409, "sterd": 11410, "rechtva": 11411, "rechtvaa": 11412, "rechtvaar": 11413, "rechtvaard": 11414, "echtvaardi": 11415, "echtvaardig": 11416, "rplichtin": 11417, "verplichti": 11418, "erplichtin": 11419, "rplichting": 11420, "verplichtin": 11421, "erplichting": 11422, "verplichting": 11423, "ectere": 11424, "ndag": 11425, "rechtvaardi": 11426, "rechtvaardig": 11427, "ecteren": 11428, "rvolgens": 11429, "ervolgens": 11430, "vervolgens": 11431, "elijker": 11432, "eside": 11433, "eps": 11434, "erdien": 11435, "derzi": 11436, "munic": 11437, "erheids": 11438, "nvr": 11439, "heide": 11440, "mmigr": 11441, "immigr": 11442, "achto": 11443, "frans": 11444, "]": 11445, "sident": 11446, "okt": 11447, "gav": 11448, "rhaal": 11449, "dage": 11450, "ruitg": 11451, "oeker": 11452, "toetr": 11453, "toetre": 11454, "hit": 11455, "erend": 11456, "erhaal": 11457, "rekene": 11458, "non": 11459, "inee": 11460, "effic": 11461, "oezi": 11462, "nvloed": 11463, "effici": 11464, "erdaad": 11465, "anspa": 11466, "ezoeke": 11467, "kelijkh": 11468, "rekenen": 11469, "bezoeke": 11470, "[": 11471, "kelijkhe": 11472, "kelijkhei": 11473, "kelijkheid": 11474, "mmunic": 11475, "aga": 11476, "essen": 11477, "orsc": 11478, "ommunic": 11479, "communic": 11480, "nstemmin": 11481, "nstemming": 11482, "lachto": 11483, "erlin": 11484, "rric": 11485, "senti": 11486, "dewer": 11487, "kern": 11488, "utio": 11489, "oging": 11490, "dialo": 11491, "ution": 11492, "rkzaamh": 11493, "erkzaamh": 11494, "rkzaamhe": 11495, "erkzaamhe": 11496, "mva": 11497, "likk": 11498, "mmigra": 11499, "immigra": 11500, "inten": 11501, "ortu": 11502, "ella": 11503, "esten": 11504, "kije": 11505, "likke": 11506, "ondan": 11507, "chaf": 11508, "oetred": 11509, "\u00ebl": 11510, "orsch": 11511, "degene": 11512, "rinn": 11513, "rieu": 11514, "amil": 11515, "|": 11516, "urig": 11517, "schaf": 11518, "klas": 11519, "elte": 11520, "toetred": 11521, "ndank": 11522, "ondank": 11523, "mpel": 11524, "zo'": 11525, "o'n": 11526, "zo'n": 11527, "akte": 11528, "reside": 11529, "htof": 11530, "chtof": 11531, "htoff": 11532, "achtof": 11533, "chtoff": 11534, "slachto": 11535, "achtoff": 11536, "juni": 11537, "htoffe": 11538, "lachtof": 11539, "chtoffe": 11540, "htoffer": 11541, "slachtof": 11542, "lachtoff": 11543, "achtoffe": 11544, "chtoffer": 11545, "slachtoff": 11546, "lachtoffe": 11547, "achtoffer": 11548, "slachtoffe": 11549, "lachtoffer": 11550, "slachtoffer": 11551, "wijn": 11552, "hani": 11553, "bescho": 11554, "esiden": 11555, "residen": 11556, "werkzaamh": 11557, "werkzaamhe": 11558, "a.": 11559, "comi": 11560, "axi": 11561, "vore": 11562, "rter": 11563, "arch": 11564, "edew": 11565, "roeg": 11566, "svoo": 11567, "weed": 11568, "ruitga": 11569, "svoor": 11570, "rgete": 11571, "voren": 11572, "ndersc": 11573, "rj": 11574, "rvic": 11575, "afd": 11576, "dwij": 11577, "gedra": 11578, "rvice": 11579, "eerb": 11580, "tlegg": 11581, "bem": 11582, "ose": 11583, "ervic": 11584, "servic": 11585, "dko": 11586, "ici\u00ebn": 11587, "ndersch": 11588, "edewe": 11589, "ervice": 11590, "service": 11591, "enov": 11592, "kzaamhei": 11593, "kzaamheid": 11594, "rzic": 11595, "rzich": 11596, "danks": 11597, "dialoo": 11598, "dialoog": 11599, "presi": 11600, "rling": 11601, "affe": 11602, "tzo": 11603, "rzicht": 11604, "inkom": 11605, "ndanks": 11606, "ondanks": 11607, "ergete": 11608, "presid": 11609, "epasse": 11610, "rbre": 11611, "medew": 11612, "put": 11613, "urend": 11614, "eoord": 11615, "linge": 11616, "ettin": 11617, "ichtig": 11618, "medewe": 11619, "ezam": 11620, "ezame": 11621, "80": 11622, "hec": 11623, "ntel": 11624, "agn": 11625, "stb": 11626, "erza": 11627, "oepasse": 11628, "toepasse": 11629, "beschou": 11630, "beschouw": 11631, "dsbe": 11632, "mob": 11633, "ergo": 11634, "zenl": 11635, "orism": 11636, "erover": 11637, "nspar": 11638, "nologie": 11639, "ung": 11640, "ym": 11641, "houwe": 11642, "orisme": 11643, "elatie": 11644, "eoorde": 11645, "bit": 11646, "oco": 11647, "elko": 11648, "esident": 11649, "resident": 11650, "verdien": 11651, "rorism": 11652, "rrorism": 11653, "errorism": 11654, "terrorism": 11655, "rsterken": 11656, "ersterken": 11657, "versterken": 11658, "verwijz": 11659, "omva": 11660, "relatie": 11661, "rtuige": 11662, "rtuigen": 11663, "paran": 11664, "rorisme": 11665, "rrorisme": 11666, "errorisme": 11667, "terrorisme": 11668, "lijd": 11669, "lees": 11670, "ewor": 11671, "tam": 11672, "itgaa": 11673, "uitgaa": 11674, "beweg": 11675, "ezenl": 11676, "boeken": 11677, "derdaad": 11678, "nderdaad": 11679, "wezenl": 11680, "ventu": 11681, "abilite": 11682, "ieken": 11683, "tite": 11684, "moder": 11685, "baser": 11686, "basere": 11687, "baseren": 11688, "inderdaa": 11689, "inderdaad": 11690, "ifice": 11691, "etb": 11692, "cij": 11693, "emakk": 11694, "etting": 11695, "emakke": 11696, "zenli": 11697, "gelen": 11698, "ecent": 11699, "prach": 11700, "omit": 11701, "nover": 11702, "ezenli": 11703, "zenlij": 11704, "rinne": 11705, "orderi": 11706, "orderin": 11707, "ordering": 11708, "wezenli": 11709, "ezenlij": 11710, "zenlijk": 11711, "wezenlij": 11712, "ezenlijk": 11713, "wezenlijk": 11714, "amster": 11715, "dsma": 11716, "abilitei": 11717, "abiliteit": 11718, "esla": 11719, "plichten": 11720, "nmo": 11721, "tbreide": 11722, "itbreide": 11723, "uitbreide": 11724, "nfr": 11725, "herst": 11726, "naan": 11727, "tbreiden": 11728, "itbreiden": 11729, "uitbreiden": 11730, "gemakk": 11731, "spara": 11732, "reacti": 11733, "gemakke": 11734, "pracht": 11735, "ilita": 11736, "dewerk": 11737, "justi": 11738, "eting": 11739, "allere": 11740, "emakkel": 11741, "gemakkel": 11742, "emakkeli": 11743, "gemakkeli": 11744, "emakkelij": 11745, "gemakkelij": 11746, "emakkelijk": 11747, "gemakkelijk": 11748, "gsr": 11749, "enhan": 11750, "hoew": 11751, "ierm": 11752, "sni": 11753, "anger": 11754, "vorderi": 11755, "vorderin": 11756, "vordering": 11757, "sbr": 11758, "rlenen": 11759, "erlenen": 11760, "verlenen": 11761, "oewel": 11762, "*": 11763, "tsluite": 11764, "tsluiten": 11765, "vatie": 11766, "beoo": 11767, "hoewe": 11768, "hoewel": 11769, "likken": 11770, "durend": 11771, "listis": 11772, "feli": 11773, "kig": 11774, "nven": 11775, "nleidi": 11776, "nleidin": 11777, "nleiding": 11778, "leni": 11779, "dood": 11780, "vem": 11781, "ezamen": 11782, "beoor": 11783, "beoord": 11784, "beoorde": 11785, "listisc": 11786, "listisch": 11787, "opri": 11788, "lap": 11789, "ncipe": 11790, "eoordel": 11791, "erinn": 11792, "erinne": 11793, "herzi": 11794, "herzie": 11795, "herzien": 11796, "ilo": 11797, "siel": 11798, "rinner": 11799, "fici\u00eb": 11800, "ci\u00ebnt": 11801, "instant": 11802, "egrip": 11803, "begrip": 11804, "rain": 11805, "thema": 11806, "verget": 11807, "vergete": 11808, "terl": 11809, "beurt": 11810, "onse": 11811, "werker": 11812, "ick": 11813, "erinner": 11814, "imul": 11815, "erschrij": 11816, "derzij": 11817, "overweg": 11818, "herinn": 11819, "herinne": 11820, "herinner": 11821, "fam": 11822, "espreke": 11823, "beoordel": 11824, "hake": 11825, "ertuige": 11826, "ertuigen": 11827, "derzijd": 11828, "tf": 11829, "sioe": 11830, "sioen": 11831, "stim": 11832, "fica": 11833, "comit": 11834, "regis": 11835, "alk": 11836, "leids": 11837, "ranspa": 11838, "transpa": 11839, "here": 11840, "espreken": 11841, "ffici\u00eb": 11842, "fici\u00ebn": 11843, "ici\u00ebnt": 11844, "fici\u00ebnt": 11845, "ierbi": 11846, "hierbi": 11847, "ondersc": 11848, "ondersch": 11849, "eactie": 11850, "wijt": 11851, "vroe": 11852, "erric": 11853, "hanis": 11854, "opo": 11855, "eratie": 11856, "rhog": 11857, "erhog": 11858, "verhog": 11859, "zoeker": 11860, "deo": 11861, "hnologie": 11862, "chnologie": 11863, "echnologie": 11864, "technologie": 11865, "gste": 11866, "smaa": 11867, "lys": 11868, "t\u00e9": 11869, "ffici\u00ebn": 11870, "ffici\u00ebnt": 11871, "anspar": 11872, "ierbij": 11873, "hierbij": 11874, "gewor": 11875, "frank": 11876, "nstanti": 11877, "tkom": 11878, "uzi": 11879, "incipe": 11880, "rincipe": 11881, "principe": 11882, "erieu": 11883, "mobi": 11884, "rkzaamhei": 11885, "erkzaamhei": 11886, "rkzaamheid": 11887, "erkzaamheid": 11888, "ranspar": 11889, "transpar": 11890, "uf": 11891, "coh": 11892, "lhei": 11893, "parant": 11894, "soe": 11895, "nspara": 11896, "anspara": 11897, "ranspara": 11898, "transpara": 11899, "ssent": 11900, "afri": 11901, "stori": 11902, "ondig": 11903, "samenl": 11904, "eep": 11905, "rrich": 11906, "sparan": 11907, "nsparan": 11908, "sparant": 11909, "ansparan": 11910, "nsparant": 11911, "ransparan": 11912, "ansparant": 11913, "transparan": 11914, "ransparant": 11915, "transparant": 11916, "noch": 11917, "ifica": 11918, "rricht": 11919, "abon": 11920, "nch": 11921, "oorsc": 11922, "uizen": 11923, "ngsm": 11924, "lheid": 11925, "oorsch": 11926, "rplichte": 11927, "erplichte": 11928, "verplichte": 11929, "errich": 11930, "erricht": 11931, "edewer": 11932, "medewer": 11933, "sterda": 11934, "itr": 11935, "oph": 11936, "nsioe": 11937, "ensioe": 11938, "nsioen": 11939, "pensioe": 11940, "ensioen": 11941, "pensioen": 11942, "edewerk": 11943, "medewerk": 11944, "lijde": 11945, "pron": 11946, "enstell": 11947, "oncl": 11948, "undig": 11949, "werkzaamhei": 11950, "werkzaamheid": 11951, "eenst": 11952, "milit": 11953, "omgev": 11954, "trai": 11955, "elhe": 11956, "onclu": 11957, "fk": 11958, "ruitgan": 11959, "ruitgang": 11960, "biedi": 11961, "reactie": 11962, "erbl": 11963, "epl": 11964, "tena": 11965, "dwerke": 11966, "oun": 11967, "etze": 11968, "ptred": 11969, "ptrede": 11970, "-lan": 11971, "msterd": 11972, "amsterd": 11973, "msterda": 11974, "amsterda": 11975, "itsluite": 11976, "uitsluite": 11977, "itsluiten": 11978, "uitsluiten": 11979, "naly": 11980, "optred": 11981, "optrede": 11982, "uve": 11983, "eword": 11984, "sterdam": 11985, "msterdam": 11986, "amsterdam": 11987, "analy": 11988, "concl": 11989, "conclu": 11990, "ptreden": 11991, "optreden": 11992, "perat": 11993, "rsie": 11994, "vroeg": 11995, "enma": 11996, "geword": 11997, "eworde": 11998, "geworde": 11999, "eworden": 12000, "geworden": 12001, "amme": 12002, "dda": 12003, "ngere": 12004, "estij": 12005, "nism": 12006, "effici\u00eb": 12007, "effici\u00ebn": 12008, "effici\u00ebnt": 12009, "derzijds": 12010, "uchtv": 12011, "rmule": 12012, "ormule": 12013, "formule": 12014, "lke": 12015, "gest": 12016, "mag": 12017, "minu": 12018, "arite": 12019, "stle": 12020, "wonen": 12021, "rdb": 12022, "erfe": 12023, "sek": 12024, "ovem": 12025, "uken": 12026, "erikaanse": 12027, "prachti": 12028, "prachtig": 12029, "-k": 12030, "merikaanse": 12031, "amerikaanse": 12032, "ssenti": 12033, "olere": 12034, "stiti": 12035, "menle": 12036, "preside": 12037, "presiden": 12038, "president": 12039, "ntue": 12040, "ntat": 12041, "nlang": 12042, "elef": 12043, "entue": 12044, "broe": 12045, "ezor": 12046, "ezorg": 12047, "toezi": 12048, "dina": 12049, "forme": 12050, "rplichten": 12051, "erplichten": 12052, "verplichten": 12053, "erver": 12054, "rmel": 12055, "vertuige": 12056, "overtuige": 12057, "vertuigen": 12058, "overtuigen": 12059, "ofe": 12060, "loka": 12061, "amenle": 12062, "menlev": 12063, "samenle": 12064, "amenlev": 12065, "samenlev": 12066, "ntin": 12067, "luchtv": 12068, "ista": 12069, "chouwe": 12070, "schouwe": 12071, "ndst": 12072, "corr": 12073, "lijden": 12074, "aron": 12075, "instanti": 12076, "nstantie": 12077, "instantie": 12078, "aps": 12079, "ustit": 12080, "justit": 12081, "ustiti": 12082, "justiti": 12083, "mine": 12084, "aadw": 12085, "nslu": 12086, "018": 12087, "arbo": 12088, "verin": 12089, "timu": 12090, "jder": 12091, "adre": 12092, "nent": 12093, "23": 12094, "ijder": 12095, "heiden": 12096, "lefo": 12097, "etzel": 12098, "telef": 12099, "rmind": 12100, "ermind": 12101, "etali": 12102, "euken": 12103, "visie": 12104, "ndigen": 12105, "isto": 12106, "rminde": 12107, "erminde": 12108, "afi": 12109, "vering": 12110, "milita": 12111, "lenin": 12112, "vermind": 12113, "stitie": 12114, "uchte": 12115, "rminder": 12116, "verminde": 12117, "erminder": 12118, "verminder": 12119, "stimu": 12120, "timul": 12121, "stimul": 12122, "weder": 12123, "ustitie": 12124, "justitie": 12125, "tum": 12126, "elefo": 12127, "edelin": 12128, "edeling": 12129, "derhal": 12130, "eaa": 12131, "telefo": 12132, "veli": 12133, "kundi": 12134, "kundig": 12135, "nvent": 12136, "roeie": 12137, "aritei": 12138, "ariteit": 12139, "t-l": 12140, "ierme": 12141, "ham": 12142, "ova": 12143, "ttig": 12144, "derzoeke": 12145, "nderzoeke": 12146, "onderzoeke": 12147, "oevo": 12148, "ngsr": 12149, "leggi": 12150, "eurs": 12151, "dver": 12152, "bezor": 12153, "bezorg": 12154, "jeenk": 12155, "nslui": 12156, "twoorden": 12157, "leggin": 12158, "vemb": 12159, "novem": 12160, "ovemb": 12161, "novemb": 12162, "hetze": 12163, "ebrek": 12164, "geze": 12165, "legging": 12166, "amili": 12167, "gebrek": 12168, "iervo": 12169, "hangen": 12170, "ntwoorden": 12171, "mf": 12172, "jeenko": 12173, "jeenkom": 12174, "erling": 12175, "citei": 12176, "citeit": 12177, "verri": 12178, "urin": 12179, "antwoorden": 12180, "frik": 12181, "frika": 12182, "ijeenk": 12183, "bijeenk": 12184, "ijeenko": 12185, "bijeenko": 12186, "ijeenkom": 12187, "bijeenkom": 12188, "elhei": 12189, "oesta": 12190, "-land": 12191, "houder": 12192, "eiten": 12193, "pk": 12194, "liteits": 12195, "ficer": 12196, "ardb": 12197, "aks": 12198, "woni": 12199, "vembe": 12200, "ovembe": 12201, "vember": 12202, "novembe": 12203, "ovember": 12204, "november": 12205, "bevi": 12206, "adwe": 12207, "okaa": 12208, "apr": 12209, "elheid": 12210, "lbe": 12211, "jdig": 12212, "ijdig": 12213, "oevoe": 12214, "zom": 12215, "afrik": 12216, "afrika": 12217, "cemb": 12218, "wonin": 12219, "anbev": 12220, "toesta": 12221, "hetzel": 12222, "loof": 12223, "valu": 12224, "gedrag": 12225, "ekte": 12226, "woning": 12227, "estere": 12228, "oevee": 12229, "hoevee": 12230, "oeveel": 12231, "hoeveel": 12232, "toevo": 12233, "toevoe": 12234, "tla": 12235, "ecem": 12236, "decem": 12237, "ecemb": 12238, "decemb": 12239, "vide": 12240, "etzelf": 12241, "hetzelf": 12242, "aadwe": 12243, "riva": 12244, "enve": 12245, "etzelfd": 12246, "hetzelfd": 12247, "etzelfde": 12248, "hetzelfde": 12249, "teden": 12250, "steden": 12251, "aardb": 12252, "ingsm": 12253, "aanbev": 12254, "adwer": 12255, "aadwer": 12256, "adwerk": 12257, "aadwerk": 12258, "slage": 12259, "iermee": 12260, "cal": 12261, "daadw": 12262, "daadwe": 12263, "daadwer": 12264, "daadwerk": 12265, "eldig": 12266, "adwerke": 12267, "dwerkel": 12268, "aadwerke": 12269, "adwerkel": 12270, "dwerkeli": 12271, "daadwerke": 12272, "aadwerkel": 12273, "adwerkeli": 12274, "dwerkelij": 12275, "daadwerkel": 12276, "aadwerkeli": 12277, "adwerkelij": 12278, "daadwerkeli": 12279, "aadwerkelij": 12280, "daadwerkelij": 12281, "ltr": 12282, "tzet": 12283, "roeien": 12284, "wijde": 12285, "belo": 12286, "sbes": 12287, "dwerkelijk": 12288, "adwerkelijk": 12289, "aadwerkelijk": 12290, "daadwerkelijk": 12291, "dmi": 12292, ">": 12293, "ntuee": 12294, "entuee": 12295, "ntueel": 12296, "entueel": 12297, "ssag": 12298, "htba": 12299, "betali": 12300, "etalin": 12301, "betalin": 12302, "etaling": 12303, "betaling": 12304, "odern": 12305, "modern": 12306, "tieb": 12307, "wint": 12308, "rno": 12309, "sab": 12310, "ml": 12311, "empe": 12312, "pecti": 12313, "isl": 12314, "cembe": 12315, "ecembe": 12316, "cember": 12317, "decembe": 12318, "ecember": 12319, "december": 12320, "chtba": 12321, "omgevi": 12322, "omgevin": 12323, "adres": 12324, "lja": 12325, "nsluit": 12326, "litai": 12327, "andh": 12328, "specti": 12329, "reur": 12330, "litair": 12331, "oruitg": 12332, "omgeving": 12333, "sove": 12334, "itzo": 12335, "hine": 12336, "ificer": 12337, "brit": 12338, "eventu": 12339, "vree": 12340, "kket": 12341, "ooruitg": 12342, "vooruitg": 12343, "alisti": 12344, "rlop": 12345, "erpa": 12346, "enigi": 12347, "enigin": 12348, "eniging": 12349, "rood": 12350, "heen": 12351, "tlegge": 12352, "thoud": 12353, "emie": 12354, "bespreke": 12355, "bespreken": 12356, "elect": 12357, "verbr": 12358, "smo": 12359, "omat": 12360, "tleggen": 12361, "verlo": 12362, "onisc": 12363, "onisch": 12364, "hied": 12365, "overn": 12366, "enige": 12367, "fami": 12368, "klik": 12369, "enera": 12370, "ventue": 12371, "eventue": 12372, "dera": 12373, "uitzo": 12374, "ales": 12375, "genera": 12376, "nstitut": 12377, "akket": 12378, "chied": 12379, "schied": 12380, "inw": 12381, "nlevi": 12382, "nlevin": 12383, "nleving": 12384, "nna": 12385, "ventuee": 12386, "eventuee": 12387, "ventueel": 12388, "eventueel": 12389, "eschie": 12390, "typ": 12391, "rtin": 12392, "soli": 12393, "pectie": 12394, "st-": 12395, "pakket": 12396, "sterin": 12397, "maart": 12398, "voorsc": 12399, "voorsch": 12400, "esteri": 12401, "spectie": 12402, "iepro": 12403, "egem": 12404, "famil": 12405, "evre": 12406, "oie": 12407, "nbeve": 12408, "klaar": 12409, "onke": 12410, "rlegge": 12411, "raken": 12412, "oruitga": 12413, "eleids": 12414, "ooruitga": 12415, "vooruitga": 12416, "kat": 12417, "sover": 12418, "tzett": 12419, "geten": 12420, "overg": 12421, "grie": 12422, "evest": 12423, "tsj": 12424, "muz": 12425, "08": 12426, "anbeve": 12427, "enaam": 12428, "oth": 12429, "spla": 12430, "epassen": 12431, "oepassen": 12432, "toepassen": 12433, "ronds": 12434, "evordere": 12435, "evorderen": 12436, "reer": 12437, "hijnl": 12438, "chijnl": 12439, "hijnli": 12440, "schijnl": 12441, "chijnli": 12442, "hijnlij": 12443, "schijnli": 12444, "chijnlij": 12445, "hijnlijk": 12446, "schijnlij": 12447, "chijnlijk": 12448, "schijnlijk": 12449, "seks": 12450, "beric": 12451, "beleids": 12452, "stering": 12453, "tmo": 12454, "bevordere": 12455, "bevorderen": 12456, "uiden": 12457, "artic": 12458, "cheide": 12459, "scheide": 12460, "urki": 12461, "jurk": 12462, "zog": 12463, "berich": 12464, "bericht": 12465, "aara": 12466, "acto": 12467, "swe": 12468, "05": 12469, "well": 12470, "aanbeve": 12471, "ndre": 12472, "rgeten": 12473, "ous": 12474, "rsteune": 12475, "ersteune": 12476, "dersteune": 12477, "ndersteune": 12478, "ondersteune": 12479, "okaal": 12480,
[...]
